<pad>	0
<unk>	0
<s>	0
</s>	0
en	-0
er	-1
ch	-2
▁d	-3
in	-4
ie	-5
▁w	-6
▁s	-7
un	-8
ich	-9
▁e	-10
an	-11
st	-12
as	-13
▁die	-14
ei	-15
▁a	-16
▁m	-17
▁un	-18
▁ein	-19
te	-20
ge	-21
▁S	-22
▁i	-23
on	-24
▁v	-25
ir	-26
▁h	-27
▁z	-28
▁n	-29
ll	-30
sch	-31
▁das	-32
▁und	-33
ar	-34
gen	-35
▁b	-36
es	-37
ten	-38
▁D	-39
hr	-40
▁A	-41
▁W	-42
▁zu	-43
▁k	-44
▁M	-45
▁der	-46
▁ist	-47
at	-48
ein	-49
or	-50
▁in	-51
it	-52
▁wir	-53
em	-54
au	-55
▁E	-56
der	-57
▁au	-58
icht	-59
▁I	-60
de	-61
lich	-62
den	-63
ach	-64
ier	-65
ben	-66
▁g	-67
al	-68
▁G	-69
▁f	-70
▁U	-71
ber	-72
▁ich	-73
▁ge	-74
el	-75
▁B	-76
▁es	-77
ur	-78
ter	-79
▁Un	-80
▁K	-81
▁dies	-82
▁sie	-83
ung	-84
▁F	-85
le	-86
▁an	-87
▁er	-88
▁Sie	-89
▁den	-90
▁P	-91
▁L	-92
mm	-93
ür	-94
▁Und	-95
um	-96
nen	-97
ro	-98
ls	-99
▁nicht	-100
▁T	-101
ig	-102
▁von	-103
▁ver	-104
eh	-105
sen	-106
▁dass	-107
▁eine	-108
eit	-109
is	-110
▁ha	-111
re	-112
▁be	-113
ck	-114
ann	-115
▁auf	-116
▁H	-117
▁so	-118
▁mit	-119
tz	-120
ind	-121
▁V	-122
ion	-123
▁wie	-124
enn	-125
▁R	-126
isch	-127
▁N	-128
am	-129
us	-130
▁als	-131
▁uns	-132
▁war	-133
ra	-134
▁sich	-135
▁sch	-136
kt	-137
ent	-138
▁Ich	-139
eu	-140
▁J	-141
▁l	-142
▁t	-143
▁Z	-144
be	-145
▁o	-146
▁sind	-147
▁haben	-148
ahr	-149
über	-150
ft	-151
ön	-152
ol	-153
ehr	-154
▁man	-155
▁für	-156
▁hat	-157
se	-158
▁j	-159
ste	-160
▁aus	-161
lle	-162
ag	-163
▁-	-164
▁um	-165
ik	-166
il	-167
and	-168
iel	-169
▁Das	-170
▁über	-171
ff	-172
▁kön	-173
▁Es	-174
eine	-175
ehen	-176
▁wer	-177
▁p	-178
än	-179
▁St	-180
▁was	-181
▁"	-182
ut	-183
▁Die	-184
och	-185
tw	-186
▁da	-187
om	-188
▁Ge	-189
llen	-190
▁Wir	-191
▁Sch	-192
▁diese	-193
eil	-194
hl	-195
▁dem	-196
sten	-197
▁In	-198
▁Er	-199
▁im	-200
▁O	-201
igen	-202
▁wenn	-203
omm	-204
ern	-205
bt	-206
▁einen	-207
rei	-208
▁C	-209
chen	-210
sp	-211
ieren	-212
▁ihr	-213
▁des	-214
▁je	-215
ne	-216
▁Ver	-217
▁können	-218
▁werden	-219
▁Jahr	-220
ensch	-221
elt	-222
wei	-223
▁Ar	-224
▁sein	-225
iv	-226
iert	-227
▁Pro	-228
ige	-229
▁unser	-230
▁hier	-231
rau	-232
▁vor	-233
▁oder	-234
ien	-235
▁--	-236
▁kann	-237
zu	-238
rü	-239
scha	-240
▁An	-241
ungen	-242
▁wo	-243
▁1	-244
▁ander	-245
▁mach	-246
▁Aber	-247
ation	-248
▁aber	-249
anz	-250
▁sehr	-251
▁auch	-252
▁einer	-253
▁wird	-254
ort	-255
ing	-256
▁etw	-257
hnen	-258
▁einem	-259
▁nach	-260
men	-261
▁all	-262
▁Mensch	-263
ken	-264
ibt	-265
hen	-266
uch	-267
00	-268
▁dar	-269
▁mein	-270
▁nur	-271
▁Be	-272
os	-273
ischen	-274
▁Ein	-275
aus	-276
▁gibt	-277
ht	-278
▁dann	-279
ser	-280
fen	-281
▁bei	-282
äch	-283
▁ent	-284
issen	-285
lau	-286
hn	-287
▁–	-288
▁Menschen	-289
ill	-290
ör	-291
ot	-292
urch	-293
▁also	-294
▁mich	-295
▁le	-296
tzt	-297
og	-298
▁st	-299
ommen	-300
▁etwas	-301
▁habe	-302
▁wur	-303
▁Le	-304
▁Re	-305
▁sp	-306
▁sehen	-307
eute	-308
und	-309
gt	-310
▁En	-311
hal	-312
▁noch	-313
ät	-314
et	-315
▁her	-316
▁Welt	-317
rie	-318
ru	-319
▁Als	-320
bl	-321
ick	-322
▁wei	-323
agen	-324
▁dieser	-325
schaft	-326
ang	-327
tet	-328
▁sag	-329
bei	-330
dern	-331
roß	-332
▁Sp	-333
klich	-334
mmer	-335
▁Was	-336
ab	-337
▁re	-338
▁vie	-339
▁kl	-340
ers	-341
acht	-342
ul	-343
▁durch	-344
op	-345
ische	-346
keit	-347
▁gen	-348
all	-349
▁mehr	-350
▁mir	-351
mal	-352
."	-353
heit	-354
we	-355
▁♫	-356
ffen	-357
▁wirklich	-358
lichen	-359
▁Wenn	-360
ke	-361
amm	-362
▁viel	-363
he	-364
▁Leben	-365
fach	-366
▁Zeit	-367
▁alle	-368
▁Au	-369
▁mö	-370
liche	-371
▁ganz	-372
uss	-373
▁machen	-374
ess	-375
end	-376
ähr	-377
▁wür	-378
üs	-379
är	-380
▁2	-381
▁Ihnen	-382
ze	-383
▁Also	-384
fü	-385
▁groß	-386
▁zum	-387
her	-388
▁wurde	-389
cht	-390
inge	-391
▁unter	-392
▁ab	-393
▁zwei	-394
oll	-395
▁einfach	-396
assen	-397
▁Gesch	-398
fl	-399
imm	-400
br	-401
▁r	-402
ass	-403
▁ste	-404
▁tun	-405
▁meine	-406
ech	-407
ingen	-408
▁immer	-409
▁weil	-410
rück	-411
▁am	-412
ungs	-413
ist	-414
bst	-415
chte	-416
tzen	-417
▁kon	-418
▁bes	-419
▁dieses	-420
wer	-421
ah	-422
▁Gr	-423
for	-424
ekt	-425
art	-426
age	-427
im	-428
schie	-429
nte	-430
bar	-431
▁Art	-432
▁bis	-433
che	-434
▁fü	-435
▁Leute	-436
▁wissen	-437
ap	-438
▁neu	-439
▁müs	-440
▁Dinge	-441
▁hin	-442
▁hatte	-443
lie	-444
ob	-445
glich	-446
▁diesem	-447
gel	-448
ner	-449
▁ges	-450
ad	-451
ück	-452
inden	-453
▁sagen	-454
▁keine	-455
eiten	-456
stell	-457
tern	-458
iz	-459
ionen	-460
ran	-461
unkt	-462
▁sagte	-463
▁sel	-464
ehmen	-465
▁dam	-466
▁Ihr	-467
▁unsere	-468
▁diesen	-469
kommen	-470
leich	-471
iger	-472
aten	-473
olog	-474
ats	-475
▁müssen	-476
gend	-477
per	-478
omp	-479
▁bin	-480
ßen	-481
itte	-482
▁Jahren	-483
▁weiter	-484
▁soll	-485
▁ihre	-486
ger	-487
▁Man	-488
▁beg	-489
hlen	-490
est	-491
▁Or	-492
dem	-493
äu	-494
▁glau	-495
▁jetzt	-496
▁waren	-497
pt	-498
▁viele	-499
ild	-500
einen	-501
zen	-502
lan	-503
rä	-504
▁Kon	-505
unden	-506
▁Kin	-507
blem	-508
ster	-509
du	-510
▁gew	-511
▁würde	-512
lt	-513
ammen	-514
rach	-515
▁alles	-516
▁Zu	-517
▁eines	-518
▁lie	-519
▁andere	-520
▁Vor	-521
▁du	-522
ichte	-523
▁wieder	-524
▁zei	-525
▁gem	-526
▁eigen	-527
▁anderen	-528
▁vers	-529
▁Ges	-530
ität	-531
auf	-532
▁damit	-533
▁Mill	-534
ichtig	-535
det	-536
▁So	-537
▁ar	-538
ver	-539
eg	-540
▁Wie	-541
pp	-542
▁Problem	-543
▁Ch	-544
ed	-545
▁geht	-546
auen	-547
▁Der	-548
ri	-549
▁Aus	-550
▁nie	-551
lleicht	-552
off	-553
▁selbst	-554
▁Jahre	-555
▁Bei	-556
▁zur	-557
▁wel	-558
ächlich	-559
under	-560
eln	-561
ün	-562
▁zurück	-563
..	-564
▁wen	-565
nis	-566
tes	-567
▁ger	-568
▁muss	-569
▁Nun	-570
amen	-571
▁dort	-572
ßer	-573
ande	-574
spiel	-575
angen	-576
kl	-577
ast	-578
mer	-579
von	-580
▁zus	-581
zi	-582
änder	-583
atsächlich	-584
▁schon	-585
▁Dies	-586
▁gut	-587
▁ber	-588
▁denn	-589
war	-590
igkeit	-591
fr	-592
äre	-593
fe	-594
rö	-595
yst	-596
▁möchte	-597
▁Kinder	-598
▁Ide	-599
zent	-600
▁heraus	-601
inn	-602
▁ob	-603
ragen	-604
▁ihnen	-605
beit	-606
ystem	-607
zeu	-608
ommt	-609
ler	-610
ale	-611
lei	-612
▁Um	-613
aar	-614
▁Auf	-615
▁pass	-616
geb	-617
▁davon	-618
vor	-619
halten	-620
▁drei	-621
stellen	-622
des	-623
▁verst	-624
nten	-625
▁Teil	-626
▁Ne	-627
▁letz	-628
ahl	-629
▁Frau	-630
▁Her	-631
schl	-632
▁ir	-633
echn	-634
▁br	-635
itt	-636
ert	-637
▁pro	-638
▁zusammen	-639
ant	-640
ug	-641
atür	-642
▁Hier	-643
ade	-644
▁vielleicht	-645
▁best	-646
pf	-647
▁arbei	-648
zie	-649
▁3	-650
me	-651
mlich	-652
▁brau	-653
▁Geschichte	-654
▁inter	-655
▁werde	-656
rechen	-657
ak	-658
halb	-659
▁Bild	-660
▁son	-661
▁tatsächlich	-662
▁Land	-663
aum	-664
fahr	-665
wo	-666
▁gleich	-667
ater	-668
ierte	-669
ationen	-670
esen	-671
aut	-672
sam	-673
ue	-674
▁einige	-675
▁bet	-676
cken	-677
▁Fl	-678
uchen	-679
▁Wissen	-680
000	-681
▁darüber	-682
weise	-683
▁heute	-684
▁jem	-685
zä	-686
▁könnte	-687
▁hatten	-688
hne	-689
▁gehen	-690
▁genau	-691
▁Dan	-692
schen	-693
▁Techn	-694
▁Bl	-695
▁Wei	-696
▁nun	-697
▁denke	-698
▁ihn	-699
ha	-700
ennen	-701
ologie	-702
ichten	-703
▁Kl	-704
alen	-705
▁kein	-706
ok	-707
gef	-708
▁paar	-709
ache	-710
▁zie	-711
atur	-712
▁verb	-713
▁wahr	-714
für	-715
▁Arbeit	-716
anden	-717
▁einz	-718
kte	-719
▁Je	-720
oren	-721
att	-722
eld	-723
▁wollen	-724
unde	-725
▁Gen	-726
wick	-727
▁For	-728
▁Geb	-729
ändern	-730
atz	-731
▁Ber	-732
▁irgend	-733
form	-734
▁gemacht	-735
?"	-736
alt	-737
▁zw	-738
▁Nach	-739
▁weiß	-740
▁glaube	-741
atürlich	-742
ika	-743
▁woll	-744
▁Wasser	-745
rage	-746
▁ben	-747
hm	-748
net	-749
▁Geh	-750
▁will	-751
hren	-752
unktion	-753
ährend	-754
reich	-755
▁verw	-756
▁Unter	-757
▁wurden	-758
▁meiner	-759
ine	-760
▁kommen	-761
rag	-762
tlich	-763
▁Diese	-764
schieden	-765
▁Mon	-766
▁Se	-767
eite	-768
▁gu	-769
hör	-770
▁bek	-771
öglich	-772
▁Des	-773
ielen	-774
▁Beispiel	-775
▁grö	-776
äd	-777
▁Da	-778
eich	-779
▁gab	-780
▁gef	-781
ite	-782
schein	-783
ode	-784
▁5	-785
▁Inter	-786
▁macht	-787
▁seine	-788
▁wäre	-789
▁neue	-790
gie	-791
ander	-792
▁19	-793
utzen	-794
▁bede	-795
ell	-796
▁vom	-797
ativ	-798
▁denen	-799
▁besser	-800
▁interess	-801
▁geben	-802
▁unserer	-803
qu	-804
▁Ab	-805
▁Mit	-806
gar	-807
eisten	-808
▁Grund	-809
▁dazu	-810
▁entwick	-811
▁leben	-812
▁hei	-813
keiten	-814
▁kommt	-815
änd	-816
▁erzä	-817
▁Wer	-818
▁lang	-819
▁gerade	-820
▁Mar	-821
▁sondern	-822
ma	-823
ult	-824
irn	-825
▁Al	-826
achte	-827
▁einmal	-828
▁Ü	-829
▁Prozent	-830
achen	-831
utz	-832
▁Aut	-833
fol	-834
ud	-835
▁finden	-836
▁Ste	-837
ay	-838
▁dr	-839
▁jeder	-840
rün	-841
▁dafür	-842
äh	-843
▁ange	-844
akt	-845
▁funktion	-846
alten	-847
teil	-848
▁hät	-849
▁denken	-850
▁erst	-851
▁zeigen	-852
lück	-853
▁letzten	-854
▁passiert	-855
schei	-856
gan	-857
▁Fre	-858
▁würden	-859
▁näch	-860
▁wichtig	-861
▁Ent	-862
aufen	-863
enden	-864
▁sieht	-865
▁Me	-866
▁zwischen	-867
chten	-868
hem	-869
▁Millionen	-870
▁nichts	-871
ivers	-872
▁Tag	-873
ia	-874
▁Frage	-875
cher	-876
hin	-877
▁ex	-878
▁Mal	-879
ittel	-880
fer	-881
od	-882
geben	-883
▁4	-884
▁ja	-885
gehen	-886
▁während	-887
▁warum	-888
ss	-889
▁Im	-890
ften	-891
▁erste	-892
▁bedeu	-893
▁ohne	-894
▁gegen	-895
ikan	-896
erson	-897
▁Idee	-898
▁verl	-899
▁verschieden	-900
andel	-901
▁sogar	-902
ßt	-903
▁Lebens	-904
▁20	-905
▁bekommen	-906
▁natürlich	-907
ic	-908
▁konnte	-909
▁verstehen	-910
öff	-911
▁Eine	-912
▁ziemlich	-913
.000	-914
ign	-915
▁ihren	-916
▁10	-917
▁mus	-918
▁ersten	-919
ierung	-920
ischer	-921
▁ganze	-922
tschaft	-923
▁daran	-924
gr	-925
sicht	-926
▁lassen	-927
▁Ex	-928
sehen	-929
ate	-930
▁Ph	-931
ingt	-932
▁mal	-933
rupp	-934
ergie	-935
▁Über	-936
weg	-937
ollar	-938
ße	-939
olle	-940
▁mensch	-941
stellt	-942
▁sollte	-943
▁Univers	-944
nell	-945
agt	-946
immt	-947
▁Raum	-948
▁Plan	-949
▁klein	-950
zeit	-951
▁große	-952
▁Weg	-953
▁sagt	-954
▁meisten	-955
▁gesch	-956
ide	-957
▁besch	-958
äl	-959
wie	-960
▁versuch	-961
▁sprechen	-962
jekt	-963
erst	-964
ompu	-965
▁Geld	-966
▁etwa	-967
▁Hand	-968
▁sicher	-969
ord	-970
ktur	-971
▁wollte	-972
▁geb	-973
ys	-974
innen	-975
▁jemand	-976
ogen	-977
▁gel	-978
▁Mus	-979
scheinlich	-980
igt	-981
▁Dollar	-982
▁arbeiten	-983
hrt	-984
iele	-985
▁schw	-986
▁Reg	-987
▁get	-988
▁vier	-989
▁scha	-990
▁ging	-991
ckt	-992
▁Ihre	-993
▁Men	-994
sel	-995
▁sollten	-996
▁Frauen	-997
ange	-998
ker	-999
ös	-1000
schied	-1001
iere	-1002
llt	-1003
sst	-1004
▁kam	-1005
▁Sache	-1006
ären	-1007
aupt	-1008
▁dabei	-1009
▁nehmen	-1010
pro	-1011
dien	-1012
▁komp	-1013
fte	-1014
▁We	-1015
als	-1016
▁Gehirn	-1017
▁ins	-1018
▁schnell	-1019
pl	-1020
wir	-1021
rank	-1022
olut	-1023
blich	-1024
▁meinem	-1025
ält	-1026
kun	-1027
ramm	-1028
utter	-1029
omputer	-1030
yp	-1031
fühl	-1032
finden	-1033
▁könnten	-1034
gew	-1035
stand	-1036
▁gesehen	-1037
▁Person	-1038
▁meinen	-1039
▁welche	-1040
enz	-1041
▁War	-1042
▁Dann	-1043
...	-1044
▁Pl	-1045
lung	-1046
ce	-1047
eht	-1048
▁Denn	-1049
▁Daten	-1050
urz	-1051
annt	-1052
▁Ger	-1053
▁hör	-1054
▁Ende	-1055
ele	-1056
▁Mann	-1057
▁Med	-1058
▁Min	-1059
rad	-1060
id	-1061
orden	-1062
▁Möglich	-1063
itz	-1064
▁Afr	-1065
▁kleinen	-1066
▁star	-1067
onder	-1068
▁Kind	-1069
▁Seite	-1070
▁Schl	-1071
▁darauf	-1072
▁Entw	-1073
▁Wo	-1074
kunft	-1075
ial	-1076
ts	-1077
▁kleine	-1078
▁Ä	-1079
▁Wissenschaft	-1080
str	-1081
twort	-1082
▁bereit	-1083
▁ung	-1084
io	-1085
äng	-1086
orgen	-1087
▁bringen	-1088
eist	-1089
äft	-1090
▁ihrer	-1091
▁All	-1092
▁dir	-1093
▁Energie	-1094
▁Rei	-1095
ganis	-1096
▁Inform	-1097
▁Fall	-1098
▁Verb	-1099
▁schl	-1100
▁Weise	-1101
bs	-1102
tr	-1103
ive	-1104
▁Computer	-1105
mus	-1106
ennt	-1107
▁Q	-1108
▁El	-1109
raft	-1110
örper	-1111
tt	-1112
▁Menge	-1113
▁weniger	-1114
licher	-1115
▁eigentlich	-1116
reiben	-1117
▁dachte	-1118
fall	-1119
▁Lie	-1120
▁Technologie	-1121
▁ihm	-1122
▁System	-1123
gl	-1124
nah	-1125
▁seit	-1126
▁bedeutet	-1127
amil	-1128
▁möglich	-1129
▁gest	-1130
unter	-1131
gefähr	-1132
▁Bo	-1133
richt	-1134
▁brauchen	-1135
arbei	-1136
▁Mein	-1137
▁großen	-1138
▁Son	-1139
▁Erde	-1140
iar	-1141
▁Fil	-1142
äter	-1143
eten	-1144
▁doch	-1145
adt	-1146
▁wenig	-1147
▁Buch	-1148
ott	-1149
uten	-1150
▁Gem	-1151
▁Ja	-1152
▁außer	-1153
th	-1154
ernen	-1155
fin	-1156
asch	-1157
▁versuchen	-1158
ald	-1159
schw	-1160
ition	-1161
achsen	-1162
▁wunder	-1163
stellung	-1164
▁sol	-1165
ierten	-1166
▁fün	-1167
▁Kre	-1168
▁gesagt	-1169
iges	-1170
▁Kar	-1171
▁Dank	-1172
▁Stra	-1173
ruck	-1174
▁unseren	-1175
our	-1176
ätz	-1177
nung	-1178
▁jeden	-1179
▁Famil	-1180
▁keinen	-1181
▁sei	-1182
rin	-1183
wegen	-1184
opf	-1185
olit	-1186
▁ganzen	-1187
▁Natur	-1188
▁al	-1189
halt	-1190
▁gern	-1191
▁ungefähr	-1192
Ich	-1193
▁beh	-1194
▁Licht	-1195
▁fin	-1196
▁ausge	-1197
▁Du	-1198
▁Te	-1199
ktiv	-1200
▁Milliar	-1201
hlt	-1202
▁Ko	-1203
tete	-1204
▁glauben	-1205
asse	-1206
▁hoch	-1207
▁schle	-1208
▁Zukunft	-1209
▁unglau	-1210
ip	-1211
fft	-1212
oment	-1213
achten	-1214
▁6	-1215
ernt	-1216
oten	-1217
▁Woch	-1218
dr	-1219
reis	-1220
▁Vers	-1221
legen	-1222
▁gehör	-1223
▁dan	-1224
▁se	-1225
ium	-1226
usst	-1227
ard	-1228
▁200	-1229
denken	-1230
ruktur	-1231
▁Entwick	-1232
ga	-1233
▁Am	-1234
▁Schu	-1235
rieben	-1236
▁Spiel	-1237
iss	-1238
raf	-1239
▁voll	-1240
ett	-1241
ust	-1242
leben	-1243
▁fünf	-1244
wohl	-1245
ges	-1246
hle	-1247
▁en	-1248
kten	-1249
ultur	-1250
▁Grupp	-1251
essen	-1252
".	-1253
icher	-1254
▁Ort	-1255
stoff	-1256
lex	-1257
alis	-1258
▁heißt	-1259
▁hätte	-1260
lo	-1261
▁stellen	-1262
▁Tage	-1263
allen	-1264
ähn	-1265
echs	-1266
▁Mutter	-1267
tro	-1268
▁funktioniert	-1269
bringen	-1270
eilen	-1271
▁Augen	-1272
▁Ob	-1273
▁Groß	-1274
▁Afrika	-1275
▁Design	-1276
▁US	-1277
▁De	-1278
reichen	-1279
ED	-1280
▁c	-1281
▁wahrscheinlich	-1282
▁gute	-1283
fahren	-1284
lekt	-1285
▁verm	-1286
▁Ged	-1287
▁einge	-1288
▁später	-1289
schaften	-1290
isches	-1291
ph	-1292
zeug	-1293
▁Gew	-1294
ormal	-1295
nehmen	-1296
▁genug	-1297
▁Planeten	-1298
▁verk	-1299
▁Ideen	-1300
▁Jetzt	-1301
▁jedes	-1302
▁Amer	-1303
▁Haus	-1304
▁indem	-1305
▁Universum	-1306
yn	-1307
▁eigenen	-1308
▁schaffen	-1309
▁te	-1310
ständ	-1311
▁Ma	-1312
schn	-1313
▁vielen	-1314
öl	-1315
▁Bi	-1316
▁nä	-1317
▁Den	-1318
▁lange	-1319
▁konnten	-1320
ks	-1321
rat	-1322
satz	-1323
spro	-1324
ho	-1325
zahl	-1326
▁Bil	-1327
euten	-1328
▁Wahr	-1329
ließ	-1330
▁betrach	-1331
▁erzählen	-1332
hol	-1333
gramm	-1334
▁Vide	-1335
kel	-1336
folg	-1337
zeich	-1338
elfen	-1339
▁allen	-1340
▁Hin	-1341
itten	-1342
▁offen	-1343
▁schön	-1344
▁rie	-1345
ausen	-1346
▁fest	-1347
ritt	-1348
isten	-1349
gangen	-1350
▁Musik	-1351
▁Ha	-1352
▁weg	-1353
no	-1354
▁gl	-1355
volut	-1356
▁Lehr	-1357
▁Probleme	-1358
▁oft	-1359
▁At	-1360
▁herum	-1361
aden	-1362
ändert	-1363
▁Ro	-1364
eile	-1365
▁TED	-1366
▁Gemein	-1367
▁besonder	-1368
▁Schul	-1369
▁Sta	-1370
▁Mater	-1371
▁Stu	-1372
▁Ok	-1373
",	-1374
undheit	-1375
duz	-1376
▁Schw	-1377
▁Stadt	-1378
▁Körper	-1379
ina	-1380
▁Br	-1381
▁ne	-1382
▁100	-1383
so	-1384
▁Form	-1385
volution	-1386
▁50	-1387
welt	-1388
alität	-1389
▁Arten	-1390
▁Par	-1391
ehn	-1392
rieg	-1393
▁weit	-1394
▁Moment	-1395
▁aller	-1396
▁lernen	-1397
▁seiner	-1398
▁bisschen	-1399
glichen	-1400
▁helfen	-1401
schaffen	-1402
asst	-1403
ossen	-1404
▁Produ	-1405
▁Leuten	-1406
▁Mode	-1407
▁richtig	-1408
kon	-1409
▁Lin	-1410
▁Warum	-1411
▁nächsten	-1412
▁fast	-1413
▁Sprach	-1414
▁Vielen	-1415
▁größer	-1416
▁15	-1417
▁Wor	-1418
▁Untern	-1419
▁begann	-1420
▁schwer	-1421
▁8	-1422
▁Fot	-1423
▁30	-1424
▁Lu	-1425
igkeiten	-1426
zess	-1427
anzen	-1428
▁unserem	-1429
bracht	-1430
▁bauen	-1431
▁Meer	-1432
chn	-1433
reffen	-1434
öffent	-1435
ren	-1436
▁ko	-1437
äche	-1438
▁größ	-1439
▁zeigt	-1440
itzen	-1441
▁gehört	-1442
▁we	-1443
liches	-1444
▁Nicht	-1445
▁kennen	-1446
▁beim	-1447
▁Danke	-1448
umen	-1449
▁Kam	-1450
ünst	-1451
ause	-1452
▁Dar	-1453
▁Fäh	-1454
setzt	-1455
▁reden	-1456
fä	-1457
▁Mo	-1458
kennen	-1459
▁neuen	-1460
▁Milliarden	-1461
▁euch	-1462
▁Qu	-1463
omen	-1464
▁Gegen	-1465
raum	-1466
▁nah	-1467
▁sagten	-1468
▁fal	-1469
▁fol	-1470
▁New	-1471
▁Punkt	-1472
▁gemein	-1473
▁sah	-1474
▁oben	-1475
▁überall	-1476
▁eben	-1477
▁bevor	-1478
▁Gesundheit	-1479
▁jede	-1480
▁kurz	-1481
▁Gebäu	-1482
sche	-1483
▁Män	-1484
▁recht	-1485
▁anders	-1486
▁nutzen	-1487
▁bestimm	-1488
akter	-1489
▁Indien	-1490
gang	-1491
▁wicht	-1492
▁großart	-1493
land	-1494
ädchen	-1495
▁verändern	-1496
mp	-1497
öt	-1498
ahlen	-1499
eiden	-1500
▁9	-1501
dig	-1502
▁ern	-1503
wusst	-1504
▁inner	-1505
▁Kopf	-1506
▁blei	-1507
▁Met	-1508
▁Zus	-1509
▁Film	-1510
▁Stück	-1511
▁seinen	-1512
onen	-1513
andeln	-1514
▁Weil	-1515
▁7	-1516
▁hö	-1517
chmal	-1518
iker	-1519
inner	-1520
▁stehen	-1521
▁Pu	-1522
▁frü	-1523
▁Di	-1524
▁Gott	-1525
hunder	-1526
▁Projekt	-1527
▁de	-1528
ellen	-1529
nisse	-1530
eig	-1531
dent	-1532
▁Sel	-1533
lö	-1534
▁wus	-1535
indung	-1536
▁Glück	-1537
▁darum	-1538
▁nennen	-1539
sk	-1540
▁sozi	-1541
je	-1542
zus	-1543
▁Gesell	-1544
▁na	-1545
ezie	-1546
▁Mädchen	-1547
ktion	-1548
▁Netz	-1549
scheid	-1550
ffe	-1551
▁klar	-1552
heiten	-1553
▁normal	-1554
▁ro	-1555
unst	-1556
▁anf	-1557
▁Schule	-1558
ome	-1559
zept	-1560
gleich	-1561
▁Pat	-1562
▁Vort	-1563
▁erkl	-1564
▁Richt	-1565
▁entwickelt	-1566
utzt	-1567
▁machte	-1568
▁Minuten	-1569
▁bereits	-1570
ief	-1571
▁Far	-1572
▁erreichen	-1573
▁erm	-1574
▁irgendwie	-1575
öhn	-1576
mand	-1577
▁bem	-1578
▁Internet	-1579
▁Geschichten	-1580
▁Bau	-1581
anken	-1582
ib	-1583
▁sechs	-1584
rieb	-1585
▁gar	-1586
▁USA	-1587
forder	-1588
▁anderes	-1589
inen	-1590
▁gerne	-1591
▁dich	-1592
itu	-1593
▁liegt	-1594
einander	-1595
▁Fragen	-1596
punkt	-1597
▁steht	-1598
was	-1599
▁Bü	-1600
geln	-1601
▁Exper	-1602
zieh	-1603
amens	-1604
▁erkennen	-1605
▁ü	-1606
▁Dieses	-1607
▁musste	-1608
▁Möglichkeit	-1609
ände	-1610
▁Bür	-1611
änger	-1612
ütz	-1613
▁Sü	-1614
mals	-1615
zentr	-1616
eim	-1617
llig	-1618
▁Zwei	-1619
▁darin	-1620
▁Su	-1621
fang	-1622
▁Video	-1623
ere	-1624
gem	-1625
voll	-1626
▁hal	-1627
▁welch	-1628
ucht	-1629
▁Ang	-1630
▁Kunst	-1631
▁entde	-1632
▁halten	-1633
uster	-1634
▁anzu	-1635
▁Antwort	-1636
cke	-1637
los	-1638
▁ihrem	-1639
▁Erfahr	-1640
▁verschiedene	-1641
zei	-1642
▁gesam	-1643
▁Bilder	-1644
▁schwier	-1645
aun	-1646
▁Dr	-1647
▁Gl	-1648
▁Oder	-1649
▁hinter	-1650
▁seinem	-1651
▁Zusammen	-1652
ilfe	-1653
system	-1654
▁namens	-1655
inde	-1656
▁Meine	-1657
▁richt	-1658
▁komm	-1659
▁hören	-1660
▁unglaublich	-1661
▁Lös	-1662
▁mag	-1663
grund	-1664
pr	-1665
▁drau	-1666
erweise	-1667
▁Organis	-1668
▁benutzen	-1669
▁Jahrhunder	-1670
▁Informationen	-1671
▁Für	-1672
▁Flug	-1673
andelt	-1674
▁Gruppe	-1675
▁Wirtschaft	-1676
twor	-1677
berfl	-1678
▁Kor	-1679
▁hoff	-1680
▁fragen	-1681
auer	-1682
▁Beg	-1683
mittel	-1684
pen	-1685
lichkeit	-1686
▁Fir	-1687
▁Vie	-1688
▁einzige	-1689
uß	-1690
▁bef	-1691
▁Luft	-1692
▁abge	-1693
▁entwickeln	-1694
scheiden	-1695
heor	-1696
▁abs	-1697
▁aufge	-1698
richten	-1699
▁Familie	-1700
▁beginnen	-1701
▁vorstellen	-1702
▁ho	-1703
ismus	-1704
▁Auto	-1705
let	-1706
▁Fü	-1707
▁Sachen	-1708
▁erf	-1709
▁Chr	-1710
▁Herz	-1711
▁Dingen	-1712
if	-1713
ehe	-1714
▁Selbst	-1715
▁Gebäude	-1716
▁spielen	-1717
tel	-1718
setzen	-1719
▁einigen	-1720
▁Ur	-1721
ings	-1722
▁statt	-1723
▁Forsch	-1724
sent	-1725
ölker	-1726
▁Them	-1727
deut	-1728
▁Bed	-1729
▁ähn	-1730
▁braucht	-1731
ure	-1732
eren	-1733
stehen	-1734
▁jedem	-1735
ließlich	-1736
bo	-1737
endet	-1738
lektr	-1739
▁flie	-1740
ack	-1741
ase	-1742
ielt	-1743
▁Fol	-1744
▁Gefühl	-1745
▁Bereich	-1746
▁besonders	-1747
▁18	-1748
▁Nu	-1749
▁ch	-1750
euer	-1751
ient	-1752
werk	-1753
▁Arm	-1754
▁Krank	-1755
▁Po	-1756
hält	-1757
▁Stud	-1758
▁Stunden	-1759
▁interessan	-1760
zug	-1761
chite	-1762
▁wohl	-1763
zeugen	-1764
▁Gener	-1765
▁hätten	-1766
etz	-1767
son	-1768
tem	-1769
ässt	-1770
▁Rob	-1771
▁frag	-1772
▁'	-1773
ian	-1774
▁verschiedenen	-1775
ahn	-1776
ank	-1777
err	-1778
ont	-1779
▁Kön	-1780
▁alt	-1781
bare	-1782
setz	-1783
haupt	-1784
▁glück	-1785
▁bewegen	-1786
ösen	-1787
▁tro	-1788
hemat	-1789
▁sage	-1790
uelle	-1791
▁versucht	-1792
erv	-1793
ume	-1794
wär	-1795
annte	-1796
icherheit	-1797
führt	-1798
ala	-1799
mpf	-1800
▁Lage	-1801
▁Beweg	-1802
▁Gesellschaft	-1803
gung	-1804
▁Mat	-1805
▁Sinn	-1806
▁ries	-1807
▁Verhalten	-1808
ohn	-1809
zean	-1810
zustellen	-1811
▁innerhalb	-1812
üt	-1813
reten	-1814
▁führen	-1815
eut	-1816
▁Kultur	-1817
▁Kindern	-1818
▁nämlich	-1819
▁Unternehmen	-1820
aß	-1821
esse	-1822
▁...	-1823
▁jen	-1824
▁Eigen	-1825
▁verwenden	-1826
häng	-1827
gestellt	-1828
▁Entscheid	-1829
▁menschlichen	-1830
urs	-1831
▁Komp	-1832
▁Gesicht	-1833
▁Hö	-1834
▁per	-1835
▁erhalten	-1836
▁Material	-1837
▁Veränder	-1838
vest	-1839
bte	-1840
uer	-1841
ute	-1842
▁lin	-1843
ützen	-1844
▁Macht	-1845
▁bemer	-1846
▁Umwelt	-1847
genommen	-1848
▁unterschied	-1849
ock	-1850
▁glob	-1851
▁unbe	-1852
▁Sprache	-1853
onnen	-1854
▁Vater	-1855
▁beein	-1856
schnitt	-1857
blik	-1858
▁Wort	-1859
▁zwar	-1860
▁Krieg	-1861
zin	-1862
▁gr	-1863
annen	-1864
lligen	-1865
▁beiden	-1866
unge	-1867
▁Neu	-1868
▁los	-1869
▁Unser	-1870
ersön	-1871
▁wegen	-1872
▁ändern	-1873
▁Grö	-1874
▁Prä	-1875
▁getan	-1876
kehr	-1877
▁Freund	-1878
▁Durch	-1879
▁Werk	-1880
▁allem	-1881
▁ansch	-1882
▁einzel	-1883
▁Eis	-1884
inger	-1885
nahme	-1886
▁China	-1887
▁brach	-1888
ai	-1889
iet	-1890
itze	-1891
izin	-1892
▁erw	-1893
▁Grün	-1894
sy	-1895
▁schauen	-1896
▁gleichen	-1897
fel	-1898
▁Ant	-1899
▁rau	-1900
▁erlau	-1901
rom	-1902
▁Part	-1903
▁Ozean	-1904
▁verändert	-1905
enne	-1906
icken	-1907
igten	-1908
stens	-1909
▁manchmal	-1910
▁überhaupt	-1911
enzen	-1912
one	-1913
gesch	-1914
führen	-1915
▁unten	-1916
▁Wochen	-1917
uf	-1918
▁stell	-1919
bel	-1920
▁Kont	-1921
▁Rest	-1922
▁Rück	-1923
▁Eltern	-1924
schlossen	-1925
kü	-1926
▁Ziel	-1927
▁Struktur	-1928
imen	-1929
▁Str	-1930
▁Nein	-1931
▁Tiere	-1932
flanzen	-1933
gabe	-1934
▁Entwicklung	-1935
ider	-1936
▁Res	-1937
reifen	-1938
▁40	-1939
▁Bes	-1940
▁frei	-1941
▁Verein	-1942
▁treffen	-1943
ym	-1944
▁Kr	-1945
entr	-1946
iken	-1947
▁for	-1948
▁Staaten	-1949
elig	-1950
▁Anfang	-1951
ja	-1952
sie	-1953
auso	-1954
bild	-1955
gende	-1956
immen	-1957
ienten	-1958
▁besten	-1959
ima	-1960
spr	-1961
eint	-1962
führ	-1963
▁Ster	-1964
▁entf	-1965
▁Grunde	-1966
▁weitere	-1967
elle	-1968
▁Heraus	-1969
▁kaufen	-1970
sichtlich	-1971
ipp	-1972
ängt	-1973
▁erk	-1974
▁Dieser	-1975
▁tut	-1976
▁eher	-1977
▁Ergeb	-1978
▁Hause	-1979
▁or	-1980
▁Okay	-1981
blikum	-1982
ow	-1983
▁wor	-1984
dlich	-1985
▁verd	-1986
▁niemand	-1987
▁nächste	-1988
isk	-1989
ork	-1990
▁Gol	-1991
aschine	-1992
▁dessen	-1993
▁falsch	-1994
▁wollten	-1995
ivi	-1996
▁Sol	-1997
▁ster	-1998
▁kamen	-1999
▁sieben	-2000
▁betrachten	-2001
gal	-2002
▁Kn	-2003
völker	-2004
telligen	-2005
ahren	-2006
ffekt	-2007
▁Essen	-2008
▁Lehrer	-2009
▁Länder	-2010
▁produz	-2011
▁gleiche	-2012
zip	-2013
▁OK	-2014
urop	-2015
▁Männer	-2016
ächt	-2017
berfläche	-2018
han	-2019
▁Prozess	-2020
oss	-2021
▁Komm	-2022
▁Archite	-2023
▁Regierung	-2024
zt	-2025
gte	-2026
▁Char	-2027
denten	-2028
▁worden	-2029
▁Vielleicht	-2030
ore	-2031
stet	-2032
äten	-2033
ative	-2034
erikan	-2035
▁Geschäft	-2036
▁Publikum	-2037
wesen	-2038
▁grund	-2039
▁welches	-2040
▁Programm	-2041
▁Herausforder	-2042
itiv	-2043
▁lei	-2044
druck	-2045
eister	-2046
ziehen	-2047
▁Sicherheit	-2048
▁menschliche	-2049
hlte	-2050
▁vert	-2051
▁Schwe	-2052
▁Lassen	-2053
rakt	-2054
▁Typ	-2055
ograf	-2056
möglich	-2057
▁bel	-2058
▁12	-2059
▁To	-2060
ächst	-2061
▁Gedanken	-2062
ond	-2063
▁25	-2064
▁Zum	-2065
▁jed	-2066
▁ersch	-2067
▁lässt	-2068
antwort	-2069
▁Bezieh	-2070
▁Möglichkeiten	-2071
nov	-2072
av	-2073
▁Pr	-2074
▁Kap	-2075
baren	-2076
eigen	-2077
teten	-2078
tzlich	-2079
▁Mittel	-2080
erk	-2081
falls	-2082
▁Doch	-2083
▁eigene	-2084
haus	-2085
▁erre	-2086
▁erstaun	-2087
ragt	-2088
▁fand	-2089
▁leicht	-2090
▁letzte	-2091
ende	-2092
▁Ist	-2093
▁Prin	-2094
▁beob	-2095
iziert	-2096
▁obwohl	-2097
▁Erfahrung	-2098
ager	-2099
arten	-2100
▁Hilfe	-2101
▁Denken	-2102
▁interessant	-2103
▁Nahr	-2104
▁Nacht	-2105
▁gescha	-2106
▁verschw	-2107
ikro	-2108
▁Beh	-2109
▁eins	-2110
▁bitte	-2111
▁exist	-2112
▁damals	-2113
▁bl	-2114
esser	-2115
fluss	-2116
▁wären	-2117
ational	-2118
▁Gleich	-2119
sph	-2120
▁Co	-2121
iment	-2122
▁jedoch	-2123
▁Stand	-2124
haft	-2125
ilden	-2126
lungs	-2127
ument	-2128
uellen	-2129
▁Markt	-2130
▁draußen	-2131
▁Unterschied	-2132
mot	-2133
▁Ho	-2134
▁Sk	-2135
tens	-2136
▁Dem	-2137
▁Kraft	-2138
▁hervor	-2139
▁hunder	-2140
▁genauso	-2141
bung	-2142
oter	-2143
▁gro	-2144
▁Fern	-2145
ikaner	-2146
▁bringt	-2147
▁besteht	-2148
▁funktionieren	-2149
Was	-2150
ift	-2151
man	-2152
▁Bro	-2153
rieden	-2154
▁Liebe	-2155
sych	-2156
blick	-2157
zogen	-2158
▁direkt	-2159
▁wusste	-2160
▁fl	-2161
uren	-2162
▁Pol	-2163
▁Süd	-2164
▁berü	-2165
innern	-2166
▁Modell	-2167
ame	-2168
äus	-2169
▁mo	-2170
auft	-2171
▁Vir	-2172
▁Inst	-2173
▁fühlen	-2174
▁zweite	-2175
▁Fähigkeit	-2176
▁benöt	-2177
izieren	-2178
sprochen	-2179
▁Verbindung	-2180
▁Fr	-2181
sein	-2182
▁zehn	-2183
▁mussten	-2184
▁ph	-2185
▁Tats	-2186
heorie	-2187
▁auszu	-2188
▁essen	-2189
▁Information	-2190
ehl	-2191
get	-2192
▁Kü	-2193
bauen	-2194
▁Städ	-2195
▁meines	-2196
innt	-2197
▁hinein	-2198
▁sterben	-2199
iff	-2200
▁Tier	-2201
gefühl	-2202
▁Angst	-2203
▁Boden	-2204
▁Namen	-2205
xt	-2206
▁Tr	-2207
▁Bet	-2208
▁Pap	-2209
gegen	-2210
▁Engl	-2211
▁Situ	-2212
▁hast	-2213
▁Ander	-2214
▁Haupt	-2215
▁Tages	-2216
▁öffent	-2217
▁schreiben	-2218
riff	-2219
zeuge	-2220
▁Frei	-2221
▁vö	-2222
▁aufzu	-2223
▁erwar	-2224
▁passieren	-2225
St	-2226
opp	-2227
imme	-2228
spir	-2229
wert	-2230
▁Sek	-2231
▁mache	-2232
▁weltw	-2233
▁Muster	-2234
ey	-2235
▁Li	-2236
▁Pf	-2237
ogra	-2238
▁Sehen	-2239
▁solche	-2240
▁stellt	-2241
▁bleiben	-2242
▁kleines	-2243
▁Patienten	-2244
▁gemeinsam	-2245
rop	-2246
bene	-2247
▁Tran	-2248
▁Woche	-2249
▁sprach	-2250
▁Stellen	-2251
sm	-2252
bes	-2253
jekte	-2254
▁Alles	-2255
bau	-2256
cen	-2257
stra	-2258
▁Per	-2259
chter	-2260
arbeit	-2261
▁Klima	-2262
▁zuvor	-2263
▁Freunde	-2264
reck	-2265
▁übr	-2266
spiele	-2267
erstör	-2268
reiten	-2269
atten	-2270
zeigt	-2271
▁Wahl	-2272
langen	-2273
▁trotz	-2274
▁Monate	-2275
▁herauszu	-2276
ub	-2277
▁liebe	-2278
▁vorher	-2279
arbeitet	-2280
elbe	-2281
ital	-2282
kraft	-2283
▁bist	-2284
▁erinner	-2285
statt	-2286
▁Fort	-2287
wasser	-2288
▁Jeder	-2289
▁Krebs	-2290
▁gebaut	-2291
▁Amerika	-2292
ens	-2293
cker	-2294
vers	-2295
▁ermö	-2296
annten	-2297
▁Thema	-2298
▁langsam	-2299
▁scheint	-2300
▁schwierig	-2301
▁Vorstellung	-2302
pe	-2303
ans	-2304
jen	-2305
lin	-2306
dust	-2307
▁Bab	-2308
drück	-2309
▁polit	-2310
ologien	-2311
▁fragte	-2312
▁bi	-2313
▁Lab	-2314
licht	-2315
▁Vert	-2316
▁dein	-2317
▁Blick	-2318
▁wachsen	-2319
▁Mathemat	-2320
▁Tatsache	-2321
bend	-2322
▁Ind	-2323
▁plö	-2324
reibt	-2325
▁Erfolg	-2326
▁genannt	-2327
▁verbunden	-2328
ehm	-2329
▁gefunden	-2330
▁Mil	-2331
▁erh	-2332
troll	-2333
ließen	-2334
nahmen	-2335
▁völlig	-2336
▁gewesen	-2337
▁möchten	-2338
are	-2339
ssen	-2340
▁Kat	-2341
itein	-2342
▁acht	-2343
▁Autos	-2344
▁entscheiden	-2345
▁teil	-2346
▁Anzahl	-2347
▁mitein	-2348
▁sollen	-2349
▁bekommt	-2350
▁beschäft	-2351
▁Go	-2352
fort	-2353
▁Job	-2354
▁Fahr	-2355
▁fort	-2356
aschen	-2357
▁Polit	-2358
▁gelernt	-2359
▁konzentr	-2360
▁glücklich	-2361
inne	-2362
wirk	-2363
rifft	-2364
▁Team	-2365
▁sehe	-2366
▁danach	-2367
▁jemals	-2368
▁Schritt	-2369
hören	-2370
sieht	-2371
ranken	-2372
▁Reihe	-2373
▁geworden	-2374
▁erschaffen	-2375
ool	-2376
▁Bedeut	-2377
▁teilen	-2378
▁Technik	-2379
▁amerikan	-2380
NA	-2381
▁Wel	-2382
▁Preis	-2383
▁Umgeb	-2384
▁deren	-2385
▁schwar	-2386
▁kleiner	-2387
ator	-2388
jähr	-2389
ieten	-2390
▁Hoff	-2391
▁lesen	-2392
▁daraus	-2393
▁komplex	-2394
▁niemals	-2395
wend	-2396
äuft	-2397
▁führt	-2398
▁Lösung	-2399
▁persön	-2400
▁Roboter	-2401
▁anderer	-2402
▁Richtung	-2403
▁Wirklich	-2404
▁anfangen	-2405
mo	-2406
▁Na	-2407
bten	-2408
▁ged	-2409
▁Mitte	-2410
▁sonst	-2411
ausende	-2412
▁Bewegung	-2413
▁60	-2414
▁qu	-2415
oral	-2416
▁nahm	-2417
▁tief	-2418
▁Oberfläche	-2419
▁Is	-2420
▁sa	-2421
ählen	-2422
völkerung	-2423
▁CA	-2424
räsent	-2425
▁nimmt	-2426
▁entfernt	-2427
trem	-2428
uche	-2429
▁Tür	-2430
achst	-2431
ochen	-2432
tworten	-2433
▁Medien	-2434
▁Sonnen	-2435
▁länger	-2436
▁miteinander	-2437
▁schließlich	-2438
ct	-2439
aren	-2440
▁Kal	-2441
ament	-2442
ehler	-2443
▁bewe	-2444
▁neben	-2445
samkeit	-2446
▁versch	-2447
▁deshalb	-2448
▁Gemeinschaft	-2449
äß	-2450
Das	-2451
▁tö	-2452
ance	-2453
lauf	-2454
▁Bru	-2455
▁Fuß	-2456
änden	-2457
▁Alle	-2458
▁Ding	-2459
▁hoffe	-2460
▁plötzlich	-2461
viel	-2462
ätze	-2463
▁Tat	-2464
▁Zeu	-2465
alien	-2466
▁Ihren	-2467
▁Sonne	-2468
▁Gesetz	-2469
▁Bildung	-2470
▁unseres	-2471
▁erklären	-2472
▁Evolution	-2473
▁Natürlich	-2474
In	-2475
merk	-2476
▁stark	-2477
dustrie	-2478
▁nachzu	-2479
▁unters	-2480
olz	-2481
▁Ru	-2482
gliche	-2483
sphäre	-2484
▁Alter	-2485
▁größten	-2486
▁aussehen	-2487
ise	-2488
sta	-2489
▁fr	-2490
itut	-2491
alter	-2492
gessen	-2493
gewöhn	-2494
zellen	-2495
▁reich	-2496
▁Prinzip	-2497
asen	-2498
rain	-2499
scht	-2500
▁Kil	-2501
▁Mot	-2502
immer	-2503
okrat	-2504
▁raus	-2505
▁suchen	-2506
▁Mitgefühl	-2507
ark	-2508
ies	-2509
alax	-2510
uell	-2511
▁hinaus	-2512
▁schlecht	-2513
▁nachdenken	-2514
fon	-2515
▁80	-2516
ment	-2517
▁Tem	-2518
ertig	-2519
▁Foto	-2520
▁nein	-2521
weisen	-2522
▁Geist	-2523
▁lösen	-2524
▁nachdem	-2525
▁erinnern	-2526
▁Wissenschaftler	-2527
zw	-2528
▁Bä	-2529
▁ur	-2530
▁Bar	-2531
rauen	-2532
stein	-2533
ose	-2534
ines	-2535
▁Unsere	-2536
▁größte	-2537
▁unterst	-2538
aler	-2539
dete	-2540
▁Nie	-2541
ividu	-2542
▁Größe	-2543
▁Innov	-2544
achstum	-2545
unehmen	-2546
▁verloren	-2547
▁verwendet	-2548
anten	-2549
zeugt	-2550
▁Teile	-2551
▁Jahrhundert	-2552
äuf	-2553
wand	-2554
▁bew	-2555
älfte	-2556
▁Nord	-2557
▁Viel	-2558
▁techn	-2559
▁laufen	-2560
▁beginnt	-2561
▁Familien	-2562
gn	-2563
si	-2564
ämp	-2565
ffiz	-2566
▁Tatsächlich	-2567
▁Veränderung	-2568
zü	-2569
fäh	-2570
omb	-2571
▁11	-2572
lett	-2573
▁Bel	-2574
▁grün	-2575
ativen	-2576
▁fahren	-2577
▁Wahrheit	-2578
wirtschaft	-2579
▁interessiert	-2580
lage	-2581
pfen	-2582
▁guten	-2583
▁Ländern	-2584
▁Pflanzen	-2585
▁Führ	-2586
▁Sicht	-2587
▁Viele	-2588
▁Hinter	-2589
sprechen	-2590
▁Aufgabe	-2591
▁kü	-2592
wohn	-2593
▁Gef	-2594
▁Wert	-2595
▁Firma	-2596
▁Regeln	-2597
▁Meinung	-2598
▁bekannt	-2599
▁gezeigt	-2600
▁erreicht	-2601
▁Vereinigten	-2602
del	-2603
änge	-2604
▁Erw	-2605
stück	-2606
teilt	-2607
▁rein	-2608
▁gesamte	-2609
▁Technologien	-2610
min	-2611
äss	-2612
▁HI	-2613
fern	-2614
▁199	-2615
▁Dam	-2616
immel	-2617
älter	-2618
▁führ	-2619
▁findet	-2620
▁Studenten	-2621
arkt	-2622
ysik	-2623
▁Blut	-2624
ierend	-2625
▁Galax	-2626
▁alten	-2627
jenigen	-2628
▁Bakter	-2629
▁folgen	-2630
▁Vortrag	-2631
elte	-2632
▁höher	-2633
▁gegenüber	-2634
▁Mag	-2635
aktion	-2636
▁Mikro	-2637
agieren	-2638
▁jemanden	-2639
▁Bedeutung	-2640
tten	-2641
▁lau	-2642
▁Baum	-2643
▁erle	-2644
▁wert	-2645
▁beide	-2646
▁zeige	-2647
▁genommen	-2648
▁Situation	-2649
esent	-2650
recht	-2651
▁Tele	-2652
▁Wind	-2653
zeitig	-2654
▁Europ	-2655
▁Reise	-2656
iko	-2657
twas	-2658
▁gek	-2659
aszin	-2660
▁Zahl	-2661
▁Karte	-2662
▁daher	-2663
▁bewusst	-2664
▁ak	-2665
itzt	-2666
lant	-2667
▁egal	-2668
lassen	-2669
▁nennt	-2670
schieht	-2671
▁gesprochen	-2672
▁wissenschaft	-2673
▁Dor	-2674
rauch	-2675
unkte	-2676
▁Meter	-2677
ikation	-2678
▁Zellen	-2679
▁Deshalb	-2680
▁stellte	-2681
▁geschieht	-2682
ese	-2683
▁Hü	-2684
▁Oh	-2685
▁HIV	-2686
▁tot	-2687
igens	-2688
ängen	-2689
▁Orte	-2690
▁toll	-2691
findet	-2692
▁Ihrem	-2693
ünstler	-2694
▁absolut	-2695
▁Entwicklungs	-2696
▁herauszufinden	-2697
lang	-2698
gaben	-2699
ienen	-2700
bliche	-2701
▁schau	-2702
ve	-2703
eid	-2704
rech	-2705
ware	-2706
▁Rad	-2707
ehmer	-2708
▁Kamer	-2709
▁Spezie	-2710
▁Generation	-2711
urt	-2712
▁Ris	-2713
▁dun	-2714
auber	-2715
spekt	-2716
▁hinzu	-2717
▁fanden	-2718
▁gefähr	-2719
▁gingen	-2720
▁sofort	-2721
▁beeinfl	-2722
▁verrück	-2723
ama	-2724
win	-2725
ette	-2726
▁DNA	-2727
▁hil	-2728
▁rei	-2729
▁natür	-2730
▁brachte	-2731
!"	-2732
ime	-2733
ity	-2734
ikel	-2735
seit	-2736
itäten	-2737
▁mögen	-2738
▁Kosten	-2739
▁erfolg	-2740
▁fliegen	-2741
▁schrieb	-2742
alls	-2743
▁ind	-2744
▁empf	-2745
ichtet	-2746
▁einfache	-2747
reu	-2748
▁ru	-2749
ällt	-2750
▁öff	-2751
antast	-2752
▁Platz	-2753
▁ernst	-2754
▁Einige	-2755
▁bewegt	-2756
▁geschrieben	-2757
nt	-2758
▁Är	-2759
▁kur	-2760
▁bekam	-2761
▁entst	-2762
▁verbr	-2763
▁Hälfte	-2764
▁Leiden	-2765
▁großer	-2766
▁Herausforderung	-2767
umm	-2768
▁ok	-2769
▁Mars	-2770
ologen	-2771
▁Umgebung	-2772
fekt	-2773
tzut	-2774
iegel	-2775
dessen	-2776
ograph	-2777
▁Bücher	-2778
▁ansehen	-2779
öst	-2780
hang	-2781
▁geh	-2782
igner	-2783
ätzen	-2784
▁Zeug	-2785
essour	-2786
eutzut	-2787
schlag	-2788
arbeiten	-2789
▁benutzt	-2790
eutzutage	-2791
▁Erd	-2792
durch	-2793
▁Recht	-2794
▁spezie	-2795
▁Schauen	-2796
▁Schulen	-2797
▁machten	-2798
▁offensichtlich	-2799
Sch	-2800
weis	-2801
▁Gra	-2802
▁tat	-2803
ister	-2804
▁Schü	-2805
▁Gebiet	-2806
▁Stimme	-2807
▁kosten	-2808
▁tragen	-2809
radition	-2810
struktur	-2811
▁wichtiger	-2812
iten	-2813
iver	-2814
lekü	-2815
schr	-2816
▁samm	-2817
▁Druck	-2818
▁kannst	-2819
Die	-2820
kle	-2821
ilis	-2822
legt	-2823
▁bas	-2824
raten	-2825
▁Ihrer	-2826
▁Rolle	-2827
▁beste	-2828
▁komplett	-2829
mit	-2830
▁Einz	-2831
▁ziehen	-2832
schlagen	-2833
▁Nachbar	-2834
wusstsein	-2835
▁Krankheit	-2836
▁Ka	-2837
isst	-2838
▁Kan	-2839
▁Goog	-2840
▁Stat	-2841
▁Straße	-2842
▁inspir	-2843
▁liegen	-2844
ons	-2845
apan	-2846
▁Ganz	-2847
▁finde	-2848
▁stand	-2849
▁allein	-2850
ieg	-2851
▁gebe	-2852
abhäng	-2853
▁Schön	-2854
▁Seiten	-2855
▁Während	-2856
▁gegeben	-2857
indigkeit	-2858
▁richtige	-2859
▁pr	-2860
vent	-2861
▁Glau	-2862
▁Test	-2863
▁blau	-2864
▁Aktiv	-2865
▁biolog	-2866
▁runter	-2867
▁dachten	-2868
▁Fähigkeiten	-2869
ile	-2870
▁16	-2871
▁Ju	-2872
▁Ku	-2873
ollen	-2874
indest	-2875
▁Labor	-2876
▁Elektr	-2877
▁früher	-2878
▁setzen	-2879
▁zuerst	-2880
▁Kranken	-2881
▁geboren	-2882
▁soziale	-2883
▁Sau	-2884
▁Chem	-2885
▁Chris	-2886
▁verurs	-2887
▁bemerken	-2888
inz	-2889
uchs	-2890
▁Har	-2891
▁faszin	-2892
▁My	-2893
▁Ord	-2894
schul	-2895
▁Dorf	-2896
▁extrem	-2897
▁Monaten	-2898
▁Ressour	-2899
▁Spezies	-2900
Wir	-2901
ote	-2902
roh	-2903
▁CO	-2904
glie	-2905
imul	-2906
line	-2907
rägt	-2908
▁hab	-2909
▁zer	-2910
laufen	-2911
▁defin	-2912
▁Bürger	-2913
▁Fehler	-2914
▁Himmel	-2915
▁lieben	-2916
▁Forschung	-2917
▁Universität	-2918
Pro	-2919
itel	-2920
igung	-2921
▁Geschw	-2922
▁Meeres	-2923
▁bilden	-2924
▁Beziehung	-2925
ins	-2926
atte	-2927
▁Tagen	-2928
▁Regier	-2929
▁Maschine	-2930
▁passierte	-2931
▁schlechte	-2932
af	-2933
▁Th	-2934
▁Gel	-2935
▁pos	-2936
itter	-2937
▁Sohn	-2938
roffen	-2939
▁gewis	-2940
▁neues	-2941
▁Google	-2942
▁Hoffnung	-2943
▁versuche	-2944
Wie	-2945
iegen	-2946
▁Spaß	-2947
▁Webs	-2948
▁enor	-2949
▁Eines	-2950
▁prakt	-2951
▁Nummer	-2952
▁zerstör	-2953
▁Realität	-2954
▁wirtschaft	-2955
▁Nachrichten	-2956
▁gleichzeitig	-2957
az	-2958
amp	-2959
nete	-2960
zial	-2961
▁Hel	-2962
▁Von	-2963
▁Heute	-2964
▁Objekt	-2965
▁Mathematik	-2966
▁Fä	-2967
lern	-2968
▁kre	-2969
affen	-2970
▁bein	-2971
gendes	-2972
▁Fisch	-2973
▁Relig	-2974
▁Wieder	-2975
▁anstatt	-2976
▁ähnlich	-2977
▁Einfluss	-2978
▁erfolgreich	-2979
kr	-2980
▁Ir	-2981
▁Nur	-2982
eisen	-2983
lungen	-2984
▁Finger	-2985
▁Morgen	-2986
▁stimmt	-2987
▁Vergangen	-2988
▁Experiment	-2989
▁Wirklichkeit	-2990
▁nachzudenken	-2991
grö	-2992
quenz	-2993
ferenz	-2994
▁Monat	-2995
▁Kommun	-2996
▁begannen	-2997
▁veröffent	-2998
▁ö	-2999
enk	-3000
hand	-3001
stru	-3002
daten	-3003
stern	-3004
ändig	-3005
▁Berg	-3006
trolle	-3007
▁erfor	-3008
▁Zahlen	-3009
▁Wachstum	-3010
▁Bevölkerung	-3011
omat	-3012
▁Tro	-3013
auern	-3014
schir	-3015
▁Ange	-3016
▁Bill	-3017
▁Höhe	-3018
▁Phil	-3019
▁deine	-3020
▁echte	-3021
indungen	-3022
▁fantast	-3023
▁irgendwo	-3024
▁kontroll	-3025
▁Architektur	-3026
alle	-3027
klär	-3028
rate	-3029
sell	-3030
▁Gut	-3031
kommt	-3032
örter	-3033
▁Neur	-3034
▁abzu	-3035
▁Armut	-3036
▁kompl	-3037
▁links	-3038
▁elektr	-3039
▁Konzept	-3040
▁Produkt	-3041
▁Straßen	-3042
▁einzelne	-3043
▁gekommen	-3044
▁anschauen	-3045
▁schneller	-3046
▁gearbeitet	-3047
▁Vergangenheit	-3048
sto	-3049
▁90	-3050
▁Maß	-3051
hnung	-3052
ussen	-3053
▁nahe	-3054
▁Ebene	-3055
▁Sinne	-3056
▁angef	-3057
▁näher	-3058
▁Ergebnis	-3059
▁erzeugen	-3060
▁trotzdem	-3061
▁möglichen	-3062
co	-3063
deck	-3064
▁Ker	-3065
ftware	-3066
▁Städte	-3067
▁finanz	-3068
ständnis	-3069
▁Grenzen	-3070
▁erlaubt	-3071
▁interessante	-3072
bet	-3073
abel	-3074
▁Frü	-3075
▁Vis	-3076
▁lok	-3077
istan	-3078
▁Wohl	-3079
▁selt	-3080
▁sahen	-3081
▁Stelle	-3082
▁vorbei	-3083
▁befinden	-3084
▁richtigen	-3085
▁verlieren	-3086
iell	-3087
▁dig	-3088
ausend	-3089
▁nenne	-3090
wirkungen	-3091
50	-3092
kul	-3093
amer	-3094
bert	-3095
dert	-3096
▁bed	-3097
ombin	-3098
machen	-3099
aschinen	-3100
▁erzählt	-3101
▁Bakterien	-3102
▁zumindest	-3103
▁Wahrscheinlich	-3104
ürz	-3105
▁et	-3106
stes	-3107
▁Car	-3108
orfen	-3109
twend	-3110
▁rund	-3111
edizin	-3112
eitung	-3113
elegen	-3114
▁Wesen	-3115
▁überr	-3116
▁fertig	-3117
▁sitzen	-3118
▁Theorie	-3119
▁bedeuten	-3120
▁weltweit	-3121
merksamkeit	-3122
▁Gesundheits	-3123
ützt	-3124
▁Bus	-3125
▁Erk	-3126
emand	-3127
▁Elem	-3128
▁alte	-3129
▁Medik	-3130
▁einzu	-3131
▁falls	-3132
▁Europa	-3133
▁Gruppen	-3134
▁Politik	-3135
▁arbeitet	-3136
▁bestimmt	-3137
▁Beispiele	-3138
▁geschehen	-3139
▁verlassen	-3140
▁Aufmerksamkeit	-3141
▁Ern	-3142
▁Fin	-3143
▁Zentr	-3144
▁welcher	-3145
▁aussieht	-3146
▁Charakter	-3147
ix	-3148
▁ca	-3149
falt	-3150
nern	-3151
rift	-3152
▁Wür	-3153
▁ant	-3154
▁end	-3155
▁erg	-3156
reise	-3157
▁bald	-3158
▁heut	-3159
▁tran	-3160
▁Orten	-3161
▁Zeich	-3162
▁Molekü	-3163
▁Million	-3164
▁Ordnung	-3165
app	-3166
apt	-3167
beh	-3168
zif	-3169
sion	-3170
verb	-3171
▁Ton	-3172
▁vis	-3173
sprün	-3174
▁stud	-3175
▁Strom	-3176
▁verfü	-3177
▁übert	-3178
▁bleibt	-3179
▁beobachten	-3180
▁Entscheidungen	-3181
Oh	-3182
▁daß	-3183
▁vorh	-3184
▁Feuer	-3185
▁Stamm	-3186
▁aktiv	-3187
▁aufre	-3188
▁dritte	-3189
▁retten	-3190
▁bestimmten	-3191
ID	-3192
iven	-3193
▁Uhr	-3194
▁fre	-3195
▁Auch	-3196
ometer	-3197
▁Regel	-3198
▁danke	-3199
schritt	-3200
▁irgendw	-3201
▁schreck	-3202
▁Amerikaner	-3203
▁geschaffen	-3204
rit	-3205
▁17	-3206
▁denkt	-3207
▁produzieren	-3208
▁Entscheidung	-3209
les	-3210
rig	-3211
üll	-3212
▁Bot	-3213
▁spr	-3214
orben	-3215
schön	-3216
▁Kern	-3217
▁Mark	-3218
▁neun	-3219
▁Arbei	-3220
▁Invest	-3221
▁morgen	-3222
▁gebracht	-3223
▁übrigens	-3224
▁Menschheit	-3225
üss	-3226
gten	-3227
zähl	-3228
▁rep	-3229
asche	-3230
genie	-3231
▁Miss	-3232
essern	-3233
otwend	-3234
wissen	-3235
▁Papier	-3236
▁versuchte	-3237
ry	-3238
met	-3239
▁Sa	-3240
▁Sy	-3241
ickt	-3242
onie	-3243
digen	-3244
▁Hoch	-3245
ierter	-3246
▁Bezug	-3247
▁Behand	-3248
▁bestimmte	-3249
hy	-3250
aul	-3251
imp	-3252
▁Gu	-3253
iter	-3254
▁Det	-3255
▁Ziv	-3256
▁Prof	-3257
uchten	-3258
▁älter	-3259
peratur	-3260
▁gesamten	-3261
▁vergessen	-3262
▁Do	-3263
▁He	-3264
arte	-3265
ynam	-3266
ählt	-3267
▁Jed	-3268
echan	-3269
elten	-3270
▁Herr	-3271
▁Farbe	-3272
▁moder	-3273
bildung	-3274
zusagen	-3275
▁Können	-3276
▁großes	-3277
zeichnet	-3278
▁Medizin	-3279
▁arbeite	-3280
▁wussten	-3281
▁entdecken	-3282
▁heutzutage	-3283
▁Zw	-3284
▁Mehr	-3285
▁Linie	-3286
▁Software	-3287
▁einander	-3288
▁großartig	-3289
▁Verantwort	-3290
▁normalerweise	-3291
▁Nä	-3292
▁pl	-3293
orge	-3294
▁Krä	-3295
▁Sex	-3296
▁fing	-3297
altung	-3298
▁Gerät	-3299
▁Regen	-3300
▁Super	-3301
▁überw	-3302
ierende	-3303
▁invest	-3304
▁verfol	-3305
▁Schüler	-3306
▁Flugzeug	-3307
▁wichtige	-3308
▁großartige	-3309
unt	-3310
▁14	-3311
▁Lö	-3312
▁Vo	-3313
önen	-3314
▁Rau	-3315
▁ehr	-3316
▁Dien	-3317
▁John	-3318
▁Schn	-3319
gemein	-3320
▁Kolle	-3321
itionen	-3322
▁erklär	-3323
▁Telefon	-3324
▁verstanden	-3325
ums	-3326
▁Vol	-3327
▁hol	-3328
etzen	-3329
▁Gefü	-3330
▁umge	-3331
▁ihres	-3332
▁gewöhn	-3333
▁handelt	-3334
▁Bewusstsein	-3335
mt	-3336
ehme	-3337
hode	-3338
▁gesp	-3339
frikan	-3340
ämpfen	-3341
▁Jahrz	-3342
▁moral	-3343
erstoff	-3344
▁außerhalb	-3345
▁unmöglich	-3346
▁Innovation	-3347
▁Ressourcen	-3348
gor	-3349
ille	-3350
ufen	-3351
▁tie	-3352
▁krei	-3353
ätzlich	-3354
▁Nahrung	-3355
▁Versuch	-3356
▁bestehen	-3357
▁App	-3358
stelle	-3359
▁wider	-3360
▁Schwar	-3361
▁Komplex	-3362
▁bessere	-3363
▁organis	-3364
▁diejenigen	-3365
arf	-3366
stä	-3367
▁Hy	-3368
▁of	-3369
ildet	-3370
▁Büro	-3371
▁Lauf	-3372
▁lern	-3373
utzung	-3374
▁Wörter	-3375
▁solchen	-3376
▁betrachtet	-3377
ace	-3378
mäß	-3379
▁Fel	-3380
altet	-3381
▁Außer	-3382
▁Kreis	-3383
▁Präsi	-3384
▁Glauben	-3385
▁Designer	-3386
▁Institut	-3387
▁erfahren	-3388
▁herunter	-3389
ales	-3390
▁Trä	-3391
▁hält	-3392
werfen	-3393
ständig	-3394
▁ebenso	-3395
▁Intelligen	-3396
go	-3397
aup	-3398
oph	-3399
org	-3400
▁13	-3401
echt	-3402
▁Sym	-3403
▁reg	-3404
frika	-3405
▁lebt	-3406
▁wann	-3407
stoffe	-3408
wenden	-3409
▁Genau	-3410
▁Worte	-3411
▁niedr	-3412
schluss	-3413
▁Firmen	-3414
▁Formen	-3415
▁messen	-3416
▁Gelegen	-3417
▁Partner	-3418
▁seltsam	-3419
▁überleben	-3420
▁Sauerstoff	-3421
IDS	-3422
fre	-3423
leb	-3424
vie	-3425
dung	-3426
merz	-3427
tert	-3428
indet	-3429
reche	-3430
werke	-3431
reitet	-3432
▁Konfl	-3433
unächst	-3434
▁Gewalt	-3435
▁gefragt	-3436
▁Sekunden	-3437
▁Zeitpunkt	-3438
▁entschieden	-3439
▁untersuchen	-3440
iot	-3441
iti	-3442
▁Sc	-3443
▁Sh	-3444
grün	-3445
schu	-3446
ücht	-3447
▁Pos	-3448
▁Tod	-3449
▁Haut	-3450
▁Wand	-3451
▁Psych	-3452
▁Geburt	-3453
▁Gründe	-3454
▁rechts	-3455
▁sowohl	-3456
▁Ingenie	-3457
▁Englisch	-3458
▁gestellt	-3459
▁Verständnis	-3460
ret	-3461
ven	-3462
obil	-3463
pfer	-3464
ünft	-3465
▁aut	-3466
holen	-3467
mmern	-3468
▁Baby	-3469
▁Blog	-3470
▁unge	-3471
schirm	-3472
▁hilft	-3473
▁Beginn	-3474
▁führte	-3475
▁entdeckt	-3476
▁gewinnen	-3477
▁arbeitete	-3478
▁intelligen	-3479
wür	-3480
▁Cl	-3481
ktor	-3482
▁Bas	-3483
▁ans	-3484
ächen	-3485
▁Ball	-3486
▁Somm	-3487
▁bill	-3488
▁zufä	-3489
teilen	-3490
▁entwe	-3491
▁hörte	-3492
▁komme	-3493
▁Chance	-3494
▁Klimaw	-3495
▁selben	-3496
▁ständig	-3497
ationalen	-3498
▁befindet	-3499
▁gegangen	-3500
▁wunderbar	-3501
ami	-3502
▁21	-3503
▁äu	-3504
Nein	-3505
▁Gene	-3506
▁winz	-3507
änomen	-3508
▁Abend	-3509
▁reduz	-3510
▁manche	-3511
▁Kontrolle	-3512
mö	-3513
ov	-3514
uhr	-3515
zte	-3516
▁70	-3517
anke	-3518
feld	-3519
zwei	-3520
ährt	-3521
odell	-3522
▁Name	-3523
gebaut	-3524
▁Jahres	-3525
▁kommun	-3526
▁warten	-3527
mosphäre	-3528
▁zweiten	-3529
▁Individu	-3530
▁verkaufen	-3531
Ja	-3532
ou	-3533
igh	-3534
rak	-3535
seh	-3536
äst	-3537
mmet	-3538
▁Kol	-3539
▁blo	-3540
etten	-3541
▁Fakt	-3542
▁Noch	-3543
glicht	-3544
▁Plast	-3545
▁dahin	-3546
▁hinge	-3547
▁bisher	-3548
▁jungen	-3549
▁keiner	-3550
gefunden	-3551
ingungen	-3552
▁Künstler	-3553
▁National	-3554
▁Nachricht	-3555
▁Revolution	-3556
ko	-3557
ifor	-3558
▁Mitt	-3559
▁Mond	-3560
zimmer	-3561
▁Herzen	-3562
▁voller	-3563
▁Artikel	-3564
▁Frieden	-3565
▁Schönheit	-3566
▁grundlegen	-3567
▁verbessern	-3568
▁Materialien	-3569
▁kn	-3570
itär	-3571
▁Golf	-3572
ielten	-3573
▁Fotos	-3574
▁medizin	-3575
▁sammeln	-3576
▁Netzwerk	-3577
▁ermöglicht	-3578
▁herstellen	-3579
rab	-3580
▁Ad	-3581
▁us	-3582
▁198	-3583
▁Red	-3584
▁Win	-3585
volle	-3586
üssel	-3587
▁kaum	-3588
nungen	-3589
▁Tisch	-3590
▁Personen	-3591
▁aufgrund	-3592
▁entweder	-3593
▁Interesse	-3594
Un	-3595
ürf	-3596
maßen	-3597
▁lief	-3598
▁Japan	-3599
▁Landes	-3600
ativität	-3601
gebracht	-3602
▁erzählte	-3603
▁Vergleich	-3604
▁Organisation	-3605
ari	-3606
▁1,	-3607
▁Mö	-3608
ante	-3609
ball	-3610
iete	-3611
igte	-3612
mung	-3613
▁Kur	-3614
▁The	-3615
▁akt	-3616
enken	-3617
wärts	-3618
▁Sign	-3619
▁cool	-3620
forsch	-3621
▁Hände	-3622
▁Poten	-3623
▁genet	-3624
▁junge	-3625
▁läuft	-3626
ssystem	-3627
▁intern	-3628
▁seines	-3629
▁Materie	-3630
▁dorthin	-3631
▁riesige	-3632
▁Krankheiten	-3633
▁Kommunikation	-3634
hre	-3635
bald	-3636
buch	-3637
iels	-3638
orgt	-3639
plan	-3640
wart	-3641
▁Spr	-3642
samen	-3643
äufig	-3644
▁Brot	-3645
▁Loch	-3646
▁höch	-3647
▁digit	-3648
▁Sterne	-3649
▁spielt	-3650
▁geschah	-3651
stellungen	-3652
ka	-3653
ail	-3654
▁Ser	-3655
sport	-3656
▁Heim	-3657
▁Stre	-3658
▁dest	-3659
▁setz	-3660
assung	-3661
▁Bühne	-3662
▁leisten	-3663
▁verdien	-3664
▁einzelnen	-3665
bü	-3666
ente	-3667
▁196	-3668
grupp	-3669
ießen	-3670
produ	-3671
▁Auge	-3672
▁Disk	-3673
▁Hirn	-3674
motion	-3675
▁Daher	-3676
▁Instr	-3677
▁Ahnung	-3678
▁Stunde	-3679
▁benutz	-3680
▁Arbeits	-3681
▁afrikan	-3682
▁dadurch	-3683
▁ursprün	-3684
▁Lösungen	-3685
▁schicken	-3686
▁verrückt	-3687
▁Auswirkungen	-3688
▁unglaubliche	-3689
kn	-3690
pu	-3691
fra	-3692
hei	-3693
kop	-3694
zer	-3695
ikas	-3696
▁Dav	-3697
illen	-3698
▁Oper	-3699
astrop	-3700
passen	-3701
zahlen	-3702
▁Ereig	-3703
▁entsp	-3704
▁dasselbe	-3705
▁erfunden	-3706
▁verbinden	-3707
▁herausfinden	-3708
zut	-3709
▁Bu	-3710
▁km	-3711
ckte	-3712
such	-3713
▁Bio	-3714
▁opt	-3715
▁Anal	-3716
▁Krie	-3717
▁Sand	-3718
▁stär	-3719
stände	-3720
▁Verfü	-3721
▁belie	-3722
▁äußer	-3723
entlich	-3724
frieden	-3725
▁Jungen	-3726
▁sobald	-3727
▁globalen	-3728
▁angefangen	-3729
▁Not	-3730
bruch	-3731
iforn	-3732
leist	-3733
▁Verl	-3734
▁inte	-3735
blichen	-3736
▁Punkte	-3737
▁hundert	-3738
▁Projekte	-3739
Sp	-3740
War	-3741
ake	-3742
▁Fo	-3743
▁tä	-3744
eigt	-3745
lebt	-3746
stre	-3747
seite	-3748
äusch	-3749
▁Grad	-3750
▁erhö	-3751
▁krie	-3752
rochen	-3753
▁Bäume	-3754
▁Bedürf	-3755
▁Einzel	-3756
▁Zugang	-3757
▁nahmen	-3758
▁notwend	-3759
▁jemandem	-3760
▁Erwachsen	-3761
▁Geschwindigkeit	-3762
ane	-3763
sser	-3764
▁Ben	-3765
▁Wal	-3766
▁grü	-3767
▁Park	-3768
▁bean	-3769
▁mitt	-3770
schutz	-3771
▁Einer	-3772
▁Junge	-3773
▁Prote	-3774
▁Werte	-3775
▁gutes	-3776
▁Sommer	-3777
▁fangen	-3778
▁Entdeck	-3779
▁Nahrungs	-3780
▁einzigen	-3781
▁Industrie	-3782
▁ebenfalls	-3783
▁existiert	-3784
▁Universums	-3785
▁Verantwortung	-3786
pfel	-3787
▁tau	-3788
bewer	-3789
ession	-3790
▁Jedes	-3791
▁König	-3792
▁mächt	-3793
▁Gefäng	-3794
▁berühm	-3795
▁kultur	-3796
zunehmen	-3797
▁Version	-3798
▁sozialen	-3799
▁Kilometer	-3800
▁geschafft	-3801
licherweise	-3802
▁Komplexität	-3803
▁außergewöhn	-3804
▁Zusammenhang	-3805
▁herzustellen	-3806
▁unterstützen	-3807
Es	-3808
reg	-3809
▁lag	-3810
auert	-3811
techn	-3812
▁Inner	-3813
▁Virus	-3814
▁fühle	-3815
▁taten	-3816
okratie	-3817
▁Worten	-3818
▁Plastik	-3819
▁durchge	-3820
▁begonnen	-3821
▁Einkommen	-3822
▁sozusagen	-3823
▁Leidenschaft	-3824
▁amerikanischen	-3825
öse	-3826
▁24	-3827
▁On	-3828
▁Bis	-3829
▁Spe	-3830
▁bau	-3831
▁usw	-3832
ahmen	-3833
einer	-3834
▁Hall	-3835
▁Klei	-3836
bieren	-3837
▁Liste	-3838
▁perfe	-3839
▁gewalt	-3840
▁Gehirns	-3841
▁größeren	-3842
▁schützen	-3843
▁einfachen	-3844
▁Jahrhunderts	-3845
abr	-3846
ana	-3847
irt	-3848
▁Mc	-3849
▁197	-3850
▁500	-3851
▁gep	-3852
aptop	-3853
▁Wett	-3854
▁traf	-3855
utlich	-3856
▁Kohle	-3857
▁fällt	-3858
ffizien	-3859
schiede	-3860
wendung	-3861
▁Massen	-3862
▁Teilen	-3863
▁kostet	-3864
arbeiter	-3865
▁mehrere	-3866
▁entstehen	-3867
▁getroffen	-3868
▁Atmosphäre	-3869
▁Eigenschaften	-3870
ac	-3871
ek	-3872
▁.	-3873
arm	-3874
mel	-3875
aben	-3876
anda	-3877
letz	-3878
nehm	-3879
▁Lei	-3880
▁San	-3881
▁and	-3882
appen	-3883
stieg	-3884
▁Inse	-3885
▁auft	-3886
▁gehe	-3887
▁hart	-3888
izität	-3889
▁Leist	-3890
▁Trans	-3891
▁unver	-3892
▁langen	-3893
▁Zustand	-3894
▁Religion	-3895
alisierung	-3896
▁Konferenz	-3897
▁tradition	-3898
▁Behandlung	-3899
▁konzentrieren	-3900
ammt	-3901
lose	-3902
weil	-3903
▁300	-3904
auran	-3905
▁Freu	-3906
▁Hund	-3907
▁Kons	-3908
▁Müll	-3909
▁Terr	-3910
▁jene	-3911
▁uner	-3912
▁Besch	-3913
▁Fluss	-3914
greifen	-3915
setzung	-3916
▁Physik	-3917
▁behaup	-3918
▁voraus	-3919
▁Studien	-3920
▁Zentrum	-3921
▁gedacht	-3922
▁Biologie	-3923
▁unabhäng	-3924
▁behandeln	-3925
▁bemerkens	-3926
▁Regierungen	-3927
kam	-3928
sse	-3929
▁he	-3930
▁Mos	-3931
▁Pil	-3932
dings	-3933
fälle	-3934
uchte	-3935
ütter	-3936
▁Wald	-3937
achtet	-3938
ennung	-3939
▁Organ	-3940
▁künst	-3941
▁Finanz	-3942
▁akzept	-3943
▁einzig	-3944
▁wesent	-3945
▁Methode	-3946
ologische	-3947
▁heutigen	-3948
▁durchschnitt	-3949
bol	-3950
ippe	-3951
keln	-3952
räge	-3953
stab	-3954
stag	-3955
wood	-3956
▁Dis	-3957
Warum	-3958
deten	-3959
flanz	-3960
istor	-3961
krieg	-3962
unsch	-3963
äuser	-3964
▁Wohn	-3965
▁buch	-3966
▁phys	-3967
indust	-3968
tember	-3969
▁Brust	-3970
▁Damit	-3971
▁Masse	-3972
▁Geheim	-3973
▁Studie	-3974
▁chines	-3975
▁wenige	-3976
▁zeigte	-3977
▁spricht	-3978
ca	-3979
äte	-3980
folge	-3981
itive	-3982
▁Fran	-3983
▁Kurz	-3984
▁Lebe	-3985
▁echt	-3986
▁kürz	-3987
imente	-3988
riffen	-3989
▁Traum	-3990
▁erwei	-3991
▁guter	-3992
barkeit	-3993
▁Schutz	-3994
▁spreche	-3995
industrie	-3996
▁Funktion	-3997
▁aufgenommen	-3998
mme	-3999
tra	-4000
ails	-4001
pekt	-4002
will	-4003
▁Tim	-4004
▁Haar	-4005
▁prof	-4006
▁schn	-4007
fassen	-4008
spielt	-4009
brechen	-4010
▁Schlag	-4011
ationale	-4012
▁Gefühle	-4013
▁Schluss	-4014
▁mittler	-4015
▁verantwort	-4016
▁verbringen	-4017
▁Intelligenz	-4018
▁öffentlichen	-4019
up	-4020
ath	-4021
ikt	-4022
▁oh	-4023
dimen	-4024
ations	-4025
fallen	-4026
haltung	-4027
organis	-4028
▁Bauern	-4029
▁Zeiten	-4030
▁Ameisen	-4031
▁größere	-4032
frastruktur	-4033
▁Krankenhaus	-4034
aw	-4035
tu	-4036
aur	-4037
kos	-4038
ull	-4039
▁Fe	-4040
opul	-4041
▁Bud	-4042
inken	-4043
konom	-4044
stütz	-4045
unger	-4046
▁Diag	-4047
▁Mich	-4048
▁Rich	-4049
▁Poliz	-4050
▁Kamera	-4051
▁Einfach	-4052
▁verkauft	-4053
▁Werkzeuge	-4054
▁Hintergrund	-4055
kre	-4056
ärm	-4057
▁dür	-4058
stadt	-4059
▁Liebl	-4060
▁zeich	-4061
istisch	-4062
▁Manche	-4063
▁erstes	-4064
▁Zivilis	-4065
▁Freiheit	-4066
▁Teilchen	-4067
▁Gelegenheit	-4068
▁Veränderungen	-4069
Ge	-4070
abe	-4071
geg	-4072
orn	-4073
▁Kö	-4074
onom	-4075
view	-4076
▁Pal	-4077
▁eng	-4078
eller	-4079
▁Nähe	-4080
▁Prot	-4081
ington	-4082
▁David	-4083
▁kenne	-4084
sichtig	-4085
▁Meilen	-4086
▁fallen	-4087
▁schaut	-4088
▁trifft	-4089
▁öffnen	-4090
gleichen	-4091
▁Statist	-4092
▁ehrlich	-4093
▁eigenes	-4094
▁handeln	-4095
▁Milliarde	-4096
▁einfacher	-4097
▁entschied	-4098
▁weiterhin	-4099
▁Temperatur	-4100
▁produziert	-4101
▁Fortschritt	-4102
▁beschäftigt	-4103
▁wichtigsten	-4104
urm	-4105
ames	-4106
orte	-4107
seln	-4108
sinn	-4109
atter	-4110
▁Auss	-4111
▁Lond	-4112
▁Kaffe	-4113
▁Osten	-4114
▁desto	-4115
▁Wunder	-4116
▁bezahl	-4117
▁verhin	-4118
▁Erstens	-4119
▁emotion	-4120
▁erzeugt	-4121
▁Manchmal	-4122
▁Vielfalt	-4123
▁riesigen	-4124
▁Antworten	-4125
▁Medikamen	-4126
▁Ergebnisse	-4127
ilt	-4128
ong	-4129
urg	-4130
▁la	-4131
omin	-4132
üren	-4133
üsse	-4134
▁Sen	-4135
▁Tal	-4136
▁wün	-4137
lange	-4138
▁Arzt	-4139
▁Gang	-4140
▁High	-4141
▁west	-4142
leisch	-4143
raucht	-4144
▁Suche	-4145
▁nehme	-4146
otograf	-4147
▁Ansatz	-4148
▁Kunden	-4149
▁Risiko	-4150
▁drehen	-4151
zeichnen	-4152
▁Phänomen	-4153
▁Standard	-4154
▁,	-4155
blü	-4156
▁Ak	-4157
▁Wü	-4158
fter	-4159
ügen	-4160
▁Dir	-4161
▁Kir	-4162
▁Syn	-4163
▁mer	-4164
▁Ausw	-4165
▁Brie	-4166
▁Pfer	-4167
▁Wege	-4168
▁West	-4169
fangen	-4170
ochter	-4171
rücken	-4172
▁Typen	-4173
isieren	-4174
▁Laptop	-4175
undament	-4176
▁entlang	-4177
▁rechten	-4178
▁Kollegen	-4179
▁erwarten	-4180
▁Lebewesen	-4181
▁Demokratie	-4182
▁Infrastruktur	-4183
ppe	-4184
▁Ep	-4185
▁Än	-4186
afen	-4187
ling	-4188
▁Bal	-4189
▁Fen	-4190
▁Wol	-4191
▁kor	-4192
ielle	-4193
▁Quad	-4194
▁okay	-4195
andels	-4196
▁Freude	-4197
▁Region	-4198
▁Tieren	-4199
▁lautet	-4200
▁verste	-4201
▁Systeme	-4202
▁nachhalt	-4203
▁Geschäfts	-4204
▁Verfügung	-4205
▁Überleben	-4206
maß	-4207
holt	-4208
▁Irak	-4209
▁lust	-4210
▁nutz	-4211
▁nütz	-4212
orgung	-4213
▁davor	-4214
▁Ärzte	-4215
eutlich	-4216
stäblich	-4217
▁globale	-4218
▁Produkte	-4219
▁Reaktion	-4220
▁benötigt	-4221
▁ermöglichen	-4222
yr	-4223
how	-4224
kur	-4225
prü	-4226
rug	-4227
anne	-4228
geht	-4229
gier	-4230
text	-4231
wech	-4232
▁Del	-4233
▁Kop	-4234
▁See	-4235
artig	-4236
schte	-4237
▁AIDS	-4238
▁hört	-4239
▁Affen	-4240
▁weiss	-4241
▁Spitze	-4242
▁effekt	-4243
▁frühen	-4244
▁werfen	-4245
zwischen	-4246
▁Richard	-4247
▁endlich	-4248
geschichte	-4249
▁natürliche	-4250
▁vollkommen	-4251
▁Kreativität	-4252
▁erstaunlich	-4253
die	-4254
ged	-4255
rum	-4256
▁is	-4257
icks	-4258
▁Abst	-4259
▁Kampf	-4260
▁legen	-4261
▁neuer	-4262
▁Result	-4263
▁Fernseh	-4264
▁Einstein	-4265
▁Interess	-4266
▁erinnere	-4267
▁erlauben	-4268
ungssystem	-4269
▁existieren	-4270
▁verursacht	-4271
▁wunderschön	-4272
▁buchstäblich	-4273
olo	-4274
vel	-4275
ähl	-4276
▁Ei	-4277
▁at	-4278
gien	-4279
▁Con	-4280
▁Los	-4281
ilien	-4282
itann	-4283
▁Glas	-4284
▁Text	-4285
▁Jungs	-4286
▁Vogel	-4287
▁ident	-4288
▁sowie	-4289
klärung	-4290
▁Farben	-4291
▁Kohlen	-4292
▁London	-4293
istische	-4294
spektive	-4295
▁Erinner	-4296
▁Kontakt	-4297
▁Schwier	-4298
▁Tochter	-4299
▁dritten	-4300
gendetwas	-4301
▁Galaxien	-4302
▁brauchte	-4303
▁entsteht	-4304
▁wiederum	-4305
▁Botschaft	-4306
▁Organismen	-4307
fs	-4308
hö	-4309
lam	-4310
ört	-4311
leun	-4312
▁zug	-4313
eitet	-4314
fisch	-4315
rogen	-4316
▁Dort	-4317
▁Drei	-4318
▁Holz	-4319
▁Muse	-4320
▁gilt	-4321
▁ließ	-4322
▁Haben	-4323
alismus	-4324
▁Fische	-4325
▁Zucker	-4326
▁passen	-4327
▁sauber	-4328
▁gestern	-4329
▁schlimm	-4330
dimension	-4331
▁besitzen	-4332
▁deutlich	-4333
sellschaft	-4334
▁Schlüssel	-4335
▁erforschen	-4336
▁Klimawandel	-4337
▁Verbindungen	-4338
▁Entwicklungsl	-4339
▁herausgefunden	-4340
AS	-4341
fg	-4342
utt	-4343
▁on	-4344
enze	-4345
mann	-4346
älte	-4347
acken	-4348
eting	-4349
ilder	-4350
inder	-4351
▁Erst	-4352
▁Trei	-4353
afrika	-4354
digung	-4355
selben	-4356
ährung	-4357
▁fühlt	-4358
▁tolle	-4359
aterial	-4360
entwick	-4361
▁Spiele	-4362
▁Wunsch	-4363
▁erwähn	-4364
▁Fleisch	-4365
▁genutzt	-4366
▁schafft	-4367
▁benötigen	-4368
▁repräsent	-4369
▁sicherlich	-4370
zy	-4371
Nun	-4372
spe	-4373
▁Erf	-4374
▁Tel	-4375
▁för	-4376
frist	-4377
fügen	-4378
▁Fett	-4379
▁Beste	-4380
▁Stein	-4381
enntnis	-4382
ifornien	-4383
▁Knochen	-4384
▁dagegen	-4385
zubringen	-4386
▁Gefängnis	-4387
▁Maschinen	-4388
ford	-4389
imal	-4390
inos	-4391
schm	-4392
umor	-4393
weit	-4394
▁rel	-4395
▁tue	-4396
etter	-4397
schlä	-4398
stimm	-4399
▁Gest	-4400
▁auss	-4401
▁Wider	-4402
▁hielt	-4403
▁Terror	-4404
▁fühlte	-4405
▁ganzes	-4406
▁schöne	-4407
▁selten	-4408
▁Insekten	-4409
▁gelangen	-4410
▁gegenseit	-4411
▁Landwirtschaft	-4412
▁möglicherweise	-4413
Er	-4414
uh	-4415
Ver	-4416
ost	-4417
arch	-4418
dass	-4419
gnor	-4420
renz	-4421
tend	-4422
webe	-4423
▁Web	-4424
▁Zug	-4425
halte	-4426
neten	-4427
▁Feld	-4428
▁verg	-4429
liegen	-4430
▁Gespr	-4431
▁Todes	-4432
drücken	-4433
eistert	-4434
stellte	-4435
▁verfüg	-4436
▁Niemand	-4437
▁erleben	-4438
indestens	-4439
▁Korallen	-4440
▁vermutlich	-4441
,"	-4442
ax	-4443
oo	-4444
Wenn	-4445
abil	-4446
aria	-4447
▁150	-4448
▁Ken	-4449
▁Sep	-4450
▁Zit	-4451
▁spe	-4452
dingt	-4453
fghan	-4454
herap	-4455
laden	-4456
▁Sehr	-4457
▁Falls	-4458
▁Handy	-4459
itannien	-4460
▁Gewicht	-4461
▁kompliz	-4462
▁perfekt	-4463
▁stecken	-4464
▁Ausdruck	-4465
▁gewonnen	-4466
▁Fernsehen	-4467
▁gestalten	-4468
▁irgendetwas	-4469
▁Durchschnitt	-4470
hi	-4471
zur	-4472
äne	-4473
▁As	-4474
eien	-4475
ourn	-4476
port	-4477
▁Mär	-4478
▁res	-4479
hilfe	-4480
lagen	-4481
scher	-4482
▁Atom	-4483
▁Szen	-4484
▁blie	-4485
▁krit	-4486
führer	-4487
▁Dimen	-4488
▁hängt	-4489
▁seien	-4490
▁zentr	-4491
schauen	-4492
▁Großbr	-4493
▁Kontin	-4494
▁ändert	-4495
programm	-4496
▁Einsatz	-4497
▁Fenster	-4498
▁Modelle	-4499
▁letztes	-4500
▁Soldaten	-4501
▁Werkzeug	-4502
▁erinnert	-4503
▁gewisser	-4504
▁Erfahrungen	-4505
▁kontrollieren	-4506
spl	-4507
bank	-4508
▁Ach	-4509
▁Mem	-4510
▁jün	-4511
riere	-4512
rücke	-4513
▁Eind	-4514
▁Gold	-4515
▁Graf	-4516
▁darf	-4517
▁habt	-4518
iertel	-4519
▁Beine	-4520
▁Titel	-4521
▁Strate	-4522
▁linken	-4523
▁wählen	-4524
▁erklärt	-4525
▁positiv	-4526
▁Freunden	-4527
▁erstellen	-4528
▁Beziehungen	-4529
▁kommunizieren	-4530
örp	-4531
▁Dun	-4532
▁Fein	-4533
▁Impf	-4534
▁Port	-4535
▁ober	-4536
▁vern	-4537
atisch	-4538
isiert	-4539
▁Reich	-4540
▁Stift	-4541
▁haupt	-4542
▁relig	-4543
▁10.000	-4544
▁Westen	-4545
▁erhält	-4546
▁lernte	-4547
▁sorgen	-4548
▁steckt	-4549
kosystem	-4550
▁Gedanke	-4551
▁Mitglie	-4552
▁alleine	-4553
▁nochmal	-4554
▁schwarz	-4555
alisieren	-4556
ologischen	-4557
▁Aktivität	-4558
▁Produktion	-4559
▁Unternehmer	-4560
▁Unterschiede	-4561
cy	-4562
ox	-4563
asi	-4564
bed	-4565
ieß	-4566
ron	-4567
kauf	-4568
oper	-4569
▁Bri	-4570
▁Col	-4571
▁Fün	-4572
▁typ	-4573
ption	-4574
▁Denk	-4575
▁Eins	-4576
▁chem	-4577
▁fehl	-4578
nissen	-4579
vollen	-4580
zeiten	-4581
▁Keine	-4582
▁Schne	-4583
▁absch	-4584
▁psych	-4585
bereich	-4586
▁Auswahl	-4587
▁Objekte	-4588
▁Sekunde	-4589
▁derzeit	-4590
▁Position	-4591
▁weiteres	-4592
▁Restauran	-4593
▁unbedingt	-4594
▁überzeugen	-4595
▁su	-4596
eits	-4597
kung	-4598
raut	-4599
serv	-4600
▁Rom	-4601
▁Sil	-4602
eiger	-4603
platz	-4604
raben	-4605
▁Bank	-4606
▁Schr	-4607
▁Stoff	-4608
▁kurze	-4609
▁sitzt	-4610
▁wirst	-4611
hington	-4612
zusehen	-4613
▁Erzähl	-4614
▁Sorgen	-4615
▁Themen	-4616
▁hinweg	-4617
▁falsche	-4618
blichkeit	-4619
istischen	-4620
Sie	-4621
amt	-4622
▁sü	-4623
anst	-4624
wahr	-4625
weck	-4626
▁Wik	-4627
▁Arme	-4628
▁Nerv	-4629
▁erfü	-4630
schrän	-4631
sprach	-4632
▁Basis	-4633
▁Genom	-4634
▁Niger	-4635
▁Trend	-4636
▁dreht	-4637
▁solch	-4638
ichtbar	-4639
▁Karten	-4640
▁Nehmen	-4641
▁Zimmer	-4642
▁haupts	-4643
▁schlie	-4644
▁selber	-4645
▁Diskuss	-4646
▁Männern	-4647
▁umgehen	-4648
▁September	-4649
▁verdienen	-4650
▁Unterstütz	-4651
▁Washington	-4652
▁vollständig	-4653
ruf	-4654
gere	-4655
ingu	-4656
amour	-4657
macht	-4658
▁Dass	-4659
▁Letz	-4660
▁Lied	-4661
▁anal	-4662
▁früh	-4663
▁getö	-4664
wiesen	-4665
▁Filme	-4666
▁Liter	-4667
▁dauer	-4668
▁fragt	-4669
▁Haufen	-4670
ographie	-4671
▁Drittel	-4672
▁Galaxie	-4673
▁schönen	-4674
ungskraft	-4675
▁Zweitens	-4676
▁deswegen	-4677
▁erwartet	-4678
▁nächstes	-4679
▁zufällig	-4680
▁Landschaft	-4681
▁verbreitet	-4682
▁Bedingungen	-4683
▁Kalifornien	-4684
▁beschreiben	-4685
▁investieren	-4686
▁letztendlich	-4687
▁Großbritannien	-4688
ep	-4689
ham	-4690
pft	-4691
ehnt	-4692
gern	-4693
gest	-4694
ikal	-4695
otyp	-4696
▁Che	-4697
▁Log	-4698
▁Sal	-4699
chern	-4700
hafte	-4701
urcht	-4702
▁Auft	-4703
▁Jede	-4704
▁Verm	-4705
▁verh	-4706
artige	-4707
echsel	-4708
wirken	-4709
▁Beruf	-4710
▁Metap	-4711
zugehen	-4712
▁Planet	-4713
▁Rücken	-4714
▁online	-4715
▁religi	-4716
▁sodass	-4717
▁verlie	-4718
▁geführt	-4719
▁Qualität	-4720
▁dieselbe	-4721
▁hunderte	-4722
▁scheinen	-4723
▁Präsident	-4724
▁überzeugt	-4725
▁Bildschirm	-4726
▁Strukturen	-4727
▁irgendwann	-4728
▁mindestens	-4729
▁wichtigste	-4730
ags	-4731
ain	-4732
kan	-4733
len	-4734
▁Got	-4735
▁saß	-4736
losen	-4737
werte	-4738
▁2000	-4739
▁Gras	-4740
▁Kann	-4741
▁Paul	-4742
▁Rand	-4743
▁Sein	-4744
▁Will	-4745
▁aufw	-4746
istenz	-4747
▁Innen	-4748
▁sogen	-4749
▁töten	-4750
athemat	-4751
änglich	-4752
▁Hunder	-4753
▁Lernen	-4754
▁gesund	-4755
▁verein	-4756
▁Bildern	-4757
▁Mission	-4758
▁außerdem	-4759
▁bezahlen	-4760
▁fotograf	-4761
▁stellten	-4762
▁hoffentlich	-4763
möglichkeiten	-4764
uck	-4765
bahn	-4766
idem	-4767
klus	-4768
kton	-4769
netz	-4770
omit	-4771
osoph	-4772
▁Band	-4773
▁Heil	-4774
▁Bitte	-4775
▁Frank	-4776
▁Schau	-4777
▁Spekt	-4778
▁Verbr	-4779
▁könnt	-4780
achtung	-4781
hältnis	-4782
spielen	-4783
▁Altern	-4784
▁Händen	-4785
▁Wandel	-4786
▁grunds	-4787
▁häufig	-4788
▁wächst	-4789
alisiert	-4790
▁Gründen	-4791
▁Kontext	-4792
▁anderem	-4793
▁einiger	-4794
▁kümmern	-4795
▁Wahrnehm	-4796
▁reagieren	-4797
▁politische	-4798
▁Medikamente	-4799
▁hergestellt	-4800
▁interessanter	-4801
▁veröffentlicht	-4802
Du	-4803
ly	-4804
▁1.	-4805
▁Vö	-4806
adem	-4807
wärt	-4808
▁20.	-4809
▁400	-4810
▁Gas	-4811
▁Hil	-4812
▁Mut	-4813
hause	-4814
rüben	-4815
▁kauf	-4816
oppelt	-4817
sweise	-4818
▁eröff	-4819
▁hohen	-4820
▁krank	-4821
▁Rahmen	-4822
▁lieber	-4823
▁Schmerz	-4824
▁kämpfen	-4825
▁betrifft	-4826
▁behandelt	-4827
▁entwerfen	-4828
▁praktisch	-4829
▁begeistert	-4830
▁beeinflusst	-4831
▁beeinflussen	-4832
▁durchgeführt	-4833
arb	-4834
van	-4835
band	-4836
omme	-4837
▁Nan	-4838
▁Tau	-4839
▁Zur	-4840
beweg	-4841
eskop	-4842
haben	-4843
▁Atem	-4844
▁disk	-4845
▁entw	-4846
▁virt	-4847
sionen	-4848
umente	-4849
wohner	-4850
▁Autor	-4851
▁Motor	-4852
▁absol	-4853
▁halte	-4854
▁holen	-4855
▁musst	-4856
ordnung	-4857
zeichen	-4858
ältigen	-4859
▁Symmet	-4860
▁drüben	-4861
▁echten	-4862
▁erster	-4863
▁leider	-4864
▁Patient	-4865
▁erzähle	-4866
▁getötet	-4867
▁modernen	-4868
▁verbracht	-4869
▁eingesetzt	-4870
▁wunderbare	-4871
2-	-4872
ada	-4873
fil	-4874
pfe	-4875
▁Com	-4876
▁Tie	-4877
▁nöt	-4878
aster	-4879
langt	-4880
▁laut	-4881
▁läch	-4882
▁Folge	-4883
▁Train	-4884
▁ignor	-4885
▁spiel	-4886
itieren	-4887
okument	-4888
steller	-4889
änderte	-4890
▁Heimat	-4891
▁Voraus	-4892
▁Begriff	-4893
▁Klassen	-4894
▁Präsent	-4895
▁Spielen	-4896
▁Großteil	-4897
▁Wettbewer	-4898
▁gestorben	-4899
▁erscheinen	-4900
▁gefährlich	-4901
▁natürlichen	-4902
▁Elektrizität	-4903
▁Organisationen	-4904
▁verantwortlich	-4905
ld	-4906
par	-4907
zep	-4908
frei	-4909
hrop	-4910
ivat	-4911
▁Exp	-4912
▁Mir	-4913
ieben	-4914
▁dank	-4915
iellen	-4916
recher	-4917
▁Stufe	-4918
▁starb	-4919
steigen	-4920
▁Dienst	-4921
▁Klasse	-4922
▁Minute	-4923
▁Nichts	-4924
▁dürfen	-4925
▁verwir	-4926
minister	-4927
▁Gemeinde	-4928
▁Weltraum	-4929
▁kürzlich	-4930
▁Untersuch	-4931
▁Augenblick	-4932
▁überraschen	-4933
▁35	-4934
▁Jo	-4935
amin	-4936
dige	-4937
edia	-4938
olly	-4939
spar	-4940
gener	-4941
markt	-4942
▁Fest	-4943
▁Lang	-4944
▁Null	-4945
▁Tanz	-4946
▁Temp	-4947
▁rede	-4948
formen	-4949
jekten	-4950
▁Milch	-4951
▁Sport	-4952
▁begeg	-4953
▁heran	-4954
▁setzt	-4955
▁wohin	-4956
geladen	-4957
rauchen	-4958
▁Bruder	-4959
▁Darwin	-4960
▁bitten	-4961
▁dauert	-4962
richtung	-4963
▁gelesen	-4964
▁mathemat	-4965
▁verfolgen	-4966
▁versuchten	-4967
▁Zivilisation	-4968
üh	-4969
Der	-4970
för	-4971
ädt	-4972
▁Em	-4973
▁MI	-4974
▁Rä	-4975
nost	-4976
skop	-4977
▁zog	-4978
gress	-4979
hoden	-4980
derung	-4981
▁Etwas	-4982
▁Franc	-4983
▁Momen	-4984
▁Effekt	-4985
▁Mütter	-4986
▁Quelle	-4987
▁Vision	-4988
▁deinen	-4989
jährigen	-4990
stellten	-4991
▁Führung	-4992
▁Spiegel	-4993
▁präsent	-4994
▁worüber	-4995
▁besseren	-4996
▁gehalten	-4997
▁übertragen	-4998
20	-4999
Ar	-5000
dru	-5001
ith	-5002
öpf	-5003
eise	-5004
vert	-5005
▁Ele	-5006
▁mot	-5007
eiste	-5008
lette	-5009
ätsel	-5010
▁Jobs	-5011
▁Seit	-5012
▁plan	-5013
schule	-5014
▁Ganze	-5015
▁Insel	-5016
▁total	-5017
▁verle	-5018
jährige	-5019
▁Nation	-5020
▁aussch	-5021
▁kurzen	-5022
▁schick	-5023
▁Jahrzeh	-5024
▁Quadrat	-5025
▁Städten	-5026
▁kreativ	-5027
▁steigen	-5028
▁welchem	-5029
▁zurückzu	-5030
▁verwandeln	-5031
▁Perspektive	-5032
▁Lebensmittel	-5033
▁entwickelten	-5034
▁interagieren	-5035
▁hauptsächlich	-5036
An	-5037
▁Gi	-5038
hört	-5039
irne	-5040
ppen	-5041
▁rad	-5042
▁zuk	-5043
ippen	-5044
▁Ecke	-5045
▁Fach	-5046
▁Glob	-5047
▁Mund	-5048
▁geha	-5049
▁hohe	-5050
hängig	-5051
kehren	-5052
werden	-5053
▁Ident	-5054
▁Offen	-5055
▁Seele	-5056
▁Staat	-5057
▁kennt	-5058
▁weder	-5059
schloss	-5060
▁Besitz	-5061
▁Jemand	-5062
▁Kräfte	-5063
▁Linien	-5064
▁Nutzen	-5065
▁beteil	-5066
ausenden	-5067
▁England	-5068
▁stärker	-5069
▁Verstand	-5070
▁gewissen	-5071
richtungen	-5072
▁Problemen	-5073
▁Individuen	-5074
▁verbreiten	-5075
▁zusammenge	-5076
▁auseinander	-5077
li	-5078
▁Kä	-5079
ions	-5080
lied	-5081
▁Gar	-5082
▁Säu	-5083
▁Tom	-5084
atell	-5085
ähren	-5086
▁Kerl	-5087
▁Körp	-5088
aturen	-5089
iertes	-5090
▁Schei	-5091
▁stolz	-5092
gegeben	-5093
▁Afghan	-5094
▁Batter	-5095
▁Kombin	-5096
▁brauche	-5097
▁Aufgaben	-5098
▁Karriere	-5099
▁weiteren	-5100
▁Kontinent	-5101
▁entspricht	-5102
wissenschaft	-5103
▁Generationen	-5104
Na	-5105
rot	-5106
ühr	-5107
ates	-5108
bern	-5109
iden	-5110
plos	-5111
▁kom	-5112
ehung	-5113
frage	-5114
unken	-5115
▁dran	-5116
▁drin	-5117
spiels	-5118
▁Brenn	-5119
▁Zelle	-5120
führung	-5121
gewicht	-5122
quenzen	-5123
▁Gottes	-5124
▁gehabt	-5125
▁klingt	-5126
▁Kapital	-5127
▁basiert	-5128
▁starten	-5129
▁Eindruck	-5130
▁Nachbarn	-5131
▁Sprachen	-5132
▁zunehmen	-5133
▁notwendig	-5134
▁verbesser	-5135
▁Kohlenstoff	-5136
nü	-5137
air	-5138
uft	-5139
unk	-5140
digt	-5141
wegs	-5142
▁Gal	-5143
▁Hem	-5144
▁NAS	-5145
front	-5146
lecht	-5147
reite	-5148
riffe	-5149
wagen	-5150
▁Mach	-5151
▁Satz	-5152
▁herr	-5153
▁schm	-5154
▁trin	-5155
mutter	-5156
ondere	-5157
ournal	-5158
▁Außen	-5159
▁Defin	-5160
▁Klang	-5161
▁Statt	-5162
▁fängt	-5163
▁gener	-5164
▁lebte	-5165
▁nutzt	-5166
agement	-5167
spieler	-5168
▁Irgend	-5169
▁Videos	-5170
▁dauern	-5171
▁Details	-5172
▁Schrift	-5173
▁Website	-5174
▁zukünft	-5175
▁Elemente	-5176
▁Experten	-5177
▁erfinden	-5178
▁tausende	-5179
▁politischen	-5180
▁Unterstützung	-5181
hek	-5182
ike	-5183
osm	-5184
alte	-5185
aust	-5186
isse	-5187
läss	-5188
oler	-5189
eucht	-5190
nimmt	-5191
▁Rede	-5192
▁Stär	-5193
▁Wein	-5194
▁Wurz	-5195
▁ausb	-5196
▁verr	-5197
▁Colle	-5198
▁Erleb	-5199
▁Jeden	-5200
▁gaben	-5201
▁Drogen	-5202
▁Schiff	-5203
▁Schwei	-5204
maschine	-5205
motionen	-5206
▁Francis	-5207
▁bezahlt	-5208
▁Erklärung	-5209
▁vorhanden	-5210
▁arbeiteten	-5211
▁verhindern	-5212
▁grundlegende	-5213
▁interessieren	-5214
▁Schwierigkeiten	-5215
abl	-5216
int	-5217
ird	-5218
tin	-5219
▁el	-5220
▁tr	-5221
adel	-5222
ügel	-5223
▁Imm	-5224
▁Mex	-5225
▁Uns	-5226
akten	-5227
bliot	-5228
passt	-5229
▁Aben	-5230
▁Beob	-5231
▁City	-5232
▁eure	-5233
atoren	-5234
gument	-5235
▁trägt	-5236
teilung	-5237
▁Fällen	-5238
▁Waffen	-5239
▁eigent	-5240
isierung	-5241
▁Spieler	-5242
▁automat	-5243
▁gebeten	-5244
▁tausend	-5245
▁wenigen	-5246
▁Anderson	-5247
▁Außerdem	-5248
▁Konflikt	-5249
▁Emotionen	-5250
▁Gegensatz	-5251
▁Schwester	-5252
▁verbindet	-5253
▁entstanden	-5254
vol	-5255
▁Pak	-5256
▁Rat	-5257
▁Ter	-5258
▁fäh	-5259
▁inst	-5260
gruppe	-5261
▁klass	-5262
▁passt	-5263
▁teuer	-5264
▁Grafik	-5265
▁Wesent	-5266
▁diskut	-5267
▁leiden	-5268
▁ließen	-5269
▁mitten	-5270
▁müsste	-5271
verständ	-5272
▁Malaria	-5273
▁kriegen	-5274
▁Hinsicht	-5275
▁Kindheit	-5276
▁normalen	-5277
▁zunächst	-5278
▁vergangen	-5279
▁Ausbildung	-5280
▁allerdings	-5281
▁schlechter	-5282
▁entsprechen	-5283
▁beschäftigen	-5284
▁amerikanische	-5285
ice	-5286
ics	-5287
etik	-5288
flug	-5289
klen	-5290
▁Abs	-5291
▁par	-5292
ckten	-5293
essor	-5294
ffent	-5295
▁NASA	-5296
▁getr	-5297
▁rech	-5298
▁verf	-5299
spruch	-5300
▁Weile	-5301
▁gross	-5302
▁wechs	-5303
scheint	-5304
wärmung	-5305
▁Häuser	-5306
▁Inhalt	-5307
▁Schlaf	-5308
▁ausgeb	-5309
▁hinten	-5310
▁Wichtig	-5311
▁begrenz	-5312
▁gespielt	-5313
▁individu	-5314
▁schlimmer	-5315
▁Verhaltens	-5316
▁inspiriert	-5317
The	-5318
ago	-5319
amb	-5320
kor	-5321
pag	-5322
üte	-5323
▁45	-5324
▁UN	-5325
igur	-5326
osen	-5327
▁MIT	-5328
▁Tre	-5329
▁kap	-5330
asste	-5331
heben	-5332
ischt	-5333
ologe	-5334
▁Bett	-5335
▁heil	-5336
▁mass	-5337
▁sinn	-5338
igsten	-5339
itteln	-5340
jemand	-5341
▁Anrei	-5342
▁Radio	-5343
▁quasi	-5344
▁somit	-5345
vention	-5346
▁Garten	-5347
▁Museum	-5348
▁antwor	-5349
▁einsch	-5350
▁testen	-5351
▁Theater	-5352
▁Werbung	-5353
▁bemerkt	-5354
▁gewisse	-5355
fähigkeit	-5356
▁Arbeiten	-5357
▁abhängig	-5358
echtigkeit	-5359
▁Südafrika	-5360
▁bestimmen	-5361
▁entworfen	-5362
▁erscheint	-5363
▁persönlich	-5364
▁reduzieren	-5365
dit	-5366
▁ag	-5367
eils	-5368
glau	-5369
lege	-5370
mack	-5371
ogar	-5372
vard	-5373
▁Eth	-5374
▁Nor	-5375
ektor	-5376
impan	-5377
▁Chin	-5378
▁Fabr	-5379
talien	-5380
▁Links	-5381
▁Neben	-5382
▁Parad	-5383
▁World	-5384
▁frage	-5385
▁regel	-5386
umenten	-5387
▁Grippe	-5388
▁Helden	-5389
▁lebten	-5390
▁nannte	-5391
▁schaff	-5392
▁zählen	-5393
ierenden	-5394
▁Zeichen	-5395
▁reichen	-5396
▁Nationen	-5397
▁langweil	-5398
▁Vorfahren	-5399
▁aufregend	-5400
▁brauchten	-5401
▁beantworten	-5402
▁entwickelte	-5403
▁Präsentation	-5404
▁unterschiedlich	-5405
sh	-5406
ara	-5407
urf	-5408
zig	-5409
▁iP	-5410
rael	-5411
sver	-5412
trag	-5413
usch	-5414
▁Akt	-5415
mögen	-5416
press	-5417
schau	-5418
tzeit	-5419
▁Eing	-5420
▁bloß	-5421
▁jähr	-5422
▁naja	-5423
▁Zweck	-5424
▁train	-5425
diglich	-5426
ständen	-5427
▁Belohn	-5428
▁Größen	-5429
▁Kaffee	-5430
▁Rechen	-5431
▁tiefer	-5432
▁vieler	-5433
▁Charles	-5434
▁Polizei	-5435
forschung	-5436
▁Leistung	-5437
▁Moleküle	-5438
▁Neuronen	-5439
▁Schimpan	-5440
▁Lieblings	-5441
▁irgendein	-5442
▁definieren	-5443
▁Architekten	-5444
▁Experimente	-5445
▁unterscheiden	-5446
▁Gesellschaften	-5447
,5	-5448
ahe	-5449
ash	-5450
leg	-5451
ton	-5452
use	-5453
yse	-5454
äbe	-5455
önt	-5456
▁Ap	-5457
▁Cr	-5458
▁Sl	-5459
anen	-5460
azif	-5461
reie	-5462
▁Ans	-5463
▁prä	-5464
enter	-5465
▁Blau	-5466
▁Cent	-5467
▁Maus	-5468
▁Ober	-5469
▁Orig	-5470
▁Phot	-5471
▁aufs	-5472
▁fiel	-5473
▁halb	-5474
▁trau	-5475
aurier	-5476
gehend	-5477
ischem	-5478
▁Elekt	-5479
▁Times	-5480
▁Wikip	-5481
▁Zitat	-5482
▁sowas	-5483
▁zieht	-5484
▁Christ	-5485
▁Gefahr	-5486
▁Nieder	-5487
▁aufgew	-5488
▁integr	-5489
▁stelle	-5490
▁vorber	-5491
▁zahlen	-5492
▁Ansicht	-5493
▁Entfern	-5494
▁Zeitung	-5495
▁konstru	-5496
▁morgens	-5497
▁überras	-5498
▁meistens	-5499
▁angesehen	-5500
▁schließen	-5501
▁verfügbar	-5502
▁Forschungs	-5503
▁Zusammenarbeit	-5504
krie	-5505
pret	-5506
uman	-5507
▁Hom	-5508
aktiv	-5509
bares	-5510
boden	-5511
▁Fehl	-5512
▁Fünf	-5513
▁zeit	-5514
rechte	-5515
sichts	-5516
▁Brief	-5517
▁Dinos	-5518
▁Mobil	-5519
▁beweg	-5520
▁einst	-5521
▁fähig	-5522
▁unend	-5523
einhalb	-5524
erseits	-5525
gründet	-5526
▁Gegend	-5527
▁Jugend	-5528
▁herein	-5529
▁verknü	-5530
▁Berechn	-5531
▁Richtig	-5532
▁beinhal	-5533
▁dennoch	-5534
▁fördern	-5535
▁Kulturen	-5536
▁brachten	-5537
▁entgegen	-5538
▁schlagen	-5539
▁schwarze	-5540
▁Bereichen	-5541
▁fundament	-5542
▁zerstören	-5543
▁wesentlich	-5544
▁Afghanistan	-5545
▁Wirtschafts	-5546
ica	-5547
pon	-5548
üge	-5549
▁hü	-5550
eter	-5551
ffer	-5552
ynth	-5553
▁Roh	-5554
▁neg	-5555
fahrt	-5556
llekt	-5557
ösung	-5558
▁Pass	-5559
sprung	-5560
▁Folie	-5561
▁exper	-5562
▁vorne	-5563
▁übrig	-5564
züglich	-5565
▁schlau	-5566
aktionen	-5567
ollywood	-5568
▁Afrikas	-5569
▁Vorteil	-5570
▁bekamen	-5571
▁hierher	-5572
▁relativ	-5573
▁kreieren	-5574
▁verteilt	-5575
▁einsetzen	-5576
▁studieren	-5577
▁Eigentlich	-5578
▁Erkenntnis	-5579
▁Bedürfnisse	-5580
▁Wahrnehmung	-5581
▁gegenseitig	-5582
▁verschwinden	-5583
by	-5584
krä	-5585
änn	-5586
▁99	-5587
eben	-5588
erne	-5589
omet	-5590
▁abl	-5591
ätter	-5592
▁Boot	-5593
▁Phys	-5594
▁dram	-5595
▁tats	-5596
ategor	-5597
flicht	-5598
imeter	-5599
reisen	-5600
werten	-5601
▁Angel	-5602
▁Phase	-5603
▁Pingu	-5604
▁brill	-5605
artigen	-5606
ografie	-5607
▁Ausmaß	-5608
▁Beweis	-5609
▁Bienen	-5610
▁Obwohl	-5611
▁Persön	-5612
▁Rätsel	-5613
▁Satell	-5614
▁dunkle	-5615
▁glaubt	-5616
▁heisst	-5617
▁hoffen	-5618
▁lustig	-5619
▁meiste	-5620
▁treten	-5621
▁Gesetze	-5622
▁welchen	-5623
▁Teleskop	-5624
▁Katastrop	-5625
▁Wikipedia	-5626
▁lediglich	-5627
▁beobachtet	-5628
▁Dinosaurier	-5629
▁erstaunliche	-5630
▁Institutionen	-5631
▁afrikanischen	-5632
▁grundsätzlich	-5633
0,	-5634
Re	-5635
arr	-5636
ozi	-5637
ube	-5638
ilde	-5639
jahr	-5640
leib	-5641
ward	-5642
▁11.	-5643
▁Bon	-5644
▁Ill	-5645
▁las	-5646
utzer	-5647
▁Auff	-5648
▁Samm	-5649
▁Volk	-5650
▁Zahn	-5651
▁Zent	-5652
▁engl	-5653
▁gäbe	-5654
▁priv	-5655
▁zuzu	-5656
gewalt	-5657
▁Ihres	-5658
▁Zusch	-5659
▁halbe	-5660
▁lernt	-5661
▁Stücke	-5662
▁bedeut	-5663
▁gelebt	-5664
▁gelöst	-5665
▁setzte	-5666
zusetzen	-5667
▁Bibliot	-5668
▁Militär	-5669
▁Nigeria	-5670
▁beinahe	-5671
▁fragten	-5672
▁Tausende	-5673
▁aufbauen	-5674
▁aufhören	-5675
▁Arbeitspl	-5676
▁Identität	-5677
▁gegründet	-5678
▁Bewegungen	-5679
▁beschlossen	-5680
com	-5681
wen	-5682
berg	-5683
▁21.	-5684
▁Les	-5685
▁Okt	-5686
▁Zer	-5687
▁bat	-5688
▁sex	-5689
ierer	-5690
ietet	-5691
rufen	-5692
stren	-5693
usion	-5694
weile	-5695
ängst	-5696
▁Chir	-5697
▁Dach	-5698
▁Eben	-5699
▁Sitz	-5700
▁höre	-5701
▁rück	-5702
fragen	-5703
▁Moral	-5704
▁schne	-5705
▁versp	-5706
▁wieso	-5707
▁wisst	-5708
itation	-5709
problem	-5710
▁Zuerst	-5711
▁stammt	-5712
▁starke	-5713
▁Element	-5714
▁Maßstab	-5715
▁gefällt	-5716
▁genauer	-5717
besondere	-5718
▁Deswegen	-5719
▁Gegenteil	-5720
▁geschickt	-5721
▁wirkliche	-5722
▁Entdeckung	-5723
▁Interessen	-5724
▁schlechten	-5725
▁verbrachte	-5726
▁schrecklich	-5727
sb	-5728
iag	-5729
ogn	-5730
umb	-5731
akte	-5732
hers	-5733
hmus	-5734
mmen	-5735
ohnt	-5736
samt	-5737
tels	-5738
▁000	-5739
▁600	-5740
▁Skl	-5741
▁wes	-5742
lösen	-5743
zieht	-5744
▁Bein	-5745
▁Mosk	-5746
▁nerv	-5747
▁zahl	-5748
recken	-5749
ynamik	-5750
▁Hunde	-5751
▁Krise	-5752
▁Lager	-5753
▁Phant	-5754
▁enorm	-5755
▁wobei	-5756
▁wuchs	-5757
andelte	-5758
etische	-5759
örtlich	-5760
▁Gesamt	-5761
▁Nerven	-5762
▁Normal	-5763
▁Wetter	-5764
▁auftau	-5765
▁gering	-5766
▁hinauf	-5767
▁kombin	-5768
▁steigt	-5769
▁vergrö	-5770
issionen	-5771
▁Momente	-5772
▁Nachdem	-5773
▁Schnitt	-5774
▁äußerst	-5775
▁überprü	-5776
▁annehmen	-5777
▁effektiv	-5778
▁komplexe	-5779
▁Marketing	-5780
▁Vertrauen	-5781
▁aufgebaut	-5782
▁darstellen	-5783
▁zugänglich	-5784
aat	-5785
▁ök	-5786
blei	-5787
heim	-5788
raht	-5789
▁Gro	-5790
▁zut	-5791
anzös	-5792
geber	-5793
ichen	-5794
icket	-5795
mäßig	-5796
▁Alex	-5797
▁Früh	-5798
▁Sind	-5799
riften	-5800
▁Austr	-5801
▁Viren	-5802
▁Wagen	-5803
▁optim	-5804
▁Norden	-5805
▁Tonnen	-5806
▁Weiter	-5807
▁Welche	-5808
▁Winter	-5809
▁moment	-5810
▁soviel	-5811
▁verblü	-5812
ätigkeit	-5813
▁College	-5814
▁Fahrrad	-5815
▁Fischer	-5816
▁erkennt	-5817
▁gehören	-5818
▁müssten	-5819
▁schaute	-5820
▁vorhers	-5821
verbrauch	-5822
▁Existenz	-5823
▁anwenden	-5824
▁beeindru	-5825
▁behalten	-5826
▁erkannte	-5827
▁geändert	-5828
▁speziell	-5829
▁Netzwerke	-5830
▁Politiker	-5831
▁langfrist	-5832
▁verhalten	-5833
▁öffentliche	-5834
▁traditionellen	-5835
Ok	-5836
mar	-5837
sum	-5838
esie	-5839
fält	-5840
ipul	-5841
anger	-5842
elben	-5843
hlung	-5844
karte	-5845
lekul	-5846
viele	-5847
▁Code	-5848
▁Deut	-5849
▁Lern	-5850
▁Paar	-5851
▁Rech	-5852
▁Tour	-5853
bieten	-5854
splant	-5855
▁Gutes	-5856
▁Klein	-5857
▁Konse	-5858
▁Opfer	-5859
▁Stuhl	-5860
▁Wüste	-5861
▁roten	-5862
▁vorge	-5863
amerika	-5864
reibung	-5865
wirkung	-5866
▁Geräte	-5867
▁Ozeane	-5868
▁Wellen	-5869
▁langer	-5870
▁schien	-5871
▁schrei	-5872
▁singen	-5873
▁Geistes	-5874
▁Körpers	-5875
▁Sternen	-5876
▁ansieht	-5877
▁identif	-5878
▁täglich	-5879
▁Vorstell	-5880
▁nützlich	-5881
▁zurückge	-5882
▁Interview	-5883
▁berichten	-5884
▁transport	-5885
spielsweise	-5886
▁Definition	-5887
▁Diskussion	-5888
▁Schimpansen	-5889
▁Sicherheits	-5890
▁vergleichen	-5891
▁vorzustellen	-5892
"-	-5893
Hey	-5894
pol	-5895
▁AB	-5896
▁BF	-5897
▁DH	-5898
▁Ke	-5899
gibt	-5900
igem	-5901
mord	-5902
äfte	-5903
▁Gre	-5904
▁Jul	-5905
▁Sob	-5906
▁min	-5907
gerät	-5908
nungs	-5909
▁Kein	-5910
▁Naja	-5911
▁Rock	-5912
▁Show	-5913
▁Trag	-5914
▁erwä	-5915
▁fuhr	-5916
bstoff	-5917
idemie	-5918
merzen	-5919
muster	-5920
▁Laufe	-5921
▁Solar	-5922
▁motiv	-5923
▁umher	-5924
meister	-5925
stoffen	-5926
▁Erwart	-5927
▁Löcher	-5928
▁Sozial	-5929
▁belieb	-5930
▁heißen	-5931
▁realen	-5932
▁zusätz	-5933
ffizienz	-5934
▁Verkehr	-5935
▁Verletz	-5936
▁bekomme	-5937
▁normale	-5938
▁Diagramm	-5939
▁schlafen	-5940
▁schätzen	-5941
▁weiterer	-5942
▁Erfindung	-5943
▁wichtigen	-5944
▁Großmutter	-5945
▁Verhältnis	-5946
▁Kombination	-5947
▁Stammzellen	-5948
▁kompliziert	-5949
▁stattdessen	-5950
▁Ac	-5951
ehlt	-5952
mehr	-5953
summ	-5954
test	-5955
▁201	-5956
▁Air	-5957
▁Lar	-5958
▁Stä	-5959
▁arm	-5960
ancen	-5961
grenz	-5962
rasch	-5963
▁Aspe	-5964
▁Gerü	-5965
▁Gute	-5966
▁froh	-5967
▁real	-5968
▁rief	-5969
untern	-5970
▁1.000	-5971
▁Kenia	-5972
▁Trotz	-5973
▁Weihn	-5974
▁wofür	-5975
sterben	-5976
▁Führer	-5977
▁Mengen	-5978
▁Rechte	-5979
▁allgem	-5980
▁kurzem	-5981
▁meinte	-5982
▁weißen	-5983
▁willst	-5984
▁Harvard	-5985
▁berührt	-5986
▁gekauft	-5987
▁spielte	-5988
▁Arbeiter	-5989
▁Bereiche	-5990
▁Forscher	-5991
▁Prototyp	-5992
▁gefallen	-5993
versorgung	-5994
▁besondere	-5995
▁gebraucht	-5996
verständlich	-5997
▁großartigen	-5998
ffentlichkeit	-5999
.,	-6000
oß	-6001
Ein	-6002
har	-6003
ley	-6004
pha	-6005
elev	-6006
inkt	-6007
stau	-6008
tial	-6009
uern	-6010
▁Bur	-6011
▁Lad	-6012
▁Opt	-6013
▁dur	-6014
denkt	-6015
ement	-6016
krank	-6017
seits	-6018
stung	-6019
▁Bang	-6020
▁Betr	-6021
▁Bras	-6022
▁Mont	-6023
▁brit	-6024
▁leid	-6025
▁länd	-6026
▁seid	-6027
eicher	-6028
leitet	-6029
räumen	-6030
▁Fälle	-6031
▁Seine	-6032
▁Sogar	-6033
▁Vergn	-6034
▁blieb	-6035
▁unbek	-6036
▁weißt	-6037
dlichen	-6038
schrift	-6039
▁Andere	-6040
▁Aspekt	-6041
▁Willen	-6042
▁erlebt	-6043
▁soweit	-6044
▁Gericht	-6045
▁Molekül	-6046
▁besitzt	-6047
▁solcher	-6048
▁spannen	-6049
▁umgeben	-6050
erstörung	-6051
▁Erlebnis	-6052
▁Schatten	-6053
▁zerstört	-6054
▁Folgendes	-6055
▁Francisco	-6056
▁Geschmack	-6057
▁dieselben	-6058
▁folgendes	-6059
▁aufzubauen	-6060
▁überrascht	-6061
▁Sonnenlicht	-6062
▁persönlichen	-6063
▁unterrichten	-6064
▁Gerechtigkeit	-6065
ael	-6066
osh	-6067
fert	-6068
icro	-6069
▁194	-6070
▁Ama	-6071
▁Brü	-6072
ettet	-6073
flekt	-6074
fähig	-6075
linge	-6076
weite	-6077
zepte	-6078
▁Akte	-6079
▁Biom	-6080
▁Mess	-6081
▁Nest	-6082
▁Wild	-6083
▁beit	-6084
▁miss	-6085
finder	-6086
nehmer	-6087
olitik	-6088
▁Armen	-6089
▁Lasst	-6090
▁Start	-6091
▁Süden	-6092
▁Vögel	-6093
▁Würde	-6094
▁Ziele	-6095
▁außen	-6096
▁ermut	-6097
▁kolle	-6098
▁nötig	-6099
▁wovon	-6100
▁Anteil	-6101
▁Blumen	-6102
▁Faktor	-6103
▁Grenze	-6104
▁Israel	-6105
▁Privat	-6106
▁Schnee	-6107
▁School	-6108
▁analys	-6109
▁bieten	-6110
▁fingen	-6111
▁formen	-6112
▁nieder	-6113
gelassen	-6114
schritte	-6115
▁Annahme	-6116
▁Journal	-6117
▁Stimmen	-6118
▁Student	-6119
▁erwähnt	-6120
▁tatsäch	-6121
▁Freundin	-6122
▁Zunächst	-6123
▁erstellt	-6124
▁gefangen	-6125
▁Ernährung	-6126
▁Gesichter	-6127
▁Grundlage	-6128
▁Literatur	-6129
▁Professor	-6130
▁Tradition	-6131
▁Wohlstand	-6132
▁industrie	-6133
▁Instrument	-6134
▁beibringen	-6135
▁unabhängig	-6136
▁Ausstellung	-6137
sterblichkeit	-6138
▁irgendjemand	-6139
▁menschliches	-6140
ips	-6141
läu	-6142
ota	-6143
ots	-6144
ruh	-6145
äum	-6146
ült	-6147
▁2.	-6148
▁Et	-6149
▁La	-6150
▁Tw	-6151
▁Zä	-6152
aser	-6153
gefü	-6154
ging	-6155
mitt	-6156
reif	-6157
stat	-6158
▁Bom	-6159
▁Deb	-6160
▁Haw	-6161
▁Tor	-6162
▁inf	-6163
artet	-6164
biert	-6165
euern	-6166
iesen	-6167
igend	-6168
okuss	-6169
räume	-6170
▁Empf	-6171
▁Zell	-6172
geregt	-6173
geschw	-6174
staben	-6175
öntgen	-6176
▁Bibel	-6177
▁Dabei	-6178
▁Küste	-6179
▁Pfund	-6180
▁Samen	-6181
▁armen	-6182
▁wahre	-6183
fordert	-6184
ikalien	-6185
ächtnis	-6186
▁Chemie	-6187
▁Gewebe	-6188
▁Mechan	-6189
▁Signal	-6190
▁Zauber	-6191
▁ergibt	-6192
▁reicht	-6193
▁spüren	-6194
▁Krieges	-6195
▁Michael	-6196
▁Viertel	-6197
▁Wechsel	-6198
▁enthält	-6199
▁seitdem	-6200
▁unglück	-6201
▁Aufnahme	-6202
▁Methoden	-6203
▁Pakistan	-6204
▁ungewöhn	-6205
▁verwende	-6206
▁Gegenwart	-6207
▁beinhaltet	-6208
▁Mitarbeiter	-6209
▁feststellen	-6210
▁Unterhaltung	-6211
▁medizinische	-6212
▁menschlicher	-6213
ex	-6214
sa	-6215
uz	-6216
aff	-6217
vis	-6218
▁27	-6219
förm	-6220
imin	-6221
nahm	-6222
▁Dia	-6223
▁Oel	-6224
▁Ruf	-6225
▁dün	-6226
▁etc	-6227
▁ruh	-6228
linie	-6229
▁Anim	-6230
▁Chic	-6231
▁Fast	-6232
▁Post	-6233
▁Tief	-6234
▁genü	-6235
▁grau	-6236
eilung	-6237
fische	-6238
folgen	-6239
▁Micro	-6240
▁Stahl	-6241
▁innov	-6242
zentrum	-6243
▁Brücke	-6244
▁Damals	-6245
▁Gewinn	-6246
▁Kirche	-6247
▁Strand	-6248
▁Träume	-6249
▁Welten	-6250
▁ausger	-6251
▁intens	-6252
▁ökonom	-6253
▁Elektro	-6254
▁Konflik	-6255
▁Respekt	-6256
▁verkauf	-6257
▁Ereignis	-6258
▁Zwischen	-6259
▁verstehe	-6260
▁versteht	-6261
berflächen	-6262
▁beschleun	-6263
technologie	-6264
▁Restaurant	-6265
▁Satelliten	-6266
▁verbessert	-6267
▁Statistiken	-6268
▁fantastisch	-6269
▁unterstützt	-6270
▁Wesentlichen	-6271
▁Vorstellungen	-6272
▁Gemeinschaften	-6273
MS	-6274
zz	-6275
ams	-6276
ban	-6277
ähm	-6278
▁75	-6279
▁kä	-6280
ackt	-6281
laub	-6282
ober	-6283
ästh	-6284
▁Ech	-6285
▁fei	-6286
▁rot	-6287
euert	-6288
rustr	-6289
staat	-6290
▁Beim	-6291
▁Russ	-6292
▁Verp	-6293
▁baut	-6294
▁form	-6295
▁hieß	-6296
bücher	-6297
haften	-6298
ruppen	-6299
testen	-6300
▁Asien	-6301
▁Hilfs	-6302
▁Popul	-6303
▁angeb	-6304
▁geist	-6305
▁innen	-6306
ließend	-6307
ruption	-6308
▁Therap	-6309
▁anfing	-6310
▁berech	-6311
▁kümmer	-6312
▁Beweise	-6313
▁glaubte	-6314
▁Gespräch	-6315
▁Komponen	-6316
▁Schritte	-6317
▁Webseite	-6318
▁perfekte	-6319
▁springen	-6320
▁wechseln	-6321
schmutzung	-6322
▁Abschluss	-6323
▁Verbesser	-6324
▁digitalen	-6325
▁entdeckte	-6326
▁schwimmen	-6327
▁bezeichnen	-6328
▁Einfachheit	-6329
▁Wasserstoff	-6330
▁durchführen	-6331
▁Sonnensystem	-6332
▁verschwunden	-6333
▁Nachbarschaft	-6334
▁unglaublichen	-6335
AR	-6336
wä	-6337
fir	-6338
see	-6339
sun	-6340
azin	-6341
ehrt	-6342
irbt	-6343
omos	-6344
▁Ast	-6345
▁Bem	-6346
▁Ehe	-6347
▁Hor	-6348
▁Tit	-6349
inter	-6350
ppich	-6351
üssen	-6352
▁Euch	-6353
▁Rake	-6354
▁Schä	-6355
▁Verw	-6356
▁Weis	-6357
▁spät	-6358
▁stop	-6359
ammelt	-6360
ingern	-6361
ätzung	-6362
äusern	-6363
▁James	-6364
▁Neues	-6365
▁meist	-6366
▁super	-6367
atische	-6368
gedacht	-6369
spiegel	-6370
ziehung	-6371
▁Atlant	-6372
▁Schild	-6373
▁Zufall	-6374
▁kannte	-6375
▁landen	-6376
omputern	-6377
▁besorgt	-6378
▁einiges	-6379
▁solange	-6380
▁überein	-6381
▁Besonder	-6382
▁Metapher	-6383
▁Regionen	-6384
▁besuchen	-6385
▁ersetzen	-6386
▁hinunter	-6387
▁sprachen	-6388
▁Afrikaner	-6389
▁Operation	-6390
▁Potential	-6391
▁Vergnügen	-6392
▁Verstehen	-6393
▁erweitern	-6394
▁gemeinsame	-6395
▁Erwachsenen	-6396
▁gemeinsamen	-6397
▁faszinierend	-6398
Be	-6399
bek	-6400
hnt	-6401
▁Ox	-6402
beln	-6403
okus	-6404
soft	-6405
äuse	-6406
▁Bef	-6407
▁Nat	-6408
▁Pan	-6409
▁Rhy	-6410
▁Vag	-6411
▁ide	-6412
barer	-6413
dreht	-6414
ehren	-6415
iveau	-6416
krebs	-6417
kreis	-6418
rafen	-6419
zelle	-6420
▁Hühn	-6421
▁expl	-6422
▁gefü	-6423
▁jung	-6424
▁mark	-6425
▁trag	-6426
ichter	-6427
▁Immer	-6428
▁Kapit	-6429
▁Karik	-6430
▁Simul	-6431
▁angen	-6432
▁domin	-6433
▁drauf	-6434
▁enden	-6435
▁folgt	-6436
▁stehe	-6437
▁still	-6438
▁voran	-6439
▁Dunkel	-6440
▁Handel	-6441
▁Staats	-6442
▁histor	-6443
▁100.000	-6444
▁Betrach	-6445
▁Twitter	-6446
▁Resultat	-6447
▁Schweden	-6448
▁beweisen	-6449
▁Symmetrie	-6450
▁darstellt	-6451
▁evolution	-6452
▁kostenlos	-6453
▁spezielle	-6454
▁vermitteln	-6455
▁westlichen	-6456
▁Dimensionen	-6457
▁akzeptieren	-6458
▁automatisch	-6459
▁geschlossen	-6460
▁nachgedacht	-6461
▁aufgewachsen	-6462
rt	-6463
bas	-6464
hls	-6465
iop	-6466
lad	-6467
rän	-6468
▁Tö	-6469
▁ra	-6470
emin	-6471
tele	-6472
teln	-6473
ulpt	-6474
▁Fle	-6475
▁Hei	-6476
▁Hör	-6477
▁Kle	-6478
▁Toi	-6479
▁wüs	-6480
osten	-6481
uhren	-6482
zesse	-6483
▁1000	-6484
▁Benz	-6485
▁Bush	-6486
▁Jung	-6487
▁Mamm	-6488
▁Trau	-6489
▁Verd	-6490
▁fern	-6491
▁lebe	-6492
kelett	-6493
orient	-6494
▁Eisen	-6495
▁Hotel	-6496
▁Islam	-6497
▁Laden	-6498
▁Ohren	-6499
▁Steve	-6500
▁Tiefe	-6501
▁jener	-6502
▁städt	-6503
schafft	-6504
schicht	-6505
▁George	-6506
▁Gipfel	-6507
▁Kriegs	-6508
▁Moskit	-6509
▁Schuld	-6510
▁Schwer	-6511
▁Völker	-6512
▁achten	-6513
▁grosse	-6514
▁lebens	-6515
bewegung	-6516
derungen	-6517
▁Gebiete	-6518
▁Quellen	-6519
▁Röntgen	-6520
▁gewählt	-6521
▁manchen	-6522
▁wieviel	-6523
▁Geräusch	-6524
▁anschaut	-6525
▁digitale	-6526
▁vertraut	-6527
▁Anwendung	-6528
▁Microsoft	-6529
▁Philosoph	-6530
▁Potenzial	-6531
▁allgemein	-6532
bevölkerung	-6533
▁Entfernung	-6534
▁speziellen	-6535
▁verwandelt	-6536
▁Chemikalien	-6537
▁internationalen	-6538
its	-6539
oth	-6540
▁23	-6541
▁Tu	-6542
achs	-6543
ulen	-6544
▁Anw	-6545
▁Ban	-6546
▁Ost	-6547
▁erz	-6548
▁kop	-6549
▁ult	-6550
▁ums	-6551
behör	-6552
▁Best	-6553
▁Eier	-6554
▁Iran	-6555
▁Kart	-6556
▁Mama	-6557
▁Nase	-6558
▁Vern	-6559
▁arme	-6560
▁dreh	-6561
▁moch	-6562
▁neur	-6563
▁zust	-6564
letten	-6565
rieren	-6566
▁Blatt	-6567
schland	-6568
standen	-6569
tztlich	-6570
▁Inspir	-6571
▁Island	-6572
▁Mexiko	-6573
▁dunkel	-6574
▁enorme	-6575
▁rechte	-6576
▁spezif	-6577
leistung	-6578
qualität	-6579
sprozess	-6580
▁Blätter	-6581
▁Chicago	-6582
▁Gleiche	-6583
▁Mittler	-6584
▁Wirkung	-6585
▁dauerte	-6586
▁offenen	-6587
▁gerettet	-6588
▁positive	-6589
▁Geheimnis	-6590
▁aufnehmen	-6591
▁bekannten	-6592
▁beschloss	-6593
▁erwachsen	-6594
▁irgendwel	-6595
▁angenommen	-6596
▁wundervoll	-6597
gesellschaft	-6598
▁Stattdessen	-6599
▁insbesondere	-6600
▁konzentriert	-6601
▁organisieren	-6602
oh	-6603
ire	-6604
ney	-6605
zon	-6606
züg	-6607
▁KB	-6608
frau	-6609
omas	-6610
▁And	-6611
▁Tun	-6612
▁Urs	-6613
ember	-6614
lesen	-6615
onstr	-6616
▁Frie	-6617
▁Inte	-6618
▁Klin	-6619
▁Life	-6620
▁Sens	-6621
▁Stan	-6622
▁eint	-6623
▁erhe	-6624
▁verz	-6625
▁zuge	-6626
bungen	-6627
drückt	-6628
einbar	-6629
fernen	-6630
hängen	-6631
▁Nadel	-6632
▁Pferd	-6633
▁Theor	-6634
▁dynam	-6635
▁fährt	-6636
▁organ	-6637
▁sucht	-6638
richtet	-6639
▁Doktor	-6640
▁angeht	-6641
▁auspro	-6642
▁besagt	-6643
▁fokuss	-6644
atastrop	-6645
▁Gedicht	-6646
▁Kinders	-6647
▁Komment	-6648
▁Konstru	-6649
▁Risiken	-6650
▁Verlust	-6651
▁eindeut	-6652
▁gründen	-6653
schriften	-6654
▁Bevölker	-6655
▁Bildungs	-6656
▁momentan	-6657
haltigkeit	-6658
▁einfaches	-6659
▁entfernen	-6660
▁teilweise	-6661
▁vermeiden	-6662
friedenheit	-6663
▁Korruption	-6664
▁Prinzipien	-6665
▁Regierungs	-6666
▁Verbrechen	-6667
▁Wettbewerb	-6668
▁eingeladen	-6669
▁hinzufügen	-6670
▁irgendeine	-6671
▁moralische	-6672
▁übernehmen	-6673
▁persönliche	-6674
▁vergangenen	-6675
▁wunderbaren	-6676
▁biologischen	-6677
▁interessanten	-6678
gyp	-6679
hof	-6680
ias	-6681
üse	-6682
▁Ed	-6683
▁Ki	-6684
▁wü	-6685
ilen	-6686
irit	-6687
▁Hyp	-6688
▁Jan	-6689
▁log	-6690
▁mut	-6691
acher	-6692
andem	-6693
preis	-6694
tritt	-6695
unruh	-6696
▁Soll	-6697
▁kogn	-6698
▁land	-6699
Wissen	-6700
azifik	-6701
endung	-6702
gebiet	-6703
inhalb	-6704
quelle	-6705
winkel	-6706
▁Babys	-6707
▁Einen	-6708
▁Kabel	-6709
▁Stern	-6710
prozess	-6711
rüstung	-6712
▁Ballon	-6713
▁Explos	-6714
▁Kindes	-6715
▁Lungen	-6716
▁Skulpt	-6717
▁Steuer	-6718
▁ausser	-6719
▁bietet	-6720
▁furcht	-6721
▁gewiss	-6722
▁höhere	-6723
▁junger	-6724
▁körper	-6725
▁reisen	-6726
▁vieles	-6727
aufnahme	-6728
▁Kameras	-6729
▁ergeben	-6730
▁grundle	-6731
▁lokalen	-6732
▁moderne	-6733
▁standen	-6734
▁trinken	-6735
▁Entschul	-6736
▁Weisheit	-6737
▁entstand	-6738
▁schreibt	-6739
▁verfolgt	-6740
oberfläche	-6741
ordentlich	-6742
▁Brasilien	-6743
▁Computern	-6744
▁Strategie	-6745
▁Buchstaben	-6746
▁Geschlecht	-6747
▁Jedenfalls	-6748
▁fasziniert	-6749
▁Verbreitung	-6750
▁biologische	-6751
Bo	-6752
En	-6753
to	-6754
wa	-6755
yd	-6756
kal	-6757
▁ew	-6758
andt	-6759
hung	-6760
urer	-6761
▁Ins	-6762
▁Ähn	-6763
andid	-6764
hlten	-6765
küste	-6766
▁Intu	-6767
▁Krit	-6768
▁fürs	-6769
▁männ	-6770
freund	-6771
stechn	-6772
▁Anzei	-6773
▁Berge	-6774
▁Damen	-6775
▁Flüss	-6776
▁Obama	-6777
▁Toten	-6778
▁Treib	-6779
▁Tumor	-6780
▁fehlt	-6781
▁poten	-6782
▁schwe	-6783
▁Stärke	-6784
▁altern	-6785
▁lehren	-6786
▁machst	-6787
pflanzen	-6788
sproblem	-6789
▁Aspekte	-6790
▁Bestand	-6791
▁Chancen	-6792
▁Nutzung	-6793
▁Zuhause	-6794
▁bestand	-6795
▁erkannt	-6796
▁grossen	-6797
▁verlang	-6798
▁zweimal	-6799
unktionen	-6800
▁Gesichts	-6801
▁Lebenser	-6802
▁Russland	-6803
▁Zeitraum	-6804
▁demokrat	-6805
▁nebenbei	-6806
▁ähnliche	-6807
▁Gemeinden	-6808
▁Zeitalter	-6809
▁basierend	-6810
▁behaupten	-6811
▁enthalten	-6812
▁ernsthaft	-6813
▁langsamer	-6814
▁schwarzen	-6815
▁Zerstörung	-6816
▁untersucht	-6817
▁wenigstens	-6818
▁Neuigkeiten	-6819
▁Oberflächen	-6820
▁Psychologie	-6821
▁Schließlich	-6822
▁beschrieben	-6823
▁dargestellt	-6824
▁inspirieren	-6825
▁zurückgehen	-6826
▁Fortschritte	-6827
▁Innovationen	-6828
▁Mathematiker	-6829
▁ursprünglich	-6830
▁dreidimension	-6831
eah	-6832
eis	-6833
gin	-6834
put	-6835
▁Ta	-6836
▁Äl	-6837
abor	-6838
angs	-6839
brid	-6840
elen	-6841
ones	-6842
oßen	-6843
phen	-6844
volv	-6845
▁Ath	-6846
▁Can	-6847
▁Jun	-6848
▁Seh	-6849
▁fil	-6850
▁rom	-6851
▁Übr	-6852
kette	-6853
lager	-6854
reide	-6855
teile	-6856
▁1960	-6857
▁Elef	-6858
▁Witz	-6859
▁enth	-6860
▁heiß	-6861
bringt	-6862
chtern	-6863
holfen	-6864
modell	-6865
reiche	-6866
tragen	-6867
▁Autom	-6868
▁Hallo	-6869
▁Tests	-6870
▁Trick	-6871
▁anget	-6872
▁Aktion	-6873
▁Fakten	-6874
▁Folgen	-6875
▁Leider	-6876
▁Umfeld	-6877
▁ausgew	-6878
▁kaufte	-6879
▁konsum	-6880
▁überqu	-6881
ierungen	-6882
ologisch	-6883
▁Hindern	-6884
▁beenden	-6885
▁beunruh	-6886
▁gezogen	-6887
arbeitung	-6888
▁Amerikan	-6889
▁Gebrauch	-6890
▁Mehrheit	-6891
▁besessen	-6892
▁zeichnen	-6893
▁Geschäfte	-6894
▁Jahrzehnt	-6895
▁bezüglich	-6896
▁Australien	-6897
▁Bibliothek	-6898
▁Geburtstag	-6899
▁Ingenieure	-6900
▁eingeführt	-6901
▁Deutschland	-6902
▁bemerkenswert	-6903
geschwindigkeit	-6904
▁Nachhaltigkeit	-6905
flu	-6906
gas	-6907
way	-6908
▁Ug	-6909
Okay	-6910
arth	-6911
fand	-6912
groß	-6913
ifiz	-6914
ison	-6915
▁Ehr	-6916
▁Eng	-6917
▁Kuh	-6918
▁Mas	-6919
▁Sub	-6920
▁wid	-6921
asien	-6922
brech	-6923
eufel	-6924
rüche	-6925
undes	-6926
▁Astr	-6927
▁Gore	-6928
▁Koll	-6929
▁Stad	-6930
▁klin	-6931
▁Ägyp	-6932
nommen	-6933
schaut	-6934
ysikal	-6935
▁Geräu	-6936
▁Initi	-6937
▁Leber	-6938
▁baute	-6939
▁platz	-6940
▁produ	-6941
▁rufen	-6942
▁vorzu	-6943
▁worum	-6944
ungsver	-6945
▁Atomen	-6946
▁Ganzen	-6947
▁Gemüse	-6948
▁Herren	-6949
▁Lachen	-6950
▁Metall	-6951
▁Reserv	-6952
▁Symbol	-6953
▁Thomas	-6954
▁deiner	-6955
▁freund	-6956
▁gelang	-6957
▁leiten	-6958
▁romant	-6959
scheidet	-6960
▁Darüber	-6961
▁Kategor	-6962
▁Treffen	-6963
▁treiben	-6964
scheinend	-6965
▁Schulter	-6966
▁Vorteile	-6967
▁darunter	-6968
▁getrennt	-6969
▁leichter	-6970
▁mögliche	-6971
lichkeiten	-6972
▁Zuschauer	-6973
▁mitnehmen	-6974
gehensweise	-6975
▁inzwischen	-6976
▁Instrumente	-6977
▁beispielsweise	-6978
▁wirtschaftliche	-6979
-,	-6980
30	-6981
far	-6982
kap	-6983
por	-6984
zum	-6985
änz	-6986
▁pf	-6987
zipl	-6988
▁250	-6989
▁Get	-6990
▁Mor	-6991
heuer	-6992
reift	-6993
reuen	-6994
stero	-6995
▁Flie	-6996
▁Grav	-6997
▁Jeff	-6998
▁Ruhe	-6999
▁Schm	-7000
▁Sozi	-7001
▁Voll	-7002
▁klet	-7003
▁mult	-7004
agiert	-7005
erkwür	-7006
klasse	-7007
plomat	-7008
rohung	-7009
summen	-7010
▁Bevor	-7011
▁Erdbe	-7012
▁Gehen	-7013
▁Haiti	-7014
▁Paris	-7015
▁Platt	-7016
▁Räume	-7017
▁Stock	-7018
▁atmen	-7019
▁lande	-7020
▁selbe	-7021
blieben	-7022
wechsel	-7023
▁Alters	-7024
▁Benzin	-7025
▁Danach	-7026
▁Detail	-7027
▁Kanada	-7028
▁Medium	-7029
▁Online	-7030
▁Presse	-7031
▁Sobald	-7032
▁hängen	-7033
▁hörten	-7034
▁stirbt	-7035
amerikan	-7036
bekommen	-7037
ktivität	-7038
▁Angeles	-7039
▁Bericht	-7040
▁Chromos	-7041
▁Einheit	-7042
▁Schicks	-7043
▁Schwanz	-7044
▁Schwarz	-7045
▁Taschen	-7046
▁erhöhen	-7047
▁Geschenk	-7048
▁Physiker	-7049
▁Schweine	-7050
▁folgende	-7051
▁genügend	-7052
▁sichtbar	-7053
▁Überzeug	-7054
▁betroffen	-7055
▁Frankreich	-7056
▁langweilig	-7057
▁verblüffen	-7058
▁Darstellung	-7059
▁Situationen	-7060
▁voneinander	-7061
▁Bevölkerungs	-7062
▁Untersuchung	-7063
▁Investitionen	-7064
Ex	-7065
aku	-7066
bür	-7067
iox	-7068
kün	-7069
ole	-7070
rav	-7071
▁32	-7072
▁Mr	-7073
▁Ol	-7074
erin	-7075
lymp	-7076
nach	-7077
nütz	-7078
yram	-7079
ärme	-7080
ätzt	-7081
ühen	-7082
▁Cam	-7083
▁Fal	-7084
▁Mac	-7085
▁Top	-7086
▁ang	-7087
iogen	-7088
mpath	-7089
nchen	-7090
änner	-7091
▁2005	-7092
▁Dame	-7093
▁Kohl	-7094
▁Thun	-7095
▁Vari	-7096
▁ethn	-7097
▁kalt	-7098
▁prim	-7099
▁trug	-7100
andern	-7101
gesetz	-7102
ogramm	-7103
▁Anruf	-7104
▁Hitze	-7105
▁Kolon	-7106
▁Noten	-7107
▁Wieso	-7108
▁lasst	-7109
▁staat	-7110
▁weiße	-7111
yramide	-7112
▁Abfall	-7113
▁Mangel	-7114
▁Pollen	-7115
▁Robert	-7116
▁abstra	-7117
▁grünen	-7118
▁involv	-7119
▁lokale	-7120
▁system	-7121
▁worauf	-7122
▁Gehirne	-7123
▁Quanten	-7124
▁Schicht	-7125
▁Skelett	-7126
▁Vorhers	-7127
▁letzter	-7128
▁mächtig	-7129
▁starben	-7130
erkennung	-7131
▁Problems	-7132
▁Richtige	-7133
▁Schwefel	-7134
▁ausgeben	-7135
▁befassen	-7136
▁dahinter	-7137
▁geholfen	-7138
▁konfront	-7139
▁physikal	-7140
▁schauten	-7141
▁unmittel	-7142
▁Billionen	-7143
▁Spielzeug	-7144
▁intellekt	-7145
▁versorgen	-7146
▁Überrasch	-7147
▁Medikament	-7148
▁Verwendung	-7149
▁zusammenzu	-7150
▁überwinden	-7151
▁Einstellung	-7152
▁Herstellung	-7153
▁beigebracht	-7154
▁schwieriger	-7155
▁vorbereitet	-7156
▁wundervolle	-7157
ba	-7158
hh	-7159
tn	-7160
cyc	-7161
ius	-7162
kst	-7163
ouT	-7164
▁26	-7165
▁Hu	-7166
▁Sä	-7167
▁lö	-7168
ktes	-7169
rett	-7170
stud	-7171
üter	-7172
▁195	-7173
▁Kom	-7174
▁Rot	-7175
▁Sei	-7176
▁Tur	-7177
▁Zie	-7178
▁the	-7179
endes	-7180
ianer	-7181
ruppe	-7182
weich	-7183
örung	-7184
ünden	-7185
▁Beit	-7186
▁Bier	-7187
▁Füße	-7188
▁Saal	-7189
▁Stau	-7190
▁dick	-7191
▁hind	-7192
▁rote	-7193
▁stre	-7194
▁umzu	-7195
▁älte	-7196
anlage	-7197
itiven	-7198
körper	-7199
lernen	-7200
rinzip	-7201
ueller	-7202
unkten	-7203
▁Algor	-7204
▁Angeb	-7205
▁Dafür	-7206
▁Haare	-7207
▁Kugel	-7208
▁Motiv	-7209
▁Schle	-7210
▁grüne	-7211
▁woran	-7212
gruppen	-7213
▁Fabrik	-7214
▁Flücht	-7215
▁Hunger	-7216
▁Kommen	-7217
▁Säuget	-7218
▁Teufel	-7219
▁Vagina	-7220
▁Vorder	-7221
▁billig	-7222
▁inform	-7223
▁Italien	-7224
▁Lektion	-7225
▁dringen	-7226
▁neugier	-7227
▁Batterie	-7228
▁Gegenden	-7229
▁ernähren	-7230
▁erwähnen	-7231
▁glaubten	-7232
▁seltsame	-7233
▁anzusehen	-7234
▁aufgeregt	-7235
▁betreiben	-7236
zeichnungen	-7237
▁bezeichnet	-7238
▁künstliche	-7239
▁verglichen	-7240
▁wahrnehmen	-7241
▁unternehmen	-7242
▁fantastische	-7243
▁mittlerweile	-7244
▁Normalerweise	-7245
▁funktionierte	-7246
IP	-7247
Wo	-7248
yl	-7249
500	-7250
ene	-7251
res	-7252
ric	-7253
rüf	-7254
vin	-7255
▁Rö	-7256
▁Vi	-7257
Welt	-7258
book	-7259
eins	-7260
gefä	-7261
kord	-7262
same	-7263
uzin	-7264
▁120	-7265
▁Lam	-7266
▁Sar	-7267
▁Wäl	-7268
leger	-7269
ommun	-7270
▁Allt	-7271
▁Frem	-7272
▁Klim	-7273
▁Koch	-7274
▁Kond	-7275
▁Näch	-7276
▁Nähr	-7277
▁Ohne	-7278
▁Song	-7279
▁Teen	-7280
▁koll	-7281
▁welt	-7282
Dollar	-7283
bilden	-7284
gelöst	-7285
karten	-7286
kultur	-7287
manden	-7288
messer	-7289
ouTube	-7290
werken	-7291
▁Erste	-7292
▁Küche	-7293
▁Serie	-7294
▁Spann	-7295
▁expon	-7296
▁extra	-7297
▁japan	-7298
▁verab	-7299
▁womit	-7300
gebiete	-7301
sprache	-7302
▁Konsum	-7303
▁Pocken	-7304
▁Uganda	-7305
▁danken	-7306
▁kommer	-7307
▁planen	-7308
▁spirit	-7309
▁Designs	-7310
▁Phantom	-7311
▁Schaden	-7312
▁gesetzt	-7313
▁respekt	-7314
▁weshalb	-7315
▁Chinesen	-7316
▁Schlacht	-7317
▁Schwarze	-7318
▁bemerkte	-7319
▁besseres	-7320
▁bewirken	-7321
▁gründete	-7322
▁hindurch	-7323
▁lebendig	-7324
▁vielmehr	-7325
▁Angelegen	-7326
▁Programme	-7327
▁betrieben	-7328
▁eindeutig	-7329
▁überlegen	-7330
▁Ereignisse	-7331
▁Interessan	-7332
▁Richtungen	-7333
▁beschreibt	-7334
▁veränderte	-7335
▁Änderungen	-7336
wahrscheinlich	-7337
▁Zufriedenheit	-7338
▁repräsentiert	-7339
▁Nahrungsmittel	-7340
▁außergewöhnlich	-7341
Wer	-7342
bie	-7343
bit	-7344
cks	-7345
haf	-7346
rah	-7347
rel	-7348
stu	-7349
▁RB	-7350
▁Wa	-7351
▁Wh	-7352
▁fe	-7353
Aber	-7354
deln	-7355
rise	-7356
sens	-7357
star	-7358
▁Abl	-7359
▁Alt	-7360
▁Ass	-7361
▁Sam	-7362
▁wär	-7363
alley	-7364
halts	-7365
hängt	-7366
iness	-7367
räger	-7368
▁Anti	-7369
▁Ehre	-7370
▁Face	-7371
▁Jack	-7372
▁Laut	-7373
▁Leid	-7374
▁Span	-7375
▁Verz	-7376
▁gefr	-7377
▁legt	-7378
▁nett	-7379
▁stet	-7380
eigung	-7381
onomie	-7382
schild	-7383
stitut	-7384
▁Darum	-7385
▁Misch	-7386
▁Titan	-7387
▁alter	-7388
▁blaue	-7389
▁günst	-7390
▁jenen	-7391
ierungs	-7392
ulieren	-7393
zwungen	-7394
▁Astero	-7395
▁Aufbau	-7396
▁Fläche	-7397
▁Glücks	-7398
▁Kampag	-7399
▁Preise	-7400
▁Reihen	-7401
▁Riesen	-7402
▁Schuhe	-7403
▁berück	-7404
▁modern	-7405
▁wirken	-7406
schätzen	-7407
▁Absicht	-7408
▁Verzwei	-7409
▁Wurzeln	-7410
▁doppelt	-7411
▁glamour	-7412
▁liefern	-7413
▁mittels	-7414
▁Anführer	-7415
▁begegnen	-7416
▁gemessen	-7417
▁programm	-7418
▁umfassen	-7419
▁verliert	-7420
ussendlich	-7421
▁Aufnahmen	-7422
▁Gleichung	-7423
▁Transport	-7424
▁bedeutete	-7425
▁folgenden	-7426
▁Erinnerung	-7427
▁Sichtweise	-7428
▁ländlichen	-7429
▁Interaktion	-7430
▁Konsequenzen	-7431
▁wunderschöne	-7432
▁zurückkehren	-7433
▁Persönlichkeit	-7434
--	-7435
tä	-7436
ink	-7437
ola	-7438
pel	-7439
uld	-7440
▁2,	-7441
▁65	-7442
▁nu	-7443
Null	-7444
fone	-7445
irca	-7446
länd	-7447
nose	-7448
ston	-7449
züge	-7450
▁19.	-7451
▁Cra	-7452
▁Don	-7453
▁Hal	-7454
▁rum	-7455
▁sym	-7456
ender	-7457
fällt	-7458
fühlt	-7459
hoben	-7460
ience	-7461
thmus	-7462
▁Mass	-7463
▁Open	-7464
▁Urkn	-7465
▁Vier	-7466
▁frem	-7467
▁gere	-7468
bellen	-7469
gesamt	-7470
linien	-7471
melzen	-7472
punkte	-7473
stands	-7474
stücke	-7475
▁Bauch	-7476
▁Conne	-7477
▁Fokus	-7478
▁Kreuz	-7479
▁Level	-7480
▁Sechs	-7481
▁Tragö	-7482
▁Zähne	-7483
▁repar	-7484
▁saßen	-7485
▁simul	-7486
▁verpf	-7487
bleiben	-7488
gemacht	-7489
raucher	-7490
▁Anwend	-7491
▁Darauf	-7492
▁Infekt	-7493
▁Laufen	-7494
▁Märkte	-7495
▁Studio	-7496
▁blauen	-7497
▁explod	-7498
▁freien	-7499
▁hassen	-7500
▁neigen	-7501
▁nervös	-7502
▁oberen	-7503
▁sonder	-7504
▁trafen	-7505
▁Signale	-7506
▁drücken	-7507
▁nannten	-7508
▁steuern	-7509
▁Biologen	-7510
▁Epidemie	-7511
▁Kleidung	-7512
▁Mitglied	-7513
▁aktuelle	-7514
▁bekannte	-7515
▁berühren	-7516
▁elektron	-7517
▁exponent	-7518
▁falschen	-7519
▁Hollywood	-7520
▁Weltkrieg	-7521
▁Zeitungen	-7522
▁ausmachen	-7523
▁begreifen	-7524
▁reduziert	-7525
▁ausgesetzt	-7526
▁Erwartungen	-7527
▁Inspiration	-7528
▁eigentliche	-7529
▁elektrische	-7530
▁grundlegend	-7531
▁gesellschaft	-7532
▁kontrolliert	-7533
▁überraschend	-7534
▁Klassenzimmer	-7535
la	-7536
edy	-7537
hst	-7538
jet	-7539
tum	-7540
▁ad	-7541
dach	-7542
eder	-7543
komp	-7544
wehr	-7545
▁Mad	-7546
▁Pra	-7547
▁Rel	-7548
▁Äth	-7549
Techn	-7550
srate	-7551
ünder	-7552
▁Bran	-7553
▁Dial	-7554
▁Ehem	-7555
▁Myth	-7556
▁gefl	-7557
▁gift	-7558
fläche	-7559
fühlen	-7560
person	-7561
pflanz	-7562
stoßen	-7563
▁Aller	-7564
▁Block	-7565
▁Figur	-7566
▁Immun	-7567
▁Kurve	-7568
▁könne	-7569
▁trans	-7570
▁wirkt	-7571
dringen	-7572
konomen	-7573
lichten	-7574
▁Besuch	-7575
▁Budget	-7576
▁Center	-7577
▁Howard	-7578
▁Inseln	-7579
▁Metern	-7580
▁Oxford	-7581
▁Reisen	-7582
▁beherr	-7583
▁nachts	-7584
▁schaue	-7585
▁Äthiop	-7586
befinden	-7587
▁Analyse	-7588
▁Ausgang	-7589
▁Musiker	-7590
▁Verwand	-7591
▁kreiert	-7592
▁merkwür	-7593
▁verschm	-7594
▁Ausnahme	-7595
▁Dokument	-7596
▁Freiwill	-7597
▁Führungs	-7598
▁Hinblick	-7599
▁Spektrum	-7600
▁anstelle	-7601
▁erfüllen	-7602
▁genießen	-7603
▁lebenden	-7604
▁vorwärts	-7605
▁wertvoll	-7606
produktion	-7607
▁Belohnung	-7608
▁Innerhalb	-7609
▁Vorschlag	-7610
▁beteiligt	-7611
▁niemanden	-7612
▁scheinbar	-7613
▁Jahrzehnte	-7614
▁Standpunkt	-7615
▁weltweiten	-7616
▁wirklichen	-7617
▁Komponenten	-7618
▁Konsumenten	-7619
▁genetischen	-7620
▁moralischen	-7621
▁organisiert	-7622
▁technischen	-7623
▁Entdeckungen	-7624
▁elektrischen	-7625
▁Gleichgewicht	-7626
'.	-7627
8.	-7628
oc	-7629
▁:	-7630
Ach	-7631
anc	-7632
ida	-7633
ils	-7634
pos	-7635
vir	-7636
▁Fa	-7637
▁PC	-7638
▁my	-7639
appt	-7640
aver	-7641
baut	-7642
ches	-7643
fakt	-7644
gert	-7645
holz	-7646
puls	-7647
rast	-7648
öpfe	-7649
▁Aug	-7650
▁Dad	-7651
▁Hat	-7652
▁Ski	-7653
▁Tex	-7654
▁Tin	-7655
alent	-7656
aturn	-7657
menge	-7658
oppel	-7659
ürzen	-7660
▁Brow	-7661
▁Dist	-7662
▁Fels	-7663
▁Kenn	-7664
▁Mahl	-7665
▁Mart	-7666
▁Ment	-7667
▁Salz	-7668
▁häss	-7669
▁isol	-7670
▁vorn	-7671
design	-7672
irgend	-7673
leicht	-7674
mechan	-7675
▁Achse	-7676
▁Alpha	-7677
▁Apple	-7678
▁Blogs	-7679
▁Feind	-7680
▁Sympt	-7681
▁circa	-7682
▁gehei	-7683
▁human	-7684
▁korre	-7685
eichert	-7686
fliegen	-7687
twortet	-7688
▁Bedarf	-7689
▁Früher	-7690
▁Handys	-7691
▁Ruanda	-7692
▁Status	-7693
▁Valley	-7694
▁bauten	-7695
▁bestät	-7696
▁heilen	-7697
▁jünger	-7698
▁sparen	-7699
▁univer	-7700
atischen	-7701
▁Anstren	-7702
▁General	-7703
▁Pazifik	-7704
▁Schnell	-7705
▁Sequenz	-7706
▁dunklen	-7707
▁entfern	-7708
▁molekul	-7709
▁schmerz	-7710
▁starken	-7711
▁stoppen	-7712
▁unteren	-7713
▁Echtzeit	-7714
▁Gebieten	-7715
▁Systemen	-7716
▁verdient	-7717
▁verstand	-7718
▁visuelle	-7719
▁Mobiltele	-7720
▁Umständen	-7721
▁Weihnacht	-7722
▁kommerzie	-7723
▁unterwegs	-7724
▁zufrieden	-7725
ischerweise	-7726
▁besonderen	-7727
▁sogenannten	-7728
▁Wohlbefinden	-7729
▁hinsichtlich	-7730
▁intelligente	-7731
▁grundlegenden	-7732
▁medizinischen	-7733
▁Weltbevölkerung	-7734
di	-7735
hai	-7736
iat	-7737
ios	-7738
▁kr	-7739
▁li	-7740
▁ue	-7741
eier	-7742
flei	-7743
rang	-7744
stel	-7745
ßern	-7746
ütte	-7747
▁Cha	-7748
▁Ray	-7749
▁Ros	-7750
▁Süß	-7751
▁Tab	-7752
▁Vul	-7753
bchen	-7754
ordin	-7755
ropie	-7756
wirkt	-7757
zweif	-7758
▁2007	-7759
▁Bord	-7760
▁Hill	-7761
▁Nutz	-7762
▁Repu	-7763
▁entt	-7764
▁hand	-7765
▁risk	-7766
dliche	-7767
ritten	-7768
zählen	-7769
▁Front	-7770
▁Guten	-7771
▁Heran	-7772
▁exakt	-7773
▁gelie	-7774
brochen	-7775
▁Ameise	-7776
▁Felsen	-7777
▁Großen	-7778
▁Niveau	-7779
▁Organe	-7780
▁Saturn	-7781
▁Sprung	-7782
▁Wolken	-7783
▁anhand	-7784
▁befrei	-7785
▁dienen	-7786
▁eingeb	-7787
▁winzig	-7788
abilität	-7789
zukommen	-7790
▁Angriff	-7791
▁Anstieg	-7792
▁Flasche	-7793
▁Glamour	-7794
▁Magazin	-7795
▁Verlauf	-7796
▁Zweifel	-7797
▁benutze	-7798
▁besucht	-7799
▁französ	-7800
▁schwere	-7801
▁stimmen	-7802
▁Erfinder	-7803
▁Konzepte	-7804
▁Ursprung	-7805
▁anbieten	-7806
▁anpassen	-7807
▁begrenzt	-7808
▁beschrän	-7809
▁eingehen	-7810
▁gefahren	-7811
▁riesiges	-7812
▁wahrhaft	-7813
▁Schicksal	-7814
▁betreffen	-7815
▁kreativen	-7816
▁letztlich	-7817
▁ungeheuer	-7818
▁versteckt	-7819
▁Dunkelheit	-7820
▁Aktivitäten	-7821
▁Blickwinkel	-7822
▁Flüssigkeit	-7823
▁verursachen	-7824
▁Informations	-7825
▁hinterlassen	-7826
▁ausschließlich	-7827
▁internationale	-7828
ati	-7829
hir	-7830
ino	-7831
mut	-7832
une	-7833
▁22	-7834
▁sä	-7835
Mail	-7836
agte	-7837
asie	-7838
atik	-7839
bein	-7840
bran	-7841
cond	-7842
gste	-7843
part	-7844
rior	-7845
städ	-7846
tere	-7847
wort	-7848
▁Cal	-7849
▁Flu	-7850
▁Ohr	-7851
anzig	-7852
betes	-7853
fache	-7854
formt	-7855
ioxid	-7856
izont	-7857
sagen	-7858
stete	-7859
ttung	-7860
ähern	-7861
örder	-7862
▁Arch	-7863
▁Aufl	-7864
▁Glet	-7865
▁Wann	-7866
▁half	-7867
▁halt	-7868
bilder	-7869
ittelt	-7870
ktiven	-7871
messen	-7872
▁Enkel	-7873
▁Exped	-7874
▁Große	-7875
▁Stick	-7876
▁woher	-7877
fassung	-7878
fleisch	-7879
ktionen	-7880
schläge	-7881
▁Beinen	-7882
▁Bundes	-7883
▁Bäumen	-7884
▁Dinger	-7885
▁Golden	-7886
▁Rezept	-7887
▁Tasche	-7888
▁drehte	-7889
▁erhöht	-7890
▁feiern	-7891
▁lächer	-7892
▁senden	-7893
gefallen	-7894
pression	-7895
stimmung	-7896
▁Debatte	-7897
▁höchste	-7898
▁zuhören	-7899
igerweise	-7900
▁Erdbeben	-7901
▁Pinguine	-7902
▁Theorien	-7903
▁Training	-7904
▁anhalten	-7905
▁erfassen	-7906
▁leuchten	-7907
▁verliebt	-7908
▁vernünft	-7909
▁Übrigens	-7910
▁Effizienz	-7911
▁Ingenieur	-7912
▁Intuition	-7913
▁Projekten	-7914
▁komplexen	-7915
▁vertrauen	-7916
▁Elektronen	-7917
▁Funktionen	-7918
▁antwortete	-7919
▁genetische	-7920
▁investiert	-7921
▁profession	-7922
▁vorsichtig	-7923
▁Philosophie	-7924
Sc	-7925
bi	-7926
zo	-7927
Und	-7928
Wei	-7929
beg	-7930
gut	-7931
mon	-7932
own	-7933
ule	-7934
urd	-7935
xis	-7936
zir	-7937
▁CD	-7938
▁Op	-7939
appe	-7940
gelt	-7941
ight	-7942
llos	-7943
okol	-7944
ugen	-7945
äger	-7946
▁Anh	-7947
▁Box	-7948
▁Fer	-7949
▁Sur	-7950
▁Sus	-7951
▁hüb	-7952
Spiel	-7953
atein	-7954
auten	-7955
elden	-7956
istin	-7957
lever	-7958
onald	-7959
riebs	-7960
ucken	-7961
uropä	-7962
äufer	-7963
▁2001	-7964
▁Budd	-7965
▁Chef	-7966
▁Ener	-7967
▁dumm	-7968
▁flog	-7969
▁hung	-7970
System	-7971
archie	-7972
drehen	-7973
fachen	-7974
ildern	-7975
ivileg	-7976
kosten	-7977
schaff	-7978
straße	-7979
▁Chaos	-7980
▁Entst	-7981
▁Meere	-7982
▁Orche	-7983
▁Szene	-7984
▁geöff	-7985
▁lasse	-7986
▁relev	-7987
▁schei	-7988
▁veran	-7989
▁Abhäng	-7990
▁Extrem	-7991
▁Machen	-7992
▁Muskel	-7993
▁Pflanz	-7994
▁Reicht	-7995
▁Sicher	-7996
▁Street	-7997
▁Stämme	-7998
▁Trends	-7999
▁einzus	-8000
▁sozial	-8001
etischen	-8002
gekommen	-8003
material	-8004
zuführen	-8005
▁Anstatt	-8006
▁Antarkt	-8007
▁Connect	-8008
▁Dritten	-8009
▁Handeln	-8010
▁Inhalte	-8011
▁Inneren	-8012
▁Kapitel	-8013
▁Laptops	-8014
▁Verschw	-8015
▁beträgt	-8016
▁brechen	-8017
▁erhielt	-8018
▁führten	-8019
▁geraten	-8020
▁hielten	-8021
▁höheren	-8022
▁reflekt	-8023
▁setzten	-8024
▁verschl	-8025
formation	-8026
schneiden	-8027
schnitten	-8028
▁Argument	-8029
▁Diabetes	-8030
▁Facebook	-8031
▁Gebäuden	-8032
▁Gefangen	-8033
▁Teenager	-8034
▁heiraten	-8035
▁jenseits	-8036
leistungen	-8037
▁Höhepunkt	-8038
▁Resultate	-8039
▁erledigen	-8040
▁gegenwärt	-8041
▁Erwachsene	-8042
▁Gedächtnis	-8043
▁ausgegeben	-8044
▁kulturelle	-8045
▁schwierige	-8046
▁technische	-8047
▁Katastrophe	-8048
▁anscheinend	-8049
▁Schriftsteller	-8050
▁y	-8051
igr	-8052
las	-8053
▁SW	-8054
ibel	-8055
igma	-8056
äden	-8057
ürzt	-8058
▁Dör	-8059
▁Jes	-8060
▁Pre	-8061
▁imm	-8062
▁ret	-8063
▁san	-8064
glück	-8065
ikale	-8066
kehrt	-8067
legte	-8068
ohlen	-8069
orien	-8070
ratet	-8071
sucht	-8072
uldig	-8073
vater	-8074
ymmet	-8075
ächer	-8076
▁2006	-8077
▁Gibt	-8078
▁Klar	-8079
▁Serv	-8080
▁diag	-8081
▁dire	-8082
▁ille	-8083
▁lass	-8084
▁umso	-8085
decken	-8086
ithmen	-8087
kungen	-8088
leiten	-8089
lichem	-8090
steine	-8091
undern	-8092
waffen	-8093
▁Carol	-8094
▁Logik	-8095
▁Magie	-8096
▁Onkel	-8097
▁Teams	-8098
▁Wegen	-8099
▁Wicht	-8100
▁alltä	-8101
▁hoher	-8102
▁spont	-8103
agessen	-8104
ahnsinn	-8105
eichern	-8106
igungen	-8107
▁Pandem	-8108
▁Pflege	-8109
▁Schalt	-8110
▁Streit	-8111
▁Tränen	-8112
▁Unfall	-8113
▁bildet	-8114
▁deinem	-8115
▁echtes	-8116
▁inklus	-8117
geschäft	-8118
wachstum	-8119
▁Auftrag	-8120
▁Aussage	-8121
▁Dynamik	-8122
▁Handels	-8123
▁Teppich	-8124
▁Verhand	-8125
▁Verkauf	-8126
▁Wissens	-8127
▁archite	-8128
▁fließen	-8129
▁gewöhnt	-8130
▁lebende	-8131
▁regener	-8132
▁traurig	-8133
▁unerwar	-8134
ianischen	-8135
schreiben	-8136
▁Aufstieg	-8137
▁Erinnern	-8138
▁Fettleib	-8139
▁Fotograf	-8140
▁Handlung	-8141
▁Proteine	-8142
▁draussen	-8143
▁eröffnet	-8144
▁schickte	-8145
▁schnelle	-8146
▁Erwärmung	-8147
▁Explosion	-8148
▁Flugzeuge	-8149
▁Treibhaus	-8150
▁infiziert	-8151
▁interpret	-8152
▁niedriger	-8153
▁umzugehen	-8154
▁zunehmend	-8155
▁Äthiopien	-8156
▁Ausrüstung	-8157
▁Geschäftsm	-8158
▁Organismus	-8159
▁Religionen	-8160
▁Treibstoff	-8161
▁Eigenschaft	-8162
▁Investition	-8163
▁Videospiele	-8164
▁aufeinander	-8165
▁afrikanische	-8166
▁festgestellt	-8167
▁fotografiert	-8168
▁Überraschung	-8169
▁ursprüngliche	-8170
vo	-8171
Auf	-8172
col	-8173
kol	-8174
opt	-8175
oto	-8176
▁kg	-8177
dest	-8178
iale	-8179
iffe	-8180
inal	-8181
iums	-8182
klar	-8183
obby	-8184
rien	-8185
ular	-8186
well	-8187
▁Meg	-8188
▁Uni	-8189
▁gig	-8190
▁wem	-8191
▁ärm	-8192
heber	-8193
letzt	-8194
orten	-8195
selbe	-8196
teuer	-8197
▁Foss	-8198
▁Ghan	-8199
▁Homo	-8200
▁Mais	-8201
▁Manh	-8202
▁Sing	-8203
▁Trin	-8204
▁fuer	-8205
▁lieb	-8206
▁spür	-8207
ammeln	-8208
dienst	-8209
schiff	-8210
utzend	-8211
▁Decke	-8212
▁Ernst	-8213
▁Gramm	-8214
▁Mount	-8215
▁blind	-8216
▁harte	-8217
▁ruhig	-8218
▁unvor	-8219
gesetzt	-8220
wartung	-8221
▁Chirur	-8222
▁Ebenen	-8223
▁Geruch	-8224
▁Gerüst	-8225
▁Intern	-8226
▁Ratten	-8227
▁Sieben	-8228
▁Virgin	-8229
▁befest	-8230
▁clever	-8231
▁gewann	-8232
▁merken	-8233
▁späten	-8234
▁tanzen	-8235
ständige	-8236
tausende	-8237
▁enormen	-8238
▁erneuer	-8239
▁musikal	-8240
▁tauchen	-8241
▁unsicht	-8242
▁verließ	-8243
losigkeit	-8244
sprogramm	-8245
▁Entropie	-8246
▁Prozesse	-8247
▁Stanford	-8248
▁Stiftung	-8249
▁effizien	-8250
▁geöffnet	-8251
▁hingehen	-8252
▁höchsten	-8253
▁mehreren	-8254
▁schreibe	-8255
▁studiert	-8256
▁zweitens	-8257
▁Geräusche	-8258
▁Versuchen	-8259
▁chemische	-8260
▁derselben	-8261
▁irgendwas	-8262
▁nachdenkt	-8263
▁probieren	-8264
unternehmen	-8265
▁Motivation	-8266
▁Reaktionen	-8267
▁Schwestern	-8268
▁experiment	-8269
▁unsichtbar	-8270
▁wiederholt	-8271
▁Alternative	-8272
▁Mittagessen	-8273
▁architekton	-8274
▁chinesischen	-8275
▁gewissermaßen	-8276
▁Fettleibigkeit	-8277
2,	-8278
4.	-8279
:"	-8280
Kon	-8281
lim	-8282
prä	-8283
rey	-8284
▁JH	-8285
▁Zy	-8286
▁cm	-8287
▁zü	-8288
akul	-8289
füll	-8290
iban	-8291
last	-8292
obel	-8293
roht	-8294
räum	-8295
weie	-8296
ürze	-8297
▁700	-8298
▁Act	-8299
▁Dig	-8300
▁Tri	-8301
▁nör	-8302
agern	-8303
chtet	-8304
ettel	-8305
leute	-8306
terte	-8307
weils	-8308
ätten	-8309
üster	-8310
▁Flag	-8311
▁Flor	-8312
▁Gall	-8313
▁Glüh	-8314
▁Kosm	-8315
▁Lass	-8316
▁Male	-8317
▁Merk	-8318
▁Poly	-8319
▁Prüf	-8320
▁Reis	-8321
▁arab	-8322
▁fett	-8323
▁hell	-8324
▁leer	-8325
▁ment	-8326
▁rest	-8327
▁tanz	-8328
andert	-8329
genden	-8330
itiert	-8331
mensch	-8332
wecken	-8333
ührung	-8334
▁5.000	-8335
▁Koran	-8336
▁Möbel	-8337
▁Sorge	-8338
▁geeig	-8339
▁gefol	-8340
▁herab	-8341
▁linke	-8342
▁Älter	-8343
ichtete	-8344
mpathie	-8345
projekt	-8346
▁Köpfen	-8347
▁Steine	-8348
▁beides	-8349
▁gigant	-8350
▁treibt	-8351
▁vierte	-8352
reichend	-8353
▁Fliegen	-8354
▁Kohlend	-8355
▁Meister	-8356
▁Muskeln	-8357
▁Raketen	-8358
▁Schlagz	-8359
▁ausgest	-8360
▁empfind	-8361
▁gelangt	-8362
▁grösser	-8363
▁niedrig	-8364
▁schöner	-8365
▁schönes	-8366
alisierte	-8367
ikationen	-8368
▁Ausgaben	-8369
▁Blutgefä	-8370
▁Faktoren	-8371
▁Gebäudes	-8372
▁Hunderte	-8373
▁Kongress	-8374
▁Kontroll	-8375
▁Konzentr	-8376
▁ausmacht	-8377
▁benutzte	-8378
▁besuchte	-8379
▁erklärte	-8380
▁gegessen	-8381
▁gelassen	-8382
▁Denkweise	-8383
▁Dimension	-8384
▁Verfahren	-8385
▁definiert	-8386
▁gebrochen	-8387
▁gestartet	-8388
▁indischen	-8389
▁neugierig	-8390
▁physische	-8391
▁Individuum	-8392
▁University	-8393
▁Zentimeter	-8394
▁dramatisch	-8395
▁involviert	-8396
▁offensicht	-8397
▁zusätzlich	-8398
▁Präsidenten	-8399
▁irgendeinem	-8400
▁unterhalten	-8401
▁Abhängigkeit	-8402
▁irgendwelche	-8403
▁schreckliche	-8404
▁Universitäten	-8405
8,	-8406
ku	-8407
aya	-8408
dat	-8409
uar	-8410
▁är	-8411
anal	-8412
aven	-8413
back	-8414
baum	-8415
eige	-8416
fäll	-8417
kept	-8418
mmel	-8419
reut	-8420
umpf	-8421
▁Sir	-8422
▁Tee	-8423
▁Zut	-8424
▁mil	-8425
▁prü	-8426
arian	-8427
arren	-8428
avier	-8429
deckt	-8430
ektar	-8431
gebäu	-8432
ifest	-8433
lässt	-8434
ämpft	-8435
▁Acht	-8436
▁Camp	-8437
▁Dazu	-8438
▁Juni	-8439
▁Live	-8440
▁Roll	-8441
▁Star	-8442
▁Stil	-8443
▁Such	-8444
▁deut	-8445
▁ehem	-8446
▁entz	-8447
▁hilf	-8448
▁kosm	-8449
▁qual	-8450
ektion	-8451
gungen	-8452
lehnen	-8453
schten	-8454
▁Dreie	-8455
▁Gemäl	-8456
▁Hügel	-8457
▁Tempo	-8458
▁Vietn	-8459
▁Wasch	-8460
▁Werbe	-8461
▁Zivil	-8462
▁dicht	-8463
▁heiße	-8464
▁knapp	-8465
▁liebt	-8466
▁nukle	-8467
▁schie	-8468
▁stieg	-8469
▁tötet	-8470
ammlung	-8471
anthrop	-8472
brachte	-8473
gerufen	-8474
wachsen	-8475
▁Liefer	-8476
▁Monter	-8477
▁Partei	-8478
▁Second	-8479
▁Wahlen	-8480
▁echter	-8481
▁entwar	-8482
▁fuhren	-8483
▁innere	-8484
▁keinem	-8485
▁keines	-8486
▁kochen	-8487
▁reiste	-8488
▁suchte	-8489
beziehen	-8490
ffizient	-8491
jähriger	-8492
▁Angebot	-8493
▁Anthrop	-8494
▁Betrieb	-8495
▁Cricket	-8496
▁Lehrern	-8497
▁Oktober	-8498
▁Vorgang	-8499
▁jeweils	-8500
▁manipul	-8501
▁trocken	-8502
▁zurecht	-8503
▁zweites	-8504
▁Überall	-8505
▁Elektron	-8506
▁Kampagne	-8507
▁Umstände	-8508
▁billiger	-8509
▁dokument	-8510
▁gesunden	-8511
▁schießen	-8512
▁wünschte	-8513
▁Elefanten	-8514
▁Kreaturen	-8515
▁Mittleren	-8516
▁Statistik	-8517
▁beobachte	-8518
▁errichten	-8519
▁insgesamt	-8520
▁schwarzes	-8521
▁unendlich	-8522
▁verlangen	-8523
▁verteilen	-8524
▁Population	-8525
▁Wörterbuch	-8526
▁beeindruck	-8527
▁emotionale	-8528
▁sogenannte	-8529
▁Verbraucher	-8530
▁Widerspruch	-8531
▁chinesische	-8532
▁diskutieren	-8533
▁wiederholen	-8534
▁entscheidend	-8535
▁verschwindet	-8536
▁überwältigen	-8537
wissenschaften	-8538
▁bemerkenswerte	-8539
▁Lebenserwartung	-8540
ET	-8541
Fl	-8542
Le	-8543
agd	-8544
ary	-8545
rid	-8546
zel	-8547
▁bo	-8548
,000	-8549
able	-8550
ahre	-8551
ffin	-8552
gült	-8553
hone	-8554
male	-8555
orth	-8556
stil	-8557
▁Ann	-8558
▁Anp	-8559
▁End	-8560
▁Hey	-8561
▁Pop	-8562
▁att	-8563
▁inm	-8564
▁mar	-8565
▁met	-8566
▁sub	-8567
dacht	-8568
gänge	-8569
itute	-8570
ktive	-8571
raham	-8572
teils	-8573
▁Dreh	-8574
▁Kurs	-8575
▁ausw	-8576
▁live	-8577
annter	-8578
averei	-8579
barung	-8580
breite	-8581
etisch	-8582
ffekte	-8583
leiter	-8584
ordnet	-8585
spunkt	-8586
steckt	-8587
ymmetr	-8588
öpfung	-8589
▁Bruch	-8590
▁Lehre	-8591
▁Marke	-8592
▁Notiz	-8593
▁Sagen	-8594
▁Subst	-8595
▁Welle	-8596
▁Wärme	-8597
▁frühe	-8598
▁kauft	-8599
▁mikro	-8600
▁reale	-8601
▁rüber	-8602
▁synth	-8603
▁ultim	-8604
▁verfl	-8605
▁verkl	-8606
▁zweie	-8607
▁zählt	-8608
hundert	-8609
oleranz	-8610
ometrie	-8611
owissen	-8612
schönen	-8613
urteilt	-8614
▁20.000	-8615
▁Flügel	-8616
▁Futter	-8617
▁Höhlen	-8618
▁Marken	-8619
▁Umgang	-8620
▁Wüsten	-8621
▁frustr	-8622
▁global	-8623
▁mochte	-8624
▁symbol	-8625
▁wenden	-8626
▁üblich	-8627
schieben	-8628
▁Anreize	-8629
▁Beitrag	-8630
▁Dutzend	-8631
▁Entwurf	-8632
▁Kolonie	-8633
▁Letzten	-8634
▁Schokol	-8635
▁Science	-8636
▁Systems	-8637
▁angehen	-8638
▁verstär	-8639
▁würdest	-8640
▁zeigten	-8641
▁zwingen	-8642
verhalten	-8643
▁Betracht	-8644
▁Getreide	-8645
▁Männchen	-8646
▁Rhythmus	-8647
▁Tragödie	-8648
▁behaupte	-8649
▁intensiv	-8650
▁Bedrohung	-8651
▁Bedürfnis	-8652
▁Biosphäre	-8653
▁beitragen	-8654
▁empfinden	-8655
▁geschützt	-8656
▁inklusive	-8657
▁mittleren	-8658
▁Abendessen	-8659
▁Gegenstand	-8660
▁Verteilung	-8661
▁virtuellen	-8662
abhängigkeit	-8663
▁Jahrzehnten	-8664
▁Zeichnungen	-8665
▁angetrieben	-8666
▁vorgestellt	-8667
▁komplizierte	-8668
▁konfrontiert	-8669
▁Geschichtener	-8670
▁wunderschönen	-8671
▁Entschuldigung	-8672
▁Globalisierung	-8673
▁identifizieren	-8674
Te	-8675
ln	-8676
bru	-8677
tex	-8678
▁36	-8679
▁Ah	-8680
▁Lo	-8681
▁PM	-8682
▁TV	-8683
Naja	-8684
errt	-8685
kins	-8686
kopf	-8687
zusp	-8688
▁Grü	-8689
▁Mel	-8690
▁Tja	-8691
▁Wow	-8692
▁hey	-8693
▁mon	-8694
▁rob	-8695
▁umf	-8696
▁Ära	-8697
aumen	-8698
besch	-8699
eidet	-8700
rippe	-8701
steht	-8702
sätze	-8703
umpen	-8704
uropa	-8705
ähler	-8706
änzen	-8707
ässer	-8708
▁1970	-8709
▁Farm	-8710
▁Indu	-8711
▁Konz	-8712
▁Last	-8713
▁Lück	-8714
▁foss	-8715
▁gele	-8716
▁intu	-8717
▁line	-8718
▁sorg	-8719
▁trat	-8720
auchen	-8721
geräte	-8722
gewebe	-8723
gänger	-8724
imiert	-8725
▁Armee	-8726
▁Füßen	-8727
▁Künst	-8728
▁Optim	-8729
▁Stimm	-8730
▁Willi	-8731
▁Wände	-8732
▁allzu	-8733
▁freie	-8734
▁schüt	-8735
▁ueber	-8736
▁zweit	-8737
äuschen	-8738
ötzlich	-8739
üchtern	-8740
▁Boston	-8741
▁Stufen	-8742
▁Tenden	-8743
▁Vertei	-8744
▁Weißen	-8745
▁Winkel	-8746
▁garant	-8747
▁halben	-8748
▁lenken	-8749
▁nahezu	-8750
▁region	-8751
▁schock	-8752
▁stabil	-8753
▁wahren	-8754
▁wartet	-8755
▁öffnet	-8756
designer	-8757
▁Balance	-8758
▁Königin	-8759
▁Neugier	-8760
▁Platten	-8761
▁Redwood	-8762
▁Schädel	-8763
▁Weltall	-8764
▁bewegte	-8765
▁brennen	-8766
▁vermute	-8767
▁übersch	-8768
▁Amerikas	-8769
▁Herkunft	-8770
▁Kontinen	-8771
▁Krankenh	-8772
▁Symptome	-8773
▁Vorträge	-8774
▁aufrecht	-8775
▁befreien	-8776
▁einziges	-8777
▁früheren	-8778
▁inmitten	-8779
▁schließt	-8780
▁sinnvoll	-8781
▁winzigen	-8782
alisierten	-8783
▁Impfstoff	-8784
▁Konflikte	-8785
▁Schmerzen	-8786
▁Schwimmen	-8787
▁Wachstums	-8788
▁antworten	-8789
▁denselben	-8790
▁erforscht	-8791
▁geblieben	-8792
▁vergleich	-8793
▁Bandbreite	-8794
▁Depression	-8795
▁Entstehung	-8796
▁Heutzutage	-8797
▁Simulation	-8798
▁Strategien	-8799
▁Versorgung	-8800
▁dazwischen	-8801
▁nachhaltig	-8802
▁Terrorismus	-8803
▁Unterwasser	-8804
▁verbrauchen	-8805
▁Berechnungen	-8806
▁beeindrucken	-8807
▁weitermachen	-8808
▁wundervollen	-8809
▁weiterentwick	-8810
▁schlussendlich	-8811
▁veröffentlichen	-8812
So	-8813
Ber	-8814
car	-8815
hil	-8816
lem	-8817
ony	-8818
uth	-8819
yon	-8820
▁28	-8821
▁3.	-8822
▁95	-8823
▁to	-8824
..."	-8825
Test	-8826
bell	-8827
etts	-8828
film	-8829
ilem	-8830
isto	-8831
ämpf	-8832
▁Anf	-8833
▁Aqu	-8834
▁Lau	-8835
▁Sah	-8836
▁Sud	-8837
▁Wen	-8838
▁zun	-8839
amera	-8840
firma	-8841
flung	-8842
iefer	-8843
twick	-8844
werks	-8845
▁1990	-8846
▁Bron	-8847
▁Enzy	-8848
▁Hard	-8849
▁Kauf	-8850
▁King	-8851
▁Mult	-8852
▁Zehn	-8853
▁sens	-8854
▁stra	-8855
ertigt	-8856
graben	-8857
kräfte	-8858
spanne	-8859
wendet	-8860
önland	-8861
▁Earth	-8862
▁Ghana	-8863
▁Indem	-8864
▁Katze	-8865
▁Knopf	-8866
▁Proje	-8867
▁Staub	-8868
▁Summe	-8869
▁Waren	-8870
▁Wende	-8871
▁Zehen	-8872
▁abend	-8873
▁draht	-8874
▁liest	-8875
▁offiz	-8876
fordern	-8877
imieren	-8878
laubnis	-8879
osphäre	-8880
stausch	-8881
systeme	-8882
▁Amazon	-8883
▁Babies	-8884
▁Kredit	-8885
▁Kriege	-8886
▁Poesie	-8887
▁Praxis	-8888
▁Spiels	-8889
▁Zurück	-8890
▁erfand	-8891
▁schief	-8892
▁schlug	-8893
▁tolles	-8894
▁werdet	-8895
ographic	-8896
sichtigt	-8897
▁Klavier	-8898
▁Konvers	-8899
▁Veranst	-8900
▁dreimal	-8901
▁erfüllt	-8902
▁hierfür	-8903
▁vertrau	-8904
▁Ägypten	-8905
setzungen	-8906
▁Diplomat	-8907
▁Schreibt	-8908
▁Skulptur	-8909
▁Trotzdem	-8910
▁Weltbank	-8911
▁freiwill	-8912
▁gebildet	-8913
▁künstler	-8914
▁sozialer	-8915
▁struktur	-8916
▁Animation	-8917
▁Architekt	-8918
▁Geometrie	-8919
▁Gespräche	-8920
▁Karikatur	-8921
▁Kreislauf	-8922
▁abgesehen	-8923
▁angepasst	-8924
▁bekämpfen	-8925
▁benutzten	-8926
▁gesammelt	-8927
▁gezwungen	-8928
▁schafften	-8929
▁vergewalt	-8930
▁Engagement	-8931
▁Lebensraum	-8932
▁Mitglieder	-8933
▁Umgebungen	-8934
▁angemessen	-8935
▁bewältigen	-8936
▁ignorieren	-8937
▁öffentlich	-8938
▁Anerkennung	-8939
▁Mittelpunkt	-8940
▁Reihenfolge	-8941
▁einzigartig	-8942
▁irgendeiner	-8943
▁stattfindet	-8944
▁Kapitalismus	-8945
▁Kohlendioxid	-8946
▁Verzweiflung	-8947
▁optimistisch	-8948
▁Einrichtungen	-8949
▁komplizierter	-8950
▁verschiedener	-8951
Se	-8952
gs	-8953
ua	-8954
Als	-8955
Des	-8956
aby	-8957
krö	-8958
ris	-8959
▁Pe	-8960
Mein	-8961
erry	-8962
flie	-8963
herz	-8964
hett	-8965
icon	-8966
ogie	-8967
ombe	-8968
otto	-8969
quem	-8970
wald	-8971
wjet	-8972
▁800	-8973
▁Kos	-8974
▁Lou	-8975
▁Zig	-8976
▁irr	-8977
ampag	-8978
brach	-8979
bruar	-8980
chron	-8981
größe	-8982
ibiot	-8983
obile	-8984
orker	-8985
ortex	-8986
▁2008	-8987
▁Dich	-8988
▁Kore	-8989
▁Musl	-8990
▁Tode	-8991
▁fein	-8992
eitete	-8993
fältig	-8994
garten	-8995
gebung	-8996
ilität	-8997
länder	-8998
reicht	-8999
sitzen	-9000
wellen	-9001
ziplin	-9002
üchtig	-9003
▁Absch	-9004
▁Appar	-9005
▁Gates	-9006
▁Green	-9007
▁Jesus	-9008
▁Kongo	-9009
▁Köpfe	-9010
▁Synth	-9011
▁beruh	-9012
▁heben	-9013
▁leist	-9014
▁mater	-9015
▁theor	-9016
▁wirft	-9017
klichen	-9018
▁Anlage	-9019
▁Chines	-9020
▁Dialog	-9021
▁Dichte	-9022
▁Impuls	-9023
▁Integr	-9024
▁Katzen	-9025
▁Martin	-9026
▁Pferde	-9027
▁Proben	-9028
▁Werden	-9029
▁bedien	-9030
▁drüber	-9031
▁fliegt	-9032
▁fließt	-9033
▁lachen	-9034
▁liebte	-9035
▁senken	-9036
▁tiefen	-9037
▁wütend	-9038
aufgaben	-9039
gegangen	-9040
ierendes	-9041
iogenese	-9042
mögliche	-9043
▁Abraham	-9044
▁Drucker	-9045
▁Erstaun	-9046
▁Februar	-9047
▁Fußball	-9048
▁Hinweis	-9049
▁Manhatt	-9050
▁Rechner	-9051
▁Urknall	-9052
▁Vietnam	-9053
▁geformt	-9054
▁gelegen	-9055
▁geredet	-9056
▁greifen	-9057
▁richten	-9058
▁änderte	-9059
▁ärmsten	-9060
▁Anhänger	-9061
▁Grönland	-9062
▁Pyramide	-9063
▁Ungefähr	-9064
▁Vielzahl	-9065
▁beachten	-9066
▁diagnost	-9067
▁erledigt	-9068
▁geworfen	-9069
▁handelte	-9070
▁jährlich	-9071
▁verständ	-9072
▁vielmals	-9073
▁Feuerwehr	-9074
▁Fundament	-9075
▁Gletscher	-9076
▁Mikroskop	-9077
▁Sklaverei	-9078
▁anzugehen	-9079
▁definitiv	-9080
▁hoffnungs	-9081
▁unterhalb	-9082
▁vergrößer	-9083
▁visuellen	-9084
▁weltweite	-9085
▁ähnlichen	-9086
▁Handlungen	-9087
▁Unterricht	-9088
▁Wichtigste	-9089
▁finanziert	-9090
▁regelmäßig	-9091
▁reparieren	-9092
▁überprüfen	-9093
▁Gravitation	-9094
▁abschließen	-9095
▁anzuschauen	-9096
▁großartiger	-9097
▁konsumieren	-9098
▁kulturellen	-9099
▁profitieren	-9100
▁schlimmsten	-9101
▁zweieinhalb	-9102
verschmutzung	-9103
▁Konstruktion	-9104
▁Schauspieler	-9105
▁zurückkommen	-9106
▁interessantes	-9107
1.	-9108
2.	-9109
ux	-9110
Kön	-9111
low	-9112
mat	-9113
mil	-9114
ops	-9115
äub	-9116
Kopf	-9117
akes	-9118
ania	-9119
delt	-9120
face	-9121
iene	-9122
king	-9123
ller	-9124
park	-9125
takt	-9126
▁17.	-9127
▁Bör	-9128
▁Hir	-9129
▁Hum	-9130
▁McD	-9131
▁Mio	-9132
▁Wün	-9133
Inter	-9134
dauer	-9135
lings	-9136
llige	-9137
läuft	-9138
right	-9139
▁2003	-9140
▁Cola	-9141
▁Fund	-9142
▁Güte	-9143
▁Haie	-9144
▁Held	-9145
▁Kalk	-9146
▁Ritu	-9147
▁Tsun	-9148
▁Vaku	-9149
▁Verk	-9150
▁anre	-9151
▁gete	-9152
▁iPod	-9153
▁serv	-9154
▁tend	-9155
iguren	-9156
mengen	-9157
männer	-9158
orenen	-9159
uschel	-9160
ustern	-9161
zeigen	-9162
ählten	-9163
▁Dauer	-9164
▁Genie	-9165
▁Hyper	-9166
▁Löwen	-9167
▁Media	-9168
▁Paten	-9169
▁Reden	-9170
▁Schon	-9171
▁drück	-9172
▁misst	-9173
▁tritt	-9174
bezogen	-9175
kologie	-9176
mitglie	-9177
ometern	-9178
quellen	-9179
sperson	-9180
staaten	-9181
stecken	-9182
stimmen	-9183
▁Anders	-9184
▁Belast	-9185
▁Brüder	-9186
▁Filter	-9187
▁Leiter	-9188
▁Methan	-9189
▁Rollen	-9190
▁Spuren	-9191
▁Szenar	-9192
▁durfte	-9193
▁ehemal	-9194
▁höchst	-9195
▁iPhone	-9196
▁verhei	-9197
eitungen	-9198
erkennen	-9199
getragen	-9200
▁Abstand	-9201
▁Anderen	-9202
▁Ausland	-9203
▁Dadurch	-9204
▁Industr	-9205
▁Install	-9206
▁Kleider	-9207
▁Manager	-9208
▁Pflanze	-9209
▁Protein	-9210
▁Urheber	-9211
▁Ursache	-9212
▁anfängt	-9213
▁bedeckt	-9214
▁dankbar	-9215
▁ersetzt	-9216
▁gefüllt	-9217
▁geteilt	-9218
▁koennen	-9219
▁nirgend	-9220
▁stammen	-9221
▁verbrei	-9222
▁wandern	-9223
arenergie	-9224
▁Antibiot	-9225
▁Bescheid	-9226
▁Schülern	-9227
▁erkunden	-9228
▁startete	-9229
▁wünschen	-9230
▁überlebt	-9231
Nullsummen	-9232
▁Antarktis	-9233
▁Fischerei	-9234
▁Institute	-9235
▁ausführen	-9236
▁gestaltet	-9237
▁komplette	-9238
▁schrieben	-9239
▁vielerlei	-9240
▁Expedition	-9241
▁Reichweite	-9242
▁biologisch	-9243
▁britischen	-9244
▁Angiogenese	-9245
▁Atomenergie	-9246
▁Beobachtung	-9247
▁Restaurants	-9248
▁finanzieren	-9249
▁großartiges	-9250
▁zusätzliche	-9251
owissenschaft	-9252
▁Schreibtisch	-9253
▁Verbesserung	-9254
▁auszudrücken	-9255
▁präsentieren	-9256
▁beeindruckend	-9257
▁erstaunlichen	-9258
▁sicherstellen	-9259
▁eingeschlossen	-9260
EC	-9261
NS	-9262
üd	-9263
Reg	-9264
afe	-9265
fiz	-9266
ish	-9267
kei	-9268
nel	-9269
wäl	-9270
ött	-9271
▁Id	-9272
▁JA	-9273
▁LG	-9274
Zahl	-9275
arto	-9276
brot	-9277
ckel	-9278
enkt	-9279
größ	-9280
hern	-9281
iens	-9282
lles	-9283
strö	-9284
stär	-9285
unft	-9286
uste	-9287
änen	-9288
▁Jim	-9289
▁Mai	-9290
▁Mün	-9291
▁Tar	-9292
▁Tra	-9293
▁ass	-9294
▁biz	-9295
▁eth	-9296
▁gez	-9297
▁kat	-9298
▁tre	-9299
ikeln	-9300
irnen	-9301
itäre	-9302
krise	-9303
ocken	-9304
swert	-9305
änzer	-9306
▁Arkt	-9307
▁Ever	-9308
▁Gift	-9309
▁Halb	-9310
▁Lärm	-9311
▁Mist	-9312
▁Prop	-9313
▁fair	-9314
▁jahr	-9315
▁zugr	-9316
bridge	-9317
deuten	-9318
drücke	-9319
eigern	-9320
fällen	-9321
glaubt	-9322
handel	-9323
kasten	-9324
lichte	-9325
rachen	-9326
werben	-9327
▁Algen	-9328
▁Apfel	-9329
▁Count	-9330
▁Ethan	-9331
▁Extra	-9332
▁Galer	-9333
▁Hölle	-9334
▁Kluft	-9335
▁Mauer	-9336
▁Olymp	-9337
▁Woher	-9338
▁dient	-9339
▁jenes	-9340
▁verne	-9341
▁übers	-9342
anlagen	-9343
arakter	-9344
behörde	-9345
duktion	-9346
griffen	-9347
isierte	-9348
mitteln	-9349
systems	-9350
verläss	-9351
▁50.000	-9352
▁Besten	-9353
▁Ernähr	-9354
▁Januar	-9355
▁Klinik	-9356
▁Liebes	-9357
▁Schlei	-9358
▁Schrei	-9359
▁Stille	-9360
▁Unglau	-9361
▁brauch	-9362
▁durchs	-9363
▁erneut	-9364
▁potent	-9365
▁spiele	-9366
▁umwelt	-9367
▁vorhin	-9368
▁widmen	-9369
▁Anzeige	-9370
▁Autoren	-9371
▁Erfolgs	-9372
▁Gemälde	-9373
▁Gestalt	-9374
▁Indiens	-9375
▁Johnson	-9376
▁Tendenz	-9377
▁ankommt	-9378
▁digital	-9379
▁gesunde	-9380
▁gewinnt	-9381
▁kümmert	-9382
▁reicher	-9383
▁zugeben	-9384
gegenwärt	-9385
sprechend	-9386
zeichnung	-9387
▁Business	-9388
▁Erschein	-9389
▁Freizeit	-9390
▁Sprecher	-9391
▁Versuche	-9392
▁Vortrags	-9393
▁andauern	-9394
▁geringer	-9395
▁gesünder	-9396
▁kleinere	-9397
▁schaffte	-9398
▁schlicht	-9399
▁spannend	-9400
▁verdammt	-9401
▁zentrale	-9402
▁zugrunde	-9403
▁Übergang	-9404
▁Autorität	-9405
▁Cambridge	-9406
▁Nachfrage	-9407
▁Standards	-9408
▁bedeutend	-9409
▁bedeutsam	-9410
▁berichtet	-9411
▁erinnerte	-9412
▁leistungs	-9413
▁perfekten	-9414
▁vorkommen	-9415
▁westliche	-9416
▁Gestaltung	-9417
▁Management	-9418
▁Supermarkt	-9419
▁angeschaut	-9420
▁nationalen	-9421
▁physischen	-9422
▁verdoppelt	-9423
▁zueinander	-9424
▁Algorithmen	-9425
▁Erforschung	-9426
▁Institution	-9427
▁Mechanismus	-9428
▁Operationen	-9429
▁allgemeinen	-9430
▁ausreichend	-9431
▁glücklicher	-9432
▁kombinieren	-9433
▁nachhaltige	-9434
▁stattfinden	-9435
▁zukünftigen	-9436
▁Erinnerungen	-9437
▁Klimawandels	-9438
▁Solarenergie	-9439
▁Größenordnung	-9440
▁Produktivität	-9441
▁abgeschlossen	-9442
▁Menschlichkeit	-9443
',	-9444
De	-9445
Up	-9446
erz	-9447
ktu	-9448
pal	-9449
ses	-9450
twa	-9451
▁Fi	-9452
▁GP	-9453
▁IM	-9454
ardo	-9455
laus	-9456
mith	-9457
rufe	-9458
ätig	-9459
▁Bek	-9460
▁Cor	-9461
▁Dop	-9462
▁Kün	-9463
▁Pet	-9464
▁Tax	-9465
▁bra	-9466
achel	-9467
allel	-9468
hafen	-9469
iffen	-9470
insel	-9471
kohol	-9472
riech	-9473
ählte	-9474
öhnen	-9475
▁2004	-9476
▁2009	-9477
▁Chip	-9478
▁Clin	-9479
▁Egal	-9480
▁Foie	-9481
▁Ford	-9482
▁Knie	-9483
▁Migr	-9484
▁Neun	-9485
▁Prie	-9486
▁Wäre	-9487
▁brei	-9488
▁frie	-9489
▁phil	-9490
▁räum	-9491
▁warm	-9492
▁wozu	-9493
Mensch	-9494
ildete	-9495
mittag	-9496
ropfen	-9497
zenten	-9498
ändler	-9499
▁Autob	-9500
▁Berat	-9501
▁Blase	-9502
▁Genen	-9503
▁Hemis	-9504
▁Länge	-9505
▁Miner	-9506
▁Mäuse	-9507
▁Party	-9508
▁Pläne	-9509
▁Rover	-9510
▁Slums	-9511
▁block	-9512
▁breit	-9513
▁derer	-9514
▁flach	-9515
▁meint	-9516
▁schme	-9517
▁stimm	-9518
▁tiefe	-9519
▁zogen	-9520
eilchen	-9521
istotel	-9522
kriegen	-9523
ografen	-9524
steiger	-9525
▁August	-9526
▁Baumkr	-9527
▁Comics	-9528
▁Daumen	-9529
▁Doppel	-9530
▁Kreise	-9531
▁Mandel	-9532
▁Newton	-9533
▁Sowjet	-9534
▁Varian	-9535
▁Weizen	-9536
▁Werten	-9537
▁Wälder	-9538
▁bringe	-9539
▁herbei	-9540
▁kaputt	-9541
▁klasse	-9542
▁prüfen	-9543
▁sinken	-9544
▁tollen	-9545
bteilung	-9546
schalten	-9547
vielfalt	-9548
zumachen	-9549
▁Büchern	-9550
▁Ehemann	-9551
▁Einkauf	-9552
▁beginne	-9553
▁betonen	-9554
▁bevorzu	-9555
▁bewirkt	-9556
▁einzeln	-9557
▁konserv	-9558
▁lernten	-9559
▁militär	-9560
▁neulich	-9561
andidaten	-9562
▁Besitzer	-9563
▁Energien	-9564
▁Flaschen	-9565
▁Gefahren	-9566
▁Halluzin	-9567
▁Minister	-9568
▁Monterey	-9569
▁Pandemie	-9570
▁Speicher	-9571
▁Strassen	-9572
▁argument	-9573
▁berühmte	-9574
▁beziehen	-9575
▁erwähnte	-9576
▁geglaubt	-9577
▁getestet	-9578
▁schwerer	-9579
▁verlangt	-9580
raditionen	-9581
temperatur	-9582
▁Erlaubnis	-9583
▁Fernseher	-9584
▁Plattform	-9585
▁Plötzlich	-9586
▁Rückseite	-9587
▁Schlechte	-9588
▁Strahlung	-9589
▁Techniken	-9590
▁Tätigkeit	-9591
▁anstellen	-9592
▁aufstehen	-9593
▁berechnen	-9594
▁glamourös	-9595
▁herstellt	-9596
▁komplexer	-9597
▁nationale	-9598
▁politisch	-9599
▁verkaufte	-9600
▁verknüpft	-9601
▁ähnliches	-9602
▁übersetzt	-9603
bewusstsein	-9604
wasserstoff	-9605
▁Allerdings	-9606
▁Emissionen	-9607
▁Initiative	-9608
▁Selbstmord	-9609
▁Verpflicht	-9610
▁ausdrücken	-9611
▁festhalten	-9612
▁religiösen	-9613
▁schlechtes	-9614
▁umzusetzen	-9615
▁verbrennen	-9616
organisation	-9617
▁Anwendungen	-9618
▁Durchmesser	-9619
▁analysieren	-9620
▁fokussieren	-9621
▁beizubringen	-9622
▁entschlossen	-9623
▁tatsächliche	-9624
▁durchzuführen	-9625
▁unterscheidet	-9626
▁landwirtschaft	-9627
▁ursprünglichen	-9628
10	-9629
EO	-9630
IS	-9631
va	-9632
Man	-9633
ani	-9634
das	-9635
ena	-9636
fro	-9637
sey	-9638
äle	-9639
▁Sn	-9640
agos	-9641
aker	-9642
coln	-9643
gase	-9644
geld	-9645
haut	-9646
kurs	-9647
oben	-9648
onds	-9649
stoß	-9650
umpe	-9651
ätte	-9652
ühle	-9653
▁Anl	-9654
▁DNS	-9655
▁Dod	-9656
▁Dün	-9657
▁Jer	-9658
▁Pho	-9659
arden	-9660
aucht	-9661
ehlen	-9662
haber	-9663
hörer	-9664
iland	-9665
ipend	-9666
ville	-9667
▁Cous	-9668
▁Gand	-9669
▁Krab	-9670
▁Long	-9671
▁Maße	-9672
▁Spur	-9673
▁Visu	-9674
▁Watt	-9675
▁befr	-9676
▁löst	-9677
▁wild	-9678
achung	-9679
atives	-9680
fanden	-9681
folger	-9682
fällig	-9683
ingung	-9684
ordnen	-9685
schrei	-9686
▁Carto	-9687
▁Höhen	-9688
▁Kamel	-9689
▁Kapaz	-9690
▁Meile	-9691
▁Myzel	-9692
▁Nobel	-9693
▁Orbit	-9694
▁Pause	-9695
▁Peter	-9696
▁Schäd	-9697
▁Smith	-9698
▁altes	-9699
▁elekt	-9700
▁lokal	-9701
▁unaus	-9702
artiges	-9703
imenten	-9704
tragung	-9705
wandeln	-9706
zustand	-9707
▁30.000	-9708
▁Akadem	-9709
▁Allgem	-9710
▁Europä	-9711
▁Mannes	-9712
▁Vakuum	-9713
▁Wurzel	-9714
▁akadem	-9715
▁begrün	-9716
▁forder	-9717
▁magnet	-9718
▁verlei	-9719
▁zusamm	-9720
illionen	-9721
änderung	-9722
äuschung	-9723
▁Antrieb	-9724
▁Planung	-9725
▁Stammes	-9726
▁Streben	-9727
▁berühmt	-9728
▁bezieht	-9729
▁entsetz	-9730
▁install	-9731
▁komisch	-9732
▁winzige	-9733
operation	-9734
schrieben	-9735
wesenheit	-9736
▁Benutzer	-9737
▁Kalorien	-9738
▁Liebling	-9739
▁Reichtum	-9740
▁Weibchen	-9741
▁ausgehen	-9742
▁bedenken	-9743
▁dringend	-9744
▁erschien	-9745
▁eröffnen	-9746
▁pflanzen	-9747
▁rational	-9748
▁relevant	-9749
▁unsicher	-9750
▁verboten	-9751
▁zugleich	-9752
▁Allgemein	-9753
▁Erziehung	-9754
▁Flughafen	-9755
▁Manhattan	-9756
▁Schreiben	-9757
▁Unternehm	-9758
▁genetisch	-9759
▁interview	-9760
▁produktiv	-9761
▁trainiert	-9762
▁täglichen	-9763
▁wichtiges	-9764
bedingungen	-9765
geschritten	-9766
▁akzeptiert	-9767
▁gemeinnütz	-9768
▁teilnehmen	-9769
▁trainieren	-9770
▁verringern	-9771
▁städtischen	-9772
▁Angestellten	-9773
▁Stoffwechsel	-9774
▁Unternehmens	-9775
▁gemeinschaft	-9776
▁traditionelle	-9777
▁Lebensqualität	-9778
Kl	-9779
?",	-9780
ETI	-9781
Ger	-9782
bew	-9783
ble	-9784
eta	-9785
gra	-9786
hel	-9787
hor	-9788
hte	-9789
ini	-9790
mod	-9791
mär	-9792
uge	-9793
wis	-9794
ägt	-9795
▁Ti	-9796
▁mü	-9797
Amer	-9798
amie	-9799
erte	-9800
etze	-9801
lehr	-9802
olum	-9803
reng	-9804
urem	-9805
vern	-9806
ünde	-9807
▁BIP	-9808
▁Bay	-9809
▁Bob	-9810
▁Cap	-9811
▁Dat	-9812
▁Dez	-9813
▁Hub	-9814
▁Kok	-9815
▁Kum	-9816
▁Nam	-9817
▁Nov	-9818
▁brä	-9819
▁süß	-9820
▁ört	-9821
agnet	-9822
arben	-9823
asern	-9824
ierst	-9825
iller	-9826
ision	-9827
strom	-9828
thent	-9829
▁1950	-9830
▁2020	-9831
▁Brad	-9832
▁Brun	-9833
▁Dias	-9834
▁Farb	-9835
▁Hass	-9836
▁Kram	-9837
▁Kühe	-9838
▁Kühl	-9839
▁Lust	-9840
▁Matt	-9841
▁Riff	-9842
▁Zelt	-9843
▁euer	-9844
▁heim	-9845
▁herz	-9846
▁hing	-9847
▁simp	-9848
▁stat	-9849
assten	-9850
blasen	-9851
fahrer	-9852
immern	-9853
lösung	-9854
steigt	-9855
ussten	-9856
ächeln	-9857
ächter	-9858
▁2.000	-9859
▁Beton	-9860
▁Brand	-9861
▁Gehör	-9862
▁Graph	-9863
▁Haust	-9864
▁Hawai	-9865
▁Humor	-9866
▁Laser	-9867
▁Lesen	-9868
▁Roman	-9869
▁Somit	-9870
▁Volks	-9871
▁Werke	-9872
▁auslö	-9873
▁desig	-9874
▁endet	-9875
▁legte	-9876
▁müsst	-9877
Problem	-9878
blicken	-9879
branche	-9880
flossen	-9881
gebäude	-9882
produkt	-9883
theorie	-9884
▁Albert	-9885
▁Anreiz	-9886
▁County	-9887
▁Diesen	-9888
▁Hektar	-9889
▁Kurzem	-9890
▁Magnet	-9891
▁Rechts	-9892
▁Redner	-9893
▁Wander	-9894
▁Wirbel	-9895
▁Würden	-9896
▁aussah	-9897
▁erfuhr	-9898
▁konkur	-9899
▁kontin	-9900
▁kurzer	-9901
▁offene	-9902
springen	-9903
▁Alkohol	-9904
▁Genauso	-9905
▁Hemisph	-9906
▁Lincoln	-9907
▁Meeting	-9908
▁Punkten	-9909
▁Tiefsee	-9910
▁authent	-9911
▁beschäd	-9912
▁gelehrt	-9913
▁heutige	-9914
▁inneren	-9915
▁liefert	-9916
▁symmetr	-9917
▁trennen	-9918
▁zuhause	-9919
plizieren	-9920
▁Autismus	-9921
▁Bedenken	-9922
▁Diagnose	-9923
▁Frequenz	-9924
▁Kolonien	-9925
▁Lehrerin	-9926
▁Mischung	-9927
▁Objekten	-9928
▁Privileg	-9929
▁Toilette	-9930
▁bewahren	-9931
▁größeres	-9932
▁kreative	-9933
▁spielten	-9934
▁Änderung	-9935
▁Auflösung	-9936
▁Austausch	-9937
▁Orchester	-9938
▁Selektion	-9939
▁Verlangen	-9940
▁auftreten	-9941
▁berühmten	-9942
▁einfallen	-9943
▁erzählten	-9944
▁führenden	-9945
▁getrieben	-9946
▁jedermann	-9947
▁verletzen	-9948
▁verpflich	-9949
▁verrückte	-9950
▁wiederver	-9951
▁zentralen	-9952
▁Asteroiden	-9953
▁Auswirkung	-9954
▁Berechnung	-9955
▁Brennstoff	-9956
▁Charaktere	-9957
▁Dankeschön	-9958
▁Interviews	-9959
▁allgemeine	-9960
▁chemischen	-9961
▁geschlagen	-9962
▁gewöhnlich	-9963
▁ausgebildet	-9964
▁beantwortet	-9965
▁experimente	-9966
▁intelligent	-9967
▁natürlicher	-9968
▁Interessante	-9969
▁fundamentale	-9970
▁Bildungssystem	-9971
▁Unabhängigkeit	-9972
▁repräsentieren	-9973
▁fortgeschritten	-9974
3.	-9975
5.	-9976
99	-9977
KW	-9978
RI	-9979
ci	-9980
cl	-9981
ds	-9982
aot	-9983
beu	-9984
cel	-9985
dro	-9986
gst	-9987
hus	-9988
ood	-9989
ope	-9990
ory	-9991
rix	-9992
stö	-9993
▁3,	-9994
▁Ba	-9995
▁DV	-9996
▁Dü	-9997
▁Mu	-9998
▁Wä	-9999
atom	-10000
ithm	-10001
opft	-10002
oris	-10003
rümm	-10004
zehn	-10005
älen	-10006
äufe	-10007
öser	-10008
üben	-10009
▁1,5	-10010
▁Agr	-10011
▁Emm	-10012
▁Fro	-10013
▁Jon	-10014
▁Mau	-10015
▁Rem	-10016
▁Sag	-10017
▁Tes	-10018
▁Zun	-10019
▁kal	-10020
Gesch	-10021
anner	-10022
block	-10023
eifen	-10024
motor	-10025
rägen	-10026
sorge	-10027
steck	-10028
ttern	-10029
wandt	-10030
zahlt	-10031
ämmer	-10032
▁Gast	-10033
▁Hals	-10034
▁Käse	-10035
▁Prim	-10036
▁Raub	-10037
▁Zero	-10038
▁klug	-10039
▁sign	-10040
acheln	-10041
anders	-10042
brauch	-10043
brüche	-10044
grippe	-10045
iftung	-10046
istent	-10047
ladung	-10048
lament	-10049
strahl	-10050
treten	-10051
uelles	-10052
uliert	-10053
voller	-10054
▁Atome	-10055
▁Beide	-10056
▁Erden	-10057
▁Femin	-10058
▁Gebur	-10059
▁Glühb	-10060
▁Güter	-10061
▁Kosov	-10062
▁Leser	-10063
▁Neutr	-10064
▁Prior	-10065
▁Probe	-10066
▁Zigar	-10067
▁chaot	-10068
▁klare	-10069
▁lagen	-10070
▁sinkt	-10071
▁spekt	-10072
Projekt	-10073
enschwe	-10074
konomie	-10075
pressiv	-10076
präsent	-10077
setzten	-10078
sonsten	-10079
ungslos	-10080
zession	-10081
örungen	-10082
▁Blasen	-10083
▁Gerade	-10084
▁Krähen	-10085
▁Könnte	-10086
▁Latein	-10087
▁Ozeans	-10088
▁festge	-10089
▁füllen	-10090
▁kooper	-10091
▁redete	-10092
▁rennen	-10093
▁riecht	-10094
▁vollen	-10095
▁wüsste	-10096
bereiten	-10097
ettbewer	-10098
steuropa	-10099
ventuell	-10100
vermögen	-10101
▁Dopamin	-10102
▁Kartoff	-10103
▁Lichter	-10104
▁Richter	-10105
▁Silicon	-10106
▁Spezial	-10107
▁Spitzen	-10108
▁Tsunami	-10109
▁Unglück	-10110
▁Vorbild	-10111
▁blicken	-10112
▁fressen	-10113
▁gelingt	-10114
▁großzüg	-10115
▁kannten	-10116
▁landete	-10117
▁sequenz	-10118
▁züchten	-10119
enntnisse	-10120
iversität	-10121
katastrop	-10122
▁Bewohner	-10123
▁Dezember	-10124
▁Erzähler	-10125
▁Fahrzeug	-10126
▁Hinweise	-10127
▁Illusion	-10128
▁McDonald	-10129
▁Therapie	-10130
▁bedienen	-10131
▁geflogen	-10132
▁interakt	-10133
▁nochmals	-10134
▁privaten	-10135
ungsmittel	-10136
▁Bakterium	-10137
▁Ressource	-10138
▁Schlangen	-10139
▁Tausenden	-10140
▁effizient	-10141
▁ermutigen	-10142
▁positiven	-10143
▁virtuelle	-10144
▁Ausschnitt	-10145
▁Betrachten	-10146
▁Durchbruch	-10147
▁Geographic	-10148
▁Prototypen	-10149
▁Stabilität	-10150
▁angekommen	-10151
▁angesichts	-10152
▁auftauchen	-10153
▁ausgewählt	-10154
▁englischen	-10155
▁erschienen	-10156
▁glückliche	-10157
▁vergrößern	-10158
▁Geheimnisse	-10159
▁Traditionen	-10160
▁beeindruckt	-10161
▁eingeschrän	-10162
▁eingestellt	-10163
▁einzusetzen	-10164
▁gefährliche	-10165
▁gewöhnliche	-10166
▁schwierigen	-10167
▁verarbeiten	-10168
▁vorhersagen	-10169
▁Beschreibung	-10170
▁Krankenschwe	-10171
▁Mammographie	-10172
▁allgegenwärt	-10173
▁finanziellen	-10174
▁gewöhnlichen	-10175
▁industrielle	-10176
▁unterrichtet	-10177
▁Arbeitsplätze	-10178
▁Meeresspiegel	-10179
▁fantastischen	-10180
wissenschaftler	-10181
▁Offensichtlich	-10182
▁Untersuchungen	-10183
▁interpretieren	-10184
.'	-10185
7,	-10186
7.	-10187
DA	-10188
kö	-10189
äm	-10190
▁0	-10191
Ist	-10192
add	-10193
aps	-10194
bod	-10195
bul	-10196
emp	-10197
enh	-10198
ibr	-10199
ict	-10200
med	-10201
out	-10202
ura	-10203
wel	-10204
▁29	-10205
▁55	-10206
▁85	-10207
▁Ec	-10208
▁No	-10209
▁Sw	-10210
ader	-10211
ahme	-10212
etzt	-10213
gets	-10214
hole	-10215
lade	-10216
ocht	-10217
osex	-10218
rand	-10219
unts	-10220
wich	-10221
▁350	-10222
▁Asp	-10223
▁Big	-10224
▁Gän	-10225
▁Göt	-10226
▁Hon	-10227
▁Lux	-10228
▁Syl	-10229
▁Zeh	-10230
▁sau	-10231
blatt	-10232
eiler	-10233
eiter	-10234
gehör	-10235
geord	-10236
günst	-10237
iffer	-10238
kamen	-10239
otter	-10240
▁1980	-10241
▁Brit	-10242
▁Böse	-10243
▁Etwa	-10244
▁Feed	-10245
▁Hong	-10246
▁Lego	-10247
▁Meme	-10248
▁News	-10249
▁Qual	-10250
▁Rick	-10251
▁Robo	-10252
▁SETI	-10253
▁Tenn	-10254
▁Ther	-10255
▁Wale	-10256
▁Weiß	-10257
▁Wird	-10258
▁beru	-10259
▁grös	-10260
▁plus	-10261
▁sech	-10262
▁treu	-10263
▁wach	-10264
▁wirk	-10265
▁wuer	-10266
achter	-10267
echnet	-10268
hafter	-10269
haftes	-10270
heimer	-10271
ilemma	-10272
jenige	-10273
plätze	-10274
uchsen	-10275
▁Astro	-10276
▁Craig	-10277
▁Gange	-10278
▁Griff	-10279
▁Kompl	-10280
▁Larry	-10281
▁Rauch	-10282
▁Straf	-10283
▁Tiger	-10284
▁beten	-10285
▁freue	-10286
▁impro	-10287
▁jagen	-10288
▁konst	-10289
▁redet	-10290
▁spezi	-10291
▁stets	-10292
▁trage	-10293
▁Übung	-10294
▁öfter	-10295
herapie	-10296
politik	-10297
riechen	-10298
station	-10299
▁Anweis	-10300
▁Bomben	-10301
▁Buches	-10302
▁Glaube	-10303
▁Hypoth	-10304
▁Portra	-10305
▁Schall	-10306
▁Stress	-10307
▁Türkei	-10308
▁Umlauf	-10309
▁Wollen	-10310
▁beseit	-10311
▁ernten	-10312
▁kurzes	-10313
▁lauter	-10314
▁stoßen	-10315
▁untere	-10316
▁wärmer	-10317
Programm	-10318
ifiziert	-10319
probleme	-10320
undation	-10321
wechseln	-10322
▁Ausgabe	-10323
▁Branche	-10324
▁Distanz	-10325
▁Genetik	-10326
▁Motoren	-10327
▁Nordpol	-10328
▁Origami	-10329
▁Tropfen	-10330
▁Ursprün	-10331
▁Welches	-10332
▁direkte	-10333
▁erfasst	-10334
▁gemeint	-10335
▁schmutz	-10336
▁spontan	-10337
▁widersp	-10338
▁zuletzt	-10339
▁älteren	-10340
bereitung	-10341
probieren	-10342
stelligen	-10343
ungsweise	-10344
unterhalt	-10345
▁Priester	-10346
▁Sensoren	-10347
▁Ungleich	-10348
▁absolute	-10349
▁demonstr	-10350
▁gebunden	-10351
▁generell	-10352
▁gewissem	-10353
▁hundertt	-10354
▁indische	-10355
▁steigern	-10356
▁verfügen	-10357
▁Abenteuer	-10358
▁Ansichten	-10359
▁Anzeichen	-10360
▁Automobil	-10361
▁Chromosom	-10362
▁Datenbank	-10363
▁Internets	-10364
▁Vereinten	-10365
▁Wiederauf	-10366
▁aufhalten	-10367
▁auswählen	-10368
▁betrachte	-10369
▁erfordert	-10370
▁erschafft	-10371
▁folgender	-10372
▁kleinsten	-10373
▁tausenden	-10374
▁technisch	-10375
splantation	-10376
▁Auffassung	-10377
▁Connectome	-10378
▁Grundstück	-10379
▁einbringen	-10380
▁einstellen	-10381
▁gebrauchen	-10382
▁simulieren	-10383
▁vermittelt	-10384
▁zukünftige	-10385
▁Erfindungen	-10386
▁Gegenstände	-10387
▁Nordamerika	-10388
▁ausprobiert	-10389
▁verblüffend	-10390
▁darzustellen	-10391
▁konstruieren	-10392
▁vergewaltigt	-10393
▁wahrgenommen	-10394
▁Bürgermeister	-10395
▁schrecklichen	-10396
▁transportieren	-10397
AA	-10398
fa	-10399
hu	-10400
▁?	-10401
Gen	-10402
Ges	-10403
Tal	-10404
Wow	-10405
ona	-10406
osn	-10407
val	-10408
via	-10409
öne	-10410
▁WK	-10411
▁fä	-10412
Bahn	-10413
erei	-10414
gels	-10415
kler	-10416
okal	-10417
tent	-10418
zten	-10419
▁10,	-10420
▁191	-10421
▁Gig	-10422
▁Hai	-10423
▁Hut	-10424
▁Lim	-10425
▁Oft	-10426
▁SMS	-10427
▁Van	-10428
▁gol	-10429
▁int	-10430
▁max	-10431
▁maß	-10432
▁weh	-10433
armen	-10434
hinge	-10435
ismen	-10436
meter	-10437
öpfer	-10438
▁Bohr	-10439
▁Darf	-10440
▁Dein	-10441
▁Dete	-10442
▁Hell	-10443
▁Kell	-10444
▁Kilo	-10445
▁Kong	-10446
▁Nick	-10447
▁Prem	-10448
▁Rate	-10449
▁Tans	-10450
▁Teig	-10451
▁betr	-10452
▁ewig	-10453
▁gekl	-10454
▁quer	-10455
▁stab	-10456
▁zwöl	-10457
halter	-10458
ierbar	-10459
ivität	-10460
ktoren	-10461
physik	-10462
schlei	-10463
wollen	-10464
üttern	-10465
▁Ethik	-10466
▁Höhle	-10467
▁Jäger	-10468
▁Kanal	-10469
▁Kleid	-10470
▁Kopie	-10471
▁Lande	-10472
▁Pilot	-10473
▁Shang	-10474
▁Texas	-10475
▁Trink	-10476
▁begrü	-10477
▁jenem	-10478
▁popul	-10479
▁sicht	-10480
flächen	-10481
konstru	-10482
merksam	-10483
schwing	-10484
technik	-10485
▁Banken	-10486
▁Bereit	-10487
▁Einmal	-10488
▁Gandhi	-10489
▁Hawaii	-10490
▁Lieder	-10491
▁Poster	-10492
▁Rennen	-10493
▁Sektor	-10494
▁Talent	-10495
▁Wortes	-10496
▁abgest	-10497
▁assozi	-10498
▁aufger	-10499
▁europä	-10500
▁falten	-10501
▁leeren	-10502
▁mechan	-10503
▁modell	-10504
▁verlor	-10505
anischen	-10506
eigerung	-10507
icherung	-10508
schlägen	-10509
stheorie	-10510
werkraft	-10511
ästhesie	-10512
▁Everest	-10513
▁Florida	-10514
▁Gelände	-10515
▁Letztes	-10516
▁Lächeln	-10517
▁Notwend	-10518
▁Rettung	-10519
▁Schwein	-10520
▁Sklaven	-10521
▁Unfälle	-10522
▁ausländ	-10523
▁bedroht	-10524
▁beliebt	-10525
▁diesmal	-10526
▁erstens	-10527
▁gedreht	-10528
▁gerufen	-10529
▁private	-10530
▁veranst	-10531
▁verdeut	-10532
maschinen	-10533
pretation	-10534
rankungen	-10535
schätzung	-10536
▁Carolina	-10537
▁Direktor	-10538
▁Drittens	-10539
▁Empathie	-10540
▁Mikroben	-10541
▁basieren	-10542
▁besserer	-10543
▁erzielen	-10544
▁getragen	-10545
▁herrscht	-10546
▁neuesten	-10547
▁zerbrech	-10548
▁ältesten	-10549
landschaft	-10550
unterricht	-10551
verstanden	-10552
wohnheiten	-10553
▁Absichten	-10554
▁Aristotel	-10555
▁Fahrzeuge	-10556
▁Meinungen	-10557
▁Metaphern	-10558
▁Prozesses	-10559
▁angewandt	-10560
▁begriffen	-10561
▁einnehmen	-10562
▁erhielten	-10563
▁ermöglich	-10564
▁eventuell	-10565
▁kritische	-10566
▁motiviert	-10567
▁religiöse	-10568
▁spektakul	-10569
krankheiten	-10570
▁Fallschirm	-10571
▁Foundation	-10572
▁Skelettmus	-10573
▁Teilnehmer	-10574
▁aufmerksam	-10575
▁jedenfalls	-10576
▁klassische	-10577
▁lächerlich	-10578
▁menschlich	-10579
schränkungen	-10580
▁Schwerkraft	-10581
▁Wichtigkeit	-10582
▁verwendeten	-10583
▁Arbeitsplatz	-10584
▁Journalisten	-10585
▁Schlagzeilen	-10586
▁Umweltschutz	-10587
▁Unsicherheit	-10588
▁Verletzungen	-10589
▁eigentlichen	-10590
▁exponentiell	-10591
▁individuelle	-10592
▁leidenschaft	-10593
▁ungewöhnlich	-10594
▁verpflichtet	-10595
▁transportiert	-10596
▁Halluzinationen	-10597
▁Lebensunterhalt	-10598
▁sicherzustellen	-10599
.:	-10600
ER	-10601
Em	-10602
inf	-10603
izz	-10604
nik	-10605
ows	-10606
tur	-10607
ynd	-10608
ärt	-10609
▁33	-10610
▁46	-10611
▁AM	-10612
▁Ky	-10613
▁Wi	-10614
▁rü	-10615
Gott	-10616
agon	-10617
auce	-10618
bele	-10619
belt	-10620
burg	-10621
enke	-10622
flex	-10623
grad	-10624
gäng	-10625
hnte	-10626
klop	-10627
komm	-10628
kund	-10629
mass	-10630
oole	-10631
trän	-10632
ämen	-10633
äser	-10634
ören	-10635
öten	-10636
▁10.	-10637
▁Att	-10638
▁Bol	-10639
▁DVD	-10640
▁Eur	-10641
▁Hen	-10642
▁Kab	-10643
▁Kra	-10644
▁Law	-10645
▁Liz	-10646
▁Roy	-10647
▁Ted	-10648
▁Tum	-10649
▁Ven	-10650
▁Wut	-10651
▁kle	-10652
▁syn	-10653
▁Äqu	-10654
agert	-10655
arium	-10656
aters	-10657
enten	-10658
jahre	-10659
kunst	-10660
masse	-10661
mherz	-10662
ohnen	-10663
omben	-10664
otten	-10665
union	-10666
weist	-10667
▁Adam	-10668
▁Agen	-10669
▁Bahn	-10670
▁Benj	-10671
▁Chor	-10672
▁Coca	-10673
▁Eisb	-10674
▁Fant	-10675
▁Hefe	-10676
▁Jazz	-10677
▁Mike	-10678
▁Mini	-10679
▁Nano	-10680
▁Penn	-10681
▁Prob	-10682
▁Rein	-10683
▁Sach	-10684
▁Sech	-10685
▁Stap	-10686
▁Vent	-10687
▁bele	-10688
▁depr	-10689
▁oper	-10690
▁quad	-10691
▁russ	-10692
ackung	-10693
dichte	-10694
eichen	-10695
endete	-10696
iegeln	-10697
istall	-10698
letter	-10699
odelle	-10700
sektor	-10701
skraft	-10702
weiter	-10703
▁Brown	-10704
▁Deine	-10705
▁Endes	-10706
▁Grand	-10707
▁Hafen	-10708
▁Inder	-10709
▁Luxus	-10710
▁Namib	-10711
▁North	-10712
▁Nukle	-10713
▁Tauch	-10714
▁Wolke	-10715
▁anerk	-10716
▁besie	-10717
▁betrü	-10718
▁flüss	-10719
▁greif	-10720
▁lehrt	-10721
▁malen	-10722
▁unber	-10723
ampagne	-10724
büchern	-10725
gezogen	-10726
itution	-10727
lichung	-10728
planung	-10729
portion	-10730
streben	-10731
äufiger	-10732
▁Alltag	-10733
▁Berlin	-10734
▁Disney	-10735
▁Fliege	-10736
▁Gehalt	-10737
▁Jedoch	-10738
▁Kambod	-10739
▁Keiner	-10740
▁Kuchen	-10741
▁Linsen	-10742
▁Messer	-10743
▁Myster	-10744
▁Profit	-10745
▁Raumes	-10746
▁Republ	-10747
▁Schock	-10748
▁Strich	-10749
▁Wright	-10750
▁bricht	-10751
▁fassen	-10752
▁gelegt	-10753
▁geschm	-10754
geworfen	-10755
ibilität	-10756
ichteten	-10757
ierender	-10758
romagnet	-10759
schnitte	-10760
ulierung	-10761
ächtigen	-10762
änderten	-10763
▁200.000	-10764
▁Dichter	-10765
▁Prostat	-10766
▁Studium	-10767
▁Tomaten	-10768
▁Vertrag	-10769
▁Verzerr	-10770
▁agieren	-10771
▁begehen	-10772
▁bislang	-10773
▁drinnen	-10774
▁kontinu	-10775
▁korrekt	-10776
▁negativ	-10777
▁saubere	-10778
▁streben	-10779
▁wodurch	-10780
▁zusehen	-10781
▁zwanzig	-10782
eisterung	-10783
ifizieren	-10784
irdischen	-10785
sichtigen	-10786
▁Annahmen	-10787
▁Feedback	-10788
▁Original	-10789
▁Spannung	-10790
▁Tansania	-10791
▁ankommen	-10792
▁betreten	-10793
▁einziger	-10794
▁erlaubte	-10795
▁geeignet	-10796
▁sicherer	-10797
▁umsetzen	-10798
▁universe	-10799
▁wörtlich	-10800
▁Alexander	-10801
▁Anpassung	-10802
▁Computers	-10803
▁Einzelnen	-10804
▁Erzählung	-10805
▁Interface	-10806
▁Kommentar	-10807
▁Landkarte	-10808
▁Paradigma	-10809
▁Rezession	-10810
▁Schichten	-10811
▁Schätzung	-10812
▁Unterhalt	-10813
▁aktuellen	-10814
▁begleitet	-10815
▁eingebaut	-10816
▁gewaltige	-10817
▁ignoriert	-10818
▁jederzeit	-10819
▁weibliche	-10820
▁wiederher	-10821
hltätigkeit	-10822
▁Elektronik	-10823
▁Kilometern	-10824
▁Symmetrien	-10825
▁anzufangen	-10826
▁arabischen	-10827
▁beschützen	-10828
▁entdeckten	-10829
▁verhindert	-10830
▁verurteilt	-10831
▁überlassen	-10832
▁übersetzen	-10833
▁Allgemeinen	-10834
▁Antibiotika	-10835
▁Aristoteles	-10836
▁Bergsteiger	-10837
▁Bürgerkrieg	-10838
▁aufgestellt	-10839
▁durchlaufen	-10840
▁emotionalen	-10841
▁konstruiert	-10842
▁Älterwerden	-10843
▁Katastrophen	-10844
▁entsprechend	-10845
▁Angelegenheit	-10846
▁Durchschnitts	-10847
▁Sterblichkeit	-10848
▁entscheidende	-10849
▁international	-10850
▁tatsächlichen	-10851
▁Menschenrechte	-10852
▁berücksichtigt	-10853
▁außerordentlich	-10854
CA	-10855
hü	-10856
sw	-10857
eck	-10858
gab	-10859
hut	-10860
neu	-10861
oin	-10862
okl	-10863
uba	-10864
▁EU	-10865
▁Mü	-10866
▁Sm	-10867
▁ah	-10868
▁wa	-10869
ahen	-10870
alog	-10871
ampf	-10872
ehle	-10873
flos	-10874
ftet	-10875
ideo	-10876
iode	-10877
iser	-10878
mark	-10879
ockt	-10880
onym	-10881
paar	-10882
uckt	-10883
weiß	-10884
zone	-10885
▁Hof	-10886
▁Kro	-10887
▁Mak	-10888
▁Mod	-10889
▁Mur	-10890
▁Pen	-10891
▁Sat	-10892
▁Sav	-10893
▁Tok	-10894
▁bzw	-10895
Weißt	-10896
ansas	-10897
elson	-10898
erung	-10899
gnost	-10900
iefst	-10901
inson	-10902
offen	-10903
ophen	-10904
organ	-10905
packt	-10906
rateg	-10907
reckt	-10908
sonst	-10909
thalb	-10910
useel	-10911
üpfen	-10912
▁1999	-10913
▁Darm	-10914
▁Erle	-10915
▁Evan	-10916
▁Funk	-10917
▁Karo	-10918
▁Lein	-10919
▁Logo	-10920
▁Milo	-10921
▁Pitt	-10922
▁Ring	-10923
▁Spag	-10924
▁Strö	-10925
▁Wirk	-10926
▁flex	-10927
▁lese	-10928
▁spaz	-10929
▁wein	-10930
achtel	-10931
andten	-10932
füllen	-10933
igment	-10934
inseln	-10935
legten	-10936
oppeln	-10937
ragend	-10938
raktiv	-10939
schuss	-10940
uchtet	-10941
ältigt	-10942
äuscht	-10943
▁Beute	-10944
▁Frühl	-10945
▁Geben	-10946
▁Hütte	-10947
▁Kiste	-10948
▁Magen	-10949
▁Rande	-10950
▁Recyc	-10951
▁Roten	-10952
▁Sonnt	-10953
▁Stell	-10954
▁Sätze	-10955
▁beruf	-10956
▁coole	-10957
▁eurem	-10958
▁glaub	-10959
▁sorgt	-10960
▁warst	-10961
▁weise	-10962
▁wiegt	-10963
▁Überw	-10964
▁überl	-10965
energie	-10966
enhagen	-10967
flasche	-10968
führten	-10969
ildeten	-10970
iologie	-10971
mäßigen	-10972
verkehr	-10973
▁Astron	-10974
▁Feucht	-10975
▁Flagge	-10976
▁Kochen	-10977
▁Küsten	-10978
▁Lichts	-10979
▁Sahara	-10980
▁Tunnel	-10981
▁Weisen	-10982
▁abends	-10983
▁bewerk	-10984
▁denkst	-10985
▁graben	-10986
▁langes	-10987
▁muslim	-10988
▁packen	-10989
▁raffin	-10990
▁result	-10991
zutreten	-10992
▁Bestech	-10993
▁Denkens	-10994
▁Digital	-10995
▁Ethanol	-10996
▁Himmels	-10997
▁Konserv	-10998
▁Konzert	-10999
▁Notfall	-11000
▁Taliban	-11001
▁Tausend	-11002
▁Töchter	-11003
▁Zutaten	-11004
▁beendet	-11005
▁benannt	-11006
▁gefolgt	-11007
▁hierbei	-11008
▁klingen	-11009
▁schwach	-11010
▁schätze	-11011
▁strateg	-11012
▁unangen	-11013
▁verhält	-11014
▁wüssten	-11015
▁öffnete	-11016
Industrie	-11017
aufnahmen	-11018
ventionen	-11019
▁Benjamin	-11020
▁Christen	-11021
▁Demonstr	-11022
▁Glaubens	-11023
▁Versagen	-11024
▁aufgeben	-11025
▁einladen	-11026
▁entschul	-11027
▁mächtige	-11028
▁verletzt	-11029
▁verläuft	-11030
▁vermuten	-11031
▁vorlesen	-11032
▁zutiefst	-11033
iminalität	-11034
▁Besonders	-11035
▁Chirurgen	-11036
▁Großvater	-11037
▁Kategorie	-11038
▁Parlament	-11039
▁Verbrauch	-11040
▁Vergessen	-11041
▁angeboten	-11042
▁einführen	-11043
▁gestohlen	-11044
▁hilfreich	-11045
▁komplexes	-11046
▁mitteilen	-11047
▁niemandem	-11048
▁schickten	-11049
▁stattfand	-11050
▁zuverläss	-11051
▁zuzuhören	-11052
▁Brustkrebs	-11053
▁Diejenigen	-11054
▁Impfstoffe	-11055
▁Investoren	-11056
▁Kopenhagen	-11057
▁Stickstoff	-11058
▁Werkzeugen	-11059
▁Wohnzimmer	-11060
▁Zeitspanne	-11061
▁anzuwenden	-11062
▁aufregende	-11063
▁durchgehen	-11064
▁entfernten	-11065
▁finanziell	-11066
▁kombiniert	-11067
▁kontinuier	-11068
▁revolution	-11069
▁unterstütz	-11070
▁verbraucht	-11071
▁verstecken	-11072
▁überqueren	-11073
▁Meeresboden	-11074
▁Psychologen	-11075
▁ausgedrückt	-11076
▁beherrschen	-11077
▁institution	-11078
▁mitgebracht	-11079
▁unabhängige	-11080
▁verheiratet	-11081
▁Begeisterung	-11082
▁Konversation	-11083
▁Landschaften	-11084
▁beschäftigte	-11085
organisationen	-11086
▁Artenvielfalt	-11087
▁Interessantes	-11088
▁Notwendigkeit	-11089
▁durcheinander	-11090
▁konzentrierte	-11091
▁Aufzeichnungen	-11092
Sh	-11093
do	-11094
yt	-11095
For	-11096
Ste	-11097
bem	-11098
ect	-11099
ela	-11100
häu	-11101
kar	-11102
ors	-11103
röh	-11104
uit	-11105
wal	-11106
öss	-11107
▁0,	-11108
▁DR	-11109
▁Mi	-11110
▁hy	-11111
▁sc	-11112
▁uh	-11113
Also	-11114
Boot	-11115
Jähr	-11116
arer	-11117
arma	-11118
enix	-11119
fügt	-11120
icke	-11121
idee	-11122
ikon	-11123
kern	-11124
mpor	-11125
ores	-11126
pern	-11127
pril	-11128
reen	-11129
umin	-11130
utet	-11131
▁Alz	-11132
▁Int	-11133
▁Jay	-11134
▁Lak	-11135
▁Ram	-11136
▁Soc	-11137
▁Tut	-11138
▁ann	-11139
▁bot	-11140
▁dru	-11141
▁ero	-11142
▁med	-11143
▁ras	-11144
▁wuß	-11145
Bitte	-11146
abeth	-11147
diger	-11148
figur	-11149
ickte	-11150
kampf	-11151
lauch	-11152
liebe	-11153
liste	-11154
ometr	-11155
onanz	-11156
plant	-11157
riebe	-11158
utnik	-11159
ämpfe	-11160
ärten	-11161
äumen	-11162
▁Base	-11163
▁Bert	-11164
▁Gumm	-11165
▁Hung	-11166
▁Ikon	-11167
▁Sich	-11168
▁Tony	-11169
▁Vieh	-11170
▁allm	-11171
▁deta	-11172
▁gänz	-11173
▁käme	-11174
▁proj	-11175
▁präz	-11176
▁seht	-11177
apital	-11178
asiten	-11179
bricht	-11180
etings	-11181
etzung	-11182
genöss	-11183
holung	-11184
ichern	-11185
indern	-11186
ission	-11187
rungen	-11188
senden	-11189
weiten	-11190
zettel	-11191
ättern	-11192
ördert	-11193
▁Agrar	-11194
▁Amate	-11195
▁Bombe	-11196
▁Brian	-11197
▁Busch	-11198
▁Bären	-11199
▁Dampf	-11200
▁Elend	-11201
▁Freit	-11202
▁Fried	-11203
▁Hören	-11204
▁Jeans	-11205
▁Kasse	-11206
▁Kevin	-11207
▁Liber	-11208
▁Linse	-11209
▁Mathe	-11210
▁Moder	-11211
▁Oktop	-11212
▁Panik	-11213
▁Pilze	-11214
▁Power	-11215
▁Robot	-11216
▁Stunt	-11217
▁Wohin	-11218
▁Zwill	-11219
▁abgeb	-11220
▁etabl	-11221
▁fange	-11222
▁hinab	-11223
▁nette	-11224
▁teure	-11225
▁zwölf	-11226
auschen	-11227
euchten	-11228
grenzen	-11229
lechter	-11230
legenen	-11231
osophen	-11232
zahlung	-11233
zentren	-11234
▁Akteur	-11235
▁Fertig	-11236
▁Filmen	-11237
▁Gewehr	-11238
▁Helium	-11239
▁Intens	-11240
▁Konkur	-11241
▁Ladung	-11242
▁Meiner	-11243
▁Mitlei	-11244
▁Photos	-11245
▁Sender	-11246
▁Sylvia	-11247
▁Termin	-11248
▁Tiefen	-11249
▁Tänzer	-11250
▁Winden	-11251
▁absolu	-11252
▁ausgel	-11253
▁fehler	-11254
▁geheim	-11255
▁großem	-11256
▁halbes	-11257
▁nutzte	-11258
▁stimme	-11259
▁ungehe	-11260
▁weinen	-11261
▁wohnen	-11262
breitung	-11263
computer	-11264
frequenz	-11265
gefangen	-11266
izierten	-11267
zweifelt	-11268
▁Fischen	-11269
▁Goldene	-11270
▁Mandela	-11271
▁Rechten	-11272
▁Verrück	-11273
▁Zentral	-11274
▁aggress	-11275
▁beängst	-11276
▁blieben	-11277
▁detaill	-11278
▁geplant	-11279
▁italien	-11280
▁kauften	-11281
▁massive	-11282
▁minimal	-11283
▁mischen	-11284
▁problem	-11285
▁radikal	-11286
▁rechnen	-11287
▁suchten	-11288
▁vierten	-11289
▁wechsel	-11290
aktivität	-11291
schaffung	-11292
schließen	-11293
schmerzen	-11294
▁Atlantik	-11295
▁Aussicht	-11296
▁Barmherz	-11297
▁Beschäft	-11298
▁Einblick	-11299
▁Friedens	-11300
▁Gewinner	-11301
▁Gewässer	-11302
▁Griechen	-11303
▁Horizont	-11304
▁Kreation	-11305
▁Kritiker	-11306
▁Libellen	-11307
▁Projekts	-11308
▁Rauschen	-11309
▁Robotern	-11310
▁Schlange	-11311
▁Spaghett	-11312
▁Virginia	-11313
▁drittens	-11314
▁durchaus	-11315
▁intuitiv	-11316
▁kleinste	-11317
▁streiten	-11318
▁wahnsinn	-11319
▁Irgendwie	-11320
▁Maßnahmen	-11321
▁Produkten	-11322
▁Recycling	-11323
▁Schwarzen	-11324
▁britische	-11325
▁gewachsen	-11326
▁innovativ	-11327
▁kommenden	-11328
▁rückwärts	-11329
▁umgesetzt	-11330
▁zeichnete	-11331
möglichkeit	-11332
▁Baumkronen	-11333
▁Fotografen	-11334
▁Fotografie	-11335
▁Innenstadt	-11336
▁Meerwasser	-11337
▁Säugetiere	-11338
▁anderthalb	-11339
▁angebracht	-11340
▁bestimmtes	-11341
▁beteiligen	-11342
▁engagieren	-11343
▁integriert	-11344
▁motivieren	-11345
▁verschwand	-11346
▁Auseinander	-11347
▁Hilfsmittel	-11348
▁Trinkwasser	-11349
▁Vorhersagen	-11350
▁empfindlich	-11351
▁kostengünst	-11352
▁realisieren	-11353
▁Überzeugung	-11354
ungsfähigkeit	-11355
▁Andererseits	-11356
▁Diskussionen	-11357
▁ausprobieren	-11358
▁beschleunigt	-11359
▁Konzentration	-11360
▁Wohltätigkeit	-11361
▁ausgesprochen	-11362
▁beschleunigen	-11363
▁faszinierende	-11364
▁fotografieren	-11365
▁intelligenten	-11366
▁mathematische	-11367
▁verwirklichen	-11368
▁physikalischen	-11369
Ab	-11370
Bl	-11371
Os	-11372
PA	-11373
ta	-11374
aka	-11375
eiß	-11376
ema	-11377
ids	-11378
ita	-11379
kod	-11380
sth	-11381
ürt	-11382
▁37	-11383
▁38	-11384
▁72	-11385
▁BM	-11386
▁Cy	-11387
▁Up	-11388
▁aß	-11389
▁po	-11390
AIDS	-11391
Mann	-11392
akat	-11393
asha	-11394
fabr	-11395
hirn	-11396
höhe	-11397
ical	-11398
klin	-11399
ollt	-11400
senz	-11401
ustr	-11402
▁---	-11403
▁Adr	-11404
▁Arz	-11405
▁Bin	-11406
▁Hab	-11407
▁Hig	-11408
▁LKW	-11409
▁Mer	-11410
▁Nav	-11411
▁anp	-11412
▁anz	-11413
▁ele	-11414
▁erl	-11415
▁leg	-11416
▁mod	-11417
▁pol	-11418
▁umk	-11419
▁unf	-11420
agten	-11421
aisen	-11422
aller	-11423
apier	-11424
ausch	-11425
bogen	-11426
klang	-11427
kugel	-11428
malen	-11429
opter	-11430
ostet	-11431
riert	-11432
rugen	-11433
ummer	-11434
wechs	-11435
öpfen	-11436
öscht	-11437
▁Blei	-11438
▁Brem	-11439
▁Diam	-11440
▁Erbe	-11441
▁Fert	-11442
▁Josh	-11443
▁Line	-11444
▁Papa	-11445
▁Pest	-11446
▁Quer	-11447
▁Real	-11448
▁abst	-11449
▁dünn	-11450
▁farb	-11451
▁hebt	-11452
▁klat	-11453
▁lauf	-11454
▁orig	-11455
▁pack	-11456
▁ruft	-11457
▁visu	-11458
▁üben	-11459
akespe	-11460
altete	-11461
ammern	-11462
becken	-11463
besten	-11464
eidung	-11465
führte	-11466
gefügt	-11467
gelenk	-11468
kaufen	-11469
produz	-11470
rechts	-11471
reißen	-11472
sslich	-11473
terten	-11474
ündete	-11475
▁3.000	-11476
▁Black	-11477
▁Bonob	-11478
▁Ecken	-11479
▁Ernte	-11480
▁Himal	-11481
▁Hülle	-11482
▁Korea	-11483
▁Stich	-11484
▁Stirn	-11485
▁Waffe	-11486
▁Weltw	-11487
▁Wisst	-11488
▁exter	-11489
▁gehst	-11490
▁leise	-11491
▁multi	-11492
▁Ärger	-11493
digungs	-11494
fahrung	-11495
gefasst	-11496
inister	-11497
ladesch	-11498
viertel	-11499
wichtig	-11500
▁Balken	-11501
▁Briefe	-11502
▁Erklär	-11503
▁Ersatz	-11504
▁Felder	-11505
▁Garage	-11506
▁Hauses	-11507
▁Herbst	-11508
▁Histor	-11509
▁Hühner	-11510
▁Kannst	-11511
▁Knoten	-11512
▁Kosovo	-11513
▁Kritik	-11514
▁Lippen	-11515
▁Mythos	-11516
▁Nelson	-11517
▁Nutzer	-11518
▁Obdach	-11519
▁Plätze	-11520
▁Stimul	-11521
▁Teller	-11522
▁Tempel	-11523
▁Vorles	-11524
▁Zweite	-11525
▁auszut	-11526
▁flogen	-11527
▁gelben	-11528
▁genaue	-11529
▁geschl	-11530
▁greift	-11531
▁mittel	-11532
▁siehst	-11533
▁sprang	-11534
▁toller	-11535
▁unverm	-11536
▁ältere	-11537
euchtung	-11538
faktoren	-11539
funktion	-11540
gebieten	-11541
pliziert	-11542
schafter	-11543
schaltet	-11544
schlüsse	-11545
terweise	-11546
urteilen	-11547
▁Atlanta	-11548
▁Bindung	-11549
▁Brücken	-11550
▁Chirurg	-11551
▁Dennoch	-11552
▁Effekte	-11553
▁Fingern	-11554
▁Haltung	-11555
▁Könnten	-11556
▁Monster	-11557
▁Sondern	-11558
▁Steinen	-11559
▁abhängt	-11560
▁aktiven	-11561
▁anrufen	-11562
▁anschau	-11563
▁gerecht	-11564
▁gereist	-11565
▁geringe	-11566
▁leichte	-11567
▁oftmals	-11568
▁riechen	-11569
▁schlägt	-11570
▁umfasst	-11571
▁umsonst	-11572
▁versagt	-11573
▁weitaus	-11574
▁zurzeit	-11575
istischer	-11576
istisches	-11577
▁Analogie	-11578
▁Einzelne	-11579
▁Errungen	-11580
▁Gehirnen	-11581
▁Haushalt	-11582
▁Moskiton	-11583
▁Shanghai	-11584
▁antreibt	-11585
▁erstaunt	-11586
▁fürchten	-11587
▁gelaufen	-11588
▁geleitet	-11589
▁gespannt	-11590
▁gleicher	-11591
▁hingegen	-11592
▁möchtest	-11593
▁normales	-11594
▁offenbar	-11595
▁reagiert	-11596
▁schuldig	-11597
▁verraten	-11598
ologischer	-11599
▁Alzheimer	-11600
▁Batterien	-11601
▁Bausteine	-11602
▁Probanden	-11603
▁Repräsent	-11604
▁Spaghetti	-11605
▁Toiletten	-11606
▁keinerlei	-11607
▁kognitive	-11608
▁kurzfrist	-11609
▁transform	-11610
▁verborgen	-11611
Technologie	-11612
entwicklung	-11613
▁Herzschlag	-11614
▁Kambodscha	-11615
▁Kategorien	-11616
▁Nachmittag	-11617
▁Netzwerken	-11618
▁Nährstoffe	-11619
▁Schokolade	-11620
▁Völkermord	-11621
▁Widerstand	-11622
▁beschränkt	-11623
▁diskutiert	-11624
▁eineinhalb	-11625
▁einfachste	-11626
▁schlimmste	-11627
stechnologie	-11628
▁Naturschutz	-11629
▁Sowjetunion	-11630
▁fortschritt	-11631
▁unmittelbar	-11632
▁verbreitete	-11633
▁vorschlagen	-11634
▁wunderbares	-11635
dimensionalen	-11636
▁Alternativen	-11637
▁Experimenten	-11638
▁Hausaufgaben	-11639
▁wesentlichen	-11640
▁ökonomischen	-11641
▁Anstrengungen	-11642
▁Entwicklungen	-11643
▁Verschmutzung	-11644
▁Zeitschriften	-11645
▁Barmherzigkeit	-11646
▁Transformation	-11647
▁auszuprobieren	-11648
▁herausgestellt	-11649
Ch	-11650
IN	-11651
uk	-11652
Arm	-11653
Fil	-11654
eme	-11655
gei	-11656
hyd	-11657
kür	-11658
obi	-11659
ray	-11660
rew	-11661
seg	-11662
stü	-11663
usi	-11664
yer	-11665
ypt	-11666
äug	-11667
üre	-11668
▁ID	-11669
▁pu	-11670
Eine	-11671
Hier	-11672
Mart	-11673
auch	-11674
aßen	-11675
bart	-11676
eilt	-11677
fiel	-11678
fram	-11679
gner	-11680
iler	-11681
ilzt	-11682
izop	-11683
west	-11684
ypen	-11685
zenz	-11686
zirk	-11687
ähmt	-11688
▁193	-11689
▁2,5	-11690
▁Amt	-11691
▁Ema	-11692
▁Jet	-11693
▁Kas	-11694
▁LED	-11695
▁Leg	-11696
▁Neg	-11697
▁Sim	-11698
▁Sue	-11699
▁Vit	-11700
▁brü	-11701
▁urb	-11702
Mails	-11703
andet	-11704
bauer	-11705
denke	-11706
irurg	-11707
länge	-11708
minen	-11709
regel	-11710
reist	-11711
risen	-11712
sters	-11713
stock	-11714
usste	-11715
ächte	-11716
ündet	-11717
▁2050	-11718
▁Dumm	-11719
▁Ethn	-11720
▁Flut	-11721
▁Habe	-11722
▁Harm	-11723
▁Hind	-11724
▁Jill	-11725
▁Kreb	-11726
▁Leon	-11727
▁Lith	-11728
▁Neue	-11729
▁Palm	-11730
▁Pfad	-11731
▁Pion	-11732
▁Sexu	-11733
▁aßen	-11734
▁isst	-11735
▁pein	-11736
▁vari	-11737
alente	-11738
binden	-11739
einern	-11740
haufen	-11741
ikalen	-11742
indert	-11743
kinder	-11744
landet	-11745
legung	-11746
region	-11747
renzen	-11748
viewer	-11749
wendig	-11750
zyklus	-11751
ündung	-11752
▁Anzug	-11753
▁Atomb	-11754
▁Behör	-11755
▁Brutt	-11756
▁Davon	-11757
▁Delhi	-11758
▁Draht	-11759
▁Falle	-11760
▁Glied	-11761
▁Lewis	-11762
▁Minen	-11763
▁Moore	-11764
▁Motto	-11765
▁Nebel	-11766
▁Netze	-11767
▁Parks	-11768
▁Scott	-11769
▁Sorte	-11770
▁Sturm	-11771
▁Tafel	-11772
▁ankam	-11773
▁befür	-11774
▁drast	-11775
▁gefil	-11776
▁gelbe	-11777
▁gesen	-11778
▁lohnt	-11779
▁rasch	-11780
▁sagst	-11781
▁schäd	-11782
▁sitze	-11783
▁wette	-11784
abdruck	-11785
artikel	-11786
schulen	-11787
sparenz	-11788
tzeitig	-11789
wohnern	-11790
ästinen	-11791
▁Berufs	-11792
▁Bäcker	-11793
▁Essens	-11794
▁Feinde	-11795
▁Gesten	-11796
▁Geträn	-11797
▁Montag	-11798
▁Option	-11799
▁Soldat	-11800
▁Sonder	-11801
▁Südpol	-11802
▁Tinten	-11803
▁Vermut	-11804
▁bewohn	-11805
▁freuen	-11806
▁geschw	-11807
▁grauen	-11808
▁halfen	-11809
▁leidet	-11810
▁person	-11811
▁reiche	-11812
▁riesig	-11813
▁unterm	-11814
▁vorder	-11815
ferenzen	-11816
izophren	-11817
produkte	-11818
sprecher	-11819
strahlen	-11820
▁Eingang	-11821
▁Flächen	-11822
▁Geister	-11823
▁Hundert	-11824
▁Kreatur	-11825
▁Mitleid	-11826
▁Montana	-11827
▁Muslime	-11828
▁Mustern	-11829
▁Neigung	-11830
▁Phoenix	-11831
▁Polymer	-11832
▁Premier	-11833
▁Prüfung	-11834
▁Spanien	-11835
▁Strecke	-11836
▁William	-11837
▁Wolfram	-11838
▁Zweiten	-11839
▁daneben	-11840
▁gesucht	-11841
▁hungrig	-11842
▁nutzten	-11843
▁sammelt	-11844
▁träumen	-11845
▁unschul	-11846
▁verletz	-11847
ifikation	-11848
ilisieren	-11849
schrecken	-11850
tschaften	-11851
▁Biomasse	-11852
▁Fabriken	-11853
▁Hühnchen	-11854
▁Sammlung	-11855
▁Shakespe	-11856
▁Streifen	-11857
▁Vernunft	-11858
▁anderswo	-11859
▁anfingen	-11860
▁einbauen	-11861
▁erlangen	-11862
▁geradezu	-11863
▁häufiger	-11864
▁jegliche	-11865
▁klettern	-11866
▁liebsten	-11867
▁soziales	-11868
▁tauschen	-11869
▁verwandt	-11870
▁wieviele	-11871
bewegungen	-11872
▁Angesicht	-11873
▁Berührung	-11874
▁Beschleun	-11875
▁Designern	-11876
▁Einheiten	-11877
▁Einwohner	-11878
▁Frühstück	-11879
▁Glühbirne	-11880
▁Versionen	-11881
▁Zeichnung	-11882
▁ansonsten	-11883
▁beschrieb	-11884
▁charakter	-11885
▁ergreifen	-11886
▁erweitert	-11887
▁furchtbar	-11888
▁kleineren	-11889
▁künstlich	-11890
▁markieren	-11891
▁schnellen	-11892
▁unbegrenz	-11893
▁vornehmen	-11894
▁Überfluss	-11895
formationen	-11896
▁Grundlagen	-11897
▁Hemisphäre	-11898
▁Kandidaten	-11899
▁Kommentare	-11900
▁ansprechen	-11901
▁anzunehmen	-11902
▁ausbreiten	-11903
▁bescheiden	-11904
▁konvention	-11905
▁sorgfältig	-11906
▁vergrößert	-11907
▁verknüpfen	-11908
▁verrückten	-11909
▁wachsenden	-11910
▁zeitgenöss	-11911
▁Bangladesch	-11912
▁Betrachtung	-11913
▁Gleichungen	-11914
▁Kooperation	-11915
▁Philanthrop	-11916
▁Transparenz	-11917
▁Vogelgrippe	-11918
▁Voraussagen	-11919
▁japanischen	-11920
▁langfristig	-11921
▁rechtzeitig	-11922
▁romantische	-11923
▁tiefgreifen	-11924
▁verschaffen	-11925
▁ökologischen	-11926
▁Gelegenheiten	-11927
▁Interpretation	-11928
▁Visualisierung	-11929
▁Zivilisationen	-11930
▁einschließlich	-11931
▁mathematischen	-11932
▁technologische	-11933
1,	-11934
5,	-11935
BC	-11936
MA	-11937
aj	-11938
yo	-11939
Ihr	-11940
abb	-11941
fuß	-11942
hur	-11943
ror	-11944
sex	-11945
udd	-11946
uel	-11947
ury	-11948
vas	-11949
zed	-11950
übt	-11951
▁34	-11952
▁Av	-11953
▁Ew	-11954
▁KA	-11955
▁SP	-11956
▁tu	-11957
Tech	-11958
arre	-11959
aste	-11960
bole	-11961
code	-11962
dose	-11963
eget	-11964
eley	-11965
hlst	-11966
iant	-11967
ible	-11968
irus	-11969
iste	-11970
itor	-11971
ives	-11972
kind	-11973
ness	-11974
otte	-11975
rebs	-11976
sitz	-11977
stad	-11978
team	-11979
unen	-11980
ußer	-11981
ärer	-11982
öhne	-11983
▁190	-11984
▁192	-11985
▁Acc	-11986
▁Blö	-11987
▁Bor	-11988
▁Ego	-11989
▁Fan	-11990
▁Han	-11991
▁Häu	-11992
▁May	-11993
▁Sha	-11994
▁erd	-11995
▁hom	-11996
▁hyp	-11997
▁jun	-11998
▁jüd	-11999
▁mel	-12000
▁seh	-12001
appte	-12002
azine	-12003
enezu	-12004
ieber	-12005
pfern	-12006
probe	-12007
splan	-12008
zählt	-12009
▁5000	-12010
▁Alas	-12011
▁Comp	-12012
▁Grös	-12013
▁Jose	-12014
▁Ofen	-12015
▁Panz	-12016
▁Seil	-12017
▁Tank	-12018
▁besp	-12019
▁rauf	-12020
▁stei	-12021
▁stol	-12022
attung	-12023
bedarf	-12024
ingert	-12025
klopäd	-12026
märkte	-12027
nitten	-12028
ochten	-12029
regung	-12030
schrau	-12031
spitze	-12032
sprodu	-12033
volles	-12034
wertet	-12035
ässern	-12036
örtern	-12037
▁Büros	-12038
▁Comic	-12039
▁Elite	-12040
▁Gebir	-12041
▁Hüfte	-12042
▁Jones	-12043
▁Raubt	-12044
▁Spezi	-12045
▁Stolz	-12046
▁Taten	-12047
▁Väter	-12048
▁Warte	-12049
▁dreie	-12050
▁ehren	-12051
▁euren	-12052
▁gelei	-12053
▁loszu	-12054
▁nahen	-12055
▁obere	-12056
▁unhei	-12057
anische	-12058
gefühls	-12059
raktion	-12060
spruchs	-12061
uminium	-12062
▁Eigent	-12063
▁Faszin	-12064
▁Fluktu	-12065
▁Innere	-12066
▁Keller	-12067
▁Künste	-12068
▁Mittag	-12069
▁Prophe	-12070
▁Raster	-12071
▁Romant	-12072
▁Sprich	-12073
▁Stoffe	-12074
▁Umfang	-12075
▁Unsinn	-12076
▁elegan	-12077
▁frisch	-12078
▁golden	-12079
▁griech	-12080
▁landet	-12081
▁legten	-12082
▁nachge	-12083
▁orient	-12084
▁sprich	-12085
▁teurer	-12086
Computer	-12087
bewohner	-12088
irdische	-12089
ituation	-12090
olumines	-12091
periment	-12092
strecken	-12093
temberau	-12094
zuhalten	-12095
▁Anwälte	-12096
▁Applaus	-12097
▁Charlie	-12098
▁Clinton	-12099
▁Dienste	-12100
▁Fremden	-12101
▁Geburts	-12102
▁Wünsche	-12103
▁Zugriff	-12104
▁Zuhörer	-12105
▁billige	-12106
▁fürchte	-12107
▁gewohnt	-12108
▁hiervon	-12109
▁logisch	-12110
▁starkes	-12111
▁visuell	-12112
▁wuchsen	-12113
▁wünsche	-12114
kosysteme	-12115
▁Anliegen	-12116
▁Anspruch	-12117
▁Dasselbe	-12118
▁Einkaufs	-12119
▁Gedichte	-12120
▁Harmonie	-12121
▁Leinwand	-12122
▁November	-12123
▁Partikel	-12124
▁Rohstoff	-12125
▁Schaffen	-12126
▁bereitet	-12127
▁fossilen	-12128
▁gelandet	-12129
▁globaler	-12130
▁gänzlich	-12131
▁kopieren	-12132
▁könntest	-12133
▁physisch	-12134
▁riesiger	-12135
▁schweben	-12136
▁tägliche	-12137
▁woanders	-12138
haftigkeit	-12139
ografische	-12140
▁Endeffekt	-12141
▁Hindernis	-12142
▁Infektion	-12143
▁Künstlern	-12144
▁Rohstoffe	-12145
▁Schöpfung	-12146
▁Thunfisch	-12147
▁Veröffent	-12148
▁antreiben	-12149
▁atemberau	-12150
▁attraktiv	-12151
▁kulturell	-12152
▁moralisch	-12153
▁schneiden	-12154
▁seltsamen	-12155
▁Hersteller	-12156
▁Lebenslied	-12157
▁Lebensstil	-12158
▁Mitgefühls	-12159
▁Steigerung	-12160
▁Videospiel	-12161
▁Vorhersage	-12162
▁Wendepunkt	-12163
▁beliebigen	-12164
▁kognitiven	-12165
▁kritischen	-12166
▁restlichen	-12167
▁unvorstell	-12168
▁verdoppeln	-12169
▁wahrhaftig	-12170
▁willkommen	-12171
▁Bestandteil	-12172
▁Hindernisse	-12173
▁Immunsystem	-12174
▁Interviewer	-12175
▁Relativität	-12176
▁Unglaublich	-12177
▁künstlichen	-12178
▁politischer	-12179
▁staatlichen	-12180
▁verschieben	-12181
▁Bestandteile	-12182
▁Freiwilligen	-12183
▁Nervenzellen	-12184
▁Temperaturen	-12185
▁biologischer	-12186
▁respektieren	-12187
▁teilzunehmen	-12188
▁Partnerschaft	-12189
▁Schlussfolger	-12190
▁Treibhausgase	-12191
▁elektronische	-12192
▁weitergegeben	-12193
▁Überzeugungen	-12194
▁wirtschaftlich	-12195
▁zusammenfassen	-12196
▁Voraussetzungen	-12197
4,	-12198
9.	-12199
Or	-12200
Qu	-12201
bä	-12202
Ent	-12203
Geh	-12204
Str	-12205
esh	-12206
gur	-12207
ico	-12208
irm	-12209
mas	-12210
not	-12211
ußt	-12212
ätt	-12213
öch	-12214
▁'9	-12215
▁2:	-12216
▁42	-12217
▁48	-12218
▁7.	-12219
▁AI	-12220
▁FG	-12221
▁eB	-12222
bard	-12223
blen	-12224
esst	-12225
ials	-12226
kter	-12227
llte	-12228
oden	-12229
osis	-12230
tech	-12231
wale	-12232
werf	-12233
äher	-12234
▁10-	-12235
▁15.	-12236
▁18.	-12237
▁Arg	-12238
▁Las	-12239
▁Mah	-12240
▁Off	-12241
▁Oma	-12242
▁Out	-12243
▁Sed	-12244
▁Tha	-12245
▁Ult	-12246
▁fix	-12247
Beweg	-12248
arter	-12249
earch	-12250
ehbar	-12251
freie	-12252
geist	-12253
gemäß	-12254
gespr	-12255
heken	-12256
igere	-12257
reter	-12258
rigen	-12259
samer	-12260
steri	-12261
szeit	-12262
welle	-12263
▁Arab	-12264
▁Berk	-12265
▁Fang	-12266
▁Gebe	-12267
▁Halt	-12268
▁Juli	-12269
▁Kino	-12270
▁Koff	-12271
▁Mall	-12272
▁Oran	-12273
▁Rohr	-12274
▁Slum	-12275
▁Tast	-12276
▁Tesz	-12277
▁böse	-12278
▁fröh	-12279
▁lehr	-12280
▁müde	-12281
▁skal	-12282
▁Ästh	-12283
▁ästh	-12284
Untern	-12285
bettet	-12286
eltern	-12287
firmen	-12288
grenze	-12289
größte	-12290
illiar	-12291
läufig	-12292
presse	-12293
ranten	-12294
setzte	-12295
städte	-12296
unklar	-12297
urteil	-12298
▁Antik	-12299
▁Fahrt	-12300
▁Favor	-12301
▁Franz	-12302
▁Human	-12303
▁Kathe	-12304
▁Klass	-12305
▁Louis	-12306
▁Polio	-12307
▁Schlä	-12308
▁South	-12309
▁Stere	-12310
▁chron	-12311
▁fahre	-12312
▁gewün	-12313
▁leere	-12314
▁nachd	-12315
▁ständ	-12316
▁warte	-12317
▁weite	-12318
▁wilde	-12319
förmige	-12320
füllung	-12321
okraten	-12322
schenkt	-12323
wiegend	-12324
▁60.000	-12325
▁Absatz	-12326
▁Besser	-12327
▁Beteil	-12328
▁Brille	-12329
▁Bühnen	-12330
▁Canyon	-12331
▁Farmer	-12332
▁Formel	-12333
▁Frustr	-12334
▁Ganzes	-12335
▁Kontro	-12336
▁Kortex	-12337
▁Küchen	-12338
▁Lehren	-12339
▁Mentor	-12340
▁Phasen	-12341
▁Vulkan	-12342
▁Waisen	-12343
▁befand	-12344
▁befrie	-12345
▁düster	-12346
▁klappt	-12347
▁kollab	-12348
▁korrig	-12349
▁kriegt	-12350
▁merkte	-12351
▁pflanz	-12352
▁rannte	-12353
▁sendet	-12354
▁stimul	-12355
Institut	-12356
andelten	-12357
forscher	-12358
regionen	-12359
sprojekt	-12360
stritten	-12361
▁Einzige	-12362
▁Kondome	-12363
▁Lithium	-12364
▁Neuseel	-12365
▁Pinguin	-12366
▁Schweiz	-12367
▁Spenden	-12368
▁Sputnik	-12369
▁Stephen	-12370
▁Stipend	-12371
▁Trommel	-12372
▁Worüber	-12373
▁füttern	-12374
▁gefühlt	-12375
▁geprägt	-12376
▁konzept	-12377
▁springt	-12378
▁verfolg	-12379
▁zweiter	-12380
gewandelt	-12381
hältnisse	-12382
irtschaft	-12383
schichten	-12384
ähnlichen	-12385
▁Begriffe	-12386
▁Entweder	-12387
▁Frühling	-12388
▁Gesetzen	-12389
▁Moskitos	-12390
▁Plankton	-12391
▁Research	-12392
▁Trennung	-12393
▁Vermögen	-12394
▁Visionen	-12395
▁anziehen	-12396
▁auftritt	-12397
▁aufwuchs	-12398
▁beliebte	-12399
▁gelungen	-12400
▁jüngeren	-12401
▁markiert	-12402
▁verwirrt	-12403
▁Ästhetik	-12404
derwärmung	-12405
▁Aluminium	-12406
▁Jefferson	-12407
▁Scheitern	-12408
▁Schildkrö	-12409
▁Schweizer	-12410
▁Schwellen	-12411
▁Wichtiges	-12412
▁benötigte	-12413
▁einzelnes	-12414
▁erschwing	-12415
▁kreativer	-12416
▁schwanger	-12417
▁speichern	-12418
▁studierte	-12419
▁tendieren	-12420
▁versetzen	-12421
gehörigkeit	-12422
▁Ingenieurs	-12423
▁Wochenende	-12424
▁Zigaretten	-12425
▁anerkennen	-12426
▁anzupassen	-12427
▁bestätigen	-12428
▁freiwillig	-12429
▁generieren	-12430
▁merkwürdig	-12431
▁unheimlich	-12432
▁weiblichen	-12433
▁Beleuchtung	-12434
▁Einrichtung	-12435
▁Grundschule	-12436
▁Hoffentlich	-12437
▁Versprechen	-12438
▁effizienter	-12439
▁ermöglichte	-12440
▁irgendeinen	-12441
▁verzweifelt	-12442
▁ökonomische	-12443
▁Bewusstseins	-12444
▁Mobiltelefon	-12445
▁anschließend	-12446
▁einzigartige	-12447
▁herausstellt	-12448
▁historischen	-12449
▁inspirierend	-12450
▁langfristige	-12451
▁unterbrochen	-12452
▁Geschäftswelt	-12453
▁Zusammenbruch	-12454
▁einzigartigen	-12455
▁identifiziert	-12456
▁individuellen	-12457
▁stattgefunden	-12458
▁unglaubliches	-12459
▁untereinander	-12460
▁Verbesserungen	-12461
▁bewerkstelligen	-12462
▁experimentieren	-12463
9,	-12464
Ne	-12465
Po	-12466
Su	-12467
ky	-12468
Aus	-12469
Met	-12470
Rob	-12471
ata	-12472
bab	-12473
hes	-12474
lab	-12475
old	-12476
sal	-12477
tef	-12478
ula	-12479
▁4,	-12480
▁4.	-12481
▁8.	-12482
▁Hä	-12483
▁RS	-12484
▁Ze	-12485
'000	-12486
Zeit	-12487
arin	-12488
empf	-12489
empl	-12490
erkt	-12491
ftig	-12492
glas	-12493
hent	-12494
ikum	-12495
illa	-12496
luft	-12497
lust	-12498
meer	-12499
orea	-12500
over	-12501
play	-12502
plik	-12503
rief	-12504
rige	-12505
ters	-12506
urce	-12507
wege	-12508
ziel	-12509
ähle	-12510
äule	-12511
öpft	-12512
ückt	-12513
▁16.	-12514
▁Dok	-12515
▁Gir	-12516
▁Jup	-12517
▁Max	-12518
▁McC	-12519
▁Non	-12520
▁Set	-12521
▁Sin	-12522
▁Squ	-12523
▁Wes	-12524
▁blö	-12525
▁ert	-12526
▁här	-12527
▁inn	-12528
▁muß	-12529
▁wow	-12530
▁ziv	-12531
atsch	-12532
azier	-12533
board	-12534
decke	-12535
dehnt	-12536
flüge	-12537
flüss	-12538
füllt	-12539
ialen	-12540
iften	-12541
itels	-12542
klass	-12543
ließt	-12544
nicht	-12545
okoll	-12546
ology	-12547
orene	-12548
rüger	-12549
sburg	-12550
spart	-12551
ungsf	-12552
unker	-12553
ziger	-12554
äusen	-12555
▁2010	-12556
▁Affe	-12557
▁Bach	-12558
▁Bern	-12559
▁Cher	-12560
▁Clip	-12561
▁Doug	-12562
▁Dsch	-12563
▁Fass	-12564
▁Food	-12565
▁Geck	-12566
▁Mang	-12567
▁Note	-12568
▁Pilz	-12569
▁Sied	-12570
▁Time	-12571
▁anti	-12572
▁eBay	-12573
▁kart	-12574
▁warf	-12575
Modell	-12576
akrise	-12577
ammten	-12578
cherch	-12579
esseln	-12580
gentin	-12581
gesagt	-12582
gewinn	-12583
himmel	-12584
iegelt	-12585
locken	-12586
ordent	-12587
warten	-12588
ätigen	-12589
▁Anten	-12590
▁April	-12591
▁Blutz	-12592
▁Bucht	-12593
▁Einfl	-12594
▁Feier	-12595
▁Fäden	-12596
▁Herrn	-12597
▁Honig	-12598
▁Kurse	-12599
▁Käfer	-12600
▁Leder	-12601
▁Lunge	-12602
▁Lücke	-12603
▁Model	-12604
▁Orgas	-12605
▁Rasse	-12606
▁Raums	-12607
▁Schuh	-12608
▁Still	-12609
▁Söhne	-12610
▁Zehnt	-12611
▁Zunge	-12612
▁absor	-12613
▁angel	-12614
▁ansah	-12615
▁dumme	-12616
▁ereig	-12617
▁formt	-12618
▁fortz	-12619
▁laufe	-12620
▁merkt	-12621
▁metap	-12622
▁natur	-12623
▁raten	-12624
▁schuf	-12625
▁stärk	-12626
▁suche	-12627
▁toten	-12628
▁Äußer	-12629
aufgabe	-12630
eistern	-12631
euerung	-12632
glicher	-12633
ichtung	-12634
infarkt	-12635
ingenie	-12636
oppelte	-12637
rechnen	-12638
spitzen	-12639
troffen	-12640
▁Allein	-12641
▁Arktis	-12642
▁Bergen	-12643
▁Bildes	-12644
▁Brookl	-12645
▁Daraus	-12646
▁Falsch	-12647
▁Furcht	-12648
▁Götter	-12649
▁Macher	-12650
▁Maßstä	-12651
▁Russen	-12652
▁Schaff	-12653
▁Später	-12654
▁Vaters	-12655
▁Venezu	-12656
▁Würfel	-12657
▁allmäh	-12658
▁auszur	-12659
▁bedarf	-12660
▁endete	-12661
▁netter	-12662
▁regist	-12663
▁teilte	-12664
▁zweier	-12665
allappen	-12666
fertigen	-12667
ianische	-12668
jähriges	-12669
stellige	-12670
zutragen	-12671
▁Behaupt	-12672
▁Blogger	-12673
▁Dirigen	-12674
▁Fiktion	-12675
▁Häusern	-12676
▁Jupiter	-12677
▁Kennedy	-12678
▁Koralle	-12679
▁Namibia	-12680
▁Natasha	-12681
▁Nämlich	-12682
▁Schlimm	-12683
▁Schwimm	-12684
▁Trocken	-12685
▁beraten	-12686
▁durften	-12687
▁endgült	-12688
▁gewaltt	-12689
▁illegal	-12690
▁kopiert	-12691
▁lautete	-12692
▁lächeln	-12693
▁mysteri	-12694
▁redeten	-12695
▁richtet	-12696
▁schwamm	-12697
▁äußeren	-12698
Maschinen	-12699
Regierung	-12700
achtungen	-12701
kontrolle	-12702
schritten	-12703
sminister	-12704
spersonen	-12705
zeichnete	-12706
▁Abkommen	-12707
▁Baseball	-12708
▁Berkeley	-12709
▁Chemiker	-12710
▁Einsicht	-12711
▁Fantasie	-12712
▁Freundes	-12713
▁Gefühlen	-12714
▁Hochzeit	-12715
▁Mahlzeit	-12716
▁Mögliche	-12717
▁Toleranz	-12718
▁Wieviele	-12719
▁befolgen	-12720
▁begraben	-12721
▁betrügen	-12722
▁forschen	-12723
▁gedauert	-12724
▁komische	-12725
▁niedrige	-12726
▁phänomen	-12727
▁schwimmt	-12728
▁typische	-12729
▁versehen	-12730
▁versorgt	-12731
▁vorkommt	-12732
▁zulassen	-12733
▁zutrifft	-12734
Emissionen	-12735
ikanischen	-12736
▁Bewegungs	-12737
▁Bruchteil	-12738
▁Einladung	-12739
▁Einnahmen	-12740
▁Hypothese	-12741
▁Kapazität	-12742
▁Kilogramm	-12743
▁Messungen	-12744
▁Raumfahrt	-12745
▁Techniker	-12746
▁Trainings	-12747
▁Vergewalt	-12748
▁Wohnwagen	-12749
▁bestanden	-12750
▁empfangen	-12751
▁geleistet	-12752
▁genannten	-12753
▁kollektiv	-12754
▁philosoph	-12755
▁vertreten	-12756
▁wohlhaben	-12757
▁zustimmen	-12758
herstellung	-12759
▁Aussterben	-12760
▁Beispielen	-12761
▁Einkommens	-12762
▁Hierarchie	-12763
▁Neuseeland	-12764
▁Thunfische	-12765
▁analysiert	-12766
▁aufgegeben	-12767
▁aufstellen	-12768
▁bearbeiten	-12769
▁beunruhigt	-12770
▁gewaltigen	-12771
▁herzlichen	-12772
▁ordentlich	-12773
▁praktische	-12774
▁verkauften	-12775
▁verringert	-12776
▁übernommen	-12777
ungsvermögen	-12778
▁Flüchtlings	-12779
▁Frustration	-12780
▁Gesichtsaus	-12781
▁Ingenieuren	-12782
▁Richtlinien	-12783
▁beobachtete	-12784
▁finanzielle	-12785
▁gespeichert	-12786
▁kollektiven	-12787
▁präsentiert	-12788
▁umgewandelt	-12789
▁Übertragung	-12790
▁überwältigt	-12791
▁Erderwärmung	-12792
▁Kriminalität	-12793
▁andererseits	-12794
▁angesprochen	-12795
▁herauskommen	-12796
▁spezifischen	-12797
▁unsichtbaren	-12798
▁öffentlicher	-12799
▁Beschäftigung	-12800
▁eingeschränkt	-12801
▁elektromagnet	-12802
▁existierenden	-12803
▁fundamentalen	-12804
▁Amerikanischen	-12805
▁diagnostiziert	-12806
▁Angelegenheiten	-12807
▁Premierminister	-12808
Ah	-12809
BM	-12810
Ie	-12811
Mo	-12812
OL	-12813
dy	-12814
200	-12815
Gut	-12816
anl	-12817
ano	-12818
bor	-12819
cer	-12820
dis	-12821
now	-12822
rib	-12823
rip	-12824
set	-12825
ufe	-12826
ump	-12827
ßig	-12828
ümm	-12829
▁5.	-12830
▁MB	-12831
▁MS	-12832
▁SJ	-12833
....	-12834
Hall	-12835
Vers	-12836
angt	-12837
besp	-12838
blog	-12839
gnes	-12840
hall	-12841
hema	-12842
herr	-12843
iedr	-12844
lers	-12845
odie	-12846
räte	-12847
sage	-12848
then	-12849
vort	-12850
wann	-12851
zugs	-12852
öden	-12853
▁12.	-12854
▁Bew	-12855
▁Bra	-12856
▁Cel	-12857
▁DAR	-12858
▁Frö	-12859
▁Hot	-12860
▁Lex	-12861
▁Nic	-12862
▁Sun	-12863
▁ehe	-12864
▁eis	-12865
▁hob	-12866
▁unn	-12867
▁zit	-12868
0.000	-12869
Achse	-12870
Dimen	-12871
Schau	-12872
atmen	-12873
blase	-12874
brett	-12875
echte	-12876
eiert	-12877
eihen	-12878
holte	-12879
idmet	-12880
ineer	-12881
kanal	-12882
kühlt	-12883
löser	-12884
rittw	-12885
ttert	-12886
wecke	-12887
äuber	-12888
▁AIMS	-12889
▁Bamb	-12890
▁Bart	-12891
▁Chop	-12892
▁Diät	-12893
▁Flex	-12894
▁Gefä	-12895
▁Haup	-12896
▁Lähm	-12897
▁Mumb	-12898
▁Osta	-12899
▁Prog	-12900
▁Sant	-12901
▁Taxi	-12902
▁Ufer	-12903
▁bege	-12904
▁brut	-12905
▁jetz	-12906
▁jüng	-12907
▁mess	-12908
▁null	-12909
▁post	-12910
▁subt	-12911
▁witz	-12912
▁zert	-12913
Effekt	-12914
Gruppe	-12915
anfall	-12916
bergen	-12917
felder	-12918
ithmus	-12919
kriege	-12920
leiden	-12921
massen	-12922
otechn	-12923
sparen	-12924
strate	-12925
westen	-12926
ächtig	-12927
▁Blitz	-12928
▁Brett	-12929
▁Chile	-12930
▁Ehren	-12931
▁Eröff	-12932
▁Flick	-12933
▁Fülle	-12934
▁Henry	-12935
▁Hirns	-12936
▁Ideal	-12937
▁Lange	-12938
▁Regal	-12939
▁Scham	-12940
▁Schoß	-12941
▁Seatt	-12942
▁Skala	-12943
▁Sonde	-12944
▁Synap	-12945
▁Tibet	-12946
▁Union	-12947
▁Witze	-12948
▁brand	-12949
▁eurer	-12950
▁illeg	-12951
▁islam	-12952
▁skept	-12953
▁weich	-12954
▁zerst	-12955
▁ziehe	-12956
▁übern	-12957
achläss	-12958
analyse	-12959
bewegen	-12960
ikopter	-12961
issheit	-12962
istoren	-12963
liessen	-12964
lsystem	-12965
ocortex	-12966
oparden	-12967
skosten	-12968
sprüche	-12969
stücken	-12970
wickelt	-12971
▁40.000	-12972
▁Ablauf	-12973
▁Alaska	-12974
▁Analys	-12975
▁Bestes	-12976
▁Betrag	-12977
▁Buddha	-12978
▁Chinas	-12979
▁Choler	-12980
▁Daniel	-12981
▁Exempl	-12982
▁Friede	-12983
▁Geduld	-12984
▁Genome	-12985
▁Grunds	-12986
▁Größer	-12987
▁Kasten	-12988
▁Linken	-12989
▁Monsun	-12990
▁Pestiz	-12991
▁Puppen	-12992
▁Recher	-12993
▁Regime	-12994
▁Schöne	-12995
▁Sollte	-12996
▁Steven	-12997
▁Stimmt	-12998
▁Strahl	-12999
▁Säulen	-13000
▁Tricks	-13001
▁Umwand	-13002
▁Versch	-13003
▁beauft	-13004
▁bewahr	-13005
▁drückt	-13006
▁festen	-13007
▁formal	-13008
▁fünfte	-13009
▁junges	-13010
▁kalten	-13011
▁liefen	-13012
▁netten	-13013
▁rollen	-13014
▁unterr	-13015
▁wander	-13016
Maschine	-13017
behalten	-13018
gebnisse	-13019
geleitet	-13020
hingegen	-13021
klopädie	-13022
ommunity	-13023
spolitik	-13024
ungsvoll	-13025
versicht	-13026
▁Dollars	-13027
▁Dörfern	-13028
▁Experte	-13029
▁Französ	-13030
▁Galerie	-13031
▁Heilung	-13032
▁Hungers	-13033
▁Komprom	-13034
▁Mitteln	-13035
▁Oktopus	-13036
▁Project	-13037
▁Rituale	-13038
▁Sammler	-13039
▁Service	-13040
▁Stämmen	-13041
▁Truppen	-13042
▁Träumen	-13043
▁Umfrage	-13044
▁Wildnis	-13045
▁Zentren	-13046
▁abläuft	-13047
▁aufhört	-13048
▁befasst	-13049
▁belohnt	-13050
▁besaßen	-13051
▁erkläre	-13052
▁fühlten	-13053
▁leistet	-13054
▁löschen	-13055
▁pflegen	-13056
▁südlich	-13057
▁typisch	-13058
▁vorherr	-13059
▁vorüber	-13060
▁willkür	-13061
legenheit	-13062
programme	-13063
▁Angriffe	-13064
▁Aussehen	-13065
▁Jungfrau	-13066
▁Norwegen	-13067
▁Nächsten	-13068
▁Parteien	-13069
▁Personal	-13070
▁Schwelle	-13071
▁Substanz	-13072
▁Thailand	-13073
▁annähern	-13074
▁befanden	-13075
▁bereiten	-13076
▁erwischt	-13077
▁gekostet	-13078
▁gewaltig	-13079
▁heiligen	-13080
▁jedesmal	-13081
▁negative	-13082
▁normaler	-13083
▁probiert	-13084
▁recherch	-13085
▁schieben	-13086
▁schlimme	-13087
▁schrittw	-13088
▁versagen	-13089
▁versetzt	-13090
orientiert	-13091
▁Gemeinsam	-13092
▁Intellekt	-13093
▁Kernkraft	-13094
▁Netzwerks	-13095
▁Ostafrika	-13096
▁Schachtel	-13097
▁Therapien	-13098
▁Täuschung	-13099
▁Umsetzung	-13100
▁abstrakte	-13101
▁aktiviert	-13102
▁bestätigt	-13103
▁dynamisch	-13104
▁englische	-13105
▁entwarfen	-13106
▁erreichte	-13107
▁ethnische	-13108
▁gestiegen	-13109
▁klinische	-13110
▁loswerden	-13111
▁mikroskop	-13112
▁nirgendwo	-13113
▁verließen	-13114
▁wachsende	-13115
▁wenigsten	-13116
▁örtlichen	-13117
▁übersehen	-13118
geschichten	-13119
ministerium	-13120
▁Gleichheit	-13121
▁Liebeslied	-13122
▁Optimismus	-13123
▁Raumschiff	-13124
▁aussterben	-13125
▁effektiver	-13126
▁existierte	-13127
▁kostenlose	-13128
▁mitbringen	-13129
▁realisiert	-13130
▁verbleiben	-13131
▁vergleicht	-13132
▁vernünftig	-13133
▁überdenken	-13134
ommunikation	-13135
▁Chromosomen	-13136
▁Erklärungen	-13137
▁Erscheinung	-13138
▁Heimatstadt	-13139
▁Karikaturen	-13140
▁Lebensweise	-13141
▁Milchstraße	-13142
▁Variationen	-13143
▁Weihnachtsm	-13144
▁Windenergie	-13145
▁Zeitschrift	-13146
▁angegriffen	-13147
▁eingebettet	-13148
▁schmerzhaft	-13149
▁unternehmer	-13150
▁unternommen	-13151
▁verarbeitet	-13152
▁verbrachten	-13153
▁vernachläss	-13154
▁verursachte	-13155
▁Freundschaft	-13156
▁Medikamenten	-13157
▁Transistoren	-13158
▁Vereinbarung	-13159
▁ausgestorben	-13160
▁herausfanden	-13161
▁muslimischen	-13162
▁spirituellen	-13163
▁verschmelzen	-13164
▁Nahrungskette	-13165
▁Philanthropie	-13166
▁Veranstaltung	-13167
▁angeschlossen	-13168
▁evolutionären	-13169
▁industriellen	-13170
▁intelligenter	-13171
▁nebeneinander	-13172
▁vorgeschlagen	-13173
▁Nebenwirkungen	-13174
▁Vorgehensweise	-13175
▁beeindruckende	-13176
▁intellektuelle	-13177
▁psychologische	-13178
▁berücksichtigen	-13179
▁offensichtliche	-13180
▁veröffentlichte	-13181
Ad	-13182
Fi	-13183
LA	-13184
PC	-13185
RT	-13186
aa	-13187
ny	-13188
oy	-13189
vö	-13190
Fre	-13191
Mit	-13192
any	-13193
cus	-13194
dio	-13195
pra	-13196
sbe	-13197
sor	-13198
top	-13199
äck	-13200
▁43	-13201
▁Ag	-13202
▁PS	-13203
▁sk	-13204
▁öl	-13205
Cola	-13206
Groß	-13207
Komm	-13208
Orig	-13209
Plan	-13210
Team	-13211
agel	-13212
alai	-13213
alem	-13214
ares	-13215
arta	-13216
arzt	-13217
chem	-13218
dels	-13219
eide	-13220
frar	-13221
grat	-13222
iche	-13223
ipel	-13224
lass	-13225
nest	-13226
prüf	-13227
sius	-13228
zung	-13229
Über	-13230
äure	-13231
▁130	-13232
▁185	-13233
▁450	-13234
▁900	-13235
▁Alb	-13236
▁Amb	-13237
▁Cre	-13238
▁Dro	-13239
▁Dän	-13240
▁Emp	-13241
▁För	-13242
▁GPS	-13243
▁Gru	-13244
▁Had	-13245
▁Lev	-13246
▁Pep	-13247
▁Sho	-13248
▁Wur	-13249
▁hor	-13250
▁leb	-13251
▁öst	-13252
Nicht	-13253
aktor	-13254
apfen	-13255
bende	-13256
ehrte	-13257
ennte	-13258
halle	-13259
herum	-13260
hänge	-13261
ibati	-13262
itzer	-13263
liber	-13264
ollte	-13265
onach	-13266
reden	-13267
räder	-13268
verse	-13269
weren	-13270
ßchen	-13271
ühren	-13272
▁3000	-13273
▁Beat	-13274
▁Cass	-13275
▁Erdn	-13276
▁Euro	-13277
▁Full	-13278
▁Geht	-13279
▁Hans	-13280
▁Hast	-13281
▁Holo	-13282
▁Jagd	-13283
▁Korn	-13284
▁Leit	-13285
▁Mühe	-13286
▁Pack	-13287
▁Pent	-13288
▁Prov	-13289
▁Ross	-13290
▁Senf	-13291
▁Sier	-13292
▁Skiz	-13293
▁Takt	-13294
▁Turm	-13295
▁Töne	-13296
▁Zone	-13297
▁bild	-13298
▁iron	-13299
▁nimm	-13300
▁nord	-13301
▁tote	-13302
Design	-13303
ameter	-13304
banken	-13305
bereit	-13306
drucks	-13307
echten	-13308
eglich	-13309
ehrten	-13310
emente	-13311
frauen	-13312
itären	-13313
kreise	-13314
ologin	-13315
porter	-13316
rahmen	-13317
regend	-13318
rocken	-13319
rollen	-13320
sender	-13321
skrise	-13322
stream	-13323
ummeln	-13324
wäsche	-13325
üsseln	-13326
▁Agnes	-13327
▁Allen	-13328
▁Ausge	-13329
▁Bauer	-13330
▁Blind	-13331
▁Bogen	-13332
▁Bronx	-13333
▁Buddh	-13334
▁Chips	-13335
▁Dalai	-13336
▁Engel	-13337
▁Ferne	-13338
▁Fleck	-13339
▁Georg	-13340
▁Geste	-13341
▁Harry	-13342
▁Kälte	-13343
▁Prakt	-13344
▁Ringe	-13345
▁Sarah	-13346
▁Sieht	-13347
▁Spass	-13348
▁Türen	-13349
▁Veter	-13350
▁Wille	-13351
▁beher	-13352
▁erhöh	-13353
▁führe	-13354
▁genie	-13355
▁hyper	-13356
▁minus	-13357
▁missb	-13358
▁nutze	-13359
▁quant	-13360
▁solle	-13361
▁trock	-13362
▁verär	-13363
▁volle	-13364
▁zahlt	-13365
alender	-13366
fresser	-13367
gesehen	-13368
kennung	-13369
spunkte	-13370
stattet	-13371
usionen	-13372
▁Action	-13373
▁Bedien	-13374
▁Briten	-13375
▁Columb	-13376
▁Denker	-13377
▁Fasern	-13378
▁Filmem	-13379
▁Flüsse	-13380
▁Folien	-13381
▁Frosch	-13382
▁Frucht	-13383
▁Globus	-13384
▁Hammer	-13385
▁Ironie	-13386
▁Kisten	-13387
▁Kokain	-13388
▁Letzte	-13389
▁Minder	-13390
▁Nachts	-13391
▁Plakat	-13392
▁Rakete	-13393
▁Schach	-13394
▁Schirm	-13395
▁Strafe	-13396
▁Umsatz	-13397
▁beruht	-13398
▁deines	-13399
▁folgte	-13400
▁ganzer	-13401
▁improv	-13402
▁jahrel	-13403
▁rettet	-13404
▁schrum	-13405
▁selekt	-13406
▁trinkt	-13407
▁tötete	-13408
▁vorant	-13409
▁woraus	-13410
▁zwangs	-13411
▁Ärzten	-13412
freiheit	-13413
gerissen	-13414
grenzung	-13415
ineering	-13416
mechanik	-13417
▁Celsius	-13418
▁Dilemma	-13419
▁Drachen	-13420
▁Figuren	-13421
▁Freitag	-13422
▁Gebilde	-13423
▁Highway	-13424
▁Koordin	-13425
▁Märkten	-13426
▁Ozeanen	-13427
▁Perfekt	-13428
▁Sendung	-13429
▁Spender	-13430
▁Stärken	-13431
▁Symbole	-13432
▁Zufälle	-13433
▁anhören	-13434
▁chirurg	-13435
▁dunkler	-13436
▁erholen	-13437
▁erstmal	-13438
▁geschei	-13439
▁günstig	-13440
▁hiermit	-13441
▁meinten	-13442
▁optimal	-13443
▁protest	-13444
▁solches	-13445
▁sowieso	-13446
▁stehlen	-13447
▁süchtig	-13448
ipulation	-13449
schreiten	-13450
▁Abwasser	-13451
▁Anstelle	-13452
▁Ausbruch	-13453
▁Behälter	-13454
▁Berichte	-13455
▁Dienstag	-13456
▁Eigentum	-13457
▁Hardware	-13458
▁Himalaya	-13459
▁Kiribati	-13460
▁Langzeit	-13461
▁Magazine	-13462
▁Manifest	-13463
▁Meetings	-13464
▁Sandwich	-13465
▁Schienen	-13466
▁Standort	-13467
▁Ursachen	-13468
▁Vollzeit	-13469
▁Ziemlich	-13470
▁Zustände	-13471
▁besorgen	-13472
▁designen	-13473
▁geringen	-13474
▁gesunken	-13475
▁gewidmet	-13476
▁globales	-13477
▁isoliert	-13478
▁mithilfe	-13479
▁national	-13480
▁parallel	-13481
▁religiös	-13482
▁reproduz	-13483
▁schenken	-13484
▁sicheren	-13485
▁verlässt	-13486
▁verpasst	-13487
▁weswegen	-13488
▁zustande	-13489
▁überlegt	-13490
▁üblichen	-13491
aterialien	-13492
▁Abschnitt	-13493
▁Bezahlung	-13494
▁Durchfall	-13495
▁Erfüllung	-13496
▁Fossilien	-13497
▁Neocortex	-13498
▁Phänomene	-13499
▁Pittsburg	-13500
▁Schaffung	-13501
▁Schwanger	-13502
▁Wohnungen	-13503
▁abspielen	-13504
▁angezogen	-13505
▁ausgehend	-13506
▁ausgelöst	-13507
▁erheblich	-13508
▁errichtet	-13509
▁gerichtet	-13510
▁geschenkt	-13511
▁gesteuert	-13512
▁grundsätz	-13513
▁herkommen	-13514
▁hinweisen	-13515
▁magischen	-13516
▁männliche	-13517
▁verlaufen	-13518
▁verleihen	-13519
▁Überblick	-13520
geschrieben	-13521
verständnis	-13522
▁Antikörper	-13523
▁Bestechung	-13524
▁Irgendwann	-13525
▁Journalist	-13526
▁Kontinente	-13527
▁Mahlzeiten	-13528
▁Musikstück	-13529
▁Mythologie	-13530
▁Nachdenken	-13531
▁Polizisten	-13532
▁allmählich	-13533
▁angewendet	-13534
▁angewiesen	-13535
▁aufsteigen	-13536
▁bedeutende	-13537
▁bevorzugen	-13538
▁erwachsene	-13539
▁gezeichnet	-13540
▁informiert	-13541
▁männlichen	-13542
▁ultimative	-13543
▁unausweich	-13544
▁versteckte	-13545
▁Angestellte	-13546
▁Anstrengung	-13547
▁Anwesenheit	-13548
▁Erschaffung	-13549
▁Herzinfarkt	-13550
▁Infektionen	-13551
▁Prioritäten	-13552
▁Shakespeare	-13553
▁Solarzellen	-13554
▁Weihnachten	-13555
▁angefertigt	-13556
▁aufzunehmen	-13557
▁beigetragen	-13558
▁hervorragen	-13559
▁hinzugefügt	-13560
▁integrieren	-13561
▁klassischen	-13562
▁schnellsten	-13563
▁unglücklich	-13564
▁unsichtbare	-13565
▁verlangsamt	-13566
▁Übersetzung	-13567
▁Finanzierung	-13568
▁Kindergarten	-13569
▁Letztendlich	-13570
▁Republikaner	-13571
▁alltäglichen	-13572
▁chinesisches	-13573
▁französische	-13574
▁systematisch	-13575
▁umweltfreund	-13576
▁zehntausende	-13577
▁Demonstration	-13578
▁Krankenhäuser	-13579
▁Verhandlungen	-13580
▁Verpflichtung	-13581
▁Waschmaschine	-13582
▁argumentieren	-13583
▁gegenwärtigen	-13584
▁hervorbringen	-13585
▁üblicherweise	-13586
▁Kommunikations	-13587
▁allgegenwärtig	-13588
▁amerikanischer	-13589
▁folgendermaßen	-13590
▁zusammenkommen	-13591
6.	-13592
Ep	-13593
da	-13594
jo	-13595
sl	-13596
uv	-13597
400	-13598
Aut	-13599
Gem	-13600
Wel	-13601
act	-13602
ado	-13603
bot	-13604
bra	-13605
fle	-13606
ois	-13607
que	-13608
syl	-13609
uen	-13610
vig	-13611
öre	-13612
üpf	-13613
▁6.	-13614
▁98	-13615
▁IQ	-13616
▁OP	-13617
▁PH	-13618
▁SS	-13619
▁ep	-13620
▁ju	-13621
Dies	-13622
Star	-13623
allt	-13624
alys	-13625
apur	-13626
bera	-13627
brem	-13628
ganz	-13629
heil	-13630
ican	-13631
imik	-13632
kade	-13633
korn	-13634
oger	-13635
onto	-13636
rist	-13637
yota	-13638
äres	-13639
ührt	-13640
▁Bad	-13641
▁Cro	-13642
▁Cur	-13643
▁Ham	-13644
▁Hol	-13645
▁Joe	-13646
▁Leb	-13647
▁Len	-13648
▁Mis	-13649
▁Pir	-13650
▁Rio	-13651
▁Rut	-13652
▁Sky	-13653
▁Veg	-13654
▁abt	-13655
▁ach	-13656
▁app	-13657
▁bös	-13658
▁kan	-13659
▁kün	-13660
▁str	-13661
Hallo	-13662
Lasst	-13663
Meine	-13664
akult	-13665
anzug	-13666
apper	-13667
awatt	-13668
diges	-13669
dring	-13670
ehrer	-13671
emark	-13672
ester	-13673
etenz	-13674
llten	-13675
neter	-13676
ordet	-13677
ungel	-13678
wolle	-13679
ücken	-13680
▁100-	-13681
▁1998	-13682
▁Bade	-13683
▁Bald	-13684
▁Beck	-13685
▁Coll	-13686
▁Dick	-13687
▁Eric	-13688
▁Flow	-13689
▁Foot	-13690
▁Fuss	-13691
▁Gelb	-13692
▁Grau	-13693
▁Haft	-13694
▁März	-13695
▁Nike	-13696
▁Play	-13697
▁Rose	-13698
▁Spir	-13699
▁Wall	-13700
▁aust	-13701
▁blut	-13702
▁grob	-13703
▁harm	-13704
▁inne	-13705
▁lege	-13706
▁sexy	-13707
▁strö	-13708
amente	-13709
ameras	-13710
anntes	-13711
effekt	-13712
farben	-13713
gender	-13714
haftet	-13715
iction	-13716
imität	-13717
ischte	-13718
ketten	-13719
kuchen	-13720
perten	-13721
rekord	-13722
swerte	-13723
ächern	-13724
▁Bemüh	-13725
▁Blüte	-13726
▁Bösen	-13727
▁Domin	-13728
▁Dreck	-13729
▁Force	-13730
▁Frakt	-13731
▁Gross	-13732
▁Gänse	-13733
▁Hausm	-13734
▁Häupt	-13735
▁Imper	-13736
▁Impro	-13737
▁Input	-13738
▁Jamie	-13739
▁Julia	-13740
▁Klebe	-13741
▁Kunde	-13742
▁Rechn	-13743
▁Risik	-13744
▁Route	-13745
▁Sudan	-13746
▁Veget	-13747
▁White	-13748
▁anger	-13749
▁betäu	-13750
▁bösen	-13751
▁dreck	-13752
▁dünne	-13753
▁einig	-13754
▁enthü	-13755
▁fügen	-13756
▁hohem	-13757
▁kämpf	-13758
▁laden	-13759
▁lasen	-13760
▁mitzu	-13761
▁niger	-13762
▁stört	-13763
▁wollt	-13764
▁worin	-13765
▁wußte	-13766
▁zehnt	-13767
▁zudem	-13768
Origami	-13769
alteten	-13770
altungs	-13771
bewusst	-13772
dlicher	-13773
iologen	-13774
iversen	-13775
lettern	-13776
otische	-13777
pflanzt	-13778
schwung	-13779
smodell	-13780
trinken	-13781
uchtung	-13782
▁Arthur	-13783
▁Bertie	-13784
▁Börsen	-13785
▁Cheryl	-13786
▁Comedy	-13787
▁Dritte	-13788
▁Dörfer	-13789
▁Enthus	-13790
▁Erzeug	-13791
▁Flucht	-13792
▁Fusion	-13793
▁Gegner	-13794
▁Gelder	-13795
▁Kleine	-13796
▁Klänge	-13797
▁Kurven	-13798
▁Lakota	-13799
▁Mumbai	-13800
▁Nieren	-13801
▁Oliver	-13802
▁Panzer	-13803
▁Patent	-13804
▁Philip	-13805
▁Platte	-13806
▁Prozed	-13807
▁Replik	-13808
▁Sierra	-13809
▁Silber	-13810
▁Sinnes	-13811
▁Spreng	-13812
▁Square	-13813
▁Stapel	-13814
▁Titels	-13815
▁Urlaub	-13816
▁Verfüg	-13817
▁bewaff	-13818
▁decken	-13819
▁design	-13820
▁dichte	-13821
▁erzeug	-13822
▁extrah	-13823
▁fehlen	-13824
▁hierzu	-13825
▁leihen	-13826
▁perman	-13827
▁planet	-13828
▁verkab	-13829
▁ähneln	-13830
Bewegung	-13831
derweise	-13832
gesteuer	-13833
ilometer	-13834
isierten	-13835
rohungen	-13836
ähnliche	-13837
▁Akteure	-13838
▁Berater	-13839
▁Gründer	-13840
▁Konsens	-13841
▁Meisten	-13842
▁Migräne	-13843
▁Periode	-13844
▁Piloten	-13845
▁Spazier	-13846
▁Teszler	-13847
▁Wassers	-13848
▁Wieviel	-13849
▁anstren	-13850
▁ausgeht	-13851
▁bezogen	-13852
▁bißchen	-13853
▁breiten	-13854
▁dezentr	-13855
▁entwarf	-13856
▁ernährt	-13857
▁erreich	-13858
▁herumzu	-13859
▁immater	-13860
▁maximal	-13861
▁mochten	-13862
▁verwirr	-13863
▁vorange	-13864
▁älteste	-13865
betrieben	-13866
fahrzeuge	-13867
flossenth	-13868
liegenden	-13869
möglichen	-13870
schiebung	-13871
zügigkeit	-13872
▁Amazonas	-13873
▁Analysis	-13874
▁Beginnen	-13875
▁Brooklyn	-13876
▁Gewissen	-13877
▁Klienten	-13878
▁Orgasmus	-13879
▁Referenz	-13880
▁Resonanz	-13881
▁Rückgang	-13882
▁Rückkehr	-13883
▁Schöpfer	-13884
▁Szenario	-13885
▁abnehmen	-13886
▁begegnet	-13887
▁benennen	-13888
▁bewerten	-13889
▁bewiesen	-13890
▁ermutigt	-13891
▁erwecken	-13892
▁fettleib	-13893
▁gestoßen	-13894
▁gesundes	-13895
▁optische	-13896
▁radikale	-13897
▁sauberer	-13898
▁schienen	-13899
▁schließe	-13900
▁zeichnet	-13901
vollziehen	-13902
▁Atheisten	-13903
▁Belastung	-13904
▁Datensatz	-13905
▁Disziplin	-13906
▁Forschern	-13907
▁Kalkstein	-13908
▁Offenheit	-13909
▁Parasiten	-13910
▁Patientin	-13911
▁Schultern	-13912
▁Venezuela	-13913
▁Verlierer	-13914
▁Versicher	-13915
▁angeblich	-13916
▁angenehme	-13917
▁anspruchs	-13918
▁bekannter	-13919
▁berechnet	-13920
▁bewundern	-13921
▁gründeten	-13922
▁hinterher	-13923
▁identisch	-13924
▁katastrop	-13925
▁mitmachen	-13926
▁negativen	-13927
▁offiziell	-13928
▁platziert	-13929
▁scheitern	-13930
▁schmelzen	-13931
▁schwachen	-13932
▁skeptisch	-13933
▁spazieren	-13934
▁typischen	-13935
▁umgekehrt	-13936
▁verhaftet	-13937
▁wertvolle	-13938
Dimensionen	-13939
sgeschichte	-13940
▁Astronomie	-13941
▁Einführung	-13942
▁Fortpflanz	-13943
▁Helikopter	-13944
▁Hoffnungen	-13945
▁Industrien	-13946
▁Konsequenz	-13947
▁Mineralien	-13948
▁Nobelpreis	-13949
▁Pittsburgh	-13950
▁Verwandten	-13951
▁Zusätzlich	-13952
▁aufgeteilt	-13953
▁aufwachsen	-13954
▁ausreichen	-13955
▁ausrichten	-13956
▁auszusehen	-13957
▁begeistern	-13958
▁besprechen	-13959
▁beurteilen	-13960
▁entschloss	-13961
▁enttäuscht	-13962
▁freundlich	-13963
▁herausfand	-13964
▁interaktiv	-13965
▁kollektive	-13966
▁staatliche	-13967
▁versichern	-13968
▁vorherigen	-13969
▁wahnsinnig	-13970
▁weitgehend	-13971
▁Überlebens	-13972
▁Belohnungen	-13973
▁Philosophen	-13974
▁Schizophren	-13975
▁Terroristen	-13976
▁absichtlich	-13977
▁alternative	-13978
▁derzeitigen	-13979
▁einbeziehen	-13980
▁entscheidet	-13981
▁praktischen	-13982
▁reflektiert	-13983
▁ökologische	-13984
amerikanische	-13985
▁Enzyklopädie	-13986
▁Jahrhunderte	-13987
▁Meeresschutz	-13988
▁Verteidigung	-13989
▁ausgestattet	-13990
▁erfolgreiche	-13991
▁größtenteils	-13992
▁katastrophal	-13993
▁persönlicher	-13994
▁programmiert	-13995
▁reflektieren	-13996
▁vergleichbar	-13997
▁verständlich	-13998
▁Verteidigungs	-13999
▁dokumentieren	-14000
▁entsprechende	-14001
▁erfolgreichen	-14002
▁erstaunliches	-14003
▁fantastisches	-14004
▁herausfordern	-14005
▁programmieren	-14006
▁Rechenleistung	-14007
▁Skelettmuskeln	-14008
▁Herzkrankheiten	-14009
Al	-14010
OK	-14011
Um	-14012
We	-14013
ee	-14014
fu	-14015
po	-14016
äs	-14017
▁ä	-14018
100	-14019
ARS	-14020
Lie	-14021
Mar	-14022
Per	-14023
Wür	-14024
aks	-14025
bon	-14026
bus	-14027
cet	-14028
dep	-14029
esc	-14030
ila	-14031
ket	-14032
kör	-14033
orm	-14034
rif	-14035
usp	-14036
zog	-14037
ölz	-14038
üht	-14039
▁3-	-14040
▁II	-14041
▁IT	-14042
▁KT	-14043
▁PR	-14044
bett	-14045
derm	-14046
egel	-14047
eith	-14048
elos	-14049
gers	-14050
iegt	-14051
ikus	-14052
imum	-14053
isha	-14054
itis	-14055
konz	-14056
kreu	-14057
kömm	-14058
lief	-14059
neur	-14060
ntel	-14061
omal	-14062
onte	-14063
phin	-14064
rina	-14065
ring	-14066
rott	-14067
uddh	-14068
uert	-14069
ulin	-14070
ures	-14071
öger	-14072
üten	-14073
▁1,3	-14074
▁30-	-14075
▁Fit	-14076
▁Gor	-14077
▁Käf	-14078
▁Nah	-14079
▁Nar	-14080
▁Pik	-14081
▁Pix	-14082
▁Que	-14083
▁UNO	-14084
▁Wil	-14085
▁Zip	-14086
▁gra	-14087
▁hyd	-14088
▁kar	-14089
▁klü	-14090
▁ran	-14091
▁sor	-14092
abend	-14093
ahnen	-14094
atzen	-14095
autos	-14096
beine	-14097
elles	-14098
essel	-14099
folgt	-14100
fonen	-14101
forme	-14102
genda	-14103
glied	-14104
gläub	-14105
hauer	-14106
ideos	-14107
idsch	-14108
igste	-14109
imine	-14110
iving	-14111
komme	-14112
level	-14113
loser	-14114
mitte	-14115
onien	-14116
oomen	-14117
opfen	-14118
ottet	-14119
schle	-14120
spann	-14121
träge	-14122
ugger	-14123
vania	-14124
▁..."	-14125
▁1900	-14126
▁2002	-14127
▁Alan	-14128
▁Bhut	-14129
▁Biok	-14130
▁Brut	-14131
▁Club	-14132
▁Comm	-14133
▁Dikt	-14134
▁East	-14135
▁Impl	-14136
▁Isol	-14137
▁Just	-14138
▁Lama	-14139
▁Link	-14140
▁Mand	-14141
▁Mord	-14142
▁Nimm	-14143
▁Oben	-14144
▁Pier	-14145
▁Rena	-14146
▁Rund	-14147
▁Saat	-14148
▁Seen	-14149
▁Sehn	-14150
▁Sony	-14151
▁Tsch	-14152
▁Ware	-14153
▁Zaun	-14154
▁arkt	-14155
▁bahn	-14156
▁baue	-14157
▁gelb	-14158
▁impl	-14159
▁ruin	-14160
Gemein	-14161
aurant	-14162
blühen	-14163
ediven	-14164
ennten	-14165
entrum	-14166
erisch	-14167
frarot	-14168
gingen	-14169
händer	-14170
immung	-14171
ingabe	-14172
itives	-14173
kehrte	-14174
mäßige	-14175
packen	-14176
regeln	-14177
reuung	-14178
schütz	-14179
skrank	-14180
uspend	-14181
zigern	-14182
▁Anbau	-14183
▁Apoll	-14184
▁Danny	-14185
▁Erdöl	-14186
▁Ersch	-14187
▁Faden	-14188
▁Grüne	-14189
▁Higgs	-14190
▁Jerry	-14191
▁Keith	-14192
▁Klick	-14193
▁Lachs	-14194
▁Rasen	-14195
▁Runde	-14196
▁Strat	-14197
▁Teils	-14198
▁These	-14199
▁Urban	-14200
▁augen	-14201
▁damal	-14202
▁gemäß	-14203
▁gestr	-14204
▁holte	-14205
▁neutr	-14206
▁preis	-14207
▁recyc	-14208
▁reine	-14209
▁teilt	-14210
▁toler	-14211
▁verge	-14212
Entwick	-14213
achtens	-14214
artiger	-14215
bildern	-14216
bindung	-14217
deutend	-14218
eisters	-14219
essoren	-14220
flaster	-14221
fühlend	-14222
issance	-14223
ivalent	-14224
orgungs	-14225
platten	-14226
prinzip	-14227
stiegen	-14228
stunden	-14229
version	-14230
zurufen	-14231
ämpfung	-14232
▁Abhand	-14233
▁Aktien	-14234
▁Anwalt	-14235
▁Archiv	-14236
▁Banker	-14237
▁Butter	-14238
▁Campus	-14239
▁Differ	-14240
▁Ebenso	-14241
▁Ersten	-14242
▁Falken	-14243
▁Falten	-14244
▁Fangen	-14245
▁Flöten	-14246
▁Ganges	-14247
▁Grösse	-14248
▁Hotels	-14249
▁Insekt	-14250
▁Joseph	-14251
▁Joshua	-14252
▁Kibera	-14253
▁Koffer	-14254
▁Kosmos	-14255
▁Margar	-14256
▁Mythen	-14257
▁Neuron	-14258
▁Reifen	-14259
▁Schätz	-14260
▁Solche	-14261
▁Source	-14262
▁Sporen	-14263
▁Spring	-14264
▁Strang	-14265
▁Stunts	-14266
▁Trauer	-14267
▁Untert	-14268
▁Worauf	-14269
▁Wäsche	-14270
▁Zeitra	-14271
▁aktive	-14272
▁austau	-14273
▁beacht	-14274
▁bekomm	-14275
▁differ	-14276
▁einger	-14277
▁einzur	-14278
▁fehlte	-14279
▁fällen	-14280
▁harten	-14281
▁herauf	-14282
▁hüpfen	-14283
▁jeweil	-14284
▁kleben	-14285
▁kriege	-14286
▁leitet	-14287
▁liefer	-14288
▁melden	-14289
▁nähern	-14290
▁profit	-14291
▁regnet	-14292
▁scharf	-14293
▁signif	-14294
▁treffe	-14295
▁unvoll	-14296
▁veranl	-14297
▁Ängste	-14298
basierte	-14299
flaschen	-14300
istenten	-14301
kulieren	-14302
leuchten	-14303
personen	-14304
streifen	-14305
sylvania	-14306
tzündung	-14307
▁Abgrund	-14308
▁Authent	-14309
▁Cassini	-14310
▁Cholera	-14311
▁Erfolge	-14312
▁Händler	-14313
▁Kollege	-14314
▁Krabben	-14315
▁Kräften	-14316
▁Landung	-14317
▁Lähmung	-14318
▁Marktes	-14319
▁Nummern	-14320
▁Pflicht	-14321
▁Quallen	-14322
▁Robotik	-14323
▁Schlamm	-14324
▁Schmuck	-14325
▁Seattle	-14326
▁Silikon	-14327
▁Sonntag	-14328
▁Sterben	-14329
▁Trainer	-14330
▁Unrecht	-14331
▁Vermitt	-14332
▁Zuhören	-14333
▁allerer	-14334
▁anfühlt	-14335
▁anlegen	-14336
▁befreit	-14337
▁bemühen	-14338
▁drucken	-14339
▁eingesp	-14340
▁einheit	-14341
▁entschl	-14342
▁erwarte	-14343
▁extreme	-14344
▁flachen	-14345
▁gehörte	-14346
▁geniale	-14347
▁grösste	-14348
▁idealen	-14349
▁koordin	-14350
▁längere	-14351
▁mancher	-14352
▁präzise	-14353
▁schufen	-14354
▁sichere	-14355
▁starker	-14356
▁tödlich	-14357
▁töteten	-14358
▁verteil	-14359
▁waschen	-14360
▁Überein	-14361
▁überaus	-14362
allererst	-14363
arbeitern	-14364
artigkeit	-14365
gebrochen	-14366
kreislauf	-14367
sprobleme	-14368
stellungs	-14369
ständigen	-14370
twörtlich	-14371
▁Autobahn	-14372
▁Beachten	-14373
▁Besucher	-14374
▁Erweiter	-14375
▁Kliniken	-14376
▁Ladungen	-14377
▁Lehrplan	-14378
▁Meinungs	-14379
▁Motorrad	-14380
▁Optionen	-14381
▁Primaten	-14382
▁Raubtier	-14383
▁Singapur	-14384
▁Stimmung	-14385
▁Strahlen	-14386
▁Synthese	-14387
▁Südasien	-14388
▁Telefone	-14389
▁Zeitungs	-14390
▁abhängen	-14391
▁brillian	-14392
▁erforder	-14393
▁ermordet	-14394
▁erstmals	-14395
▁geistige	-14396
▁herausge	-14397
▁kollabor	-14398
▁massiven	-14399
▁moderner	-14400
▁peinlich	-14401
▁sauberes	-14402
▁schwache	-14403
▁schweren	-14404
▁serviert	-14405
▁synchron	-14406
▁zukommen	-14407
krankungen	-14408
lkatastrop	-14409
ologisches	-14410
stimmungen	-14411
änderungen	-14412
▁Empfänger	-14413
▁Förderung	-14414
▁Gegenüber	-14415
▁Kollision	-14416
▁Laborator	-14417
▁Lektionen	-14418
▁Malediven	-14419
▁Nanotechn	-14420
▁Osteuropa	-14421
▁Reduktion	-14422
▁Varianten	-14423
▁absoluten	-14424
▁angreifen	-14425
▁annähernd	-14426
▁aufwachen	-14427
▁aussuchen	-14428
▁beruhigen	-14429
▁depressiv	-14430
▁emotional	-14431
▁empfehlen	-14432
▁entkommen	-14433
▁möglichst	-14434
▁nachdenke	-14435
▁niedrigen	-14436
▁schütteln	-14437
▁starteten	-14438
▁teilhaben	-14439
▁verbringt	-14440
▁vermehren	-14441
▁visueller	-14442
▁übernimmt	-14443
forschungen	-14444
scheidungen	-14445
▁Aktivisten	-14446
▁Flugzeugen	-14447
▁Handgelenk	-14448
▁Investment	-14449
▁Konkurrenz	-14450
▁Leistungen	-14451
▁Lichtjahre	-14452
▁Photosynth	-14453
▁Positionen	-14454
▁Skulpturen	-14455
▁Unterbrech	-14456
▁Untergrund	-14457
▁angehalten	-14458
▁ausgesucht	-14459
▁beschissen	-14460
▁beseitigen	-14461
▁denjenigen	-14462
▁einhundert	-14463
▁frustriert	-14464
▁geschossen	-14465
▁ineinander	-14466
▁nördlichen	-14467
▁platzieren	-14468
▁schnellste	-14469
▁unbekannte	-14470
▁unerwartet	-14471
▁universell	-14472
▁verrichten	-14473
▁ökologisch	-14474
▁Blutgefässe	-14475
▁Botschaften	-14476
▁Ereignissen	-14477
▁Ergebnissen	-14478
▁Erzählungen	-14479
▁Forschungen	-14480
▁Freiwillige	-14481
▁Geschwister	-14482
▁Kindersitze	-14483
▁Kontinenten	-14484
▁Prozentsatz	-14485
▁Regulierung	-14486
▁Renaissance	-14487
▁Vordergrund	-14488
▁anschließen	-14489
▁aufgefallen	-14490
▁ausgelöscht	-14491
▁authentisch	-14492
▁einzufangen	-14493
▁herauskommt	-14494
▁replizieren	-14495
▁unbekannten	-14496
▁universelle	-14497
▁übermitteln	-14498
▁Installation	-14499
▁Lautsprecher	-14500
▁Moskitonetze	-14501
▁Pennsylvania	-14502
▁Quadratmeter	-14503
▁Rechenschaft	-14504
▁Verarbeitung	-14505
▁Wiederaufbau	-14506
▁Zwischenzeit	-14507
▁europäischen	-14508
▁gelegentlich	-14509
▁kommerzielle	-14510
▁manipulieren	-14511
▁regenerieren	-14512
▁zerbrechlich	-14513
▁zwangsläufig	-14514
amerikanischen	-14515
▁Ausgangspunkt	-14516
▁Beobachtungen	-14517
▁Durcheinander	-14518
▁Erdoberfläche	-14519
▁International	-14520
▁Korallenriffe	-14521
▁Lateinamerika	-14522
▁Unterhaltungs	-14523
▁Wissenschafts	-14524
▁Zusammenspiel	-14525
[...]
