<pad>	0
<unk>	0
<s>	0
</s>	0
▁t	-0
▁th	-1
▁a	-2
in	-3
▁the	-4
▁w	-5
re	-6
▁o	-7
▁s	-8
at	-9
nd	-10
er	-11
ou	-12
is	-13
▁c	-14
it	-15
▁b	-16
ing	-17
▁h	-18
▁m	-19
en	-20
▁to	-21
on	-22
▁p	-23
▁f	-24
an	-25
es	-26
▁of	-27
ll	-28
▁d	-29
or	-30
▁I	-31
▁in	-32
▁l	-33
▁and	-34
ed	-35
ar	-36
▁y	-37
▁that	-38
▁g	-39
om	-40
as	-41
ic	-42
▁you	-43
le	-44
ve	-45
▁A	-46
▁n	-47
▁wh	-48
al	-49
▁we	-50
▁is	-51
ow	-52
▁it	-53
ut	-54
us	-55
▁be	-56
▁e	-57
ion	-58
ot	-59
et	-60
▁T	-61
▁And	-62
▁ha	-63
▁on	-64
ct	-65
▁re	-66
ent	-67
ld	-68
ver	-69
▁Th	-70
ay	-71
id	-72
all	-73
▁this	-74
se	-75
im	-76
ig	-77
▁S	-78
ere	-79
st	-80
ro	-81
▁st	-82
ch	-83
ly	-84
ur	-85
ke	-86
▁-	-87
▁--	-88
ce	-89
if	-90
▁for	-91
▁was	-92
▁do	-93
▁W	-94
▁an	-95
ir	-96
ra	-97
oo	-98
▁are	-99
ally	-100
ith	-101
th	-102
▁k	-103
op	-104
▁have	-105
▁ab	-106
▁u	-107
am	-108
▁with	-109
▁they	-110
▁se	-111
▁can	-112
▁B	-113
out	-114
▁go	-115
▁as	-116
▁what	-117
ht	-118
very	-119
▁mo	-120
ation	-121
▁li	-122
▁so	-123
▁So	-124
▁com	-125
▁wor	-126
▁he	-127
ad	-128
▁about	-129
ill	-130
▁at	-131
ould	-132
▁sh	-133
ant	-134
▁not	-135
▁me	-136
▁ne	-137
▁all	-138
il	-139
ust	-140
ge	-141
ul	-142
▁The	-143
ol	-144
ter	-145
▁j	-146
▁"	-147
▁there	-148
▁fr	-149
use	-150
▁r	-151
▁som	-152
▁ch	-153
ers	-154
▁ex	-155
ight	-156
▁pro	-157
▁or	-158
▁pe	-159
▁It	-160
ear	-161
ure	-162
um	-163
art	-164
▁kn	-165
pp	-166
▁one	-167
ck	-168
ople	-169
▁my	-170
▁de	-171
▁We	-172
▁like	-173
▁con	-174
ca	-175
▁people	-176
▁ma	-177
ate	-178
▁from	-179
▁know	-180
ess	-181
est	-182
▁N	-183
ity	-184
ind	-185
ive	-186
nt	-187
ble	-188
ect	-189
ink	-190
▁thing	-191
ies	-192
▁out	-193
ist	-194
▁int	-195
qu	-196
▁just	-197
▁H	-198
ook	-199
rou	-200
▁al	-201
▁C	-202
▁but	-203
▁very	-204
▁M	-205
▁te	-206
un	-207
cause	-208
▁v	-209
▁up	-210
ide	-211
▁us	-212
▁see	-213
▁sp	-214
▁get	-215
▁them	-216
▁our	-217
▁think	-218
▁But	-219
and	-220
ich	-221
ie	-222
▁these	-223
ort	-224
▁going	-225
▁if	-226
▁pl	-227
os	-228
her	-229
▁who	-230
▁Y	-231
▁tr	-232
▁1	-233
el	-234
▁act	-235
▁by	-236
og	-237
▁year	-238
▁some	-239
ain	-240
▁don	-241
▁because	-242
▁which	-243
00	-244
▁sa	-245
▁had	-246
ci	-247
."	-248
▁your	-249
▁tim	-250
▁when	-251
our	-252
▁would	-253
od	-254
iv	-255
▁really	-256
▁want	-257
ine	-258
ually	-259
▁look	-260
▁im	-261
em	-262
▁more	-263
▁here	-264
ast	-265
▁O	-266
▁comp	-267
▁ta	-268
ood	-269
ame	-270
▁were	-271
▁This	-272
ack	-273
ard	-274
▁how	-275
ap	-276
▁Wh	-277
▁work	-278
reat	-279
hing	-280
▁way	-281
▁su	-282
ous	-283
▁en	-284
▁E	-285
▁world	-286
ment	-287
gh	-288
▁then	-289
iz	-290
▁their	-291
▁You	-292
act	-293
▁time	-294
▁say	-295
▁has	-296
ose	-297
▁le	-298
one	-299
▁things	-300
ther	-301
▁actually	-302
ore	-303
ong	-304
▁every	-305
▁into	-306
▁qu	-307
▁P	-308
ace	-309
▁will	-310
itt	-311
ag	-312
▁per	-313
▁D	-314
ild	-315
ab	-316
▁now	-317
▁exp	-318
▁G	-319
▁years	-320
▁fe	-321
ans	-322
alk	-323
are	-324
▁where	-325
▁♫	-326
▁could	-327
▁man	-328
▁did	-329
▁L	-330
res	-331
▁ev	-332
▁other	-333
▁ag	-334
ions	-335
▁co	-336
age	-337
▁somet	-338
▁any	-339
ach	-340
▁They	-341
ence	-342
ff	-343
ud	-344
▁happ	-345
nder	-346
▁make	-347
▁said	-348
▁been	-349
▁kind	-350
▁F	-351
▁tw	-352
▁no	-353
iff	-354
ice	-355
▁Now	-356
▁got	-357
own	-358
▁right	-359
▁R	-360
▁start	-361
▁cl	-362
ia	-363
ree	-364
▁un	-365
▁bu	-366
red	-367
ip	-368
▁diff	-369
▁than	-370
▁something	-371
irst	-372
ical	-373
▁back	-374
so	-375
▁need	-376
ry	-377
▁In	-378
ign	-379
▁part	-380
ittle	-381
▁2	-382
▁little	-383
▁over	-384
▁po	-385
▁mu	-386
ite	-387
▁two	-388
olog	-389
round	-390
▁much	-391
ib	-392
ife	-393
▁imp	-394
▁pr	-395
ory	-396
▁call	-397
ell	-398
▁lot	-399
ater	-400
ount	-401
ass	-402
▁first	-403
pt	-404
▁ar	-405
ome	-406
▁dis	-407
▁new	-408
ang	-409
▁talk	-410
▁That	-411
ens	-412
ep	-413
ght	-414
ac	-415
way	-416
▁those	-417
▁differe	-418
sel	-419
▁also	-420
▁lo	-421
ue	-422
ound	-423
▁des	-424
orm	-425
ody	-426
▁cont	-427
▁spe	-428
ple	-429
cent	-430
▁she	-431
▁ro	-432
ving	-433
▁ph	-434
▁life	-435
king	-436
▁under	-437
▁only	-438
ult	-439
co	-440
other	-441
vel	-442
▁most	-443
▁down	-444
▁put	-445
ves	-446
ber	-447
▁good	-448
▁There	-449
▁J	-450
▁ac	-451
▁sy	-452
▁bet	-453
▁his	-454
able	-455
ms	-456
ish	-457
ric	-458
int	-459
▁ide	-460
ated	-461
▁take	-462
▁ad	-463
▁res	-464
▁bl	-465
ph	-466
▁hum	-467
▁does	-468
▁day	-469
▁am	-470
uct	-471
▁around	-472
ations	-473
rough	-474
▁real	-475
▁different	-476
ial	-477
pl	-478
ick	-479
▁What	-480
rain	-481
▁even	-482
▁many	-483
▁being	-484
▁her	-485
▁show	-486
mer	-487
▁through	-488
pe	-489
ance	-490
ars	-491
ict	-492
ob	-493
ning	-494
ire	-495
▁pre	-496
ark	-497
ase	-498
ade	-499
▁happen	-500
ange	-501
▁He	-502
▁doing	-503
▁off	-504
ible	-505
▁U	-506
▁too	-507
▁come	-508
▁thou	-509
ank	-510
▁try	-511
ary	-512
cess	-513
▁proble	-514
ak	-515
▁tell	-516
ents	-517
▁big	-518
▁br	-519
▁great	-520
▁use	-521
he	-522
ject	-523
chn	-524
▁same	-525
▁three	-526
ne	-527
▁fl	-528
iver	-529
ors	-530
▁comm	-531
illion	-532
▁sm	-533
uc	-534
ether	-535
▁If	-536
▁inc	-537
▁fact	-538
xt	-539
ual	-540
ys	-541
▁gen	-542
body	-543
ress	-544
thing	-545
▁Ch	-546
wn	-547
ting	-548
urn	-549
ically	-550
ful	-551
▁may	-552
▁techn	-553
ool	-554
ved	-555
ath	-556
day	-557
ology	-558
▁count	-559
per	-560
stem	-561
tern	-562
form	-563
▁human	-564
▁str	-565
▁wr	-566
row	-567
▁build	-568
▁ra	-569
▁well	-570
▁K	-571
▁called	-572
▁gu	-573
ile	-574
ied	-575
▁made	-576
▁pers	-577
▁child	-578
▁long	-579
▁sur	-580
▁find	-581
be	-582
ons	-583
▁af	-584
▁sim	-585
▁percent	-586
ces	-587
ower	-588
fore	-589
te	-590
▁tra	-591
igh	-592
ics	-593
▁system	-594
self	-595
▁design	-596
ious	-597
▁again	-598
▁inv	-599
▁bel	-600
erest	-601
▁dec	-602
nds	-603
▁let	-604
▁app	-605
▁ind	-606
▁bec	-607
ating	-608
▁em	-609
ord	-610
▁Well	-611
les	-612
▁mean	-613
▁fo	-614
▁Af	-615
ize	-616
we	-617
000	-618
ert	-619
▁last	-620
?"	-621
oss	-622
▁quest	-623
ty	-624
ft	-625
▁why	-626
▁import	-627
ren	-628
▁thought	-629
▁Be	-630
ition	-631
▁should	-632
▁underst	-633
▁interest	-634
▁car	-635
▁idea	-636
▁cour	-637
▁sort	-638
ew	-639
▁own	-640
▁bas	-641
av	-642
ian	-643
▁rem	-644
▁feel	-645
▁went	-646
▁creat	-647
▁end	-648
▁ob	-649
,000	-650
▁stud	-651
ough	-652
▁change	-653
cial	-654
ates	-655
▁didn	-656
▁play	-657
▁sc	-658
▁after	-659
▁him	-660
▁rel	-661
ese	-662
ull	-663
▁important	-664
▁dr	-665
ub	-666
▁course	-667
ities	-668
▁started	-669
▁gl	-670
▁another	-671
▁lear	-672
▁person	-673
▁plan	-674
▁point	-675
ution	-676
▁bit	-677
▁understand	-678
▁hel	-679
gan	-680
▁3	-681
ail	-682
▁wom	-683
▁today	-684
▁give	-685
con	-686
▁exper	-687
▁ask	-688
ise	-689
▁sch	-690
▁its	-691
ven	-692
ility	-693
▁problem	-694
▁story	-695
▁St	-696
▁prod	-697
▁turn	-698
▁belie	-699
▁sl	-700
ular	-701
▁sci	-702
ix	-703
ense	-704
▁water	-705
▁kid	-706
▁ent	-707
als	-708
..	-709
▁before	-710
▁never	-711
▁ago	-712
▁ins	-713
▁inst	-714
old	-715
▁gra	-716
▁able	-717
▁cons	-718
kes	-719
▁exam	-720
ave	-721
oth	-722
▁Thank	-723
ost	-724
ily	-725
▁ele	-726
▁10	-727
▁better	-728
▁few	-729
▁Afric	-730
▁mon	-731
▁brain	-732
▁19	-733
▁came	-734
▁place	-735
▁cr	-736
▁ke	-737
▁trans	-738
▁bo	-739
▁help	-740
ists	-741
▁next	-742
▁sol	-743
▁mod	-744
▁inter	-745
und	-746
read	-747
ward	-748
▁stu	-749
▁tog	-750
▁together	-751
▁might	-752
▁still	-753
▁whole	-754
▁Because	-755
ros	-756
ature	-757
▁school	-758
ited	-759
▁power	-760
▁V	-761
▁high	-762
▁love	-763
▁comple	-764
▁fam	-765
ather	-766
ng	-767
▁art	-768
meric	-769
ute	-770
▁technology	-771
atch	-772
,"	-773
▁each	-774
▁done	-775
▁imag	-776
▁found	-777
▁ser	-778
▁four	-779
▁small	-780
▁num	-781
velop	-782
lic	-783
ience	-784
▁cre	-785
cond	-786
▁ter	-787
ah	-788
ween	-789
▁When	-790
▁coll	-791
▁min	-792
▁commun	-793
ific	-794
iness	-795
▁used	-796
▁looking	-797
ways	-798
▁Americ	-799
▁comput	-800
▁old	-801
▁million	-802
ably	-803
gy	-804
▁ext	-805
▁fin	-806
▁pat	-807
ram	-808
▁question	-809
iss	-810
ized	-811
▁cent	-812
▁doesn	-813
alth	-814
▁light	-815
▁between	-816
▁partic	-817
▁rec	-818
ures	-819
▁20	-820
▁pol	-821
ork	-822
▁la	-823
arth	-824
▁develop	-825
ope	-826
▁building	-827
here	-828
▁How	-829
▁move	-830
cept	-831
▁lar	-832
ets	-833
az	-834
ered	-835
▁away	-836
▁read	-837
▁wanted	-838
▁met	-839
▁pict	-840
▁learn	-841
▁far	-842
ural	-843
▁expl	-844
▁5	-845
▁always	-846
ird	-847
▁poss	-848
ness	-849
▁trying	-850
oney	-851
▁sk	-852
ative	-853
▁grow	-854
▁bi	-855
▁believe	-856
▁el	-857
gin	-858
▁op	-859
ational	-860
▁mom	-861
▁book	-862
▁reas	-863
▁space	-864
▁gener	-865
▁att	-866
▁doll	-867
▁working	-868
▁children	-869
▁live	-870
ote	-871
ract	-872
▁example	-873
▁kids	-874
▁word	-875
▁supp	-876
▁eff	-877
▁cell	-878
ands	-879
selves	-880
conom	-881
▁ed	-882
▁giv	-883
▁took	-884
▁Un	-885
▁ever	-886
▁med	-887
ont	-888
▁bus	-889
▁cap	-890
ug	-891
▁Africa	-892
ger	-893
▁Ind	-894
▁hard	-895
▁everything	-896
ross	-897
formation	-898
aut	-899
▁stuff	-900
▁prob	-901
▁univer	-902
▁4	-903
▁war	-904
▁dat	-905
aces	-906
▁anim	-907
▁five	-908
▁beh	-909
▁run	-910
▁money	-911
▁project	-912
▁chang	-913
nce	-914
▁country	-915
alf	-916
nect	-917
▁mus	-918
arch	-919
▁econom	-920
ments	-921
▁cor	-922
▁sub	-923
ock	-924
ps	-925
▁care	-926
▁One	-927
▁organ	-928
▁teach	-929
▁enough	-930
ergy	-931
▁sense	-932
▁less	-933
cy	-934
▁vis	-935
▁second	-936
atter	-937
▁spec	-938
▁getting	-939
▁interesting	-940
ogra	-941
vers	-942
▁thinking	-943
oc	-944
▁women	-945
▁food	-946
▁create	-947
▁rep	-948
ism	-949
▁wo	-950
ries	-951
▁Here	-952
▁quite	-953
▁These	-954
ks	-955
▁left	-956
▁resp	-957
▁happened	-958
▁As	-959
ertain	-960
ouse	-961
▁inf	-962
iron	-963
▁maybe	-964
▁data	-965
▁comes	-966
iew	-967
▁process	-968
▁lead	-969
▁beaut	-970
▁cou	-971
▁walk	-972
▁energy	-973
ever	-974
ines	-975
▁dollars	-976
▁health	-977
rib	-978
▁bring	-979
oy	-980
▁fun	-981
▁probably	-982
▁head	-983
lear	-984
▁form	-985
hip	-986
▁mark	-987
led	-988
tty	-989
▁pie	-990
▁fut	-991
▁hand	-992
ten	-993
▁using	-994
its	-995
air	-996
▁compan	-997
▁number	-998
▁mind	-999
▁eng	-1000
▁OK	-1001
▁says	-1002
▁information	-1003
▁means	-1004
▁pres	-1005
▁She	-1006
▁reg	-1007
ital	-1008
▁talking	-1009
ction	-1010
▁begin	-1011
▁month	-1012
▁grou	-1013
▁prog	-1014
▁sing	-1015
▁frie	-1016
cer	-1017
▁future	-1018
▁open	-1019
▁making	-1020
▁pretty	-1021
▁planet	-1022
▁coming	-1023
▁acc	-1024
▁best	-1025
▁My	-1026
▁anything	-1027
sw	-1028
▁home	-1029
▁connect	-1030
▁side	-1031
▁times	-1032
reen	-1033
▁set	-1034
▁else	-1035
ues	-1036
▁An	-1037
▁room	-1038
▁half	-1039
ograph	-1040
▁conf	-1041
▁become	-1042
vern	-1043
▁cur	-1044
▁hist	-1045
▁Earth	-1046
ories	-1047
ier	-1048
▁dist	-1049
▁model	-1050
▁ca	-1051
▁phot	-1052
cus	-1053
iting	-1054
▁answ	-1055
▁picture	-1056
▁ear	-1057
▁air	-1058
▁gr	-1059
▁pop	-1060
▁env	-1061
ond	-1062
olution	-1063
▁hope	-1064
ention	-1065
ident	-1066
▁seen	-1067
▁elect	-1068
me	-1069
▁goes	-1070
▁bad	-1071
▁keep	-1072
ient	-1073
▁wonder	-1074
▁without	-1075
▁fig	-1076
▁wee	-1077
ately	-1078
▁simple	-1079
▁product	-1080
▁char	-1081
▁business	-1082
ash	-1083
▁add	-1084
▁pub	-1085
pr	-1086
ced	-1087
idd	-1088
ner	-1089
▁All	-1090
▁sign	-1091
ortun	-1092
▁reason	-1093
▁red	-1094
▁glob	-1095
▁Is	-1096
▁ideas	-1097
ings	-1098
▁top	-1099
▁six	-1100
ety	-1101
ott	-1102
▁opp	-1103
▁stand	-1104
▁govern	-1105
▁saw	-1106
ake	-1107
▁moment	-1108
ken	-1109
gest	-1110
▁environ	-1111
▁200	-1112
irl	-1113
▁such	-1114
▁cam	-1115
▁def	-1116
▁ord	-1117
▁particular	-1118
▁No	-1119
▁New	-1120
▁Chin	-1121
▁job	-1122
▁having	-1123
ED	-1124
▁col	-1125
▁basically	-1126
ince	-1127
▁cult	-1128
▁allow	-1129
▁For	-1130
▁hour	-1131
where	-1132
▁body	-1133
imes	-1134
▁Se	-1135
▁pass	-1136
▁matter	-1137
▁certain	-1138
▁ey	-1139
▁across	-1140
ided	-1141
ike	-1142
iter	-1143
▁billion	-1144
▁universe	-1145
▁makes	-1146
▁computer	-1147
▁told	-1148
▁happens	-1149
▁problems	-1150
ember	-1151
▁phys	-1152
▁educ	-1153
str	-1154
▁sound	-1155
▁countries	-1156
most	-1157
▁val	-1158
▁living	-1159
▁eas	-1160
▁ways	-1161
▁guy	-1162
▁beautif	-1163
▁mor	-1164
▁contro	-1165
llow	-1166
ilt	-1167
▁days	-1168
▁saying	-1169
uring	-1170
ization	-1171
▁contin	-1172
ior	-1173
lf	-1174
aps	-1175
▁science	-1176
▁young	-1177
▁experience	-1178
ices	-1179
▁social	-1180
▁stop	-1181
▁sit	-1182
Wh	-1183
▁rest	-1184
▁scient	-1185
▁bre	-1186
▁both	-1187
▁Al	-1188
ught	-1189
▁Let	-1190
man	-1191
ots	-1192
▁par	-1193
▁lives	-1194
▁det	-1195
▁ty	-1196
...	-1197
▁asked	-1198
▁complete	-1199
▁later	-1200
▁TED	-1201
▁case	-1202
▁incred	-1203
▁music	-1204
ulation	-1205
io	-1206
▁'	-1207
▁equ	-1208
▁ref	-1209
ime	-1210
▁mach	-1211
▁history	-1212
ready	-1213
▁prot	-1214
▁beautiful	-1215
▁list	-1216
▁dem	-1217
▁looks	-1218
ead	-1219
▁aut	-1220
▁disco	-1221
▁family	-1222
ream	-1223
▁God	-1224
▁environment	-1225
▁sure	-1226
▁level	-1227
ene	-1228
▁sw	-1229
▁thous	-1230
ying	-1231
▁heard	-1232
ins	-1233
uce	-1234
ts	-1235
▁soci	-1236
aterial	-1237
▁global	-1238
eah	-1239
▁possible	-1240
▁che	-1241
▁yet	-1242
▁news	-1243
side	-1244
unch	-1245
▁mil	-1246
▁fore	-1247
▁heart	-1248
▁almost	-1249
▁figure	-1250
▁100	-1251
▁mag	-1252
ality	-1253
angu	-1254
▁already	-1255
uge	-1256
ants	-1257
▁oce	-1258
▁vide	-1259
▁wrong	-1260
▁unt	-1261
▁nature	-1262
utes	-1263
▁hear	-1264
uck	-1265
▁tre	-1266
▁large	-1267
osed	-1268
▁kill	-1269
▁inside	-1270
br	-1271
ury	-1272
▁places	-1273
arr	-1274
▁single	-1275
▁nothing	-1276
▁everybody	-1277
▁amaz	-1278
▁langu	-1279
▁while	-1280
▁market	-1281
▁...	-1282
▁suc	-1283
▁once	-1284
▁cost	-1285
ective	-1286
ov	-1287
▁India	-1288
▁piece	-1289
▁answer	-1290
▁vir	-1291
▁must	-1292
▁true	-1293
▁species	-1294
orn	-1295
▁couple	-1296
itive	-1297
▁whether	-1298
less	-1299
acter	-1300
iddle	-1301
med	-1302
ages	-1303
▁within	-1304
▁material	-1305
▁50	-1306
▁age	-1307
▁dire	-1308
▁15	-1309
allen	-1310
▁test	-1311
▁looked	-1312
▁30	-1313
▁watch	-1314
imate	-1315
▁exc	-1316
▁land	-1317
▁United	-1318
▁fil	-1319
▁Or	-1320
outh	-1321
▁girl	-1322
kay	-1323
▁group	-1324
▁prof	-1325
▁rese	-1326
▁works	-1327
▁ass	-1328
ling	-1329
lish	-1330
▁Then	-1331
▁months	-1332
▁loc	-1333
▁line	-1334
ivid	-1335
▁quick	-1336
arent	-1337
ering	-1338
vious	-1339
▁share	-1340
▁community	-1341
land	-1342
▁city	-1343
▁z	-1344
▁Why	-1345
▁men	-1346
▁amazing	-1347
ush	-1348
▁leg	-1349
ivity	-1350
rop	-1351
oice	-1352
ield	-1353
gen	-1354
work	-1355
▁built	-1356
aw	-1357
ator	-1358
▁exact	-1359
▁often	-1360
▁abs	-1361
▁view	-1362
face	-1363
▁deep	-1364
ases	-1365
▁remember	-1366
▁deal	-1367
▁6	-1368
▁nat	-1369
▁until	-1370
▁imagine	-1371
▁Br	-1372
▁front	-1373
to	-1374
▁wa	-1375
▁cra	-1376
▁object	-1377
▁dise	-1378
▁kinds	-1379
▁challen	-1380
de	-1381
▁States	-1382
▁entire	-1383
up	-1384
ians	-1385
undred	-1386
ium	-1387
▁iss	-1388
ully	-1389
▁mem	-1390
▁face	-1391
▁treat	-1392
ucture	-1393
▁night	-1394
▁follow	-1395
ired	-1396
▁order	-1397
▁Fr	-1398
▁oil	-1399
▁itself	-1400
▁public	-1401
▁decided	-1402
▁adv	-1403
▁polit	-1404
▁aff	-1405
▁house	-1406
▁research	-1407
▁somebody	-1408
▁9	-1409
▁isn	-1410
▁pain	-1411
▁self	-1412
▁Every	-1413
▁dra	-1414
▁incre	-1415
▁myself	-1416
▁mother	-1417
ware	-1418
▁engine	-1419
▁though	-1420
ivers	-1421
▁taking	-1422
cle	-1423
▁hundred	-1424
▁happening	-1425
ane	-1426
omet	-1427
▁net	-1428
▁animals	-1429
get	-1430
▁arch	-1431
▁video	-1432
▁name	-1433
▁cells	-1434
▁America	-1435
cur	-1436
▁past	-1437
▁education	-1438
▁indust	-1439
▁pay	-1440
▁wind	-1441
▁minutes	-1442
▁lab	-1443
▁free	-1444
▁huge	-1445
▁along	-1446
▁state	-1447
aster	-1448
▁individ	-1449
▁completely	-1450
bs	-1451
▁stories	-1452
ected	-1453
▁cond	-1454
▁gets	-1455
ives	-1456
▁ones	-1457
▁appro	-1458
▁rather	-1459
▁experim	-1460
aper	-1461
▁woman	-1462
▁company	-1463
▁di	-1464
▁complex	-1465
atic	-1466
▁meet	-1467
dd	-1468
ined	-1469
ision	-1470
▁ocean	-1471
▁someone	-1472
▁shap	-1473
▁since	-1474
▁words	-1475
▁control	-1476
▁bott	-1477
▁game	-1478
ee	-1479
ming	-1480
▁At	-1481
▁Do	-1482
▁Can	-1483
▁sca	-1484
▁guys	-1485
▁language	-1486
▁individual	-1487
▁lots	-1488
▁mass	-1489
bers	-1490
▁won	-1491
▁third	-1492
▁success	-1493
▁opportun	-1494
▁spend	-1495
▁pattern	-1496
ex	-1497
ional	-1498
▁taken	-1499
▁exactly	-1500
▁ourselves	-1501
▁wonderful	-1502
olved	-1503
▁tool	-1504
etic	-1505
ging	-1506
▁fund	-1507
▁wasn	-1508
ames	-1509
▁ret	-1510
▁class	-1511
▁close	-1512
▁liter	-1513
ibly	-1514
▁dev	-1515
▁hours	-1516
ged	-1517
▁focus	-1518
ability	-1519
▁result	-1520
▁hy	-1521
▁area	-1522
▁knew	-1523
▁government	-1524
▁inn	-1525
wards	-1526
itting	-1527
▁Intern	-1528
▁couldn	-1529
ules	-1530
▁pos	-1531
▁seven	-1532
end	-1533
cl	-1534
itect	-1535
▁happy	-1536
▁math	-1537
▁amount	-1538
haps	-1539
▁friends	-1540
▁8	-1541
▁meas	-1542
▁least	-1543
▁created	-1544
▁themselves	-1545
▁rob	-1546
ological	-1547
not	-1548
urs	-1549
▁fly	-1550
ats	-1551
omes	-1552
▁clear	-1553
ien	-1554
The	-1555
line	-1556
▁Chr	-1557
▁mess	-1558
▁pred	-1559
▁outside	-1560
▁questions	-1561
gle	-1562
ogn	-1563
uro	-1564
ax	-1565
▁behav	-1566
▁natural	-1567
▁Ar	-1568
istic	-1569
▁train	-1570
▁Some	-1571
app	-1572
ret	-1573
▁hold	-1574
▁became	-1575
▁learned	-1576
▁present	-1577
Well	-1578
icult	-1579
▁beginning	-1580
▁cut	-1581
▁ris	-1582
▁feet	-1583
▁speak	-1584
▁turns	-1585
erv	-1586
ump	-1587
▁rad	-1588
ery	-1589
▁18	-1590
▁av	-1591
▁China	-1592
▁black	-1593
▁terms	-1594
▁society	-1595
▁var	-1596
▁whatever	-1597
ero	-1598
▁Eng	-1599
▁cir	-1600
▁students	-1601
▁moving	-1602
▁everyone	-1603
▁architect	-1604
sy	-1605
olute	-1606
▁extra	-1607
▁invest	-1608
▁relations	-1609
▁program	-1610
▁buy	-1611
▁eight	-1612
▁Pe	-1613
ental	-1614
▁terr	-1615
illions	-1616
▁middle	-1617
▁mot	-1618
ither	-1619
▁short	-1620
▁early	-1621
▁difference	-1622
▁sym	-1623
▁intell	-1624
▁listen	-1625
▁American	-1626
▁Sh	-1627
▁gave	-1628
▁worked	-1629
ift	-1630
▁aud	-1631
inary	-1632
▁fish	-1633
▁difficult	-1634
astic	-1635
▁evolution	-1636
ctor	-1637
▁Not	-1638
▁ant	-1639
▁law	-1640
▁fall	-1641
▁green	-1642
thers	-1643
▁takes	-1644
▁Internet	-1645
fect	-1646
▁step	-1647
ples	-1648
▁ple	-1649
▁seeing	-1650
▁photograph	-1651
▁cancer	-1652
▁against	-1653
ters	-1654
▁bro	-1655
▁team	-1656
ey	-1657
▁eat	-1658
▁sun	-1659
▁full	-1660
▁prov	-1661
▁thousands	-1662
vered	-1663
assion	-1664
ral	-1665
▁da	-1666
ared	-1667
▁York	-1668
▁perhaps	-1669
els	-1670
▁Man	-1671
▁others	-1672
att	-1673
▁century	-1674
▁interact	-1675
▁surface	-1676
▁lim	-1677
ially	-1678
▁innov	-1679
▁relationship	-1680
▁tem	-1681
▁leave	-1682
▁consum	-1683
▁machine	-1684
▁absolute	-1685
ones	-1686
▁finally	-1687
ern	-1688
▁eyes	-1689
▁squ	-1690
▁tot	-1691
▁needs	-1692
▁effect	-1693
▁parent	-1694
▁recent	-1695
▁disease	-1696
aking	-1697
▁size	-1698
▁field	-1699
▁oc	-1700
▁break	-1701
▁exist	-1702
▁reach	-1703
▁study	-1704
▁explain	-1705
▁sometimes	-1706
▁population	-1707
▁pot	-1708
ients	-1709
▁death	-1710
▁hands	-1711
▁obvious	-1712
▁systems	-1713
▁cannot	-1714
ges	-1715
▁12	-1716
▁low	-1717
▁oper	-1718
iqu	-1719
ove	-1720
rod	-1721
▁gone	-1722
orth	-1723
▁culture	-1724
ton	-1725
aring	-1726
year	-1727
▁dark	-1728
verage	-1729
▁instead	-1730
▁40	-1731
▁jo	-1732
▁dig	-1733
▁miss	-1734
▁common	-1735
▁network	-1736
▁ice	-1737
▁fail	-1738
▁turned	-1739
ole	-1740
ides	-1741
▁bab	-1742
▁sens	-1743
ential	-1744
itions	-1745
itch	-1746
ination	-1747
oh	-1748
What	-1749
▁norm	-1750
▁learning	-1751
ude	-1752
▁cal	-1753
▁vers	-1754
ipp	-1755
ule	-1756
▁interested	-1757
▁es	-1758
▁sug	-1759
▁easy	-1760
▁orig	-1761
▁quickly	-1762
▁ve	-1763
▁image	-1764
▁parts	-1765
▁behavior	-1766
uction	-1767
rew	-1768
▁To	-1769
rought	-1770
▁longer	-1771
▁yourself	-1772
▁ge	-1773
▁non	-1774
▁tried	-1775
▁perfect	-1776
jor	-1777
ale	-1778
▁cle	-1779
▁event	-1780
▁support	-1781
▁er	-1782
phere	-1783
▁trad	-1784
ler	-1785
fully	-1786
▁chem	-1787
▁poor	-1788
▁structure	-1789
eg	-1790
orld	-1791
ented	-1792
▁emot	-1793
▁expect	-1794
urb	-1795
▁compassion	-1796
elt	-1797
▁typ	-1798
▁pick	-1799
▁yes	-1800
▁Just	-1801
ibility	-1802
▁communic	-1803
▁dep	-1804
▁major	-1805
▁record	-1806
iving	-1807
▁Euro	-1808
▁cool	-1809
▁insp	-1810
▁surv	-1811
utions	-1812
▁People	-1813
iversity	-1814
▁25	-1815
ider	-1816
▁mic	-1817
▁began	-1818
▁miles	-1819
▁friend	-1820
▁emb	-1821
▁mov	-1822
▁sum	-1823
▁resour	-1824
▁changed	-1825
sych	-1826
▁given	-1827
▁ability	-1828
▁incredible	-1829
▁produc	-1830
▁repres	-1831
▁opportunity	-1832
avor	-1833
▁pull	-1834
▁weeks	-1835
ased	-1836
▁civ	-1837
▁conv	-1838
▁jour	-1839
▁nice	-1840
▁stre	-1841
▁needed	-1842
▁On	-1843
▁rev	-1844
lec	-1845
ills	-1846
▁Europe	-1847
▁brought	-1848
apt	-1849
ony	-1850
ison	-1851
▁sent	-1852
▁situ	-1853
▁slow	-1854
▁week	-1855
NA	-1856
oll	-1857
▁serv	-1858
▁father	-1859
▁opt	-1860
▁force	-1861
▁press	-1862
▁relig	-1863
▁dest	-1864
▁stay	-1865
▁wall	-1866
▁behind	-1867
▁recogn	-1868
You	-1869
▁measure	-1870
reme	-1871
▁ess	-1872
▁media	-1873
▁during	-1874
izing	-1875
▁Right	-1876
▁pract	-1877
▁either	-1878
▁morning	-1879
▁special	-1880
sh	-1881
ply	-1882
ards	-1883
▁sea	-1884
▁Okay	-1885
▁blue	-1886
▁desc	-1887
▁film	-1888
▁impro	-1889
▁realized	-1890
unt	-1891
▁del	-1892
ledge	-1893
▁spent	-1894
▁direct	-1895
▁economy	-1896
cious	-1897
▁feed	-1898
▁famil	-1899
▁paper	-1900
bo	-1901
▁Yeah	-1902
▁phone	-1903
▁scale	-1904
rent	-1905
▁fre	-1906
▁super	-1907
▁starting	-1908
ouch	-1909
▁incl	-1910
▁local	-1911
▁perform	-1912
▁respons	-1913
▁May	-1914
▁protect	-1915
▁known	-1916
▁simply	-1917
▁changes	-1918
▁sitting	-1919
▁literally	-1920
iod	-1921
oms	-1922
ains	-1923
▁die	-1924
▁mar	-1925
▁foot	-1926
▁dream	-1927
▁ground	-1928
▁concept	-1929
ru	-1930
▁pur	-1931
▁draw	-1932
▁strong	-1933
▁approach	-1934
ney	-1935
▁psych	-1936
hor	-1937
▁sex	-1938
▁felt	-1939
ustain	-1940
▁colle	-1941
▁white	-1942
ai	-1943
eng	-1944
oph	-1945
▁prop	-1946
▁grand	-1947
▁shows	-1948
▁value	-1949
ologies	-1950
imens	-1951
idence	-1952
▁predict	-1953
▁reality	-1954
▁powerful	-1955
▁CA	-1956
▁ill	-1957
▁saf	-1958
ances	-1959
▁deg	-1960
▁wrote	-1961
▁theory	-1962
▁parents	-1963
ann	-1964
ron	-1965
dden	-1966
▁har	-1967
▁vol	-1968
▁crit	-1969
▁fast	-1970
▁rock	-1971
▁shape	-1972
▁bottom	-1973
ales	-1974
vent	-1975
▁ste	-1976
▁ball	-1977
▁song	-1978
▁color	-1979
▁sudden	-1980
▁running	-1981
▁companies	-1982
▁win	-1983
▁based	-1984
▁civil	-1985
▁wouldn	-1986
▁forward	-1987
bon	-1988
min	-1989
▁flo	-1990
▁circ	-1991
▁climate	-1992
▁serious	-1993
yn	-1994
▁hot	-1995
▁emer	-1996
▁sell	-1997
▁World	-1998
▁gives	-1999
▁molec	-2000
▁period	-2001
bor	-2002
iny	-2003
oon	-2004
uth	-2005
▁obs	-2006
▁talked	-2007
▁English	-2008
gs	-2009
▁stra	-2010
cially	-2011
▁thank	-2012
▁center	-2013
▁travel	-2014
▁hor	-2015
ik	-2016
▁gal	-2017
▁caus	-2018
▁feeling	-2019
▁experiment	-2020
iet	-2021
▁prin	-2022
▁write	-2023
▁visual	-2024
▁personal	-2025
▁cop	-2026
ising	-2027
▁lost	-2028
▁soft	-2029
▁electric	-2030
zy	-2031
iol	-2032
▁arg	-2033
ators	-2034
ument	-2035
▁bene	-2036
▁camer	-2037
▁economic	-2038
▁South	-2039
▁areas	-2040
▁blood	-2041
▁worth	-2042
▁images	-2043
▁impact	-2044
▁spread	-2045
▁average	-2046
▁intellig	-2047
of	-2048
ext	-2049
ows	-2050
hood	-2051
vert	-2052
com	-2053
ilar	-2054
lect	-2055
▁DNA	-2056
▁map	-2057
▁animal	-2058
▁anybody	-2059
▁leaders	-2060
lt	-2061
icy	-2062
▁ap	-2063
▁knows	-2064
▁neigh	-2065
▁meaning	-2066
chie	-2067
▁post	-2068
▁sn	-2069
ised	-2070
▁books	-2071
▁ident	-2072
▁technologies	-2073
osp	-2074
cing	-2075
▁nuc	-2076
anger	-2077
▁depe	-2078
▁near	-2079
▁guess	-2080
▁rules	-2081
▁stage	-2082
▁cities	-2083
oes	-2084
amed	-2085
▁sour	-2086
▁access	-2087
▁challenge	-2088
▁understanding	-2089
ived	-2090
ored	-2091
▁stat	-2092
▁vill	-2093
▁humans	-2094
▁absolutely	-2095
▁main	-2096
osphere	-2097
▁extreme	-2098
▁growing	-2099
par	-2100
▁repl	-2101
▁giving	-2102
▁realize	-2103
▁industry	-2104
ev	-2105
▁Tw	-2106
head	-2107
▁drug	-2108
▁sold	-2109
lev	-2110
por	-2111
▁enc	-2112
ption	-2113
ensive	-2114
Th	-2115
uel	-2116
▁achie	-2117
▁compet	-2118
cul	-2119
▁born	-2120
▁dead	-2121
erence	-2122
lu	-2123
▁fac	-2124
▁intern	-2125
▁comb	-2126
▁touch	-2127
aged	-2128
▁requ	-2129
▁seems	-2130
▁surpr	-2131
entially	-2132
bit	-2133
mers	-2134
▁rich	-2135
▁favor	-2136
▁sustain	-2137
▁recently	-2138
▁knowledge	-2139
▁discovered	-2140
ped	-2141
▁breat	-2142
▁mathem	-2143
▁playing	-2144
▁scientists	-2145
▁clos	-2146
▁audience	-2147
▁character	-2148
▁incredibly	-2149
ma	-2150
eed	-2151
▁viol	-2152
▁mount	-2153
▁describ	-2154
Oh	-2155
ode	-2156
▁box	-2157
▁key	-2158
▁road	-2159
▁telling	-2160
▁pictures	-2161
like	-2162
▁link	-2163
▁soon	-2164
▁galax	-2165
▁anyone	-2166
▁except	-2167
▁growth	-2168
▁millions	-2169
▁happiness	-2170
ression	-2171
▁fundam	-2172
pre	-2173
▁Sp	-2174
▁cy	-2175
ites	-2176
▁sle	-2177
▁const	-2178
▁bacter	-2179
▁choice	-2180
▁Our	-2181
▁Yes	-2182
▁anal	-2183
▁seem	-2184
▁putting	-2185
▁involved	-2186
▁computers	-2187
ief	-2188
ned	-2189
ival	-2190
▁avail	-2191
▁current	-2192
▁risk	-2193
▁haven	-2194
omen	-2195
▁syn	-2196
▁modern	-2197
▁showed	-2198
light	-2199
▁send	-2200
▁origin	-2201
▁developing	-2202
▁sec	-2203
▁aren	-2204
▁tools	-2205
ilities	-2206
▁proper	-2207
▁numbers	-2208
▁patient	-2209
▁hundreds	-2210
rad	-2211
▁Oh	-2212
▁alone	-2213
▁carbon	-2214
pecially	-2215
▁produce	-2216
▁developed	-2217
▁materials	-2218
IV	-2219
ished	-2220
▁died	-2221
▁priv	-2222
▁becomes	-2223
▁fur	-2224
▁instit	-2225
▁plants	-2226
▁reasons	-2227
▁generation	-2228
▁Any	-2229
▁arr	-2230
▁mult	-2231
▁issue	-2232
▁movement	-2233
▁physical	-2234
▁Ph	-2235
▁199	-2236
▁fight	-2237
▁table	-2238
wh	-2239
▁HIV	-2240
▁cars	-2241
▁spir	-2242
ishing	-2243
▁bigger	-2244
▁chance	-2245
▁profess	-2246
▁schools	-2247
▁univers	-2248
▁ec	-2249
iant	-2250
▁bur	-2251
▁camp	-2252
▁fire	-2253
▁type	-2254
▁truth	-2255
▁asking	-2256
50	-2257
▁est	-2258
▁eye	-2259
▁prom	-2260
▁creating	-2261
amp	-2262
met	-2263
ified	-2264
▁With	-2265
▁bird	-2266
▁political	-2267
▁situation	-2268
▁save	-2269
▁nuclear	-2270
▁Goo	-2271
asing	-2272
pid	-2273
ploy	-2274
▁poll	-2275
▁lived	-2276
▁designed	-2277
▁tradition	-2278
oke	-2279
rand	-2280
▁benef	-2281
▁similar	-2282
▁lay	-2283
▁door	-2284
▁speed	-2285
ef	-2286
acy	-2287
▁ce	-2288
yond	-2289
▁hon	-2290
arily	-2291
oring	-2292
▁Chinese	-2293
▁arm	-2294
ister	-2295
ration	-2296
▁princi	-2297
▁available	-2298
po	-2299
oun	-2300
▁dom	-2301
▁flow	-2302
▁suggest	-2303
▁towards	-2304
▁extraord	-2305
▁solution	-2306
umb	-2307
▁By	-2308
ades	-2309
▁virt	-2310
▁defin	-2311
▁earth	-2312
▁sever	-2313
▁changing	-2314
asc	-2315
ips	-2316
oose	-2317
▁flu	-2318
▁lea	-2319
ously	-2320
▁nine	-2321
▁virus	-2322
how	-2323
ung	-2324
apan	-2325
port	-2326
ster	-2327
view	-2328
usion	-2329
▁hosp	-2330
▁girls	-2331
▁track	-2332
▁groups	-2333
by	-2334
idge	-2335
▁tiny	-2336
▁Where	-2337
▁beyond	-2338
▁several	-2339
▁attention	-2340
▁especially	-2341
▁certainly	-2342
▁dou	-2343
▁log	-2344
▁baby	-2345
▁fair	-2346
▁suff	-2347
▁drive	-2348
▁moved	-2349
▁office	-2350
▁African	-2351
▁resources	-2352
▁Com	-2353
▁prim	-2354
curity	-2355
ground	-2356
▁60	-2357
▁Of	-2358
ences	-2359
▁fear	-2360
▁path	-2361
▁rate	-2362
▁tree	-2363
▁Japan	-2364
▁carry	-2365
▁robot	-2366
▁trees	-2367
▁Google	-2368
lict	-2369
▁lif	-2370
▁Mars	-2371
▁clean	-2372
▁solar	-2373
▁issues	-2374
▁subject	-2375
▁development	-2376
▁Pr	-2377
pect	-2378
▁movie	-2379
▁necess	-2380
▁normal	-2381
▁totally	-2382
▁particularly	-2383
ina	-2384
ique	-2385
medi	-2386
▁showing	-2387
▁teachers	-2388
▁includ	-2389
▁nobody	-2390
▁convers	-2391
▁examples	-2392
oud	-2393
▁fa	-2394
▁bed	-2395
▁vac	-2396
▁fing	-2397
▁wish	-2398
▁games	-2399
▁instr	-2400
▁price	-2401
▁vision	-2402
▁walking	-2403
▁projects	-2404
put	-2405
▁din	-2406
▁gas	-2407
▁goal	-2408
▁tend	-2409
ressed	-2410
▁among	-2411
▁named	-2412
▁wants	-2413
▁danger	-2414
▁forest	-2415
▁capital	-2416
▁context	-2417
▁writing	-2418
iger	-2419
▁general	-2420
ulf	-2421
▁solve	-2422
▁device	-2423
▁discover	-2424
ns	-2425
ny	-2426
xy	-2427
the	-2428
▁sat	-2429
▁Inst	-2430
▁First	-2431
▁basic	-2432
▁stars	-2433
▁Cal	-2434
▁bar	-2435
igher	-2436
iction	-2437
▁Chris	-2438
▁sleep	-2439
▁collect	-2440
une	-2441
mend	-2442
ought	-2443
▁occur	-2444
▁street	-2445
▁innovation	-2446
oot	-2447
▁ep	-2448
pped	-2449
▁unf	-2450
▁aware	-2451
▁medic	-2452
▁higher	-2453
▁starts	-2454
▁everywhere	-2455
▁emp	-2456
▁Most	-2457
▁skin	-2458
▁block	-2459
▁attack	-2460
▁minute	-2461
▁supposed	-2462
eth	-2463
ify	-2464
▁pa	-2465
cape	-2466
irth	-2467
room	-2468
▁bal	-2469
▁son	-2470
verty	-2471
▁clim	-2472
▁stick	-2473
▁action	-2474
▁further	-2475
▁experien	-2476
ted	-2477
▁ult	-2478
oices	-2479
▁cook	-2480
▁mine	-2481
▁plant	-2482
▁exciting	-2483
▁software	-2484
▁obviously	-2485
▁transform	-2486
▁architecture	-2487
aur	-2488
erm	-2489
▁80	-2490
▁boy	-2491
▁dro	-2492
▁grad	-2493
▁onto	-2494
▁constr	-2495
▁scientific	-2496
▁11	-2497
▁16	-2498
▁Im	-2499
ires	-2500
▁site	-2501
▁voice	-2502
▁notice	-2503
▁neighbor	-2504
iar	-2505
▁Am	-2506
isms	-2507
▁fant	-2508
▁sequ	-2509
▁smart	-2510
▁beings	-2511
▁pieces	-2512
▁complic	-2513
▁message	-2514
▁passion	-2515
chan	-2516
rest	-2517
▁div	-2518
▁neg	-2519
▁lose	-2520
▁magn	-2521
▁pack	-2522
▁enorm	-2523
▁detail	-2524
ana	-2525
▁Re	-2526
▁fix	-2527
▁sky	-2528
istan	-2529
▁rain	-2530
▁Maybe	-2531
▁meant	-2532
▁micro	-2533
▁larger	-2534
▁account	-2535
▁digital	-2536
▁poverty	-2537
▁quality	-2538
▁patients	-2539
▁potential	-2540
▁Cl	-2541
▁ann	-2542
▁dog	-2543
▁imm	-2544
▁cart	-2545
▁trou	-2546
others	-2547
▁lands	-2548
▁store	-2549
▁depend	-2550
▁sounds	-2551
▁biggest	-2552
▁extraordinary	-2553
akes	-2554
ulate	-2555
▁text	-2556
▁democ	-2557
▁peace	-2558
▁separ	-2559
▁search	-2560
▁series	-2561
urban	-2562
▁Look	-2563
▁appear	-2564
▁version	-2565
▁bacteria	-2566
▁eventually	-2567
uly	-2568
▁De	-2569
▁Ge	-2570
▁Don	-2571
▁moral	-2572
▁journey	-2573
▁village	-2574
▁function	-2575
▁positive	-2576
▁represent	-2577
rast	-2578
▁Pro	-2579
▁ast	-2580
▁eth	-2581
▁fine	-2582
▁North	-2583
ossible	-2584
▁concer	-2585
▁models	-2586
▁remark	-2587
▁screen	-2588
▁largest	-2589
▁somehow	-2590
▁creative	-2591
▁evidence	-2592
▁thousand	-2593
▁connected	-2594
ids	-2595
uit	-2596
▁Ag	-2597
abor	-2598
cuss	-2599
icle	-2600
▁hit	-2601
▁hyd	-2602
▁cris	-2603
▁sorts	-2604
▁disapp	-2605
▁immedi	-2606
▁introd	-2607
ches	-2608
ctors	-2609
▁Brit	-2610
though	-2611
▁bunch	-2612
▁report	-2613
▁spirit	-2614
▁continue	-2615
▁mathemat	-2616
No	-2617
▁pu	-2618
come	-2619
ners	-2620
▁Car	-2621
▁Joh	-2622
▁fill	-2623
▁page	-2624
▁webs	-2625
▁above	-2626
▁effic	-2627
▁graph	-2628
▁lower	-2629
▁Christ	-2630
▁chemical	-2631
ID	-2632
urt	-2633
cient	-2634
▁Like	-2635
▁Those	-2636
▁birth	-2637
▁Ex	-2638
▁aw	-2639
iers	-2640
▁led	-2641
▁sil	-2642
▁jump	-2643
▁push	-2644
pective	-2645
▁killed	-2646
▁achieve	-2647
▁student	-2648
▁teacher	-2649
▁progress	-2650
▁somewhere	-2651
▁fundamental	-2652
irr	-2653
▁grew	-2654
▁assum	-2655
▁check	-2656
▁launch	-2657
▁continu	-2658
▁national	-2659
▁essentially	-2660
▁kil	-2661
▁sand	-2662
▁wife	-2663
▁yeah	-2664
▁camera	-2665
▁please	-2666
ky	-2667
lex	-2668
▁swe	-2669
▁West	-2670
iation	-2671
▁cross	-2672
▁ended	-2673
▁policy	-2674
▁square	-2675
▁temper	-2676
▁objects	-2677
▁signific	-2678
We	-2679
ama	-2680
ask	-2681
▁Bl	-2682
rial	-2683
tend	-2684
▁atm	-2685
▁dam	-2686
▁rid	-2687
▁heav	-2688
▁legs	-2689
▁neur	-2690
▁safe	-2691
▁Which	-2692
▁calcul	-2693
▁points	-2694
▁source	-2695
▁critical	-2696
▁suddenly	-2697
ube	-2698
more	-2699
▁allowed	-2700
▁content	-2701
▁extremely	-2702
ze	-2703
mit	-2704
ynam	-2705
▁Even	-2706
ission	-2707
▁After	-2708
▁alive	-2709
▁likely	-2710
▁decision	-2711
▁impossible	-2712
▁Sw	-2713
ency	-2714
onse	-2715
▁cat	-2716
▁blog	-2717
▁cold	-2718
▁star	-2719
▁waste	-2720
▁mechan	-2721
▁activity	-2722
wood	-2723
antly	-2724
right	-2725
▁meth	-2726
▁phil	-2727
▁wild	-2728
anc	-2729
joy	-2730
eter	-2731
▁earl	-2732
▁apart	-2733
▁influ	-2734
▁excited	-2735
▁usually	-2736
▁security	-2737
▁conscious	-2738
▁revolution	-2739
pan	-2740
uss	-2741
epend	-2742
▁purp	-2743
▁ready	-2744
▁greater	-2745
▁complicated	-2746
▁individuals	-2747
inct	-2748
▁sal	-2749
▁bank	-2750
▁phen	-2751
estern	-2752
▁affect	-2753
▁standing	-2754
ortunately	-2755
let	-2756
rom	-2757
ateg	-2758
cise	-2759
▁War	-2760
▁town	-2761
▁adult	-2762
▁glass	-2763
▁taught	-2764
ologists	-2765
▁temperature	-2766
▁Le	-2767
ring	-2768
itten	-2769
▁role	-2770
▁wait	-2771
▁dynam	-2772
▁forth	-2773
▁himself	-2774
▁physics	-2775
▁conflict	-2776
▁hospital	-2777
▁buildings	-2778
▁atmosphere	-2779
rip	-2780
▁oh	-2781
▁mis	-2782
▁oxy	-2783
▁East	-2784
▁upon	-2785
isions	-2786
▁Somet	-2787
▁beauty	-2788
▁strange	-2789
▁favorite	-2790
.,	-2791
erson	-2792
prene	-2793
▁zero	-2794
▁throw	-2795
reprene	-2796
▁crisis	-2797
▁Another	-2798
▁biology	-2799
▁reading	-2800
▁response	-2801
▁watching	-2802
lo	-2803
lebr	-2804
▁enjoy	-2805
▁discuss	-2806
▁smaller	-2807
▁phenomen	-2808
▁straight	-2809
▁electricity	-2810
for	-2811
mic	-2812
▁14	-2813
iven	-2814
oming	-2815
▁capt	-2816
▁late	-2817
▁trust	-2818
▁expert	-2819
▁distrib	-2820
▁machines	-2821
▁therefore	-2822
▁successful	-2823
IDS	-2824
enn	-2825
erve	-2826
▁fem	-2827
▁hole	-2828
▁jobs	-2829
▁lines	-2830
▁simpl	-2831
▁tells	-2832
▁urban	-2833
▁worse	-2834
▁anyway	-2835
▁results	-2836
▁effective	-2837
rel	-2838
antic	-2839
▁minds	-2840
▁react	-2841
▁detect	-2842
▁dimens	-2843
▁contrib	-2844
▁medical	-2845
▁communities	-2846
▁perspective	-2847
dom	-2848
omb	-2849
▁Who	-2850
itary	-2851
▁autom	-2852
▁crazy	-2853
▁online	-2854
▁plastic	-2855
▁service	-2856
▁Americans	-2857
▁conditions	-2858
men	-2859
iles	-2860
sect	-2861
ounds	-2862
▁port	-2863
▁final	-2864
▁genes	-2865
▁patterns	-2866
go	-2867
ops	-2868
fort	-2869
orry	-2870
conds	-2871
thern	-2872
▁swim	-2873
▁catch	-2874
▁truly	-2875
▁celebr	-2876
▁commer	-2877
▁doctor	-2878
▁transl	-2879
▁consider	-2880
▁position	-2881
▁fantastic	-2882
iti	-2883
ste	-2884
▁196	-2885
▁Act	-2886
▁Ken	-2887
atory	-2888
▁kept	-2889
istics	-2890
▁labor	-2891
▁older	-2892
▁slide	-2893
▁spect	-2894
▁oxygen	-2895
▁healthy	-2896
▁enormous	-2897
▁designers	-2898
agn	-2899
▁TV	-2900
fact	-2901
iber	-2902
iest	-2903
ping	-2904
▁exh	-2905
▁marr	-2906
▁accept	-2907
▁afford	-2908
▁walked	-2909
▁mention	-2910
▁products	-2911
▁solutions	-2912
▁entreprene	-2913
bb	-2914
▁13	-2915
▁et	-2916
rate	-2917
▁Are	-2918
▁aid	-2919
▁sou	-2920
▁rise	-2921
▁cover	-2922
▁hydro	-2923
▁famous	-2924
▁website	-2925
▁invented	-2926
add	-2927
rage	-2928
rect	-2929
itude	-2930
▁fasc	-2931
▁luck	-2932
▁activ	-2933
▁print	-2934
▁actual	-2935
▁National	-2936
▁increase	-2937
▁dangerous	-2938
ray	-2939
time	-2940
▁pig	-2941
▁hair	-2942
ricult	-2943
▁Second	-2944
▁effort	-2945
▁increasing	-2946
ils	-2947
▁deb	-2948
▁Char	-2949
▁finan	-2950
▁floor	-2951
▁forms	-2952
▁values	-2953
▁although	-2954
▁recognize	-2955
▁immediately	-2956
▁organization	-2957
cks	-2958
lim	-2959
▁hop	-2960
ughter	-2961
▁allows	-2962
▁choose	-2963
▁indeed	-2964
▁weight	-2965
▁trouble	-2966
▁various	-2967
bol	-2968
nal	-2969
▁21	-2970
iced	-2971
oles	-2972
onom	-2973
rees	-2974
▁Mar	-2975
▁Was	-2976
▁tun	-2977
▁cause	-2978
▁shown	-2979
▁faster	-2980
▁improve	-2981
▁anywhere	-2982
▁environmental	-2983
▁Ab	-2984
▁198	-2985
▁okay	-2986
▁drink	-2987
▁region	-2988
▁meeting	-2989
▁expensive	-2990
▁conversation	-2991
mb	-2992
amm	-2993
raq	-2994
edia	-2995
rated	-2996
▁rele	-2997
▁roll	-2998
▁bread	-2999
▁weren	-3000
▁explore	-3001
▁seconds	-3002
▁familiar	-3003
▁remarkable	-3004
How	-3005
resh	-3006
aries	-3007
▁employ	-3008
▁engage	-3009
▁summer	-3010
▁supply	-3011
▁clearly	-3012
▁finding	-3013
udd	-3014
back	-3015
ured	-3016
▁sus	-3017
aging	-3018
▁rece	-3019
▁author	-3020
▁bought	-3021
▁prison	-3022
▁slight	-3023
▁mountain	-3024
▁direction	-3025
▁intelligence	-3026
▁Ro	-3027
racy	-3028
▁mal	-3029
▁pen	-3030
orrow	-3031
▁Iraq	-3032
▁coff	-3033
▁fuel	-3034
▁magic	-3035
▁brains	-3036
▁invent	-3037
▁families	-3038
▁traditional	-3039
▁24	-3040
itor	-3041
play	-3042
sequ	-3043
▁Har	-3044
▁etc	-3045
ables	-3046
▁Your	-3047
▁fram	-3048
▁airpl	-3049
▁board	-3050
▁capac	-3051
▁costs	-3052
▁flying	-3053
▁manage	-3054
▁notion	-3055
▁survive	-3056
▁collabor	-3057
▁specific	-3058
▁conference	-3059
amb	-3060
anda	-3061
book	-3062
▁500	-3063
▁doc	-3064
▁mist	-3065
▁telev	-3066
ervation	-3067
▁anymore	-3068
▁college	-3069
▁respect	-3070
▁written	-3071
▁agricult	-3072
▁commercial	-3073
rag	-3074
▁Dr	-3075
ried	-3076
▁Dar	-3077
ining	-3078
▁closer	-3079
▁remind	-3080
▁skills	-3081
▁threat	-3082
izations	-3083
▁earlier	-3084
▁tremend	-3085
▁instance	-3086
▁produced	-3087
▁biological	-3088
▁production	-3089
uced	-3090
▁300	-3091
▁Two	-3092
▁web	-3093
odies	-3094
▁card	-3095
▁code	-3096
▁crow	-3097
ashion	-3098
▁broad	-3099
▁cases	-3100
▁freed	-3101
▁Indian	-3102
atically	-3103
▁teaching	-3104
▁following	-3105
▁complexity	-3106
zz	-3107
rap	-3108
▁Go	-3109
cope	-3110
ener	-3111
▁occ	-3112
ystem	-3113
▁concl	-3114
▁fascin	-3115
▁rights	-3116
▁struct	-3117
▁driving	-3118
▁terrible	-3119
aul	-3120
▁fit	-3121
▁nut	-3122
stein	-3123
▁boys	-3124
▁paid	-3125
▁ahead	-3126
▁below	-3127
▁trade	-3128
▁worry	-3129
▁symmet	-3130
▁medicine	-3131
▁relative	-3132
▁including	-3133
▁treatment	-3134
aly	-3135
ius	-3136
win	-3137
nces	-3138
▁cry	-3139
iforn	-3140
iling	-3141
useum	-3142
▁rand	-3143
▁drugs	-3144
▁surger	-3145
▁evolved	-3146
▁Californ	-3147
▁possibly	-3148
▁Ad	-3149
ened	-3150
▁Dav	-3151
▁rule	-3152
▁yell	-3153
▁climb	-3154
▁dance	-3155
▁encou	-3156
▁trick	-3157
▁return	-3158
▁address	-3159
▁particip	-3160
▁University	-3161
▁international	-3162
▁90	-3163
ffic	-3164
wise	-3165
▁mob	-3166
ively	-3167
▁copy	-3168
▁prep	-3169
▁trib	-3170
▁match	-3171
itation	-3172
▁coffee	-3173
▁genetic	-3174
▁planets	-3175
▁purpose	-3176
▁interview	-3177
▁particles	-3178
▁television	-3179
ri	-3180
Why	-3181
rams	-3182
▁Ste	-3183
▁thr	-3184
▁gent	-3185
▁hall	-3186
▁range	-3187
imately	-3188
▁random	-3189
▁provide	-3190
▁publish	-3191
▁waiting	-3192
▁California	-3193
▁engineering	-3194
SA	-3195
pes	-3196
bert	-3197
itiz	-3198
uted	-3199
board	-3200
▁Rich	-3201
▁appl	-3202
▁shot	-3203
▁chair	-3204
ologist	-3205
▁decide	-3206
▁played	-3207
▁useful	-3208
▁private	-3209
▁military	-3210
▁surround	-3211
▁violence	-3212
▁decisions	-3213
▁listening	-3214
▁industrial	-3215
ami	-3216
key	-3217
izes	-3218
soci	-3219
anced	-3220
iding	-3221
▁clin	-3222
▁heat	-3223
▁cheap	-3224
▁metap	-3225
▁decade	-3226
▁unique	-3227
▁express	-3228
▁willing	-3229
▁religion	-3230
▁training	-3231
▁throughout	-3232
▁understood	-3233
▁responsibility	-3234
▁Mc	-3235
ained	-3236
lands	-3237
onstr	-3238
osing	-3239
rastr	-3240
▁park	-3241
▁uses	-3242
▁choices	-3243
▁creates	-3244
▁farmers	-3245
▁popular	-3246
▁humanity	-3247
0,	-3248
fer	-3249
pro	-3250
used	-3251
▁Sch	-3252
▁ang	-3253
▁ran	-3254
▁tar	-3255
▁coun	-3256
▁drop	-3257
▁seed	-3258
▁prote	-3259
▁total	-3260
▁types	-3261
▁10,000	-3262
▁eating	-3263
▁income	-3264
▁becoming	-3265
▁connection	-3266
It	-3267
off	-3268
vest	-3269
▁fat	-3270
▁wood	-3271
▁blind	-3272
▁pleas	-3273
▁destro	-3274
▁insect	-3275
▁directly	-3276
▁original	-3277
▁pressure	-3278
▁diversity	-3279
▁organisms	-3280
▁creativity	-3281
ya	-3282
unk	-3283
ancy	-3284
icon	-3285
▁pan	-3286
rench	-3287
urning	-3288
▁Niger	-3289
▁adapt	-3290
▁levels	-3291
▁Western	-3292
▁central	-3293
▁colleag	-3294
▁greatest	-3295
▁landscape	-3296
▁neighborhood	-3297
▁Web	-3298
▁jud	-3299
▁mid	-3300
▁reb	-3301
▁desp	-3302
▁citiz	-3303
▁secret	-3304
▁wealth	-3305
▁doctors	-3306
▁restaur	-3307
▁studies	-3308
▁infrastr	-3309
▁creatures	-3310
oty	-3311
▁whe	-3312
ondon	-3313
▁Imag	-3314
▁dram	-3315
▁moon	-3316
▁mort	-3317
▁vari	-3318
▁integ	-3319
▁motiv	-3320
▁parad	-3321
▁raise	-3322
▁London	-3323
▁compon	-3324
▁forces	-3325
▁cultural	-3326
hy	-3327
ran	-3328
▁En	-3329
▁Mr	-3330
ceed	-3331
reci	-3332
▁ign	-3333
▁mut	-3334
eless	-3335
house	-3336
▁Cent	-3337
▁From	-3338
▁Russ	-3339
▁hous	-3340
▁trip	-3341
▁wire	-3342
▁Again	-3343
▁brill	-3344
▁magaz	-3345
▁causes	-3346
▁gotten	-3347
▁concent	-3348
▁consequ	-3349
▁standard	-3350
▁sustainable	-3351
ica	-3352
oid	-3353
▁CO	-3354
iate	-3355
ript	-3356
▁His	-3357
▁lad	-3358
attle	-3359
▁Bang	-3360
▁Life	-3361
▁fold	-3362
▁none	-3363
atives	-3364
▁shift	-3365
▁desert	-3366
▁attract	-3367
▁fashion	-3368
▁feature	-3369
▁freedom	-3370
▁capacity	-3371
▁practice	-3372
▁financial	-3373
mon	-3374
aign	-3375
▁Mus	-3376
▁Sun	-3377
▁veh	-3378
icity	-3379
▁gold	-3380
▁vacc	-3381
uments	-3382
▁David	-3383
▁newsp	-3384
▁smell	-3385
▁whose	-3386
ography	-3387
▁method	-3388
▁stream	-3389
▁switch	-3390
▁ancient	-3391
▁degrees	-3392
▁figured	-3393
▁speaking	-3394
5,	-3395
aim	-3396
ening	-3397
▁AIDS	-3398
▁Good	-3399
▁lapt	-3400
▁basis	-3401
▁quant	-3402
▁altern	-3403
▁galaxy	-3404
▁mostly	-3405
▁prevent	-3406
▁democracy	-3407
na	-3408
▁Ein	-3409
iring	-3410
rical	-3411
▁Asia	-3412
▁John	-3413
▁hang	-3414
▁seas	-3415
▁optim	-3416
▁twice	-3417
▁determ	-3418
▁expand	-3419
▁terror	-3420
ographic	-3421
▁Imagine	-3422
▁contact	-3423
▁tremendous	-3424
▁performance	-3425
▁infrastructure	-3426
urd	-3427
aria	-3428
empt	-3429
▁Red	-3430
arian	-3431
arter	-3432
▁Paul	-3433
▁disp	-3434
▁fort	-3435
▁laws	-3436
icians	-3437
▁strug	-3438
▁symbol	-3439
▁Einstein	-3440
▁inspired	-3441
▁emotional	-3442
▁challenges	-3443
▁collective	-3444
inc	-3445
ios	-3446
yle	-3447
▁eg	-3448
ears	-3449
▁race	-3450
▁term	-3451
▁Think	-3452
▁loved	-3453
▁rough	-3454
▁forget	-3455
▁philos	-3456
▁reflect	-3457
▁galaxies	-3458
▁slightly	-3459
▁background	-3460
ibr	-3461
reg	-3462
imin	-3463
isco	-3464
ores	-3465
thes	-3466
uate	-3467
▁San	-3468
aling	-3469
istry	-3470
phone	-3471
ufact	-3472
▁burn	-3473
▁grav	-3474
terday	-3475
▁1,000	-3476
▁corner	-3477
▁multip	-3478
▁robots	-3479
▁moments	-3480
▁noticed	-3481
▁independ	-3482
▁religious	-3483
fl	-3484
cles	-3485
▁Big	-3486
▁mix	-3487
ently	-3488
▁City	-3489
▁base	-3490
▁coal	-3491
▁mamm	-3492
▁funny	-3493
▁worst	-3494
▁easily	-3495
▁nation	-3496
▁Richard	-3497
▁respond	-3498
▁electron	-3499
ball	-3500
ulpt	-3501
▁ske	-3502
▁weap	-3503
▁apply	-3504
▁birds	-3505
▁radio	-3506
▁rapid	-3507
▁fairly	-3508
▁sculpt	-3509
▁programs	-3510
▁governments	-3511
▁significant	-3512
kn	-3513
▁Su	-3514
term	-3515
▁fro	-3516
erman	-3517
throp	-3518
▁Many	-3519
▁Very	-3520
▁cust	-3521
▁sick	-3522
▁tens	-3523
▁tiss	-3524
▁Middle	-3525
▁active	-3526
▁belief	-3527
▁answers	-3528
▁politics	-3529
ald	-3530
ked	-3531
▁Ob	-3532
cest	-3533
raid	-3534
verse	-3535
▁doub	-3536
▁meat	-3537
▁invol	-3538
▁north	-3539
▁associ	-3540
▁reduce	-3541
▁kilomet	-3542
▁Actually	-3543
▁diseases	-3544
▁services	-3545
▁experiments	-3546
0.	-3547
mp	-3548
ays	-3549
lam	-3550
aced	-3551
ford	-3552
ghan	-3553
▁bud	-3554
▁sam	-3555
icles	-3556
itted	-3557
▁hell	-3558
▁domin	-3559
▁sorry	-3560
▁afraid	-3561
▁breath	-3562
▁finger	-3563
▁appreci	-3564
▁massive	-3565
▁mission	-3566
▁surgery	-3567
▁demonstr	-3568
▁profound	-3569
▁civilization	-3570
af	-3571
ech	-3572
irt	-3573
ued	-3574
▁alg	-3575
▁wis	-3576
ement	-3577
▁calls	-3578
▁ancest	-3579
▁charge	-3580
▁memory	-3581
▁effects	-3582
▁neurons	-3583
▁bringing	-3584
▁creation	-3585
▁daughter	-3586
▁painting	-3587
▁transport	-3588
▁communicate	-3589
▁necessarily	-3590
▁institutions	-3591
▁i	-3592
ett	-3593
▁Ha	-3594
▁Pl	-3595
▁Bra	-3596
▁Tod	-3597
▁hom	-3598
▁tom	-3599
▁email	-3600
▁mouth	-3601
▁quote	-3602
▁bodies	-3603
▁honest	-3604
▁balance	-3605
▁virtual	-3606
▁addition	-3607
▁campaign	-3608
▁elements	-3609
▁manufact	-3610
▁partners	-3611
▁spending	-3612
▁molecules	-3613
▁competition	-3614
load	-3615
▁tum	-3616
apers	-3617
itely	-3618
water	-3619
▁More	-3620
▁frag	-3621
▁prev	-3622
cience	-3623
▁French	-3624
▁Thanks	-3625
▁gentle	-3626
▁Instead	-3627
▁helping	-3628
▁knowing	-3629
▁concerned	-3630
▁scientist	-3631
ley	-3632
zen	-3633
▁400	-3634
▁Aud	-3635
▁Par	-3636
▁org	-3637
▁rot	-3638
▁hero	-3639
▁seat	-3640
▁visit	-3641
▁Afghan	-3642
▁flight	-3643
▁highly	-3644
▁stopped	-3645
▁billions	-3646
▁brilliant	-3647
▁possibility	-3648
fr	-3649
yl	-3650
▁Sc	-3651
urch	-3652
▁Gal	-3653
▁ing	-3654
▁ants	-3655
▁beat	-3656
▁glam	-3657
▁tast	-3658
dimens	-3659
▁enter	-3660
▁habit	-3661
▁artist	-3662
▁bright	-3663
▁histor	-3664
▁shared	-3665
▁artists	-3666
▁opportunities	-3667
▁Ed	-3668
cies	-3669
▁Nob	-3670
▁tax	-3671
▁Aust	-3672
▁lack	-3673
▁pages	-3674
▁shark	-3675
▁Darwin	-3676
▁career	-3677
▁states	-3678
▁yellow	-3679
▁equival	-3680
▁markets	-3681
▁organic	-3682
▁related	-3683
▁warming	-3684
ibilities	-3685
▁controll	-3686
▁hydrogen	-3687
▁metaphor	-3688
▁networks	-3689
oe	-3690
cop	-3691
adem	-3692
band	-3693
▁Per	-3694
▁dad	-3695
▁hus	-3696
▁bomb	-3697
▁forg	-3698
▁iron	-3699
▁task	-3700
▁wide	-3701
▁Great	-3702
▁bound	-3703
▁cloud	-3704
▁maint	-3705
▁photo	-3706
▁babies	-3707
▁seemed	-3708
▁spaces	-3709
▁element	-3710
▁imagination	-3711
cra	-3712
▁1,	-3713
ysis	-3714
▁See	-3715
▁den	-3716
▁mer	-3717
▁flat	-3718
▁horr	-3719
▁tail	-3720
icking	-3721
urally	-3722
▁accom	-3723
▁brand	-3724
▁dying	-3725
hington	-3726
lection	-3727
osystem	-3728
▁batter	-3729
▁saving	-3730
▁slowly	-3731
▁societ	-3732
▁attempt	-3733
▁comfort	-3734
ification	-3735
▁engineers	-3736
▁yesterday	-3737
▁Washington	-3738
▁intelligent	-3739
IT	-3740
aff	-3741
oom	-3742
▁ut	-3743
hand	-3744
ogen	-3745
rupt	-3746
▁cos	-3747
▁shr	-3748
atell	-3749
eared	-3750
iable	-3751
▁loss	-3752
▁shop	-3753
▁Green	-3754
▁brief	-3755
▁exhib	-3756
▁fresh	-3757
▁liber	-3758
▁oppos	-3759
▁shock	-3760
▁bridge	-3761
▁custom	-3762
▁dollar	-3763
▁genome	-3764
▁helped	-3765
▁meters	-3766
▁opened	-3767
▁photos	-3768
▁brother	-3769
▁focused	-3770
▁workers	-3771
▁believed	-3772
▁sequence	-3773
▁Everybody	-3774
▁continent	-3775
8,	-3776
arm	-3777
edd	-3778
gth	-3779
This	-3780
apse	-3781
edic	-3782
▁150	-3783
▁ble	-3784
▁nor	-3785
▁tit	-3786
essel	-3787
rength	-3788
ulated	-3789
▁epide	-3790
▁satell	-3791
▁holding	-3792
▁sharing	-3793
▁citizens	-3794
▁ecosystem	-3795
▁definition	-3796
▁structures	-3797
▁consciousness	-3798
ada	-3799
pet	-3800
xic	-3801
olds	-3802
rick	-3803
▁Fin	-3804
▁joy	-3805
celer	-3806
itute	-3807
ulous	-3808
▁Mich	-3809
▁intu	-3810
▁scan	-3811
▁vast	-3812
thetic	-3813
▁Today	-3814
▁cycle	-3815
▁helps	-3816
▁south	-3817
mission	-3818
▁easier	-3819
▁reward	-3820
▁hearing	-3821
▁insects	-3822
▁missing	-3823
▁studying	-3824
▁principle	-3825
dimensional	-3826
▁equivalent	-3827
▁mathematics	-3828
▁communication	-3829
sc	-3830
set	-3831
pper	-3832
uary	-3833
▁Nor	-3834
▁ver	-3835
▁Geor	-3836
▁Will	-3837
▁blow	-3838
▁disc	-3839
▁load	-3840
▁mirr	-3841
aining	-3842
▁weird	-3843
▁aspect	-3844
▁breast	-3845
▁caught	-3846
▁degree	-3847
▁vessel	-3848
▁window	-3849
▁forever	-3850
▁describe	-3851
▁magazine	-3852
▁strength	-3853
▁construct	-3854
▁intellect	-3855
▁suffering	-3856
▁investment	-3857
ha	-3858
arb	-3859
eal	-3860
ees	-3861
▁Me	-3862
mark	-3863
▁cro	-3864
▁err	-3865
▁Take	-3866
▁myth	-3867
▁poet	-3868
▁agree	-3869
▁crowd	-3870
▁German	-3871
▁consid	-3872
▁lights	-3873
▁sphere	-3874
▁volunt	-3875
▁display	-3876
▁emotion	-3877
▁turning	-3878
lications	-3879
▁distance	-3880
▁finished	-3881
ss	-3882
▁Fl	-3883
▁NA	-3884
▁fu	-3885
reet	-3886
roud	-3887
▁Des	-3888
▁amb	-3889
▁ban	-3890
▁fol	-3891
▁odd	-3892
alley	-3893
based	-3894
▁Bill	-3895
▁Cong	-3896
▁shel	-3897
▁Franc	-3898
▁coast	-3899
▁coral	-3900
▁indic	-3901
▁leads	-3902
▁plane	-3903
▁shoot	-3904
▁incent	-3905
▁regular	-3906
▁influence	-3907
▁dimensions	-3908
aker	-3909
otic	-3910
▁Dan	-3911
▁Her	-3912
▁gun	-3913
▁sad	-3914
▁spl	-3915
▁unc	-3916
pping	-3917
umber	-3918
▁gang	-3919
▁puzz	-3920
▁tele	-3921
ording	-3922
▁faith	-3923
▁fully	-3924
▁lunch	-3925
▁stuck	-3926
▁talks	-3927
▁broken	-3928
▁letter	-3929
▁muscle	-3930
▁passed	-3931
▁journal	-3932
▁members	-3933
▁airplane	-3934
▁statistics	-3935
▁differently	-3936
▁responsible	-3937
▁1.	-3938
uild	-3939
uing	-3940
▁smo	-3941
ipped	-3942
night	-3943
▁empt	-3944
▁host	-3945
▁purs	-3946
▁rare	-3947
▁reco	-3948
▁reef	-3949
▁ship	-3950
▁stem	-3951
ipping	-3952
▁horse	-3953
▁offic	-3954
▁brings	-3955
▁master	-3956
▁oceans	-3957
▁wisdom	-3958
▁benefit	-3959
▁decades	-3960
▁streets	-3961
▁hopefully	-3962
▁philosoph	-3963
▁published	-3964
▁phenomenon	-3965
▁relationships	-3966
▁El	-3967
ises	-3968
▁bag	-3969
▁fab	-3970
▁fle	-3971
▁cand	-3972
▁gard	-3973
▁join	-3974
▁tour	-3975
owered	-3976
▁feels	-3977
▁grass	-3978
▁proud	-3979
▁tough	-3980
▁double	-3981
▁versus	-3982
ifically	-3983
ulations	-3984
▁artific	-3985
▁percept	-3986
▁resource	-3987
▁Sometimes	-3988
▁efficient	-3989
▁president	-3990
▁kilometers	-3991
cil	-3992
▁Ac	-3993
oman	-3994
oted	-3995
ties	-3996
vere	-3997
▁alt	-3998
▁inj	-3999
▁pet	-4000
place	-4001
▁harm	-4002
▁pray	-4003
▁roof	-4004
idents	-4005
▁grain	-4006
▁moves	-4007
▁skill	-4008
▁demand	-4009
▁infect	-4010
▁island	-4011
▁stupid	-4012
▁correct	-4013
▁destroy	-4014
▁shouldn	-4015
▁Audience	-4016
▁entirely	-4017
▁colleagues	-4018
▁differences	-4019
▁organizations	-4020
bel	-4021
imp	-4022
▁ax	-4023
anes	-4024
▁Did	-4025
idden	-4026
▁conc	-4027
▁drag	-4028
▁gall	-4029
▁note	-4030
▁opin	-4031
itable	-4032
▁Kenya	-4033
▁crash	-4034
▁destr	-4035
▁sugar	-4036
▁trial	-4037
connect	-4038
▁Anyway	-4039
▁advant	-4040
▁dreams	-4041
▁events	-4042
▁failed	-4043
▁grandm	-4044
▁movies	-4045
▁unlike	-4046
▁dynamic	-4047
▁foreign	-4048
▁highest	-4049
▁studied	-4050
▁perfectly	-4051
▁societies	-4052
hi	-4053
Yes	-4054
iam	-4055
▁ur	-4056
cale	-4057
cell	-4058
engu	-4059
exic	-4060
reed	-4061
▁Ara	-4062
▁Mil	-4063
▁Min	-4064
▁Res	-4065
▁bra	-4066
▁vul	-4067
craft	-4068
▁Mont	-4069
▁cred	-4070
▁male	-4071
▁wave	-4072
ensity	-4073
▁chick	-4074
▁lucky	-4075
▁novel	-4076
▁shall	-4077
▁subst	-4078
▁colors	-4079
▁dinner	-4080
▁fellow	-4081
▁mental	-4082
▁tissue	-4083
▁mothers	-4084
▁argument	-4085
▁planning	-4086
▁described	-4087
▁seriously	-4088
▁principles	-4089
▁experiences	-4090
▁fascinating	-4091
▁entrepreneurs	-4092
mar	-4093
ager	-4094
▁Con	-4095
▁tag	-4096
ength	-4097
▁Over	-4098
▁anti	-4099
▁bear	-4100
▁boat	-4101
ifying	-4102
▁fract	-4103
▁holes	-4104
▁infin	-4105
▁solid	-4106
artment	-4107
▁circle	-4108
▁deeply	-4109
▁physic	-4110
▁article	-4111
▁capable	-4112
▁managed	-4113
▁wearing	-4114
▁Japanese	-4115
▁emotions	-4116
▁mortality	-4117
▁surprising	-4118
1,	-4119
ugh	-4120
ume	-4121
oint	-4122
▁dry	-4123
▁sac	-4124
othes	-4125
▁foss	-4126
▁king	-4127
▁mouse	-4128
▁names	-4129
▁offer	-4130
▁party	-4131
▁river	-4132
oration	-4133
▁Muslim	-4134
▁attach	-4135
▁closed	-4136
▁commit	-4137
▁explan	-4138
▁extend	-4139
▁leader	-4140
▁museum	-4141
▁pounds	-4142
▁toward	-4143
▁British	-4144
▁acceler	-4145
▁malaria	-4146
▁molecule	-4147
▁separate	-4148
▁soldiers	-4149
▁agriculture	-4150
▁institution	-4151
▁unfortunately	-4152
If	-4153
ec	-4154
Don	-4155
vey	-4156
fish	-4157
uman	-4158
▁Ben	-4159
▁Sat	-4160
▁sla	-4161
ander	-4162
▁Each	-4163
▁edge	-4164
▁exch	-4165
▁mill	-4166
▁spin	-4167
isible	-4168
▁2,000	-4169
▁negot	-4170
▁advert	-4171
▁raised	-4172
▁vulner	-4173
▁generations	-4174
zil	-4175
airs	-4176
oses	-4177
▁Wik	-4178
▁mig	-4179
ooper	-4180
▁Does	-4181
▁peak	-4182
▁whom	-4183
acific	-4184
▁Mexic	-4185
▁Their	-4186
▁analy	-4187
▁chain	-4188
▁diagn	-4189
▁faces	-4190
▁inner	-4191
▁fields	-4192
▁motion	-4193
▁remote	-4194
▁counter	-4195
▁curious	-4196
▁typical	-4197
▁consumer	-4198
▁document	-4199
▁ordinary	-4200
▁previous	-4201
▁condition	-4202
▁languages	-4203
▁Everything	-4204
▁constantly	-4205
9,	-4206
my	-4207
now	-4208
oop	-4209
uls	-4210
▁Tr	-4211
▁iP	-4212
cend	-4213
cked	-4214
▁MIT	-4215
▁god	-4216
▁ten	-4217
▁tor	-4218
agers	-4219
essed	-4220
▁NASA	-4221
▁band	-4222
▁chim	-4223
▁exer	-4224
▁hate	-4225
▁init	-4226
▁libr	-4227
▁nest	-4228
▁plat	-4229
▁soil	-4230
lement	-4231
▁argue	-4232
▁frequ	-4233
▁truck	-4234
▁walls	-4235
▁Brazil	-4236
▁bottle	-4237
▁mobile	-4238
▁sister	-4239
▁100,000	-4240
▁justice	-4241
▁leaving	-4242
▁prototy	-4243
▁replace	-4244
▁accident	-4245
▁feelings	-4246
▁normally	-4247
▁discovery	-4248
▁entertain	-4249
▁otherwise	-4250
▁Co	-4251
▁Gu	-4252
athy	-4253
▁App	-4254
▁agg	-4255
▁lat	-4256
state	-4257
▁hadn	-4258
elling	-4259
▁claim	-4260
▁limit	-4261
▁pengu	-4262
▁shoes	-4263
▁sector	-4264
▁speech	-4265
▁thinks	-4266
▁Nigeria	-4267
▁ultimately	-4268
▁Afghanistan	-4269
do	-4270
ara	-4271
exp	-4272
▁35	-4273
▁Te	-4274
care	-4275
itan	-4276
▁Col	-4277
lease	-4278
▁Pres	-4279
ession	-4280
▁motor	-4281
▁rural	-4282
▁saved	-4283
issions	-4284
▁convin	-4285
▁corpor	-4286
▁fourth	-4287
▁phones	-4288
▁police	-4289
▁shapes	-4290
▁signal	-4291
▁precise	-4292
▁trained	-4293
▁Anderson	-4294
▁benefits	-4295
▁cultures	-4296
▁designer	-4297
▁necessary	-4298
▁artificial	-4299
▁restaurant	-4300
▁consumption	-4301
▁evolutionary	-4302
Hey	-4303
ago	-4304
That	-4305
eral	-4306
rael	-4307
▁poo	-4308
gency	-4309
▁Once	-4310
▁abst	-4311
▁bone	-4312
▁bran	-4313
▁cogn	-4314
▁diet	-4315
▁fell	-4316
▁repe	-4317
▁Islam	-4318
▁Times	-4319
▁categ	-4320
▁chann	-4321
▁giant	-4322
▁grown	-4323
▁quiet	-4324
▁scene	-4325
▁steps	-4326
▁female	-4327
▁nearly	-4328
▁paying	-4329
▁England	-4330
▁leading	-4331
▁survival	-4332
▁university	-4333
▁possibilities	-4334
ae	-4335
eer	-4336
▁'9	-4337
▁Je	-4338
rade	-4339
▁Bas	-4340
icing	-4341
itter	-4342
print	-4343
▁soul	-4344
▁teen	-4345
▁Child	-4346
▁Three	-4347
▁legal	-4348
▁veget	-4349
▁lesson	-4350
▁unless	-4351
▁arrived	-4352
▁conduct	-4353
▁dealing	-4354
▁drawing	-4355
▁failure	-4356
▁matters	-4357
▁succeed	-4358
▁traffic	-4359
▁launched	-4360
▁designing	-4361
▁marketing	-4362
▁newspaper	-4363
▁alternative	-4364
▁grandmother	-4365
2,	-4366
igm	-4367
van	-4368
▁Gl	-4369
▁Ne	-4370
roph	-4371
▁Cam	-4372
known	-4373
▁adop	-4374
▁hasn	-4375
▁spot	-4376
▁surf	-4377
acters	-4378
ctions	-4379
ipment	-4380
▁dinos	-4381
▁heads	-4382
▁stood	-4383
▁teles	-4384
▁circum	-4385
▁exists	-4386
▁factor	-4387
▁finish	-4388
▁laptop	-4389
▁picked	-4390
▁select	-4391
▁therap	-4392
▁Charles	-4393
▁Pacific	-4394
▁deliver	-4395
▁primary	-4396
▁theater	-4397
▁abstract	-4398
▁fighting	-4399
▁negative	-4400
▁invisible	-4401
▁characters	-4402
▁leadership	-4403
▁construction	-4404
au	-4405
gl	-4406
ino	-4407
irm	-4408
▁99	-4409
enty	-4410
iage	-4411
olly	-4412
race	-4413
▁Atl	-4414
▁cow	-4415
▁hun	-4416
▁rom	-4417
asion	-4418
ategy	-4419
orous	-4420
▁Have	-4421
▁arts	-4422
▁farm	-4423
▁loud	-4424
▁nerv	-4425
▁poem	-4426
▁vict	-4427
▁awful	-4428
▁empty	-4429
▁heavy	-4430
▁laugh	-4431
▁noise	-4432
▁round	-4433
▁spoke	-4434
akistan	-4435
▁Israel	-4436
▁adults	-4437
▁interp	-4438
▁leaves	-4439
▁opposite	-4440
▁childhood	-4441
▁equipment	-4442
▁mentioned	-4443
▁importantly	-4444
▁photographs	-4445
atr	-4446
nam	-4447
rum	-4448
▁Sm	-4449
cket	-4450
rict	-4451
wide	-4452
▁pal	-4453
▁pil	-4454
order	-4455
ratic	-4456
▁Swed	-4457
▁arms	-4458
▁auth	-4459
▁dial	-4460
▁diss	-4461
▁gift	-4462
▁ment	-4463
▁ride	-4464
▁vote	-4465
▁wine	-4466
ancing	-4467
minist	-4468
▁crime	-4469
▁lifet	-4470
▁relev	-4471
▁buying	-4472
▁desire	-4473
▁replic	-4474
▁winter	-4475
▁cameras	-4476
▁husband	-4477
▁weather	-4478
▁worried	-4479
▁Pakistan	-4480
▁compared	-4481
▁contract	-4482
▁creature	-4483
▁epidemic	-4484
▁everyday	-4485
▁strategy	-4486
▁advantage	-4487
▁intellectual	-4488
6,	-4489
ok	-4490
iev	-4491
top	-4492
▁Ant	-4493
▁nan	-4494
▁rhy	-4495
organ	-4496
▁biom	-4497
▁evol	-4498
▁held	-4499
▁reve	-4500
▁warm	-4501
▁weak	-4502
▁Wikip	-4503
▁Would	-4504
▁diver	-4505
▁folks	-4506
▁begins	-4507
▁medium	-4508
▁mirror	-4509
▁organs	-4510
▁regard	-4511
▁nervous	-4512
▁suppose	-4513
▁treated	-4514
▁identity	-4515
▁economics	-4516
mas	-4517
▁Mic	-4518
▁Pal	-4519
▁Rem	-4520
▁fed	-4521
▁und	-4522
estic	-4523
▁astr	-4524
▁puts	-4525
▁reci	-4526
▁recy	-4527
▁tick	-4528
▁avoid	-4529
▁equal	-4530
▁paint	-4531
▁serve	-4532
iration	-4533
▁damage	-4534
▁resist	-4535
▁gravity	-4536
▁invited	-4537
▁killing	-4538
▁limited	-4539
▁married	-4540
▁players	-4541
▁majority	-4542
▁platform	-4543
▁rational	-4544
▁surprise	-4545
▁Institute	-4546
▁currently	-4547
▁distribution	-4548
▁professional	-4549
4,	-4550
erg	-4551
lin	-4552
ota	-4553
cast	-4554
gets	-4555
iors	-4556
▁que	-4557
etics	-4558
iency	-4559
isher	-4560
▁Park	-4561
▁core	-4562
▁date	-4563
▁narr	-4564
▁snow	-4565
▁tank	-4566
▁vent	-4567
▁wear	-4568
itchen	-4569
▁beach	-4570
▁click	-4571
▁reven	-4572
▁budget	-4573
▁debate	-4574
▁cartoon	-4575
▁despite	-4576
▁install	-4577
▁engineer	-4578
▁operating	-4579
▁independent	-4580
can	-4581
▁Int	-4582
▁Sim	-4583
ograp	-4584
orith	-4585
scale	-4586
▁desk	-4587
▁lady	-4588
▁mile	-4589
▁nutr	-4590
▁qual	-4591
▁wond	-4592
▁accur	-4593
▁broke	-4594
▁manip	-4595
▁ought	-4596
▁steel	-4597
ulating	-4598
▁belong	-4599
▁caused	-4600
▁define	-4601
▁filled	-4602
chnology	-4603
▁Austral	-4604
▁appropr	-4605
▁centers	-4606
▁rapidly	-4607
▁strateg	-4608
▁weapons	-4609
▁algorith	-4610
▁property	-4611
▁Francisco	-4612
▁Wikipedia	-4613
▁cognitive	-4614
▁interests	-4615
▁pollution	-4616
▁processes	-4617
▁protection	-4618
▁represents	-4619
▁transformation	-4620
ij	-4621
ait	-4622
ham	-4623
▁DH	-4624
ideo	-4625
tail	-4626
0,000	-4627
▁Arab	-4628
▁King	-4629
▁bits	-4630
▁diam	-4631
▁enem	-4632
▁gras	-4633
▁wake	-4634
▁frust	-4635
▁ideal	-4636
▁sweet	-4637
ressive	-4638
ruption	-4639
▁assign	-4640
▁contem	-4641
▁spring	-4642
▁However	-4643
▁cooking	-4644
▁roughly	-4645
▁convince	-4646
▁emerging	-4647
▁chemistry	-4648
▁organized	-4649
▁producing	-4650
▁components	-4651
rs	-4652
iot	-4653
ola	-4654
ctic	-4655
life	-4656
vard	-4657
▁Haw	-4658
clear	-4659
ortex	-4660
▁Alex	-4661
▁Phil	-4662
▁evil	-4663
▁golf	-4664
▁scen	-4665
▁stim	-4666
ushing	-4667
▁5,000	-4668
▁clock	-4669
▁teeth	-4670
▁cooper	-4671
▁driven	-4672
▁forgot	-4673
▁gather	-4674
▁player	-4675
▁target	-4676
▁factory	-4677
▁fishing	-4678
▁keeping	-4679
▁quarter	-4680
▁reached	-4681
▁require	-4682
▁disaster	-4683
▁tomorrow	-4684
▁President	-4685
▁classroom	-4686
▁existence	-4687
▁interface	-4688
▁practical	-4689
▁satellite	-4690
▁importance	-4691
▁connections	-4692
▁presentation	-4693
▁specifically	-4694
2.	-4695
ox	-4696
ux	-4697
ael	-4698
lom	-4699
new	-4700
▁BF	-4701
Look	-4702
irty	-4703
ocol	-4704
over	-4705
▁Rob	-4706
▁fal	-4707
▁tow	-4708
lines	-4709
plant	-4710
▁Gulf	-4711
▁clip	-4712
▁ring	-4713
▁tons	-4714
▁colon	-4715
▁stone	-4716
▁surge	-4717
▁theme	-4718
▁toxic	-4719
igation	-4720
osition	-4721
▁Mexico	-4722
▁academ	-4723
▁height	-4724
▁inform	-4725
▁losing	-4726
▁reprod	-4727
▁status	-4728
▁Harvard	-4729
▁balloon	-4730
▁calling	-4731
▁devices	-4732
▁extract	-4733
▁advanced	-4734
▁analysis	-4735
▁pleasure	-4736
▁mountains	-4737
▁businesses	-4738
▁considered	-4739
▁definitely	-4740
▁psychology	-4741
▁interaction	-4742
uh	-4743
hes	-4744
nes	-4745
sum	-4746
▁Mo	-4747
acle	-4748
adow	-4749
umps	-4750
▁194	-4751
▁mak	-4752
▁spo	-4753
erves	-4754
iture	-4755
lying	-4756
▁dots	-4757
▁gene	-4758
▁joke	-4759
▁lens	-4760
▁soph	-4761
▁tall	-4762
▁Video	-4763
▁dedic	-4764
▁layer	-4765
▁prior	-4766
▁sport	-4767
▁genius	-4768
▁safety	-4769
▁dropped	-4770
▁harvest	-4771
▁insight	-4772
▁nations	-4773
▁options	-4774
▁selling	-4775
▁exercise	-4776
▁followed	-4777
▁according	-4778
▁chemicals	-4779
▁emissions	-4780
▁encourage	-4781
▁essential	-4782
▁invention	-4783
▁technical	-4784
▁discussion	-4785
▁foundation	-4786
▁combination	-4787
▁destruction	-4788
Do	-4789
que	-4790
tle	-4791
▁45	-4792
anta	-4793
bors	-4794
▁Eth	-4795
▁nar	-4796
▁rub	-4797
illed	-4798
point	-4799
sters	-4800
▁Bush	-4801
▁Gold	-4802
▁gest	-4803
▁liqu	-4804
▁pian	-4805
▁rout	-4806
▁goods	-4807
▁shell	-4808
▁stock	-4809
▁facing	-4810
▁fortun	-4811
▁harder	-4812
▁whales	-4813
▁compare	-4814
▁details	-4815
▁experts	-4816
▁kitchen	-4817
▁vehicle	-4818
▁administ	-4819
▁carrying	-4820
▁circumst	-4821
▁lifetime	-4822
▁prepared	-4823
▁swimming	-4824
.'	-4825
500	-4826
anz	-4827
▁Hy	-4828
gypt	-4829
keys	-4830
roll	-4831
▁Bar	-4832
▁Ber	-4833
▁Cop	-4834
▁Mal	-4835
▁row	-4836
gling	-4837
owers	-4838
ublic	-4839
▁Kore	-4840
▁nurs	-4841
▁resc	-4842
▁shut	-4843
▁wars	-4844
anging	-4845
itness	-4846
porary	-4847
▁honor	-4848
▁input	-4849
▁metal	-4850
▁sites	-4851
▁solved	-4852
▁transp	-4853
▁Michael	-4854
▁covered	-4855
▁cutting	-4856
▁depends	-4857
▁privile	-4858
▁setting	-4859
▁exchange	-4860
▁expected	-4861
▁location	-4862
▁multiple	-4863
▁sunlight	-4864
▁thoughts	-4865
▁naturally	-4866
▁electrical	-4867
▁introduced	-4868
3,	-4869
zed	-4870
aked	-4871
▁Rep	-4872
▁era	-4873
neath	-4874
▁Five	-4875
▁corn	-4876
▁fert	-4877
▁hits	-4878
▁lect	-4879
▁myst	-4880
▁remo	-4881
▁atoms	-4882
▁compl	-4883
▁signs	-4884
▁trend	-4885
▁compar	-4886
▁corres	-4887
▁ingred	-4888
▁length	-4889
▁micros	-4890
▁sexual	-4891
▁worlds	-4892
▁Britain	-4893
▁Twitter	-4894
▁battery	-4895
▁contain	-4896
▁letters	-4897
▁occurred	-4898
▁reaction	-4899
▁ancestors	-4900
▁carefully	-4901
▁molecular	-4902
▁neighbors	-4903
▁universal	-4904
▁associated	-4905
▁instrument	-4906
▁underneath	-4907
▁explanation	-4908
▁consequences	-4909
▁environments	-4910
bl	-4911
ato	-4912
iop	-4913
▁ir	-4914
abet	-4915
amin	-4916
▁Tom	-4917
▁hem	-4918
▁tal	-4919
icago	-4920
oting	-4921
romos	-4922
▁Bank	-4923
▁Come	-4924
▁Iran	-4925
▁atom	-4926
▁furn	-4927
▁intr	-4928
▁Egypt	-4929
▁liked	-4930
▁rates	-4931
▁upper	-4932
▁battle	-4933
▁deeper	-4934
▁formed	-4935
▁fossil	-4936
▁videos	-4937
▁Chicago	-4938
▁opening	-4939
▁opinion	-4940
▁singing	-4941
▁sources	-4942
▁variety	-4943
▁European	-4944
▁spectrum	-4945
▁employees	-4946
▁generally	-4947
▁interpret	-4948
▁introduce	-4949
▁spiritual	-4950
▁personally	-4951
▁relatively	-4952
1.	-4953
oly	-4954
▁py	-4955
Tube	-4956
east	-4957
elly	-4958
icip	-4959
ingu	-4960
▁201	-4961
▁600	-4962
▁Law	-4963
▁Nat	-4964
▁bul	-4965
▁scr	-4966
▁vag	-4967
being	-4968
child	-4969
gment	-4970
uries	-4971
▁Also	-4972
▁Last	-4973
▁dogs	-4974
▁pump	-4975
▁pure	-4976
▁suit	-4977
▁tape	-4978
▁valu	-4979
ablish	-4980
▁Bible	-4981
▁James	-4982
▁depth	-4983
▁rhyth	-4984
▁split	-4985
▁Canada	-4986
▁Center	-4987
▁forced	-4988
▁marine	-4989
▁prices	-4990
▁YouTube	-4991
▁fingers	-4992
▁partner	-4993
▁radical	-4994
▁signals	-4995
▁equation	-4996
▁sentence	-4997
▁symmetry	-4998
▁radiation	-4999
▁sophistic	-5000
▁wondering	-5001
▁experienced	-5002
5.	-5003
gn	-5004
foot	-5005
roso	-5006
xide	-5007
▁Che	-5008
▁irr	-5009
▁lic	-5010
▁mel	-5011
▁Budd	-5012
▁Four	-5013
▁poly	-5014
astern	-5015
ension	-5016
ortion	-5017
▁curve	-5018
▁daily	-5019
▁hyper	-5020
▁minim	-5021
▁occup	-5022
▁orbit	-5023
▁risks	-5024
▁tumor	-5025
▁School	-5026
▁hidden	-5027
▁houses	-5028
▁prefer	-5029
▁victim	-5030
▁chromos	-5031
▁evening	-5032
▁station	-5033
▁identify	-5034
▁ultimate	-5035
▁protected	-5036
▁convention	-5037
▁efficiency	-5038
▁effectively	-5039
▁politicians	-5040
60	-5041
esh	-5042
hab	-5043
lph	-5044
ula	-5045
ums	-5046
▁Em	-5047
cipl	-5048
odes	-5049
what	-5050
whel	-5051
▁Lar	-5052
▁Tur	-5053
▁dip	-5054
allel	-5055
▁kick	-5056
▁pair	-5057
▁sees	-5058
▁sulf	-5059
forest	-5060
▁chart	-5061
▁dolph	-5062
▁falls	-5063
▁taste	-5064
▁thick	-5065
▁whale	-5066
▁wheel	-5067
▁Ethiop	-5068
▁George	-5069
▁Valley	-5070
▁explos	-5071
▁geomet	-5072
▁hoping	-5073
▁illust	-5074
▁papers	-5075
▁reform	-5076
▁string	-5077
▁diction	-5078
▁intense	-5079
▁monkeys	-5080
▁promise	-5081
▁synthes	-5082
▁paradigm	-5083
▁computing	-5084
▁convinced	-5085
▁establish	-5086
▁surprised	-5087
▁simplicity	-5088
▁transition	-5089
▁transplant	-5090
▁technological	-5091
AR	-5092
asm	-5093
car	-5094
fit	-5095
har	-5096
▁CE	-5097
▁Gh	-5098
frie	-5099
gent	-5100
olic	-5101
semb	-5102
▁Dep	-5103
▁Mon	-5104
▁hyp	-5105
andem	-5106
aters	-5107
▁Thom	-5108
▁ends	-5109
▁flex	-5110
▁hurt	-5111
▁inev	-5112
arrass	-5113
ounced	-5114
ternal	-5115
▁Frank	-5116
▁Mount	-5117
▁Steve	-5118
▁aging	-5119
▁antib	-5120
▁cards	-5121
▁dress	-5122
▁films	-5123
▁initi	-5124
itarian	-5125
unclear	-5126
▁Nobody	-5127
▁Street	-5128
▁analog	-5129
▁former	-5130
▁linked	-5131
▁liquid	-5132
▁Africans	-5133
▁collapse	-5134
▁dramatic	-5135
▁overwhel	-5136
▁requires	-5137
▁Something	-5138
▁traveling	-5139
▁management	-5140
▁situations	-5141
▁increasingly	-5142
▁mathematical	-5143
8.	-5144
ams	-5145
osh	-5146
rog	-5147
spe	-5148
xim	-5149
▁Rw	-5150
bble	-5151
ifth	-5152
oons	-5153
zing	-5154
▁adj	-5155
▁ate	-5156
▁dio	-5157
▁2000	-5158
▁flew	-5159
▁lawy	-5160
▁lift	-5161
▁rein	-5162
orders	-5163
rosoft	-5164
▁Inter	-5165
▁cents	-5166
▁homes	-5167
▁keeps	-5168
▁pyram	-5169
▁seats	-5170
▁church	-5171
▁clever	-5172
▁garden	-5173
▁season	-5174
▁studio	-5175
ollywood	-5176
▁applied	-5177
▁burning	-5178
▁falling	-5179
▁however	-5180
▁reverse	-5181
▁watched	-5182
▁feedback	-5183
▁generate	-5184
▁valuable	-5185
▁Microsoft	-5186
▁disappear	-5187
▁embarrass	-5188
▁meaningful	-5189
▁productive	-5190
▁entertainment	-5191
30	-5192
Os	-5193
orb	-5194
pox	-5195
rat	-5196
▁KB	-5197
▁ru	-5198
tech	-5199
▁Vir	-5200
▁pip	-5201
▁van	-5202
chest	-5203
eline	-5204
igate	-5205
▁Gore	-5206
▁bees	-5207
▁busy	-5208
▁hunt	-5209
▁nose	-5210
▁runs	-5211
▁added	-5212
▁eleph	-5213
▁false	-5214
▁fewer	-5215
▁grade	-5216
▁grant	-5217
▁ridic	-5218
▁staff	-5219
▁boring	-5220
▁commod	-5221
▁poetry	-5222
ographer	-5223
▁breathe	-5224
▁consist	-5225
▁engaged	-5226
▁protein	-5227
▁vaccine	-5228
▁apparent	-5229
▁graduate	-5230
▁particle	-5231
▁relevant	-5232
▁wireless	-5233
▁behaviors	-5234
▁continued	-5235
▁perception	-5236
itz	-5237
lly	-5238
log	-5239
▁Ah	-5240
▁Fe	-5241
▁Ug	-5242
down	-5243
omin	-5244
road	-5245
uses	-5246
well	-5247
▁bee	-5248
▁due	-5249
▁tab	-5250
gence	-5251
ounce	-5252
retch	-5253
rooms	-5254
▁Stan	-5255
▁ethn	-5256
▁hung	-5257
▁item	-5258
▁neut	-5259
▁zoom	-5260
▁3,000	-5261
▁admit	-5262
▁breed	-5263
▁dense	-5264
▁recon	-5265
▁acting	-5266
▁pandem	-5267
▁pulled	-5268
▁Germany	-5269
▁capture	-5270
▁dioxide	-5271
▁encoura	-5272
▁origami	-5273
▁marriage	-5274
▁measured	-5275
▁struggle	-5276
▁trillion	-5277
▁Australia	-5278
▁explained	-5279
▁professor	-5280
▁typically	-5281
▁appreciate	-5282
▁mathematic	-5283
▁exploration	-5284
▁automatically	-5285
20	-5286
3.	-5287
ls	-5288
ym	-5289
▁'8	-5290
▁2.	-5291
▁II	-5292
aled	-5293
atin	-5294
▁lin	-5295
▁Gree	-5296
▁Mart	-5297
▁cast	-5298
▁eggs	-5299
▁icon	-5300
▁maps	-5301
isters	-5302
▁Union	-5303
▁pregn	-5304
▁refer	-5305
▁satis	-5306
▁users	-5307
▁waves	-5308
entally	-5309
ptember	-5310
ription	-5311
▁France	-5312
▁Number	-5313
▁Russia	-5314
▁blocks	-5315
▁credit	-5316
▁myster	-5317
▁review	-5318
▁thanks	-5319
▁decline	-5320
▁lessons	-5321
▁astronom	-5322
▁floating	-5323
▁romantic	-5324
▁whenever	-5325
▁reference	-5326
▁selection	-5327
▁conclusion	-5328
▁healthcare	-5329
▁properties	-5330
▁entrepreneur	-5331
▁circumstances	-5332
My	-5333
ta	-5334
oca	-5335
uff	-5336
aint	-5337
aurs	-5338
hold	-5339
▁Jew	-5340
▁Los	-5341
alled	-5342
ework	-5343
force	-5344
iques	-5345
ucing	-5346
uting	-5347
▁Ange	-5348
▁bicy	-5349
▁club	-5350
▁ears	-5351
▁hook	-5352
▁isol	-5353
▁milk	-5354
▁nets	-5355
▁thin	-5356
▁vert	-5357
▁Found	-5358
▁Gener	-5359
▁Obama	-5360
▁Woman	-5361
▁frank	-5362
▁liver	-5363
▁memor	-5364
▁Sweden	-5365
▁Thomas	-5366
▁stress	-5367
etically	-5368
lication	-5369
▁accompl	-5370
▁chimpan	-5371
▁library	-5372
▁sending	-5373
▁vessels	-5374
▁viruses	-5375
▁visible	-5376
▁infected	-5377
▁organism	-5378
▁received	-5379
ologically	-5380
▁September	-5381
▁authority	-5382
▁breathing	-5383
▁consumers	-5384
▁framework	-5385
▁sensitive	-5386
▁expression	-5387
▁underwater	-5388
▁challenging	-5389
▁fundamentally	-5390
RI	-5391
bre	-5392
lymp	-5393
▁Yet	-5394
▁bio	-5395
▁nav	-5396
▁rat	-5397
▁sen	-5398
▁Amaz	-5399
▁Face	-5400
▁bull	-5401
▁chap	-5402
▁cosm	-5403
▁diag	-5404
▁elev	-5405
▁hide	-5406
▁plug	-5407
▁sets	-5408
▁tent	-5409
▁trig	-5410
▁tube	-5411
▁Olymp	-5412
▁hotel	-5413
▁pitch	-5414
▁polic	-5415
▁recom	-5416
▁tests	-5417
anthrop	-5418
arrator	-5419
▁fright	-5420
▁inject	-5421
▁joined	-5422
▁lifest	-5423
▁monkey	-5424
▁senses	-5425
▁slides	-5426
aneously	-5427
▁Project	-5428
▁figures	-5429
▁poorest	-5430
▁quantum	-5431
▁regions	-5432
▁remains	-5433
▁witness	-5434
▁affected	-5435
▁concepts	-5436
▁election	-5437
▁existing	-5438
▁presence	-5439
▁Christmas	-5440
▁celebrate	-5441
▁worldwide	-5442
▁corruption	-5443
▁incentives	-5444
▁innovative	-5445
▁instruments	-5446
cel	-5447
der	-5448
tes	-5449
mber	-5450
uros	-5451
▁Mac	-5452
▁cha	-5453
▁pin	-5454
iance	-5455
iogen	-5456
▁decl	-5457
▁dign	-5458
▁gain	-5459
▁plus	-5460
▁pros	-5461
▁zone	-5462
believ	-5463
herent	-5464
rating	-5465
▁About	-5466
▁Antar	-5467
▁Haiti	-5468
▁Since	-5469
▁doubt	-5470
▁drill	-5471
▁estim	-5472
▁expon	-5473
▁logic	-5474
▁piano	-5475
▁polar	-5476
▁prize	-5477
▁toile	-5478
▁Before	-5479
▁Uganda	-5480
▁divide	-5481
▁member	-5482
▁poison	-5483
▁puzzle	-5484
▁sample	-5485
▁severe	-5486
▁traged	-5487
▁volume	-5488
inations	-5489
▁Finally	-5490
▁Science	-5491
▁amounts	-5492
▁closely	-5493
▁collaps	-5494
▁designs	-5495
▁extinct	-5496
▁parking	-5497
▁release	-5498
▁Narrator	-5499
▁dynamics	-5500
▁features	-5501
▁infinite	-5502
▁internal	-5503
▁messages	-5504
▁penguins	-5505
▁smallpox	-5506
▁Basically	-5507
▁dinosaurs	-5508
▁footprint	-5509
▁architects	-5510
▁depression	-5511
▁literature	-5512
▁philosophy	-5513
▁vulnerable	-5514
▁appropriate	-5515
▁manufacturing	-5516
▁sophisticated	-5517
▁sustainability	-5518
In	-5519
ao	-5520
la	-5521
But	-5522
emb	-5523
obs	-5524
asks	-5525
▁10,	-5526
▁Get	-5527
▁Ice	-5528
▁beg	-5529
▁fan	-5530
▁pun	-5531
▁tri	-5532
erved	-5533
iters	-5534
▁Jeff	-5535
▁Pole	-5536
▁grab	-5537
▁limb	-5538
▁root	-5539
▁user	-5540
▁Could	-5541
▁Other	-5542
▁Paris	-5543
▁Women	-5544
▁prove	-5545
▁roads	-5546
▁sides	-5547
▁toler	-5548
ternoon	-5549
▁Please	-5550
▁critic	-5551
▁deaths	-5552
▁command	-5553
▁factors	-5554
▁frankly	-5555
▁include	-5556
▁regener	-5557
▁mistakes	-5558
▁furniture	-5559
▁activities	-5560
▁afterwards	-5561
▁exhibition	-5562
▁passionate	-5563
▁profession	-5564
alt	-5565
bes	-5566
bur	-5567
fin	-5568
▁Ke	-5569
▁La	-5570
▁Ox	-5571
Yeah	-5572
adic	-5573
aser	-5574
cons	-5575
doll	-5576
gers	-5577
iled	-5578
rase	-5579
wich	-5580
▁Art	-5581
▁Del	-5582
▁Hom	-5583
▁Jul	-5584
▁Unf	-5585
▁bes	-5586
▁bow	-5587
▁gig	-5588
▁lie	-5589
▁mos	-5590
obile	-5591
usual	-5592
▁Coll	-5593
▁Comm	-5594
▁bill	-5595
▁neat	-5596
▁prem	-5597
apping	-5598
ietnam	-5599
stream	-5600
▁colum	-5601
▁datab	-5602
▁error	-5603
▁neuro	-5604
▁sales	-5605
▁sight	-5606
▁smile	-5607
▁stunt	-5608
▁whist	-5609
astroph	-5610
inction	-5611
▁Virgin	-5612
▁advice	-5613
▁assist	-5614
▁drives	-5615
▁perman	-5616
▁pollen	-5617
▁refuge	-5618
▁relate	-5619
▁remain	-5620
▁volcan	-5621
▁feeding	-5622
▁solving	-5623
▁testing	-5624
▁younger	-5625
▁distinct	-5626
▁parallel	-5627
▁required	-5628
▁somewhat	-5629
▁afternoon	-5630
▁awareness	-5631
▁functions	-5632
▁movements	-5633
▁telephone	-5634
▁Foundation	-5635
▁processing	-5636
▁comfortable	-5637
ala	-5638
ata	-5639
han	-5640
ses	-5641
cean	-5642
eers	-5643
ello	-5644
half	-5645
▁Cap	-5646
▁gar	-5647
▁toy	-5648
eness	-5649
iform	-5650
▁flag	-5651
▁grid	-5652
▁lies	-5653
making	-5654
▁accum	-5655
▁aston	-5656
▁conce	-5657
▁exped	-5658
▁facts	-5659
▁insur	-5660
▁knock	-5661
▁notes	-5662
▁perce	-5663
▁phant	-5664
▁renew	-5665
▁sympt	-5666
▁conver	-5667
▁extent	-5668
▁handle	-5669
▁lovely	-5670
▁rocket	-5671
▁sharks	-5672
▁smooth	-5673
▁Eastern	-5674
▁authent	-5675
▁autonom	-5676
▁clothes	-5677
▁largely	-5678
▁mistake	-5679
▁pyramid	-5680
▁unknown	-5681
▁unusual	-5682
▁birthday	-5683
▁official	-5684
▁properly	-5685
▁released	-5686
▁unbeliev	-5687
▁glamorous	-5688
▁increased	-5689
▁recommend	-5690
▁standards	-5691
▁connecting	-5692
▁economists	-5693
▁probability	-5694
▁Unfortunately	-5695
DP	-5696
bi	-5697
aws	-5698
iat	-5699
▁NG	-5700
▁RB	-5701
hour	-5702
otes	-5703
tery	-5704
zero	-5705
▁Boy	-5706
▁asp	-5707
▁hip	-5708
▁raw	-5709
archy	-5710
▁Jack	-5711
▁acqu	-5712
▁bare	-5713
▁brib	-5714
▁mush	-5715
▁pill	-5716
▁till	-5717
▁vacu	-5718
dollar	-5719
friend	-5720
▁Apple	-5721
▁bones	-5722
▁clust	-5723
▁dirty	-5724
▁hemis	-5725
▁links	-5726
▁plans	-5727
▁realm	-5728
▁resil	-5729
▁seeds	-5730
▁smoke	-5731
▁songs	-5732
▁stere	-5733
▁Robert	-5734
▁Rwanda	-5735
▁colony	-5736
▁deploy	-5737
▁filter	-5738
▁heroes	-5739
▁improv	-5740
▁limits	-5741
▁scared	-5742
▁trends	-5743
▁voices	-5744
▁Vietnam	-5745
▁advance	-5746
▁appears	-5747
▁circuit	-5748
▁comment	-5749
▁dancing	-5750
▁density	-5751
▁funding	-5752
▁opposed	-5753
▁Ethiopia	-5754
▁Everyone	-5755
▁estimate	-5756
▁occasion	-5757
▁stronger	-5758
▁wherever	-5759
▁implement	-5760
▁presented	-5761
▁virtually	-5762
▁catastroph	-5763
▁greenhouse	-5764
▁advertising	-5765
▁disappeared	-5766
▁inspiration	-5767
▁conservation	-5768
▁implications	-5769
▁architectural	-5770
opy	-5771
uts	-5772
▁AB	-5773
appy	-5774
erer	-5775
oran	-5776
rete	-5777
ront	-5778
umin	-5779
▁Air	-5780
▁Bon	-5781
▁Pol	-5782
▁adm	-5783
▁ens	-5784
▁gap	-5785
▁hol	-5786
itors	-5787
nding	-5788
raham	-5789
stand	-5790
▁Cons	-5791
▁Girl	-5792
▁biod	-5793
▁loop	-5794
▁mere	-5795
▁vibr	-5796
▁White	-5797
▁angle	-5798
▁genoc	-5799
▁rocks	-5800
▁skull	-5801
▁title	-5802
through	-5803
▁astero	-5804
▁diplom	-5805
▁encoun	-5806
▁fisher	-5807
▁frozen	-5808
▁interf	-5809
▁tribes	-5810
▁circles	-5811
▁forests	-5812
▁outcome	-5813
▁brothers	-5814
▁combined	-5815
▁meetings	-5816
▁pandemic	-5817
▁recorded	-5818
▁animation	-5819
▁dimension	-5820
▁mechanism	-5821
▁operation	-5822
▁confidence	-5823
▁techniques	-5824
▁interactive	-5825
▁participate	-5826
▁psychological	-5827
OK	-5828
dr	-5829
ek	-5830
arp	-5831
nda	-5832
ups	-5833
ifer	-5834
lies	-5835
osal	-5836
▁Dem	-5837
▁Eve	-5838
▁Pre	-5839
▁bom	-5840
▁rig	-5841
▁tea	-5842
enced	-5843
▁1960	-5844
▁Stud	-5845
▁emph	-5846
▁lets	-5847
▁pile	-5848
▁pupp	-5849
iosity	-5850
▁Titan	-5851
▁bucks	-5852
▁coord	-5853
▁decre	-5854
▁explo	-5855
▁flash	-5856
▁recyc	-5857
▁scary	-5858
▁style	-5859
▁unexp	-5860
▁upset	-5861
▁vital	-5862
▁Oxford	-5863
▁Saturn	-5864
▁advent	-5865
▁agreed	-5866
▁assume	-5867
▁embedd	-5868
▁linear	-5869
▁narrow	-5870
▁profit	-5871
▁stayed	-5872
▁storyt	-5873
▁triang	-5874
▁chicken	-5875
▁convert	-5876
▁empathy	-5877
▁nowhere	-5878
▁phantom	-5879
▁records	-5880
▁tonight	-5881
abilities	-5882
▁confront	-5883
▁director	-5884
▁horrible	-5885
▁shoulder	-5886
▁transfer	-5887
▁Hollywood	-5888
▁depending	-5889
▁exploring	-5890
▁increases	-5891
▁measuring	-5892
▁sculpture	-5893
▁unexpected	-5894
4.	-5895
za	-5896
aci	-5897
cal	-5898
ras	-5899
war	-5900
berg	-5901
etch	-5902
uits	-5903
▁195	-5904
▁Day	-5905
▁Dis	-5906
▁GDP	-5907
▁Jes	-5908
▁Moo	-5909
▁aes	-5910
▁san	-5911
▁uns	-5912
earch	-5913
ifest	-5914
while	-5915
▁Part	-5916
▁Step	-5917
▁army	-5918
▁axis	-5919
▁bike	-5920
▁boom	-5921
▁caps	-5922
▁cock	-5923
▁fake	-5924
▁pour	-5925
encies	-5926
▁House	-5927
▁Space	-5928
▁guide	-5929
▁stack	-5930
▁tries	-5931
▁uncom	-5932
▁Nature	-5933
▁button	-5934
▁latest	-5935
▁output	-5936
▁proced	-5937
▁reject	-5938
▁spoken	-5939
▁vacuum	-5940
▁writer	-5941
▁Nothing	-5942
▁Redwood	-5943
▁channel	-5944
▁classic	-5945
▁clients	-5946
▁defined	-5947
▁dignity	-5948
▁herself	-5949
▁housing	-5950
▁orchest	-5951
▁Remember	-5952
▁Republic	-5953
▁speakers	-5954
▁telescope	-5955
▁uncertain	-5956
▁apparently	-5957
▁directions	-5958
9.	-5959
ua	-5960
ita	-5961
val	-5962
▁32	-5963
▁IM	-5964
grad	-5965
izon	-5966
look	-5967
mble	-5968
ogue	-5969
osis	-5970
quar	-5971
ubes	-5972
uous	-5973
▁der	-5974
▁dot	-5975
▁eld	-5976
▁mir	-5977
▁wip	-5978
esity	-5979
third	-5980
tical	-5981
▁cere	-5982
▁cott	-5983
▁dive	-5984
▁mall	-5985
▁nurt	-5986
▁ours	-5987
▁tuna	-5988
othing	-5989
▁Korea	-5990
▁State	-5991
▁boxes	-5992
▁flour	-5993
▁phase	-5994
▁plate	-5995
▁purch	-5996
▁topic	-5997
▁Howard	-5998
▁Island	-5999
▁bubble	-6000
▁driver	-6001
▁nurses	-6002
▁portra	-6003
▁rising	-6004
▁shadow	-6005
▁combine	-6006
▁conserv	-6007
▁consume	-6008
▁discipl	-6009
▁divided	-6010
▁flowers	-6011
▁operate	-6012
▁passing	-6013
▁slavery	-6014
▁domestic	-6015
▁embedded	-6016
▁magnetic	-6017
▁organize	-6018
▁backwards	-6019
▁corporate	-6020
▁surrounded	-6021
▁observation	-6022
mm	-6023
100	-6024
ari	-6025
bul	-6026
gly	-6027
hen	-6028
▁Op	-6029
aret	-6030
erry	-6031
esis	-6032
iens	-6033
ille	-6034
keep	-6035
nded	-6036
pass	-6037
ulse	-6038
▁'60	-6039
▁Jan	-6040
▁Mad	-6041
▁ben	-6042
▁cru	-6043
▁mad	-6044
▁wel	-6045
abled	-6046
cking	-6047
class	-6048
icide	-6049
itual	-6050
using	-6051
▁beer	-6052
▁cave	-6053
▁firm	-6054
▁pace	-6055
called	-6056
father	-6057
ifting	-6058
imeter	-6059
orking	-6060
▁Grand	-6061
▁Human	-6062
▁Johns	-6063
▁Never	-6064
▁River	-6065
▁Third	-6066
▁dozen	-6067
▁fluid	-6068
▁grows	-6069
▁walks	-6070
angible	-6071
▁Really	-6072
▁correl	-6073
▁fabric	-6074
▁halluc	-6075
▁hearts	-6076
▁remove	-6077
▁repair	-6078
▁stands	-6079
▁carried	-6080
▁concert	-6081
▁embrace	-6082
▁empower	-6083
▁equally	-6084
▁inspire	-6085
▁offered	-6086
▁rebuild	-6087
▁removed	-6088
▁stretch	-6089
▁wanting	-6090
connected	-6091
▁lighting	-6092
▁proteins	-6093
▁sandwich	-6094
▁subjects	-6095
▁surfaces	-6096
▁vehicles	-6097
▁wondered	-6098
▁component	-6099
▁dedicated	-6100
▁economies	-6101
▁spreading	-6102
▁technique	-6103
▁electronic	-6104
▁hemisphere	-6105
▁percentage	-6106
▁educational	-6107
▁populations	-6108
▁agricultural	-6109
Is	-6110
yr	-6111
Let	-6112
asy	-6113
ban	-6114
ena	-6115
son	-6116
usi	-6117
▁26	-6118
▁SW	-6119
Okay	-6120
fall	-6121
illy	-6122
ints	-6123
onym	-6124
osen	-6125
ropy	-6126
west	-6127
▁Ser	-6128
▁Sil	-6129
▁Sov	-6130
▁Ten	-6131
▁Wal	-6132
▁hey	-6133
▁meg	-6134
▁ped	-6135
acles	-6136
itory	-6137
under	-6138
▁Only	-6139
▁Port	-6140
▁cash	-6141
▁stro	-6142
▁unit	-6143
ptions	-6144
▁Latin	-6145
▁While	-6146
▁alien	-6147
▁angry	-6148
▁blogs	-6149
▁cliff	-6150
▁craft	-6151
▁enemy	-6152
▁globe	-6153
▁goals	-6154
▁rooms	-6155
ocolate	-6156
uration	-6157
▁adjust	-6158
▁clinic	-6159
▁cortex	-6160
▁desper	-6161
▁emerge	-6162
▁facial	-6163
▁heaven	-6164
▁negoti	-6165
▁oldest	-6166
▁owners	-6167
▁shrimp	-6168
▁stages	-6169
▁Angeles	-6170
▁briefly	-6171
▁causing	-6172
▁disturb	-6173
▁existed	-6174
▁habitat	-6175
▁musical	-6176
▁obesity	-6177
▁session	-6178
▁tragedy	-6179
▁contrast	-6180
▁darkness	-6181
▁drinking	-6182
▁imagined	-6183
▁maintain	-6184
▁manifest	-6185
▁treating	-6186
▁vertical	-6187
▁villages	-6188
▁inspiring	-6189
▁providing	-6190
▁controlled	-6191
▁engagement	-6192
▁laboratory	-6193
▁physically	-6194
▁distributed	-6195
▁partnership	-6196
▁philanthrop	-6197
▁recognition	-6198
▁productivity	-6199
▁compassionate	-6200
St	-6201
aby	-6202
ati	-6203
box	-6204
nov	-6205
oir	-6206
anny	-6207
eart	-6208
fram	-6209
onna	-6210
▁Jim	-6211
▁Med	-6212
▁Ray	-6213
▁Sea	-6214
▁hur	-6215
▁obl	-6216
▁spr	-6217
▁tap	-6218
arant	-6219
iment	-6220
ingly	-6221
ogram	-6222
think	-6223
usive	-6224
▁acid	-6225
▁east	-6226
▁exec	-6227
▁jail	-6228
▁murd	-6229
▁obst	-6230
▁rice	-6231
abetes	-6232
profit	-6233
▁Black	-6234
▁Brown	-6235
▁Italy	-6236
▁Jesus	-6237
▁drove	-6238
▁gradu	-6239
▁label	-6240
▁maxim	-6241
▁metab	-6242
▁roots	-6243
▁yield	-6244
▁20,000	-6245
▁agenda	-6246
▁conven	-6247
▁gender	-6248
▁legacy	-6249
▁orange	-6250
▁placed	-6251
▁scales	-6252
▁shaped	-6253
▁distant	-6254
▁pushing	-6255
▁touched	-6256
▁Facebook	-6257
▁achieved	-6258
▁allowing	-6259
▁appeared	-6260
▁graphics	-6261
▁illusion	-6262
▁instinct	-6263
▁obsessed	-6264
▁tracking	-6265
▁announced	-6266
▁identical	-6267
▁lifestyle	-6268
▁synthetic	-6269
▁commitment	-6270
▁controvers	-6271
▁governance	-6272
▁researchers	-6273
And	-6274
rol	-6275
uba	-6276
▁23	-6277
▁65	-6278
▁Bu	-6279
▁US	-6280
▁ju	-6281
agon	-6282
ahar	-6283
apor	-6284
cont	-6285
hatt	-6286
iday	-6287
oned	-6288
rary	-6289
utch	-6290
walk	-6291
▁Sud	-6292
▁aim	-6293
There	-6294
ctica	-6295
ended	-6296
esign	-6297
icted	-6298
inger	-6299
itals	-6300
level	-6301
ribly	-6302
▁Coke	-6303
▁Hill	-6304
▁Mark	-6305
▁Time	-6306
▁bubb	-6307
▁butt	-6308
▁chip	-6309
▁eleg	-6310
▁enth	-6311
▁fulf	-6312
▁leap	-6313
▁susp	-6314
▁ugly	-6315
hattan	-6316
mental	-6317
usions	-6318
▁abund	-6319
▁chief	-6320
▁crick	-6321
▁multi	-6322
▁paras	-6323
▁pharm	-6324
▁units	-6325
▁wound	-6326
▁Arctic	-6327
▁Design	-6328
▁arrest	-6329
▁behave	-6330
▁branch	-6331
▁escape	-6332
▁inches	-6333
▁landed	-6334
▁layers	-6335
▁neuron	-6336
▁neuros	-6337
▁phrase	-6338
▁ritual	-6339
▁scream	-6340
▁anticip	-6341
▁aspects	-6342
▁bicycle	-6343
▁earthqu	-6344
▁entropy	-6345
▁glamour	-6346
▁hanging	-6347
▁initial	-6348
▁neither	-6349
▁painful	-6350
▁raising	-6351
▁suspect	-6352
▁therapy	-6353
▁Atlantic	-6354
▁climbing	-6355
▁constant	-6356
▁facility	-6357
▁genocide	-6358
▁geometry	-6359
▁involves	-6360
▁northern	-6361
▁provided	-6362
▁Manhattan	-6363
▁determine	-6364
▁elsewhere	-6365
▁gentlemen	-6366
▁reduction	-6367
▁terrorism	-6368
▁transcend	-6369
▁Antarctica	-6370
▁assumption	-6371
▁boundaries	-6372
▁recognized	-6373
▁simulation	-6374
▁consequence	-6375
▁personality	-6376
▁transportation	-6377
6.	-6378
agh	-6379
low	-6380
nel	-6381
▁Ma	-6382
agos	-6383
arre	-6384
erey	-6385
hone	-6386
ulum	-6387
▁Gen	-6388
▁Hey	-6389
▁Leg	-6390
▁Mor	-6391
▁bon	-6392
▁cas	-6393
▁enh	-6394
▁gut	-6395
▁ham	-6396
▁ooh	-6397
▁sed	-6398
amine	-6399
ensus	-6400
oston	-6401
owing	-6402
▁Long	-6403
▁Next	-6404
▁bath	-6405
▁dear	-6406
▁dust	-6407
▁fool	-6408
▁fung	-6409
▁hire	-6410
▁pink	-6411
▁pool	-6412
▁rent	-6413
▁scar	-6414
▁subs	-6415
▁toss	-6416
▁wash	-6417
Americ	-6418
acular	-6419
athers	-6420
▁Cambr	-6421
▁Ghana	-6422
▁Moore	-6423
▁chose	-6424
▁crops	-6425
▁jelly	-6426
▁persu	-6427
▁tears	-6428
▁wired	-6429
▁Boston	-6430
▁attrib	-6431
▁crying	-6432
▁emphas	-6433
▁immune	-6434
▁mainly	-6435
▁pocket	-6436
▁signed	-6437
▁thrown	-6438
▁classes	-6439
▁diagram	-6440
▁entered	-6441
▁hitting	-6442
▁immense	-6443
▁overall	-6444
▁picking	-6445
▁violent	-6446
▁windows	-6447
▁Monterey	-6448
▁Northern	-6449
▁Stanford	-6450
▁accurate	-6451
▁clinical	-6452
▁contains	-6453
▁download	-6454
▁provides	-6455
▁sleeping	-6456
▁chocolate	-6457
▁emergency	-6458
▁encounter	-6459
▁intuitive	-6460
▁narrative	-6461
▁prototype	-6462
▁statement	-6463
▁algorithms	-6464
▁capability	-6465
▁dictionary	-6466
▁integrated	-6467
▁strategies	-6468
▁photography	-6469
▁transformed	-6470
▁applications	-6471
▁breakthrough	-6472
▁conventional	-6473
▁photographer	-6474
DA	-6475
ET	-6476
MS	-6477
ali	-6478
azz	-6479
bra	-6480
ixt	-6481
rey	-6482
rit	-6483
▁CD	-6484
▁JH	-6485
icop	-6486
kins	-6487
pond	-6488
sing	-6489
▁Cra	-6490
▁Him	-6491
▁Lab	-6492
▁Pat	-6493
▁Put	-6494
▁Spe	-6495
▁ack	-6496
▁gro	-6497
▁hat	-6498
agger	-6499
alian	-6500
anzan	-6501
▁Arch	-6502
▁Blue	-6503
▁Camp	-6504
▁Mand	-6505
▁Rock	-6506
▁gray	-6507
▁laid	-6508
▁meal	-6509
▁wise	-6510
izarre	-6511
▁Congo	-6512
▁Ocean	-6513
▁Stage	-6514
▁aside	-6515
▁chest	-6516
▁femin	-6517
▁fifth	-6518
▁fixed	-6519
▁frame	-6520
▁imper	-6521
▁laser	-6522
▁miser	-6523
▁plays	-6524
▁strip	-6525
▁teams	-6526
▁tired	-6527
▁tribe	-6528
▁weigh	-6529
uctions	-6530
▁Health	-6531
▁Museum	-6532
▁Newton	-6533
▁Tanzan	-6534
▁actors	-6535
▁borrow	-6536
▁canopy	-6537
▁chosen	-6538
▁curric	-6539
▁degrad	-6540
▁enable	-6541
▁evolve	-6542
▁fertil	-6543
▁funded	-6544
▁scenar	-6545
▁served	-6546
▁skelet	-6547
▁survey	-6548
▁vagina	-6549
▁General	-6550
▁Perhaps	-6551
▁anthrop	-6552
▁attacks	-6553
▁careful	-6554
▁concern	-6555
▁courage	-6556
▁lecture	-6557
▁license	-6558
▁revenue	-6559
▁surgeon	-6560
▁victims	-6561
evolution	-6562
▁diabetes	-6563
▁incident	-6564
▁produces	-6565
▁textbook	-6566
▁accidents	-6567
▁airplanes	-6568
▁calculate	-6569
▁depressed	-6570
▁hospitals	-6571
▁precisely	-6572
▁privilege	-6573
▁chromosome	-6574
▁industries	-6575
▁performing	-6576
▁astonishing	-6577
▁computation	-6578
▁ingredients	-6579
▁interacting	-6580
▁underground	-6581
▁expectations	-6582
▁representation	-6583
Be	-6584
ads	-6585
auc	-6586
cto	-6587
equ	-6588
ida	-6589
▁2,	-6590
▁Ok	-6591
▁RS	-6592
▁Up	-6593
ails	-6594
ifts	-6595
ilem	-6596
obal	-6597
▁Isn	-6598
▁Sar	-6599
▁Tal	-6600
▁jun	-6601
capes	-6602
flies	-6603
gener	-6604
orter	-6605
▁Octo	-6606
▁acts	-6607
▁barr	-6608
▁dies	-6609
▁grat	-6610
▁leaf	-6611
▁plot	-6612
▁rush	-6613
▁stri	-6614
▁suck	-6615
▁west	-6616
lation	-6617
uctive	-6618
▁Hawai	-6619
▁Scott	-6620
▁bears	-6621
▁delic	-6622
▁dilem	-6623
▁flood	-6624
▁gonna	-6625
▁judge	-6626
▁memes	-6627
▁prost	-6628
▁relax	-6629
▁reson	-6630
▁spots	-6631
cellent	-6632
iveness	-6633
▁formal	-6634
▁hardly	-6635
▁recess	-6636
▁tested	-6637
▁theore	-6638
▁Islands	-6639
▁Nations	-6640
▁October	-6641
▁William	-6642
▁bizarre	-6643
▁cricket	-6644
▁impacts	-6645
▁mammals	-6646
▁pretend	-6647
▁pulling	-6648
▁silence	-6649
▁writers	-6650
▁Congress	-6651
▁Research	-6652
▁Somebody	-6653
▁conclude	-6654
▁engaging	-6655
▁overcome	-6656
▁pregnant	-6657
▁symptoms	-6658
▁theories	-6659
▁Christian	-6660
▁centuries	-6661
▁copyright	-6662
▁curiosity	-6663
▁destroyed	-6664
▁explosion	-6665
▁intention	-6666
▁recording	-6667
▁separated	-6668
▁accessible	-6669
▁contribute	-6670
▁fascinated	-6671
▁optimistic	-6672
▁traditions	-6673
▁controlling	-6674
▁represented	-6675
▁biodiversity	-6676
▁contemporary	-6677
▁dramatically	-6678
▁photographed	-6679
▁unbelievable	-6680
▁conversations	-6681
wr	-6682
bal	-6683
col	-6684
enh	-6685
eps	-6686
iel	-6687
mal	-6688
rem	-6689
sey	-6690
▁22	-6691
▁3.	-6692
▁LG	-6693
aren	-6694
conf	-6695
grow	-6696
itro	-6697
oded	-6698
zees	-6699
▁Bob	-6700
▁Bro	-6701
▁ath	-6702
▁ski	-6703
eller	-6704
going	-6705
inder	-6706
▁Comp	-6707
▁June	-6708
▁Same	-6709
▁cure	-6710
▁dish	-6711
▁lake	-6712
▁mate	-6713
▁melt	-6714
▁tort	-6715
▁Delhi	-6716
▁banks	-6717
▁blame	-6718
▁crack	-6719
▁faced	-6720
▁fiber	-6721
▁fuels	-6722
▁glaci	-6723
▁opens	-6724
▁storm	-6725
▁trash	-6726
▁utter	-6727
▁wings	-6728
▁30,000	-6729
▁Martin	-6730
▁candid	-6731
▁eradic	-6732
▁ethnic	-6733
▁expans	-6734
▁export	-6735
▁farmer	-6736
▁golden	-6737
▁iPhone	-6738
▁jumped	-6739
▁ladies	-6740
▁needle	-6741
▁option	-6742
▁plenty	-6743
▁poster	-6744
▁struck	-6745
▁toilet	-6746
▁actions	-6747
▁borders	-6748
▁charity	-6749
▁fragile	-6750
▁imagery	-6751
▁methane	-6752
▁mystery	-6753
▁reduced	-6754
▁washing	-6755
▁Minister	-6756
▁distingu	-6757
▁policies	-6758
▁printing	-6759
▁forgotten	-6760
▁gentleman	-6761
▁intuition	-6762
▁microscope	-6763
▁resolution	-6764
▁application	-6765
▁demonstrate	-6766
▁potentially	-6767
▁spectacular	-6768
▁collaboration	-6769
Can	-6770
iac	-6771
lar	-6772
▁AI	-6773
▁Hi	-6774
▁PM	-6775
When	-6776
ault	-6777
lock	-6778
raph	-6779
▁250	-6780
▁Lou	-6781
▁Tib	-6782
▁bat	-6783
▁cab	-6784
▁inh	-6785
▁lun	-6786
ckets	-6787
lades	-6788
▁1950	-6789
▁Febr	-6790
▁Gene	-6791
▁Talk	-6792
▁bars	-6793
▁cute	-6794
▁dump	-6795
▁hier	-6796
▁pigs	-6797
▁publ	-6798
▁rail	-6799
▁sacr	-6800
▁salt	-6801
▁stom	-6802
▁tack	-6803
▁tone	-6804
engine	-6805
erving	-6806
market	-6807
mented	-6808
phones	-6809
▁Carol	-6810
▁adopt	-6811
▁apple	-6812
▁camps	-6813
▁cryst	-6814
▁dough	-6815
▁finds	-6816
▁illeg	-6817
▁kills	-6818
▁likes	-6819
▁naked	-6820
▁pilot	-6821
▁reefs	-6822
▁sauce	-6823
▁sharp	-6824
▁tasks	-6825
▁tight	-6826
▁tiles	-6827
▁unpre	-6828
▁usual	-6829
▁yours	-6830
erences	-6831
forward	-6832
ishment	-6833
viously	-6834
▁50,000	-6835
▁Amazon	-6836
▁Soviet	-6837
▁cycles	-6838
▁hungry	-6839
▁repeat	-6840
▁rhythm	-6841
▁ticket	-6842
▁Johnson	-6843
▁airport	-6844
▁beneath	-6845
▁closing	-6846
▁constit	-6847
▁consult	-6848
▁enthusi	-6849
▁exposed	-6850
▁farming	-6851
▁fiction	-6852
▁guarant	-6853
▁instant	-6854
▁samples	-6855
▁scratch	-6856
▁sensors	-6857
▁speaker	-6858
▁February	-6859
▁artistic	-6860
▁concrete	-6861
▁distract	-6862
▁reaching	-6863
▁Banglades	-6864
▁Greenland	-6865
▁conflicts	-6866
▁detection	-6867
▁permanent	-6868
▁physicist	-6869
▁qualities	-6870
▁religions	-6871
▁behavioral	-6872
▁biologists	-6873
▁correspond	-6874
▁department	-6875
▁disappoint	-6876
▁expedition	-6877
▁originally	-6878
▁permission	-6879
▁demographic	-6880
▁manufacture	-6881
▁characteristics	-6882
hh	-6883
mi	-6884
bar	-6885
cut	-6886
elf	-6887
leg	-6888
sun	-6889
▁SS	-6890
ardo	-6891
arsh	-6892
ests	-6893
ewel	-6894
onic	-6895
ords	-6896
oust	-6897
prod	-6898
udes	-6899
▁Bay	-6900
▁Cor	-6901
▁ain	-6902
▁unh	-6903
▁wet	-6904
front	-6905
itous	-6906
▁Bron	-6907
▁craw	-6908
▁dism	-6909
▁flip	-6910
▁lung	-6911
▁tear	-6912
▁ther	-6913
▁toys	-6914
▁tsun	-6915
▁whis	-6916
aharan	-6917
▁brown	-6918
▁flies	-6919
▁foods	-6920
▁holds	-6921
▁humor	-6922
▁schem	-6923
▁shake	-6924
▁spark	-6925
▁tooth	-6926
▁Indeed	-6927
▁aggreg	-6928
▁elimin	-6929
▁flower	-6930
▁sacred	-6931
▁senior	-6932
▁sports	-6933
▁stable	-6934
▁tracks	-6935
American	-6936
▁Abraham	-6937
▁ceiling	-6938
▁ecology	-6939
▁emerged	-6940
▁glasses	-6941
▁helicop	-6942
▁letting	-6943
▁reports	-6944
▁section	-6945
▁shelter	-6946
▁wealthy	-6947
▁accepted	-6948
▁aircraft	-6949
▁clothing	-6950
▁dominant	-6951
▁fabulous	-6952
▁friendly	-6953
▁shopping	-6954
▁tendency	-6955
▁collected	-6956
▁curriculum	-6957
▁democratic	-6958
▁ridiculous	-6959
▁assumptions	-6960
▁genetically	-6961
▁improvement	-6962
▁restaurants	-6963
▁International	-6964
PA	-6965
ye	-6966
hol	-6967
och	-6968
▁28	-6969
▁95	-6970
▁ub	-6971
agen	-6972
free	-6973
heim	-6974
imic	-6975
rant	-6976
▁800	-6977
▁Aug	-6978
▁Far	-6979
▁Jud	-6980
▁Mag	-6981
▁Way	-6982
▁ads	-6983
▁anx	-6984
akers	-6985
aving	-6986
▁Coun	-6987
▁Fore	-6988
▁Homo	-6989
▁Sund	-6990
▁cham	-6991
▁cous	-6992
▁hors	-6993
▁pion	-6994
▁rats	-6995
▁toes	-6996
▁trag	-6997
mingly	-6998
▁Buddh	-6999
▁Force	-7000
▁Gates	-7001
▁Nobel	-7002
▁Peace	-7003
▁Super	-7004
▁anger	-7005
▁bombs	-7006
▁disag	-7007
▁drawn	-7008
▁flows	-7009
▁gases	-7010
▁immun	-7011
▁intim	-7012
▁lying	-7013
▁outer	-7014
▁proof	-7015
▁queen	-7016
▁sheet	-7017
▁skept	-7018
▁spell	-7019
▁spont	-7020
▁suspe	-7021
Saharan	-7022
reement	-7023
▁Should	-7024
▁absorb	-7025
▁acknow	-7026
▁atomic	-7027
▁carpet	-7028
▁cotton	-7029
▁ignore	-7030
▁margin	-7031
▁occurs	-7032
▁perpet	-7033
▁powers	-7034
▁rescue	-7035
▁strike	-7036
▁suffer	-7037
children	-7038
▁contrad	-7039
▁finance	-7040
▁liberal	-7041
▁magical	-7042
▁reminds	-7043
▁uniform	-7044
▁angiogen	-7045
▁attached	-7046
▁database	-7047
▁elephant	-7048
▁focusing	-7049
▁football	-7050
▁hardware	-7051
▁includes	-7052
▁inherent	-7053
▁southern	-7054
▁transist	-7055
▁traveled	-7056
▁Obviously	-7057
▁continues	-7058
▁translate	-7059
▁Department	-7060
▁assignment	-7061
▁collection	-7062
▁constructed	-7063
▁innovations	-7064
▁globalization	-7065
▁communications	-7066
So	-7067
ka	-7068
Who	-7069
den	-7070
ias	-7071
ris	-7072
vas	-7073
▁Bo	-7074
▁Jo	-7075
eday	-7076
izer	-7077
oler	-7078
rich	-7079
rons	-7080
rous	-7081
umes	-7082
▁10-	-7083
▁Mod	-7084
▁Six	-7085
▁Wow	-7086
▁bug	-7087
▁cub	-7088
▁gor	-7089
▁lap	-7090
acing	-7091
asses	-7092
istot	-7093
itate	-7094
ormal	-7095
▁Math	-7096
▁Turn	-7097
▁athe	-7098
▁carr	-7099
▁damn	-7100
▁excl	-7101
▁hill	-7102
▁iPod	-7103
▁loan	-7104
▁rely	-7105
aching	-7106
▁Count	-7107
▁Koran	-7108
▁Prize	-7109
▁aband	-7110
▁edges	-7111
▁indig	-7112
▁legis	-7113
▁secre	-7114
▁sheep	-7115
century	-7116
▁August	-7117
▁breaks	-7118
▁buried	-7119
▁clouds	-7120
▁corals	-7121
▁cosmic	-7122
▁decent	-7123
▁dragon	-7124
▁hunger	-7125
▁invite	-7126
▁satisf	-7127
▁sticks	-7128
▁trucks	-7129
▁weapon	-7130
interest	-7131
▁Aristot	-7132
▁Central	-7133
▁January	-7134
▁Russian	-7135
▁bottles	-7136
▁bubbles	-7137
▁charges	-7138
▁efforts	-7139
▁gesture	-7140
▁granted	-7141
▁involve	-7142
▁laptops	-7143
▁monitor	-7144
▁parties	-7145
▁pointed	-7146
▁receive	-7147
▁recover	-7148
▁serving	-7149
▁suicide	-7150
▁whereas	-7151
▁winning	-7152
▁Tanzania	-7153
▁academic	-7154
▁catching	-7155
▁crossing	-7156
▁drawings	-7157
▁extended	-7158
▁fraction	-7159
▁suggests	-7160
▁Cambridge	-7161
▁exception	-7162
▁frequency	-7163
▁planetary	-7164
▁realizing	-7165
▁Bangladesh	-7166
▁Revolution	-7167
▁affordable	-7168
▁capitalism	-7169
▁earthquake	-7170
▁motivation	-7171
▁newspapers	-7172
▁operations	-7173
▁prevention	-7174
▁proportion	-7175
▁volunteers	-7176
▁chimpanzees	-7177
▁exponential	-7178
▁grandfather	-7179
▁predictions	-7180
▁administration	-7181
11	-7182
EC	-7183
He	-7184
fe	-7185
che	-7186
cip	-7187
dig	-7188
ela	-7189
lyn	-7190
yal	-7191
▁GP	-7192
▁JA	-7193
▁gh	-7194
▁je	-7195
ague	-7196
enth	-7197
fold	-7198
lete	-7199
ourt	-7200
ship	-7201
▁Bur	-7202
▁Lad	-7203
▁Mom	-7204
▁Sus	-7205
▁egg	-7206
▁ger	-7207
▁rul	-7208
anges	-7209
athan	-7210
break	-7211
eters	-7212
leton	-7213
oples	-7214
ostic	-7215
riger	-7216
▁Sing	-7217
▁bind	-7218
▁dumb	-7219
▁glad	-7220
▁mesh	-7221
▁odds	-7222
▁radi	-7223
▁sett	-7224
▁sits	-7225
ashing	-7226
illing	-7227
▁Bronx	-7228
▁McDon	-7229
▁Santa	-7230
▁actor	-7231
▁begun	-7232
▁blank	-7233
▁elite	-7234
▁honey	-7235
▁jewel	-7236
▁mosqu	-7237
▁mycel	-7238
▁prime	-7239
▁shame	-7240
▁threw	-7241
▁wheat	-7242
▁youth	-7243
▁Palest	-7244
▁assemb	-7245
▁attend	-7246
▁barely	-7247
▁cheese	-7248
▁robust	-7249
▁secure	-7250
▁stones	-7251
▁Muslims	-7252
▁arrange	-7253
▁cheaper	-7254
▁delight	-7255
▁despair	-7256
▁diverse	-7257
▁founded	-7258
▁illegal	-7259
▁methods	-7260
▁peoples	-7261
▁portion	-7262
▁visited	-7263
▁articles	-7264
▁figuring	-7265
▁refriger	-7266
▁vaccines	-7267
▁abilities	-7268
▁expanding	-7269
▁gathering	-7270
▁generated	-7271
▁performed	-7272
▁uncomfort	-7273
▁Geographic	-7274
▁extinction	-7275
▁historical	-7276
▁underlying	-7277
▁experimental	-7278
▁universities	-7279
gr	-7280
ki	-7281
Wow	-7282
cro	-7283
imb	-7284
mod	-7285
▁Bi	-7286
▁id	-7287
ares	-7288
ding	-7289
iety	-7290
urse	-7291
vity	-7292
▁202	-7293
▁Ext	-7294
▁Ham	-7295
▁Hum	-7296
▁Mer	-7297
▁Sam	-7298
▁Sur	-7299
▁Tel	-7300
▁Tes	-7301
▁aer	-7302
▁cup	-7303
▁dow	-7304
▁lob	-7305
▁oct	-7306
▁sew	-7307
ested	-7308
irect	-7309
oning	-7310
osure	-7311
pring	-7312
quare	-7313
rance	-7314
ville	-7315
▁1990	-7316
▁Flor	-7317
▁Ford	-7318
▁Hall	-7319
▁ages	-7320
▁bask	-7321
▁boss	-7322
▁drum	-7323
▁mail	-7324
▁mice	-7325
▁nuts	-7326
▁shit	-7327
arbage	-7328
esthes	-7329
mitted	-7330
semble	-7331
utical	-7332
▁Smith	-7333
▁Tibet	-7334
▁comic	-7335
▁meter	-7336
▁owned	-7337
▁owner	-7338
▁scaff	-7339
▁tends	-7340
▁ubiqu	-7341
▁views	-7342
▁weeke	-7343
▁wider	-7344
related	-7345
ughters	-7346
▁adding	-7347
▁barrel	-7348
▁client	-7349
▁curves	-7350
▁errors	-7351
▁injury	-7352
▁intrig	-7353
▁locked	-7354
▁observ	-7355
▁preval	-7356
▁pushed	-7357
▁regime	-7358
▁silent	-7359
▁simult	-7360
▁surely	-7361
▁tempor	-7362
▁waters	-7363
cedented	-7364
▁Iceland	-7365
▁Whereas	-7366
▁beliefs	-7367
▁chapter	-7368
▁failing	-7369
▁fortune	-7370
▁persist	-7371
▁spreads	-7372
▁traject	-7373
▁tsunami	-7374
▁Children	-7375
▁answered	-7376
▁asteroid	-7377
▁branches	-7378
▁category	-7379
▁controls	-7380
▁external	-7381
▁failures	-7382
▁genetics	-7383
▁minister	-7384
▁morality	-7385
▁smallest	-7386
▁terribly	-7387
▁gradually	-7388
▁insurance	-7389
▁mechanics	-7390
▁paintings	-7391
▁predicted	-7392
▁primitive	-7393
▁signature	-7394
otechnology	-7395
▁continents	-7396
▁determined	-7397
▁ecological	-7398
▁elementary	-7399
▁functional	-7400
▁rainforest	-7401
▁description	-7402
▁discovering	-7403
▁transparent	-7404
▁angiogenesis	-7405
▁institutional	-7406
▁interestingly	-7407
▁uncomfortable	-7408
▁mathematicians	-7409
ini	-7410
oln	-7411
pha	-7412
rof	-7413
▁Ap	-7414
abil	-7415
ason	-7416
atom	-7417
atts	-7418
cers	-7419
cher	-7420
lend	-7421
onds	-7422
osov	-7423
quis	-7424
▁'80	-7425
▁191	-7426
▁20,	-7427
▁Bet	-7428
▁Nam	-7429
▁Pan	-7430
▁ink	-7431
▁jug	-7432
▁tip	-7433
▁tro	-7434
bably	-7435
cence	-7436
copes	-7437
esome	-7438
ician	-7439
inery	-7440
rence	-7441
venth	-7442
▁Cont	-7443
▁Gand	-7444
▁Mike	-7445
▁NGOs	-7446
▁Rand	-7447
▁Walk	-7448
▁bell	-7449
▁cats	-7450
▁foie	-7451
▁gaps	-7452
▁mold	-7453
▁sink	-7454
incoln	-7455
ivered	-7456
lessly	-7457
soever	-7458
struct	-7459
▁Dutch	-7460
▁Power	-7461
▁agent	-7462
▁audio	-7463
▁chaos	-7464
▁mixed	-7465
▁presc	-7466
▁schol	-7467
▁tempt	-7468
▁viral	-7469
▁winds	-7470
▁Jewish	-7471
▁Within	-7472
▁arrive	-7473
▁chairs	-7474
▁comics	-7475
▁diving	-7476
▁garage	-7477
▁marvel	-7478
▁unable	-7479
▁Whether	-7480
▁enables	-7481
▁forming	-7482
▁hunting	-7483
▁mindset	-7484
▁prosper	-7485
▁selfish	-7486
▁sisters	-7487
▁soldier	-7488
aceutical	-7489
▁captured	-7490
▁explains	-7491
▁globally	-7492
▁homework	-7493
▁recovery	-7494
▁reserves	-7495
▁skeletal	-7496
▁unlikely	-7497
▁wildlife	-7498
▁aesthetic	-7499
▁committed	-7500
▁miserable	-7501
▁recession	-7502
▁replicate	-7503
▁supported	-7504
▁mysterious	-7505
▁physicists	-7506
▁protecting	-7507
▁resilience	-7508
▁resistance	-7509
▁symmetries	-7510
▁translated	-7511
▁vegetables	-7512
▁whatsoever	-7513
▁discoveries	-7514
▁uncertainty	-7515
▁interactions	-7516
▁temperatures	-7517
▁collaborative	-7518
▁unprecedented	-7519
da	-7520
sp	-7521
All	-7522
ETI	-7523
eds	-7524
kin	-7525
pos	-7526
raw	-7527
sec	-7528
see	-7529
ura	-7530
via	-7531
▁DV	-7532
▁PC	-7533
▁na	-7534
▁rh	-7535
Talk	-7536
bits	-7537
cycl	-7538
exas	-7539
eyed	-7540
olas	-7541
onge	-7542
▁'90	-7543
▁120	-7544
▁350	-7545
▁Bel	-7546
▁Tim	-7547
▁cig	-7548
▁tut	-7549
▁wra	-7550
arest	-7551
atrix	-7552
digit	-7553
maker	-7554
omics	-7555
umble	-7556
▁bags	-7557
▁bulb	-7558
▁choo	-7559
▁fits	-7560
▁guns	-7561
▁inch	-7562
▁prol	-7563
▁seek	-7564
▁tied	-7565
icious	-7566
iences	-7567
umines	-7568
▁Court	-7569
▁Craig	-7570
▁Democ	-7571
▁Greek	-7572
▁Kosov	-7573
▁burst	-7574
▁camel	-7575
▁champ	-7576
▁drown	-7577
▁eaten	-7578
▁fluct	-7579
▁hired	-7580
▁males	-7581
▁nucle	-7582
▁opera	-7583
▁patch	-7584
▁shirt	-7585
▁shore	-7586
▁spons	-7587
▁wires	-7588
embered	-7589
▁autism	-7590
▁column	-7591
▁killer	-7592
▁makers	-7593
▁manual	-7594
▁parach	-7595
▁rubber	-7596
▁stroke	-7597
▁talent	-7598
▁thresh	-7599
▁worker	-7600
quarters	-7601
▁Anybody	-7602
▁Council	-7603
▁Florida	-7604
▁Italian	-7605
▁Lincoln	-7606
▁adapted	-7607
▁besides	-7608
▁chances	-7609
▁defense	-7610
▁educate	-7611
▁enterpr	-7612
▁ethical	-7613
▁fastest	-7614
▁flowing	-7615
▁millenn	-7616
▁muscles	-7617
▁offices	-7618
▁ongoing	-7619
▁pursuit	-7620
▁robotic	-7621
▁Probably	-7622
▁Secondly	-7623
▁cartoons	-7624
▁confused	-7625
▁mycelium	-7626
▁precious	-7627
▁reminded	-7628
▁repeated	-7629
▁reported	-7630
▁shooting	-7631
▁customers	-7632
▁delivered	-7633
▁dependent	-7634
▁expertise	-7635
▁fortunate	-7636
▁initially	-7637
▁primarily	-7638
▁suspended	-7639
▁automobile	-7640
▁collecting	-7641
▁conceptual	-7642
▁ecosystems	-7643
▁explaining	-7644
▁facilities	-7645
▁impression	-7646
▁initiative	-7647
▁landscapes	-7648
▁electronics	-7649
▁predictable	-7650
-1	-7651
God	-7652
aud	-7653
erd	-7654
nat	-7655
▁36	-7656
▁ID	-7657
▁Po	-7658
..."	-7659
aded	-7660
fast	-7661
ghai	-7662
iler	-7663
inth	-7664
made	-7665
uces	-7666
ueen	-7667
wind	-7668
yard	-7669
▁Def	-7670
▁Net	-7671
▁Out	-7672
▁Vol	-7673
▁Wol	-7674
▁ash	-7675
▁gee	-7676
▁sav	-7677
▁upd	-7678
anned	-7679
human	-7680
icked	-7681
lfare	-7682
ocent	-7683
opard	-7684
▁Adam	-7685
▁Back	-7686
▁Brad	-7687
▁High	-7688
▁Hong	-7689
▁Tell	-7690
▁ange	-7691
▁bend	-7692
▁coca	-7693
▁earn	-7694
▁enzy	-7695
▁genu	-7696
▁junk	-7697
▁kiss	-7698
▁lock	-7699
▁logo	-7700
▁mode	-7701
▁tech	-7702
ateful	-7703
atever	-7704
cyclop	-7705
itated	-7706
rained	-7707
▁Charl	-7708
▁Coast	-7709
▁Hello	-7710
▁Sorry	-7711
▁Spain	-7712
▁Texas	-7713
▁abuse	-7714
▁chips	-7715
▁fires	-7716
▁grabb	-7717
▁maker	-7718
▁nurse	-7719
▁proph	-7720
▁reput	-7721
▁screw	-7722
▁ships	-7723
▁sixth	-7724
▁slums	-7725
▁thumb	-7726
▁tubes	-7727
▁zones	-7728
angered	-7729
looking	-7730
vention	-7731
▁Turkey	-7732
▁acoust	-7733
▁annual	-7734
▁appeal	-7735
▁caring	-7736
▁crimin	-7737
▁estate	-7738
▁inevit	-7739
▁insist	-7740
▁intent	-7741
▁namely	-7742
▁partly	-7743
▁recipe	-7744
▁rotate	-7745
▁summit	-7746
▁themes	-7747
esthesia	-7748
fficient	-7749
▁Indians	-7750
▁TEDTalk	-7751
▁closest	-7752
▁compete	-7753
▁coordin	-7754
▁deserve	-7755
▁dilemma	-7756
▁dolphin	-7757
▁elected	-7758
▁enlight	-7759
▁garbage	-7760
▁graphic	-7761
▁ignored	-7762
▁islands	-7763
▁lawyers	-7764
▁painted	-7765
▁promote	-7766
▁refugee	-7767
▁someday	-7768
▁sulfide	-7769
▁trigger	-7770
▁warning	-7771
mentation	-7772
▁Carolina	-7773
▁McDonald	-7774
▁altitude	-7775
▁attitude	-7776
▁breaking	-7777
▁channels	-7778
▁colonies	-7779
▁entering	-7780
▁hypothes	-7781
▁isolated	-7782
▁magnific	-7783
▁neurolog	-7784
▁reliable	-7785
▁scaffold	-7786
▁scenario	-7787
▁substant	-7788
▁authentic	-7789
▁batteries	-7790
▁collapsed	-7791
▁daughters	-7792
▁distances	-7793
▁expansion	-7794
▁improving	-7795
▁magnitude	-7796
▁musicians	-7797
▁phenomena	-7798
▁remaining	-7799
▁continuous	-7800
▁difficulty	-7801
▁remembered	-7802
▁suggesting	-7803
▁foundations	-7804
▁interviewed	-7805
▁marketplace	-7806
▁translation	-7807
▁measurements	-7808
CA	-7809
uk	-7810
va	-7811
aze	-7812
gie	-7813
oen	-7814
yon	-7815
▁AM	-7816
▁ah	-7817
▁oy	-7818
acts	-7819
beat	-7820
cost	-7821
illa	-7822
mass	-7823
onia	-7824
sell	-7825
sour	-7826
uity	-7827
utan	-7828
▁30-	-7829
▁Det	-7830
▁Hel	-7831
▁Hol	-7832
▁Sir	-7833
▁Syl	-7834
▁aqu	-7835
ading	-7836
ambod	-7837
aning	-7838
chool	-7839
enter	-7840
ifice	-7841
ihood	-7842
licit	-7843
oline	-7844
opher	-7845
stage	-7846
▁Cath	-7847
▁Dece	-7848
▁Give	-7849
▁Kong	-7850
▁Milo	-7851
▁Miss	-7852
▁Pitt	-7853
▁SETI	-7854
▁Shan	-7855
▁Span	-7856
▁Wind	-7857
▁bang	-7858
▁cake	-7859
▁dict	-7860
▁fuck	-7861
▁gods	-7862
▁orph	-7863
▁urge	-7864
▁wing	-7865
enance	-7866
urable	-7867
▁Clint	-7868
▁Larry	-7869
▁amate	-7870
▁balls	-7871
▁cabin	-7872
▁downt	-7873
▁embra	-7874
▁fancy	-7875
▁march	-7876
▁minor	-7877
▁monit	-7878
▁nitro	-7879
▁plank	-7880
▁redef	-7881
▁rings	-7882
▁spill	-7883
▁trace	-7884
▁uncle	-7885
▁yeast	-7886
inarily	-7887
keepers	-7888
powered	-7889
▁Cambod	-7890
▁Disney	-7891
▁Hawaii	-7892
▁agency	-7893
▁binary	-7894
▁border	-7895
▁devast	-7896
▁fusion	-7897
▁lowest	-7898
▁missed	-7899
▁rarely	-7900
▁recept	-7901
▁silver	-7902
▁subsid	-7903
▁tumors	-7904
▁valley	-7905
▁widely	-7906
▁worthy	-7907
changing	-7908
▁amongst	-7909
▁analyze	-7910
▁deliber	-7911
▁federal	-7912
▁genuine	-7913
▁shocked	-7914
▁welcome	-7915
▁welfare	-7916
▁December	-7917
▁connects	-7918
▁disorder	-7919
▁dolphins	-7920
▁educated	-7921
▁generous	-7922
▁kindness	-7923
▁memories	-7924
▁microbes	-7925
▁navigate	-7926
▁nitrogen	-7927
▁pleasant	-7928
▁pointing	-7929
▁reducing	-7930
▁stations	-7931
▁strongly	-7932
▁Alexander	-7933
▁colleague	-7934
▁commodity	-7935
▁machinery	-7936
▁positions	-7937
▁searching	-7938
▁variation	-7939
▁appearance	-7940
▁approaches	-7941
▁categories	-7942
▁comparison	-7943
▁endangered	-7944
▁engineered	-7945
▁generating	-7946
▁mechanisms	-7947
▁struggling	-7948
▁trajectory	-7949
▁ubiquitous	-7950
▁concentrate	-7951
▁programming	-7952
▁experiencing	-7953
▁concentration	-7954
▁significantly	-7955
▁interpretation	-7956
▁pharmaceutical	-7957
.'"	-7958
200	-7959
Are	-7960
aus	-7961
ava	-7962
edy	-7963
ria	-7964
uke	-7965
▁85	-7966
▁DR	-7967
▁Es	-7968
▁Ty	-7969
▁Wi	-7970
anol	-7971
aped	-7972
asha	-7973
aust	-7974
away	-7975
case	-7976
char	-7977
chem	-7978
enly	-7979
etti	-7980
gled	-7981
iban	-7982
ieve	-7983
▁Kev	-7984
▁Lin	-7985
▁Met	-7986
▁Sky	-7987
▁Tar	-7988
▁Try	-7989
▁dop	-7990
▁jet	-7991
▁lit	-7992
▁rip	-7993
aches	-7994
allow	-7995
essor	-7996
iders	-7997
ighth	-7998
inter	-7999
isons	-8000
isten	-8001
ivial	-8002
lings	-8003
odied	-8004
oenix	-8005
puter	-8006
stone	-8007
▁Mill	-8008
▁None	-8009
▁Rick	-8010
▁crew	-8011
▁dawn	-8012
▁debt	-8013
▁disg	-8014
▁hybr	-8015
▁mand	-8016
▁neoc	-8017
▁palm	-8018
▁peer	-8019
▁sons	-8020
▁spat	-8021
aneous	-8022
iotics	-8023
▁Peter	-8024
▁cheat	-8025
▁crows	-8026
▁freak	-8027
▁grasp	-8028
▁incom	-8029
▁incor	-8030
▁legit	-8031
▁loose	-8032
▁octop	-8033
▁revol	-8034
▁shelf	-8035
▁silly	-8036
▁stops	-8037
▁surve	-8038
▁twist	-8039
▁worms	-8040
itating	-8041
ressing	-8042
ustrial	-8043
working	-8044
▁Berlin	-8045
▁Church	-8046
▁Except	-8047
▁Mother	-8048
▁Sunday	-8049
▁aliens	-8050
▁builds	-8051
▁burned	-8052
▁compos	-8053
▁editor	-8054
▁horses	-8055
▁merely	-8056
▁neural	-8057
▁paraly	-8058
▁relief	-8059
▁shrink	-8060
▁sketch	-8061
▁stores	-8062
▁tragic	-8063
▁tunnel	-8064
▁upside	-8065
▁200,000	-8066
▁Everest	-8067
▁Taliban	-8068
▁affects	-8069
▁broader	-8070
▁crucial	-8071
▁demands	-8072
▁harness	-8073
▁healing	-8074
▁illness	-8075
▁mosquit	-8076
▁package	-8077
▁savings	-8078
▁scanner	-8079
▁smarter	-8080
▁smoking	-8081
▁staying	-8082
▁venture	-8083
▁Shanghai	-8084
▁accounts	-8085
▁calories	-8086
▁covering	-8087
▁decrease	-8088
▁diameter	-8089
▁dopamine	-8090
▁grateful	-8091
▁invested	-8092
▁leverage	-8093
▁prostate	-8094
▁purposes	-8095
▁Aristotle	-8096
▁biosphere	-8097
▁elections	-8098
▁immediate	-8099
▁jellyfish	-8100
▁nutrients	-8101
▁nutrition	-8102
▁expectancy	-8103
▁identified	-8104
▁inevitable	-8105
▁journalist	-8106
▁achievement	-8107
▁antibiotics	-8108
▁beautifully	-8109
▁contributed	-8110
▁frightening	-8111
▁technically	-8112
▁concentrated	-8113
▁philanthropy	-8114
▁grandchildren	-8115
▁simultaneously	-8116
Ah	-8117
jo	-8118
cap	-8119
law	-8120
nik	-8121
oto	-8122
▁0.	-8123
▁AK	-8124
▁BJ	-8125
▁WK	-8126
▁ho	-8127
addy	-8128
ador	-8129
aves	-8130
expl	-8131
iful	-8132
leep	-8133
mill	-8134
outs	-8135
plus	-8136
pril	-8137
▁Aut	-8138
▁CEO	-8139
▁DVD	-8140
▁Den	-8141
▁Roy	-8142
▁Sal	-8143
▁gam	-8144
▁ton	-8145
ached	-8146
atoes	-8147
enous	-8148
field	-8149
grade	-8150
iated	-8151
world	-8152
▁..."	-8153
▁Lake	-8154
▁Rome	-8155
▁Wall	-8156
▁alco	-8157
▁coat	-8158
▁mant	-8159
▁meme	-8160
▁quit	-8161
angers	-8162
heimer	-8163
iented	-8164
romagn	-8165
vation	-8166
▁4,000	-8167
▁April	-8168
▁Voice	-8169
▁Watch	-8170
▁award	-8171
▁caves	-8172
▁court	-8173
▁cruel	-8174
▁fault	-8175
▁gotta	-8176
▁lungs	-8177
▁membr	-8178
▁minus	-8179
▁plain	-8180
▁score	-8181
▁seals	-8182
ogether	-8183
section	-8184
▁Albert	-8185
▁Global	-8186
▁Sylvia	-8187
▁System	-8188
▁Wright	-8189
▁athlet	-8190
▁basket	-8191
▁curren	-8192
▁defend	-8193
▁ending	-8194
▁fluctu	-8195
▁infant	-8196
▁lawyer	-8197
▁motors	-8198
▁nearby	-8199
▁pursue	-8200
▁subtle	-8201
▁subway	-8202
▁tackle	-8203
▁trains	-8204
▁Clinton	-8205
▁Silicon	-8206
▁awesome	-8207
▁cocaine	-8208
▁hardest	-8209
▁located	-8210
▁logical	-8211
▁metabol	-8212
▁paradox	-8213
▁printed	-8214
▁readers	-8215
▁retreat	-8216
▁rolling	-8217
▁stepped	-8218
▁Virginia	-8219
▁contempl	-8220
▁detailed	-8221
▁dialogue	-8222
▁downtown	-8223
▁flexible	-8224
▁innocent	-8225
▁interior	-8226
▁internet	-8227
▁investig	-8228
▁judgment	-8229
▁listened	-8230
▁outbreak	-8231
▁prisoner	-8232
▁proposed	-8233
▁simulate	-8234
▁adventure	-8235
▁apartment	-8236
▁breakfast	-8237
▁broadcast	-8238
▁confident	-8239
▁incentive	-8240
▁infection	-8241
▁investors	-8242
▁ownership	-8243
▁predators	-8244
▁prisoners	-8245
▁procedure	-8246
▁recycling	-8247
▁suggested	-8248
▁aggressive	-8249
▁attractive	-8250
▁helicopter	-8251
▁irrational	-8252
▁mechanical	-8253
▁profoundly	-8254
▁regardless	-8255
▁structural	-8256
▁telescopes	-8257
▁yourselves	-8258
▁cooperation	-8259
▁distinguish	-8260
▁electromagn	-8261
▁limitations	-8262
▁maintenance	-8263
▁capabilities	-8264
▁surprisingly	-8265
▁demonstration	-8266
"?	-8267
ga	-8268
hop	-8269
pie	-8270
uan	-8271
▁Ky	-8272
▁od	-8273
ache	-8274
asty	-8275
eady	-8276
edge	-8277
estr	-8278
icks	-8279
idth	-8280
ilty	-8281
kind	-8282
list	-8283
ocal	-8284
pers	-8285
soon	-8286
take	-8287
zler	-8288
▁10.	-8289
▁20-	-8290
▁Inc	-8291
▁Kir	-8292
▁Rad	-8293
▁Ron	-8294
▁alb	-8295
▁lux	-8296
ansas	-8297
ashed	-8298
bling	-8299
elled	-8300
elson	-8301
izoph	-8302
peare	-8303
▁1980	-8304
▁Both	-8305
▁Fort	-8306
▁Lego	-8307
▁Leon	-8308
▁Mond	-8309
▁News	-8310
▁Prof	-8311
▁Supp	-8312
▁brut	-8313
▁clue	-8314
▁cows	-8315
▁crap	-8316
▁drew	-8317
▁ende	-8318
▁gate	-8319
▁gath	-8320
▁gear	-8321
▁knee	-8322
▁nerd	-8323
▁pref	-8324
▁seal	-8325
▁shoe	-8326
▁wrap	-8327
apagos	-8328
edding	-8329
minute	-8330
unning	-8331
▁6,000	-8332
▁Media	-8333
▁Namib	-8334
▁Under	-8335
▁algae	-8336
▁array	-8337
▁artif	-8338
▁blown	-8339
▁bored	-8340
▁chron	-8341
▁coinc	-8342
▁deals	-8343
▁erect	-8344
▁fatal	-8345
▁fence	-8346
▁funds	-8347
▁items	-8348
▁marry	-8349
▁overl	-8350
▁probe	-8351
▁route	-8352
▁spray	-8353
▁stake	-8354
▁synch	-8355
rations	-8356
▁Columb	-8357
▁During	-8358
▁assess	-8359
▁domain	-8360
▁flavor	-8361
▁grocer	-8362
▁harbor	-8363
▁immers	-8364
▁magnet	-8365
▁pencil	-8366
▁recall	-8367
▁richer	-8368
▁rivers	-8369
▁static	-8370
▁tables	-8371
▁traits	-8372
▁trials	-8373
standing	-8374
▁Develop	-8375
▁Someone	-8376
▁Teszler	-8377
▁adopted	-8378
▁analogy	-8379
▁beating	-8380
▁cigaret	-8381
▁destiny	-8382
▁disrupt	-8383
▁elegant	-8384
▁highway	-8385
▁locally	-8386
▁melting	-8387
▁neutral	-8388
▁pockets	-8389
▁powered	-8390
▁printer	-8391
▁reaches	-8392
▁routine	-8393
▁secrets	-8394
▁simpler	-8395
▁statist	-8396
▁stomach	-8397
▁strings	-8398
▁symbols	-8399
▁texture	-8400
▁unhappy	-8401
akespeare	-8402
▁Catholic	-8403
▁Whatever	-8404
▁accompan	-8405
▁attacked	-8406
▁gasoline	-8407
▁musician	-8408
▁spinning	-8409
cyclopedia	-8410
▁Galapagos	-8411
▁agreement	-8412
▁audiences	-8413
▁classical	-8414
▁documents	-8415
▁empowered	-8416
▁equations	-8417
▁favorites	-8418
▁headlines	-8419
▁highlight	-8420
▁practices	-8421
▁teenagers	-8422
▁tolerance	-8423
▁indigenous	-8424
▁interviews	-8425
▁prediction	-8426
▁established	-8427
▁expressions	-8428
▁magnificent	-8429
▁symmetrical	-8430
▁theoretical	-8431
▁accelerating	-8432
▁calculations	-8433
▁collectively	-8434
▁conservative	-8435
▁installation	-8436
▁instructions	-8437
▁occasionally	-8438
▁vulnerability	-8439
tz	-8440
▁:	-8441
▁x	-8442
ano	-8443
bow	-8444
kyo	-8445
lor	-8446
▁42	-8447
▁55	-8448
▁Si	-8449
▁Ur	-8450
agan	-8451
city	-8452
cret	-8453
inal	-8454
neys	-8455
ocks	-8456
oots	-8457
unes	-8458
unks	-8459
zens	-8460
▁'50	-8461
▁Age	-8462
▁Alz	-8463
▁Fre	-8464
▁Hen	-8465
▁Ire	-8466
▁Its	-8467
▁Jer	-8468
▁MRI	-8469
▁Moz	-8470
▁Tor	-8471
▁hug	-8472
▁jan	-8473
▁mat	-8474
▁ven	-8475
Where	-8476
adays	-8477
adder	-8478
ellig	-8479
holds	-8480
inson	-8481
ivery	-8482
jamin	-8483
oding	-8484
orage	-8485
owder	-8486
ponds	-8487
reens	-8488
viron	-8489
▁2050	-8490
▁Bert	-8491
▁Hans	-8492
▁Jill	-8493
▁Josh	-8494
▁Libr	-8495
▁Mary	-8496
▁Move	-8497
▁Open	-8498
▁beef	-8499
▁biol	-8500
▁blah	-8501
▁bush	-8502
▁chop	-8503
▁cong	-8504
▁cord	-8505
▁crop	-8506
▁defe	-8507
▁forb	-8508
▁impl	-8509
▁jack	-8510
▁lone	-8511
▁outc	-8512
▁pean	-8513
▁sexy	-8514
▁tong	-8515
▁turt	-8516
▁wand	-8517
arency	-8518
culiar	-8519
ealand	-8520
iberia	-8521
iously	-8522
ulsion	-8523
▁2000,	-8524
▁Brian	-8525
▁Kevin	-8526
▁Organ	-8527
▁Tokyo	-8528
▁conqu	-8529
▁cream	-8530
▁crude	-8531
▁drift	-8532
▁elder	-8533
▁loves	-8534
▁obese	-8535
▁picks	-8536
▁polio	-8537
▁pride	-8538
▁traum	-8539
▁voted	-8540
enhagen	-8541
usiness	-8542
▁60,000	-8543
▁Govern	-8544
▁Kosovo	-8545
▁Things	-8546
▁anonym	-8547
▁burden	-8548
▁capita	-8549
▁divers	-8550
▁equals	-8551
▁evapor	-8552
▁helium	-8553
▁insane	-8554
▁loving	-8555
▁panels	-8556
▁planes	-8557
▁propag	-8558
▁retail	-8559
▁reveal	-8560
▁spider	-8561
▁stimul	-8562
▁thread	-8563
▁troops	-8564
▁Mandela	-8565
▁Natasha	-8566
▁Spanish	-8567
▁anxiety	-8568
▁biomass	-8569
▁chamber	-8570
▁ethanol	-8571
▁halfway	-8572
▁leopard	-8573
▁mapping	-8574
▁maximum	-8575
▁minimum	-8576
▁nearest	-8577
▁octopus	-8578
▁penguin	-8579
▁restore	-8580
▁rethink	-8581
▁rewards	-8582
▁staring	-8583
▁teaches	-8584
▁western	-8585
efficient	-8586
▁Although	-8587
▁Benjamin	-8588
▁Palestin	-8589
▁Whenever	-8590
▁backyard	-8591
▁choosing	-8592
▁earliest	-8593
▁expanded	-8594
▁improved	-8595
▁peculiar	-8596
▁proposal	-8597
▁replaced	-8598
▁returned	-8599
▁schizoph	-8600
▁simplest	-8601
▁skeleton	-8602
▁Alzheimer	-8603
▁bacterial	-8604
▁biologist	-8605
▁describes	-8606
▁excellent	-8607
▁expecting	-8608
▁guarantee	-8609
▁hierarchy	-8610
▁locations	-8611
▁orchestra	-8612
▁reproduce	-8613
▁territory	-8614
▁threshold	-8615
▁Copenhagen	-8616
▁biolumines	-8617
▁connectome	-8618
▁convenient	-8619
▁determines	-8620
▁enormously	-8621
▁frustrated	-8622
▁households	-8623
▁impressive	-8624
▁inevitably	-8625
▁mainstream	-8626
▁prosperity	-8627
▁reasonable	-8628
▁reflection	-8629
▁reputation	-8630
▁spacecraft	-8631
▁supporting	-8632
▁Shakespeare	-8633
▁corresponds	-8634
▁dragonflies	-8635
▁encouraging	-8636
▁progression	-8637
▁proposition	-8638
▁accomplished	-8639
▁independence	-8640
▁neuroscience	-8641
▁storytelling	-8642
▁communicating	-8643
▁hallucinations	-8644
IS	-8645
MA	-8646
Sh	-8647
Now	-8648
bed	-8649
hea	-8650
jan	-8651
lad	-8652
mes	-8653
mun	-8654
net	-8655
ois	-8656
▁29	-8657
▁2:	-8658
▁BM	-8659
▁Bh	-8660
▁DM	-8661
AIDS	-8662
Here	-8663
alay	-8664
ette	-8665
ewis	-8666
iots	-8667
irms	-8668
irts	-8669
liam	-8670
olve	-8671
seen	-8672
ucks	-8673
udge	-8674
▁192	-8675
▁193	-8676
▁Ann	-8677
▁Bol	-8678
▁Cur	-8679
▁Dou	-8680
▁Had	-8681
▁LED	-8682
▁Nic	-8683
▁Sah	-8684
▁Unt	-8685
▁Val	-8686
▁Ven	-8687
▁dut	-8688
▁obt	-8689
▁shy	-8690
▁sin	-8691
▁voy	-8692
Would	-8693
abeth	-8694
apped	-8695
clock	-8696
copic	-8697
erals	-8698
inity	-8699
izont	-8700
otion	-8701
pound	-8702
power	-8703
▁Hind	-8704
▁Make	-8705
▁bold	-8706
▁clar	-8707
▁cuts	-8708
▁dent	-8709
▁glue	-8710
▁gram	-8711
▁infl	-8712
▁jazz	-8713
▁lamp	-8714
▁lion	-8715
▁mask	-8716
▁numb	-8717
▁oven	-8718
▁pale	-8719
▁peel	-8720
▁sake	-8721
▁trop	-8722
▁verb	-8723
alysis	-8724
escope	-8725
itudes	-8726
ounded	-8727
ureauc	-8728
▁Alask	-8729
▁Being	-8730
▁Brook	-8731
▁Build	-8732
▁Louis	-8733
▁Milky	-8734
▁Swiss	-8735
▁Water	-8736
▁ambig	-8737
▁anten	-8738
▁bribe	-8739
▁civic	-8740
▁decor	-8741
▁entry	-8742
▁joint	-8743
▁lions	-8744
▁lobby	-8745
▁penet	-8746
▁physi	-8747
▁raped	-8748
▁relat	-8749
▁sched	-8750
▁shine	-8751
▁sizes	-8752
▁squee	-8753
▁stays	-8754
▁straw	-8755
aghetti	-8756
liament	-8757
▁Almost	-8758
▁County	-8759
▁Nelson	-8760
▁Secret	-8761
▁alumin	-8762
▁behold	-8763
▁casual	-8764
▁config	-8765
▁crimes	-8766
▁dozens	-8767
▁ensure	-8768
▁excuse	-8769
▁luxury	-8770
▁mentor	-8771
▁scores	-8772
▁submar	-8773
▁surviv	-8774
▁tongue	-8775
▁virgin	-8776
▁voting	-8777
ependent	-8778
▁Atlanta	-8779
▁Himalay	-8780
▁Ireland	-8781
▁Library	-8782
▁Montana	-8783
▁Phoenix	-8784
▁airline	-8785
▁cancers	-8786
▁carries	-8787
▁climbed	-8788
▁colored	-8789
▁comprom	-8790
▁damaged	-8791
▁dressed	-8792
▁exhaust	-8793
▁formula	-8794
▁harmony	-8795
▁miracle	-8796
▁origins	-8797
▁segment	-8798
▁storage	-8799
▁streams	-8800
▁trivial	-8801
▁upright	-8802
▁Security	-8803
▁contrary	-8804
▁counting	-8805
▁coverage	-8806
▁delivery	-8807
▁honestly	-8808
▁inventor	-8809
▁managers	-8810
▁portrait	-8811
▁preserve	-8812
▁remained	-8813
▁shifting	-8814
▁suffered	-8815
▁throwing	-8816
▁believing	-8817
▁correctly	-8818
▁dominated	-8819
▁healthier	-8820
▁interrupt	-8821
▁parachute	-8822
▁radically	-8823
▁seemingly	-8824
▁sentences	-8825
▁substance	-8826
▁additional	-8827
▁commission	-8828
▁compelling	-8829
▁continuing	-8830
▁manipulate	-8831
▁prevalence	-8832
▁publishing	-8833
▁satellites	-8834
▁acknowledge	-8835
▁authorities	-8836
▁investments	-8837
▁supermarket	-8838
▁surrounding	-8839
▁connectivity	-8840
▁contributing	-8841
▁humanitarian	-8842
▁civilizations	-8843
▁professionals	-8844
▁extraordinarily	-8845
LA	-8846
aj	-8847
tw	-8848
aks	-8849
dis	-8850
ima	-8851
mat	-8852
▁33	-8853
▁Gr	-8854
▁Kh	-8855
▁SP	-8856
aman	-8857
ause	-8858
bled	-8859
enez	-8860
gram	-8861
icit	-8862
uded	-8863
▁Jay	-8864
▁Kle	-8865
▁Luc	-8866
▁Mur	-8867
▁Ros	-8868
▁Sen	-8869
▁Sou	-8870
▁Tam	-8871
▁eru	-8872
▁heh	-8873
▁nap	-8874
▁tie	-8875
actic	-8876
erent	-8877
gines	-8878
itzer	-8879
izers	-8880
minal	-8881
osity	-8882
▁Barb	-8883
▁Cape	-8884
▁Half	-8885
▁Turk	-8886
▁Vict	-8887
▁batt	-8888
▁bump	-8889
▁carp	-8890
▁cert	-8891
▁clay	-8892
▁heal	-8893
▁labs	-8894
▁laug	-8895
▁neck	-8896
▁pole	-8897
▁rape	-8898
▁reck	-8899
▁sail	-8900
▁stew	-8901
▁vary	-8902
▁voca	-8903
ancers	-8904
estone	-8905
istory	-8906
thirds	-8907
weight	-8908
▁Asian	-8909
▁March	-8910
▁Sudan	-8911
▁Until	-8912
▁artic	-8913
▁blast	-8914
▁boats	-8915
▁deter	-8916
▁doors	-8917
▁feeds	-8918
▁gross	-8919
▁ignor	-8920
▁jeans	-8921
▁lists	-8922
▁meals	-8923
▁mines	-8924
▁petro	-8925
▁pills	-8926
▁punch	-8927
▁remix	-8928
▁reper	-8929
▁ridge	-8930
▁steal	-8931
▁steam	-8932
▁ultra	-8933
faction	-8934
itative	-8935
▁Gandhi	-8936
▁Joshua	-8937
▁Pretty	-8938
▁Square	-8939
▁approx	-8940
▁behalf	-8941
▁butter	-8942
▁convey	-8943
▁copied	-8944
▁excess	-8945
▁extrem	-8946
▁guilty	-8947
▁headed	-8948
▁mating	-8949
▁matrix	-8950
▁retire	-8951
▁scenes	-8952
▁stored	-8953
▁tomato	-8954
▁topics	-8955
▁tricks	-8956
▁upload	-8957
▁wishes	-8958
▁wooden	-8959
etheless	-8960
ortunate	-8961
▁Through	-8962
▁Without	-8963
▁absence	-8964
▁alcohol	-8965
▁banking	-8966
▁bedroom	-8967
▁creator	-8968
▁enemies	-8969
▁engines	-8970
▁enhance	-8971
▁envelop	-8972
▁essence	-8973
▁lottery	-8974
▁markers	-8975
▁monsoon	-8976
▁periods	-8977
▁playful	-8978
▁premise	-8979
▁prepare	-8980
▁sectors	-8981
▁targets	-8982
▁terrain	-8983
▁threats	-8984
▁announce	-8985
▁applying	-8986
▁arrested	-8987
▁assemble	-8988
▁boundary	-8989
▁breeding	-8990
▁cheating	-8991
▁consumed	-8992
▁enjoying	-8993
▁homeless	-8994
▁included	-8995
▁laughing	-8996
▁peaceful	-8997
▁predator	-8998
▁scholars	-8999
▁selected	-9000
▁stereoty	-9001
▁supplies	-9002
▁tangible	-9003
▁transmit	-9004
▁versions	-9005
▁Telescope	-9006
▁arguments	-9007
▁electrons	-9008
▁expressed	-9009
▁extension	-9010
▁household	-9011
▁investing	-9012
▁obstacles	-9013
▁realistic	-9014
▁responses	-9015
▁spaghetti	-9016
▁stability	-9017
▁strategic	-9018
▁therapies	-9019
▁undergrad	-9020
▁volunteer	-9021
▁workforce	-9022
▁destroying	-9023
▁monitoring	-9024
▁phenomenal	-9025
▁calculating	-9026
▁consciously	-9027
▁cooperative	-9028
▁fortunately	-9029
▁overwhelmed	-9030
▁schizophren	-9031
▁significance	-9032
▁successfully	-9033
▁transmission	-9034
▁neighborhoods	-9035
▁visualization	-9036
ege	-9037
err	-9038
gia	-9039
hal	-9040
iva	-9041
ndr	-9042
oma	-9043
org	-9044
reh	-9045
▁eB	-9046
amie	-9047
aste	-9048
ican	-9049
nedy	-9050
oral	-9051
part	-9052
plic	-9053
rics	-9054
thur	-9055
▁Bor	-9056
▁Ear	-9057
▁Lak	-9058
▁Som	-9059
▁USA	-9060
▁dil	-9061
▁hub	-9062
▁pra	-9063
▁vel	-9064
adian	-9065
ching	-9066
eries	-9067
geous	-9068
heads	-9069
keley	-9070
pless	-9071
press	-9072
restr	-9073
ushed	-9074
▁Educ	-9075
▁Hung	-9076
▁Jose	-9077
▁July	-9078
▁Love	-9079
▁Luck	-9080
▁Nove	-9081
▁Play	-9082
▁Prot	-9083
▁Sudd	-9084
▁Tony	-9085
▁asks	-9086
▁calm	-9087
▁cube	-9088
▁epip	-9089
▁file	-9090
▁frog	-9091
▁mini	-9092
▁piss	-9093
▁rect	-9094
▁woke	-9095
Please	-9096
active	-9097
arents	-9098
arrhea	-9099
awater	-9100
gments	-9101
inging	-9102
▁1,500	-9103
▁Creat	-9104
▁Seven	-9105
▁Trade	-9106
▁Venez	-9107
▁Young	-9108
▁align	-9109
▁aspir	-9110
▁blink	-9111
▁cable	-9112
▁consp	-9113
▁digit	-9114
▁drops	-9115
▁drunk	-9116
▁farms	-9117
▁float	-9118
▁hairs	-9119
▁hopes	-9120
▁inhib	-9121
▁knife	-9122
▁mayor	-9123
▁messy	-9124
▁nerve	-9125
▁numer	-9126
▁panel	-9127
▁paste	-9128
▁pulls	-9129
▁shots	-9130
▁steep	-9131
▁sweat	-9132
▁valid	-9133
▁wrist	-9134
izabeth	-9135
natural	-9136
unction	-9137
▁40,000	-9138
▁Anyone	-9139
▁Friday	-9140
▁Golden	-9141
▁Scient	-9142
▁Steven	-9143
▁beaten	-9144
▁campus	-9145
▁digest	-9146
▁eighth	-9147
▁elabor	-9148
▁fought	-9149
▁freely	-9150
▁habits	-9151
▁intact	-9152
▁kidney	-9153
▁masses	-9154
▁mining	-9155
▁orders	-9156
▁orphan	-9157
▁patent	-9158
▁priest	-9159
▁proven	-9160
▁revers	-9161
▁sensor	-9162
▁settle	-9163
▁slower	-9164
▁strict	-9165
▁warmer	-9166
restrial	-9167
riptions	-9168
▁Environ	-9169
▁Kennedy	-9170
▁Olympic	-9171
▁Stephen	-9172
▁Switzer	-9173
▁blowing	-9174
▁constra	-9175
▁corners	-9176
▁corrupt	-9177
▁counted	-9178
▁deepest	-9179
▁descend	-9180
▁desktop	-9181
▁dispers	-9182
▁enjoyed	-9183
▁gallery	-9184
▁grocery	-9185
▁heavily	-9186
▁helpful	-9187
▁honored	-9188
▁landing	-9189
▁leather	-9190
▁linking	-9191
▁pricing	-9192
▁reserve	-9193
▁sensory	-9194
▁silicon	-9195
▁tension	-9196
▁trading	-9197
conscious	-9198
▁Berkeley	-9199
▁Cambodia	-9200
▁Interest	-9201
▁Nigerian	-9202
▁November	-9203
▁Suddenly	-9204
▁Venezuel	-9205
▁aluminum	-9206
▁calculus	-9207
▁climbers	-9208
▁comments	-9209
▁criminal	-9210
▁customer	-9211
▁entrance	-9212
▁gathered	-9213
▁horizont	-9214
▁intimacy	-9215
▁measures	-9216
▁openness	-9217
▁outcomes	-9218
▁parasite	-9219
▁sciences	-9220
▁terrific	-9221
▁triangle	-9222
▁abundance	-9223
▁administr	-9224
▁collision	-9225
▁economist	-9226
▁estimated	-9227
▁intensity	-9228
▁mysteries	-9229
▁objective	-9230
▁producers	-9231
▁renewable	-9232
▁sacrifice	-9233
▁Christians	-9234
▁consistent	-9235
▁encouraged	-9236
▁ingredient	-9237
▁privileged	-9238
▁regenerate	-9239
▁threatened	-9240
▁variations	-9241
▁Switzerland	-9242
▁competitive	-9243
▁transparency	-9244
▁transformative	-9245
BC	-9246
OL	-9247
ani	-9248
ape	-9249
cod	-9250
eda	-9251
ete	-9252
hot	-9253
nut	-9254
rid	-9255
vis	-9256
zes	-9257
▁FG	-9258
▁gy	-9259
▁nu	-9260
▁ol	-9261
,500	-9262
alog	-9263
bird	-9264
hips	-9265
imag	-9266
pack	-9267
ptic	-9268
rity	-9269
size	-9270
wing	-9271
word	-9272
▁190	-9273
▁Fal	-9274
▁Jup	-9275
▁Len	-9276
▁Mah	-9277
▁Mat	-9278
▁Van	-9279
▁blu	-9280
▁boo	-9281
▁ech	-9282
▁sne	-9283
▁yog	-9284
acher	-9285
arten	-9286
brush	-9287
enses	-9288
impse	-9289
otted	-9290
rates	-9291
width	-9292
▁Fund	-9293
▁Hope	-9294
▁Mass	-9295
▁Norm	-9296
▁Soci	-9297
▁Sput	-9298
▁Star	-9299
▁ampl	-9300
▁belt	-9301
▁bust	-9302
▁cath	-9303
▁cree	-9304
▁cups	-9305
▁debr	-9306
▁depr	-9307
▁eBay	-9308
▁glor	-9309
▁goat	-9310
▁irre	-9311
▁pays	-9312
▁rabb	-9313
▁soap	-9314
▁soup	-9315
▁tune	-9316
▁unle	-9317
arians	-9318
driven	-9319
encing	-9320
irling	-9321
ithium	-9322
normal	-9323
olitan	-9324
ournal	-9325
school	-9326
source	-9327
▁2004,	-9328
▁Guard	-9329
▁Henry	-9330
▁Jones	-9331
▁Lewis	-9332
▁Light	-9333
▁Rover	-9334
▁Start	-9335
▁Stone	-9336
▁acres	-9337
▁advoc	-9338
▁altru	-9339
▁arrow	-9340
▁depos	-9341
▁donor	-9342
▁dread	-9343
▁fungi	-9344
▁guard	-9345
▁perip	-9346
▁recre	-9347
▁safer	-9348
▁scans	-9349
▁shout	-9350
▁tower	-9351
essions	-9352
itution	-9353
ometown	-9354
onsense	-9355
theless	-9356
▁Alaska	-9357
▁Arabic	-9358
▁Buddha	-9359
▁Canyon	-9360
▁Copern	-9361
▁Econom	-9362
▁Monday	-9363
▁brands	-9364
▁cataly	-9365
▁covers	-9366
▁donors	-9367
▁iconic	-9368
▁native	-9369
▁nights	-9370
▁packed	-9371
▁passes	-9372
▁plates	-9373
▁strain	-9374
▁sulfur	-9375
ergarten	-9376
ongevity	-9377
onscious	-9378
oriented	-9379
▁College	-9380
▁Jupiter	-9381
▁Namibia	-9382
▁authors	-9383
▁condoms	-9384
▁crashes	-9385
▁digging	-9386
▁distort	-9387
▁electro	-9388
▁eternal	-9389
▁fantasy	-9390
▁females	-9391
▁glimpse	-9392
▁happier	-9393
▁manager	-9394
▁notions	-9395
▁outrage	-9396
▁passive	-9397
▁request	-9398
▁rescued	-9399
▁rituals	-9400
▁shining	-9401
▁strands	-9402
▁thereby	-9403
▁useless	-9404
▁Olympics	-9405
▁Southern	-9406
▁adoption	-9407
▁advances	-9408
▁annivers	-9409
▁clusters	-9410
▁deployed	-9411
▁diamonds	-9412
▁dinosaur	-9413
▁disagree	-9414
▁gestures	-9415
▁historic	-9416
▁informed	-9417
▁keyboard	-9418
▁mushroom	-9419
▁opinions	-9420
▁perceive	-9421
▁redesign	-9422
▁switched	-9423
▁temporal	-9424
▁visually	-9425
▁volcanic	-9426
ustainable	-9427
▁Jefferson	-9428
▁Therefore	-9429
▁affecting	-9430
▁astronomy	-9431
▁cardboard	-9432
▁comparing	-9433
▁completed	-9434
▁compounds	-9435
▁consensus	-9436
▁emergence	-9437
▁mythology	-9438
▁paralyzed	-9439
▁perceived	-9440
▁reactions	-9441
▁succeeded	-9442
▁discipline	-9443
▁hypothesis	-9444
▁infections	-9445
▁profitable	-9446
▁approaching	-9447
▁celebration	-9448
▁composition	-9449
▁frustration	-9450
▁implemented	-9451
▁journalists	-9452
▁unfortunate	-9453
▁contribution	-9454
▁historically	-9455
▁transforming	-9456
▁mathematician	-9457
,'	-9458
Ch	-9459
fu	-9460
py	-9461
▁.	-9462
ado	-9463
fly	-9464
fur	-9465
gal	-9466
isc	-9467
ker	-9468
odd	-9469
vir	-9470
vol	-9471
yan	-9472
▁38	-9473
▁4.	-9474
▁46	-9475
▁KA	-9476
▁PR	-9477
▁UC	-9478
airo	-9479
itar	-9480
lean	-9481
mind	-9482
rint	-9483
uper	-9484
urop	-9485
▁Acc	-9486
▁Bab	-9487
▁Civ	-9488
▁Fif	-9489
▁Jac	-9490
▁Mas	-9491
▁Pop	-9492
▁ape	-9493
▁geo	-9494
▁hob	-9495
▁mud	-9496
▁nom	-9497
▁orb	-9498
▁pit	-9499
▁tin	-9500
▁tox	-9501
▁tur	-9502
▁vib	-9503
▁wid	-9504
ament	-9505
anged	-9506
anium	-9507
gical	-9508
grand	-9509
icial	-9510
idges	-9511
ierra	-9512
phony	-9513
rimin	-9514
sized	-9515
▁AIMS	-9516
▁Beck	-9517
▁Expl	-9518
▁Lord	-9519
▁Mean	-9520
▁Moon	-9521
▁Penn	-9522
▁Phot	-9523
▁Tues	-9524
▁chef	-9525
▁coin	-9526
▁lawn	-9527
▁mixt	-9528
▁moth	-9529
▁rope	-9530
▁sere	-9531
▁subt	-9532
▁symp	-9533
▁ties	-9534
▁turb	-9535
bulary	-9536
icient	-9537
imicry	-9538
ndrome	-9539
obiles	-9540
ograms	-9541
viewer	-9542
weeney	-9543
▁Alpha	-9544
▁Chile	-9545
▁belly	-9546
▁bench	-9547
▁clubs	-9548
▁crank	-9549
▁delay	-9550
▁energ	-9551
▁fruit	-9552
▁inher	-9553
▁irony	-9554
▁lasts	-9555
▁loses	-9556
▁obser	-9557
▁pause	-9558
▁pound	-9559
▁pulse	-9560
▁recru	-9561
▁risky	-9562
▁vivid	-9563
▁wiped	-9564
attered	-9565
million	-9566
ndering	-9567
▁Academ	-9568
▁Argent	-9569
▁Daniel	-9570
▁Darfur	-9571
▁Native	-9572
▁addict	-9573
▁adoles	-9574
▁apples	-9575
▁bullet	-9576
▁claims	-9577
▁copies	-9578
▁counts	-9579
▁divine	-9580
▁empath	-9581
▁fallen	-9582
▁folded	-9583
▁gravit	-9584
▁kicked	-9585
▁metaph	-9586
▁potato	-9587
▁puppet	-9588
▁scheme	-9589
▁sheets	-9590
▁smells	-9591
▁snakes	-9592
▁sooner	-9593
▁summar	-9594
▁temple	-9595
▁unseen	-9596
▁virtue	-9597
ventions	-9598
▁Alright	-9599
▁Society	-9600
▁Sputnik	-9601
▁Tuesday	-9602
▁Wolfram	-9603
▁arguing	-9604
▁barrier	-9605
▁bluefin	-9606
▁citizen	-9607
▁cooling	-9608
▁courses	-9609
▁default	-9610
▁devoted	-9611
▁grabbed	-9612
▁heading	-9613
▁hopeful	-9614
▁horizon	-9615
▁hostile	-9616
▁intrins	-9617
▁praying	-9618
▁proceed	-9619
▁propose	-9620
▁richest	-9621
▁scaling	-9622
▁transit	-9623
▁travels	-9624
▁visions	-9625
▁Buddhist	-9626
▁approved	-9627
▁believes	-9628
▁deciding	-9629
▁diarrhea	-9630
▁forecast	-9631
▁gorgeous	-9632
▁incorpor	-9633
▁insights	-9634
▁intended	-9635
▁randomly	-9636
▁regional	-9637
▁relation	-9638
▁revenues	-9639
▁sidewalk	-9640
▁survived	-9641
▁symbolic	-9642
▁algorithm	-9643
▁amazingly	-9644
▁diagnosed	-9645
▁elephants	-9646
▁illusions	-9647
▁involving	-9648
▁magazines	-9649
▁nonprofit	-9650
▁shoulders	-9651
▁statistic	-9652
▁surgeries	-9653
▁textbooks	-9654
▁Compassion	-9655
▁Technology	-9656
▁accumulate	-9657
▁autonomous	-9658
▁influenced	-9659
▁organizing	-9660
▁recognizes	-9661
▁relativity	-9662
▁terrifying	-9663
▁vocabulary	-9664
▁Interviewer	-9665
▁anniversary	-9666
▁catastrophe	-9667
▁legislation	-9668
▁mammography	-9669
▁reconstruct	-9670
▁biologically	-9671
▁encyclopedia	-9672
▁kindergarten	-9673
▁overwhelming	-9674
▁approximately	-9675
▁interconnected	-9676
▁electromagnetic	-9677
▁entrepreneurial	-9678
▁straightforward	-9679
?'	-9680
IN	-9681
alu	-9682
ili	-9683
osn	-9684
pal	-9685
psy	-9686
sea	-9687
ugu	-9688
upp	-9689
zee	-9690
▁Er	-9691
▁du	-9692
Cola	-9693
They	-9694
anna	-9695
bean	-9696
ccer	-9697
food	-9698
inos	-9699
lets	-9700
mate	-9701
offs	-9702
pres	-9703
roat	-9704
uber	-9705
xual	-9706
yles	-9707
▁30,	-9708
▁Arm	-9709
▁DAR	-9710
▁Dal	-9711
▁Gra	-9712
▁Sub	-9713
▁Ver	-9714
▁aug	-9715
▁awk	-9716
▁cul	-9717
▁cyl	-9718
▁fib	-9719
▁gel	-9720
▁pir	-9721
▁sir	-9722
▁tid	-9723
▁via	-9724
achel	-9725
aired	-9726
angle	-9727
burgh	-9728
ennis	-9729
ibati	-9730
ibles	-9731
plete	-9732
raine	-9733
speed	-9734
umbai	-9735
▁1900	-9736
▁Bern	-9737
▁Carl	-9738
▁Coca	-9739
▁Jane	-9740
▁Main	-9741
▁Rule	-9742
▁Sure	-9743
▁bite	-9744
▁blew	-9745
▁blur	-9746
▁chew	-9747
▁cope	-9748
▁crab	-9749
▁mood	-9750
▁nano	-9751
▁outs	-9752
▁perf	-9753
▁rays	-9754
▁ster	-9755
▁tect	-9756
▁tilt	-9757
▁wore	-9758
▁yard	-9759
ailand	-9760
ieties	-9761
income	-9762
iverse	-9763
person	-9764
shaped	-9765
umbled	-9766
unting	-9767
▁Agnes	-9768
▁Bonob	-9769
▁Civil	-9770
▁Danny	-9771
▁Harry	-9772
▁Pitts	-9773
▁Still	-9774
▁Trans	-9775
▁annoy	-9776
▁bills	-9777
▁bless	-9778
▁choir	-9779
▁deple	-9780
▁ethic	-9781
▁excit	-9782
▁gains	-9783
▁immig	-9784
▁ingen	-9785
▁inhab	-9786
▁laund	-9787
▁mater	-9788
▁pairs	-9789
▁parks	-9790
▁poems	-9791
▁rains	-9792
▁resur	-9793
▁sends	-9794
▁slope	-9795
▁suppl	-9796
▁surre	-9797
▁trips	-9798
▁tuned	-9799
▁woods	-9800
massive	-9801
ouncing	-9802
umbling	-9803
▁Little	-9804
▁Mathem	-9805
▁Mumbai	-9806
▁Twenty	-9807
▁Victor	-9808
▁abroad	-9809
▁absurd	-9810
▁agents	-9811
▁amazed	-9812
▁anatom	-9813
▁boards	-9814
▁bother	-9815
▁calend	-9816
▁candle	-9817
▁cattle	-9818
▁chains	-9819
▁copper	-9820
▁cracks	-9821
▁debris	-9822
▁exquis	-9823
▁famine	-9824
▁gained	-9825
▁grains	-9826
▁hatred	-9827
▁hybrid	-9828
▁modest	-9829
▁orgasm	-9830
▁pestic	-9831
▁radius	-9832
▁resemb	-9833
▁sensit	-9834
▁soccer	-9835
▁speaks	-9836
▁strand	-9837
▁stunts	-9838
▁unfold	-9839
conflict	-9840
▁Denmark	-9841
▁Seattle	-9842
▁antenna	-9843
▁aquatic	-9844
▁awkward	-9845
▁budgets	-9846
▁bureauc	-9847
▁dancers	-9848
▁doubled	-9849
▁enabled	-9850
▁exhibit	-9851
▁filling	-9852
▁follows	-9853
▁gallons	-9854
▁imaging	-9855
▁jewelry	-9856
▁kidding	-9857
▁laughed	-9858
▁matched	-9859
▁minimal	-9860
▁officer	-9861
▁pleased	-9862
▁protest	-9863
▁puzzles	-9864
▁smiling	-9865
▁spatial	-9866
▁whisper	-9867
▁worship	-9868
▁Brooklyn	-9869
▁Brothers	-9870
▁Columbia	-9871
▁Kiribati	-9872
▁TEDsters	-9873
▁Thailand	-9874
▁ambition	-9875
▁currency	-9876
▁detector	-9877
▁district	-9878
▁dropping	-9879
▁equality	-9880
▁exposure	-9881
▁freezing	-9882
▁lectures	-9883
▁modeling	-9884
▁offering	-9885
▁plankton	-9886
▁purchase	-9887
▁shipping	-9888
▁stranger	-9889
▁striking	-9890
▁thrilled	-9891
▁variable	-9892
▁worrying	-9893
▁Architect	-9894
▁Meanwhile	-9895
▁Professor	-9896
▁Venezuela	-9897
▁artifacts	-9898
▁certainty	-9899
▁competing	-9900
▁conductor	-9901
▁diagnosis	-9902
▁emphasize	-9903
▁factories	-9904
▁graduated	-9905
▁indicates	-9906
▁limestone	-9907
▁migration	-9908
▁millennia	-9909
▁motivated	-9910
▁mushrooms	-9911
▁neocortex	-9912
▁paralysis	-9913
▁parenting	-9914
▁pressures	-9915
▁processor	-9916
▁projected	-9917
▁sequences	-9918
▁witnessed	-9919
▁worldview	-9920
engineering	-9921
▁accomplish	-9922
▁addressing	-9923
▁enterprise	-9924
▁excitement	-9925
▁girlfriend	-9926
▁illustrate	-9927
▁legitimate	-9928
▁narratives	-9929
▁predicting	-9930
▁separation	-9931
▁chromosomes	-9932
▁embarrassed	-9933
▁nonetheless	-9934
▁practically	-9935
▁replacement	-9936
▁unconscious	-9937
▁continuously	-9938
▁economically	-9939
▁embarrassing	-9940
▁psychologist	-9941
▁satisfaction	-9942
▁computational	-9943
▁contradiction	-9944
▁controversial	-9945
▁interventions	-9946
▁participation	-9947
▁photographers	-9948
▁psychologists	-9949
BM	-9950
Fi	-9951
aa	-9952
wa	-9953
dam	-9954
eff	-9955
izz	-9956
ora	-9957
pay	-9958
▁48	-9959
▁Ec	-9960
▁MB	-9961
▁MS	-9962
▁Ol	-9963
▁SB	-9964
▁SJ	-9965
▁Vi	-9966
▁Wo	-9967
▁ic	-9968
Come	-9969
aver	-9970
born	-9971
burg	-9972
cium	-9973
gles	-9974
maid	-9975
oops	-9976
pace	-9977
ribe	-9978
zone	-9979
▁130	-9980
▁185	-9981
▁Abs	-9982
▁Bot	-9983
▁GPS	-9984
▁Hig	-9985
▁Kar	-9986
▁Lev	-9987
▁Men	-9988
▁Mos	-9989
▁Nep	-9990
▁Rio	-9991
▁bay	-9992
▁ego	-9993
▁fog	-9994
▁gad	-9995
▁mas	-9996
▁rap	-9997
apore	-9998
backs	-9999
eping	-10000
frame	-10001
ifies	-10002
illes	-10003
oured	-10004
thood	-10005
vable	-10006
▁2005	-10007
▁Band	-10008
▁Brun	-10009
▁Fred	-10010
▁Kids	-10011
▁Lama	-10012
▁Mald	-10013
▁Mama	-10014
▁Peps	-10015
▁Ross	-10016
▁Vill	-10017
▁bugs	-10018
▁dare	-10019
▁dodo	-10020
▁geck	-10021
▁heck	-10022
▁kidn	-10023
▁odor	-10024
▁quar	-10025
▁sale	-10026
▁shed	-10027
▁slum	-10028
▁sole	-10029
▁span	-10030
▁tact	-10031
▁wins	-10032
assemb	-10033
atical	-10034
inated	-10035
phabet	-10036
tering	-10037
verted	-10038
▁Heart	-10039
▁Large	-10040
▁Medic	-10041
▁Sarah	-10042
▁Turns	-10043
▁arbit	-10044
▁badly	-10045
▁brick	-10046
▁brush	-10047
▁codes	-10048
▁couch	-10049
▁firms	-10050
▁folds	-10051
▁grace	-10052
▁jumps	-10053
▁lifes	-10054
▁loads	-10055
▁morph	-10056
▁mutil	-10057
▁neutr	-10058
▁param	-10059
▁ratio	-10060
▁sheer	-10061
▁taboo	-10062
▁tanks	-10063
▁twins	-10064
▁veloc	-10065
ascular	-10066
imeters	-10067
ounding	-10068
vestock	-10069
▁Arthur	-10070
▁Bhutan	-10071
▁Norway	-10072
▁Notice	-10073
▁Rather	-10074
▁Sahara	-10075
▁Sierra	-10076
▁angles	-10077
▁balcon	-10078
▁condom	-10079
▁deadly	-10080
▁gallon	-10081
▁lifted	-10082
▁manner	-10083
▁nightm	-10084
▁proved	-10085
▁rating	-10086
▁spiral	-10087
▁stabil	-10088
▁traces	-10089
▁tricky	-10090
▁wheels	-10091
▁Academy	-10092
▁Defense	-10093
▁Indones	-10094
▁Luckily	-10095
▁applies	-10096
▁belongs	-10097
▁calcium	-10098
▁cluster	-10099
▁columns	-10100
▁compreh	-10101
▁cousins	-10102
▁crossed	-10103
▁exploit	-10104
▁farther	-10105
▁fossils	-10106
▁glacier	-10107
▁heating	-10108
▁hunters	-10109
▁impress	-10110
▁kingdom	-10111
▁lighter	-10112
▁longest	-10113
▁optical	-10114
▁planned	-10115
▁pouring	-10116
▁rhythms	-10117
▁shallow	-10118
▁tissues	-10119
▁utterly	-10120
▁wedding	-10121
expensive	-10122
▁Canadian	-10123
▁Leonardo	-10124
▁Russians	-10125
▁advertis	-10126
▁agencies	-10127
▁ancestor	-10128
▁blogging	-10129
▁chickens	-10130
▁cocktail	-10131
▁endeavor	-10132
▁entities	-10133
▁explicit	-10134
▁exploded	-10135
▁explored	-10136
▁feminist	-10137
▁frontier	-10138
▁indicate	-10139
▁injuries	-10140
▁innovate	-10141
▁minerals	-10142
▁multiply	-10143
▁potatoes	-10144
▁recycled	-10145
▁refugees	-10146
▁reinvent	-10147
▁robotics	-10148
▁scanning	-10149
▁seawater	-10150
▁sometime	-10151
▁sticking	-10152
▁surgeons	-10153
▁surgical	-10154
▁syndrome	-10155
▁teenager	-10156
▁thinkers	-10157
organizing	-10158
▁Elizabeth	-10159
▁Secretary	-10160
▁Singapore	-10161
▁bacterium	-10162
▁bandwidth	-10163
▁cellphone	-10164
▁contained	-10165
▁converted	-10166
▁delicious	-10167
▁formation	-10168
▁impressed	-10169
▁instances	-10170
▁instantly	-10171
▁institute	-10172
▁livestock	-10173
▁marvelous	-10174
▁negotiate	-10175
▁nurturing	-10176
▁occurring	-10177
▁preparing	-10178
▁regularly	-10179
▁residents	-10180
▁resistant	-10181
▁sensation	-10182
▁skeptical	-10183
▁temporary	-10184
forestation	-10185
▁Republican	-10186
▁anticipate	-10187
▁attraction	-10188
▁challenged	-10189
▁chimpanzee	-10190
▁classrooms	-10191
▁discussing	-10192
▁disturbing	-10193
▁frightened	-10194
▁generosity	-10195
▁influences	-10196
▁intangible	-10197
▁microphone	-10198
▁physicians	-10199
▁professors	-10200
▁punishment	-10201
▁researcher	-10202
▁specialist	-10203
▁treatments	-10204
▁commodities	-10205
▁constraints	-10206
▁philosopher	-10207
▁politically	-10208
▁appreciation	-10209
▁introduction	-10210
▁reproduction	-10211
▁gravitational	-10212
▁spontaneously	-10213
▁accountability	-10214
▁systematically	-10215
99	-10216
Af	-10217
As	-10218
Ex	-10219
eu	-10220
mo	-10221
ARS	-10222
Did	-10223
afe	-10224
eem	-10225
oor	-10226
pat	-10227
sur	-10228
uch	-10229
zer	-10230
▁43	-10231
▁AT	-10232
▁Id	-10233
▁PH	-10234
alin	-10235
anch	-10236
bial	-10237
coal	-10238
copy	-10239
fare	-10240
inch	-10241
long	-10242
ogan	-10243
oked	-10244
olen	-10245
omed	-10246
oric	-10247
orse	-10248
oton	-10249
rior	-10250
roup	-10251
umen	-10252
▁Dub	-10253
▁Emp	-10254
▁FDA	-10255
▁Joe	-10256
▁McC	-10257
▁Pot	-10258
▁Rom	-10259
▁Str	-10260
▁bin	-10261
▁nic	-10262
adows	-10263
amboo	-10264
arden	-10265
berry	-10266
ellow	-10267
ibera	-10268
ittee	-10269
metic	-10270
olera	-10271
oters	-10272
proof	-10273
shore	-10274
▁Eric	-10275
▁Jobs	-10276
▁Know	-10277
▁Mach	-10278
▁Nick	-10279
▁Nike	-10280
▁Serv	-10281
▁Wars	-10282
▁buff	-10283
▁cass	-10284
▁chat	-10285
▁deck	-10286
▁demo	-10287
▁epis	-10288
▁lobe	-10289
▁lump	-10290
▁porn	-10291
▁prey	-10292
▁quad	-10293
▁recl	-10294
▁slip	-10295
▁tale	-10296
ankind	-10297
iatric	-10298
inable	-10299
mining	-10300
ocaust	-10301
second	-10302
stairs	-10303
▁2009,	-10304
▁Dalai	-10305
▁Elect	-10306
▁Higgs	-10307
▁Jerry	-10308
▁Julia	-10309
▁Keith	-10310
▁Small	-10311
▁absor	-10312
▁advis	-10313
▁alloc	-10314
▁chalk	-10315
▁cloth	-10316
▁embry	-10317
▁entit	-10318
▁fails	-10319
▁frogs	-10320
▁hills	-10321
▁jokes	-10322
▁lingu	-10323
▁loyal	-10324
▁marsh	-10325
▁pione	-10326
▁reass	-10327
▁rehab	-10328
▁roofs	-10329
▁shops	-10330
▁spare	-10331
▁spite	-10332
▁squid	-10333
▁stare	-10334
▁suits	-10335
▁taxes	-10336
▁tunas	-10337
issance	-10338
thetics	-10339
▁12,000	-10340
▁15,000	-10341
▁Compan	-10342
▁Falcon	-10343
▁Marcus	-10344
▁Philip	-10345
▁accent	-10346
▁bamboo	-10347
▁cockro	-10348
▁combat	-10349
▁cookie	-10350
▁criter	-10351
▁cultiv	-10352
▁dispar	-10353
▁emails	-10354
▁enrich	-10355
▁floors	-10356
▁format	-10357
▁helmet	-10358
▁hooked	-10359
▁horror	-10360
▁labels	-10361
▁lonely	-10362
▁mapped	-10363
▁marrow	-10364
▁misery	-10365
▁mixing	-10366
▁mutual	-10367
▁nicely	-10368
▁oyster	-10369
▁purple	-10370
▁script	-10371
▁serves	-10372
▁slowed	-10373
▁tagged	-10374
▁tribal	-10375
▁upward	-10376
▁Charlie	-10377
▁Connect	-10378
▁History	-10379
▁blessed	-10380
▁clinics	-10381
▁disgust	-10382
▁dismiss	-10383
▁eastern	-10384
▁erectus	-10385
▁exagger	-10386
▁flights	-10387
▁fractal	-10388
▁fulfill	-10389
▁impulse	-10390
▁literal	-10391
▁lithium	-10392
▁luckily	-10393
▁mixture	-10394
▁nurture	-10395
▁profile	-10396
▁profits	-10397
▁screens	-10398
▁seventh	-10399
▁shorter	-10400
▁spheres	-10401
▁submers	-10402
▁teenage	-10403
▁trailer	-10404
▁trusted	-10405
▁warrior	-10406
▁weekend	-10407
▁wrapped	-10408
▁Mountain	-10409
▁alphabet	-10410
▁analyzed	-10411
▁autonomy	-10412
▁balloons	-10413
▁cellular	-10414
▁circular	-10415
▁concerns	-10416
▁contamin	-10417
▁degraded	-10418
▁drowning	-10419
▁hometown	-10420
▁mobility	-10421
▁railroad	-10422
▁revealed	-10423
▁secondly	-10424
▁stopping	-10425
▁touching	-10426
▁underest	-10427
▁youngest	-10428
▁activists	-10429
▁affection	-10430
▁attitudes	-10431
▁candidate	-10432
▁convicted	-10433
▁elaborate	-10434
▁integrity	-10435
▁libraries	-10436
▁longevity	-10437
▁portraits	-10438
▁promoting	-10439
▁screaming	-10440
▁surviving	-10441
▁varieties	-10442
▁vegetable	-10443
▁visualize	-10444
▁whistling	-10445
▁workplace	-10446
▁Pittsburgh	-10447
▁assistance	-10448
▁dependence	-10449
▁disappears	-10450
▁empowering	-10451
▁enthusiasm	-10452
▁fertilizer	-10453
▁metabolism	-10454
▁presenting	-10455
▁remarkably	-10456
▁translator	-10457
▁Fortunately	-10458
▁Palestinian	-10459
▁destructive	-10460
▁inexpensive	-10461
▁microscopic	-10462
▁realization	-10463
▁regulations	-10464
▁substantial	-10465
▁transistors	-10466
▁alternatives	-10467
▁authenticity	-10468
▁catastrophic	-10469
▁corporations	-10470
▁dictionaries	-10471
▁headquarters	-10472
ES	-10473
Go	-10474
Me	-10475
yg	-10476
zo	-10477
aza	-10478
bag	-10479
cav	-10480
idi	-10481
iki	-10482
orr	-10483
tra	-10484
ugs	-10485
zzy	-10486
▁AV	-10487
▁BP	-10488
▁Ev	-10489
▁IP	-10490
▁Sn	-10491
▁Us	-10492
Mart	-10493
alia	-10494
atar	-10495
cuse	-10496
eton	-10497
fire	-10498
hear	-10499
hill	-10500
icus	-10501
igma	-10502
ileo	-10503
inci	-10504
isha	-10505
itra	-10506
lers	-10507
mony	-10508
olar	-10509
onal	-10510
page	-10511
pled	-10512
▁450	-10513
▁Ark	-10514
▁Bre	-10515
▁Dad	-10516
▁Fem	-10517
▁Jon	-10518
▁Lib	-10519
▁Off	-10520
▁Sad	-10521
▁Say	-10522
▁Toy	-10523
▁arc	-10524
▁bip	-10525
▁hut	-10526
▁jam	-10527
▁jar	-10528
▁lam	-10529
▁rac	-10530
▁sib	-10531
▁twe	-10532
▁wre	-10533
Thank	-10534
anted	-10535
cycle	-10536
ladus	-10537
ourse	-10538
storm	-10539
tends	-10540
ubble	-10541
uropa	-10542
uther	-10543
vania	-10544
▁100,	-10545
▁1930	-10546
▁Alan	-10547
▁Bond	-10548
▁Cass	-10549
▁Cost	-10550
▁Data	-10551
▁Dean	-10552
▁Down	-10553
▁Ence	-10554
▁Food	-10555
▁Ivan	-10556
▁Lear	-10557
▁Pier	-10558
▁Rose	-10559
▁Scot	-10560
▁Sony	-10561
▁adds	-10562
▁disk	-10563
▁duty	-10564
▁extr	-10565
▁hack	-10566
▁holy	-10567
▁horm	-10568
▁hump	-10569
▁mang	-10570
▁obsc	-10571
▁rose	-10572
▁seam	-10573
▁solo	-10574
▁swap	-10575
▁tags	-10576
▁thus	-10577
▁unac	-10578
atrina	-10579
ection	-10580
ending	-10581
energy	-10582
enment	-10583
growth	-10584
ibbean	-10585
inding	-10586
istine	-10587
lihood	-10588
ogenic	-10589
ometer	-10590
ulator	-10591
▁2006,	-10592
▁2008,	-10593
▁Apoll	-10594
▁Eight	-10595
▁Fried	-10596
▁Kyoto	-10597
▁Pepsi	-10598
▁Princ	-10599
▁Psych	-10600
▁Solar	-10601
▁acute	-10602
▁ambit	-10603
▁blade	-10604
▁bonds	-10605
▁brave	-10606
▁candy	-10607
▁cared	-10608
▁clips	-10609
▁fears	-10610
▁fever	-10611
▁geese	-10612
▁germs	-10613
▁ghost	-10614
▁greed	-10615
▁greet	-10616
▁hatch	-10617
▁incub	-10618
▁lined	-10619
▁midst	-10620
▁mobil	-10621
▁moist	-10622
▁ozone	-10623
▁peers	-10624
▁relie	-10625
▁stamp	-10626
▁subsc	-10627
▁sucks	-10628
▁telec	-10629
▁towns	-10630
▁usage	-10631
▁valve	-10632
▁votes	-10633
alities	-10634
inative	-10635
olutely	-10636
osexual	-10637
parents	-10638
perform	-10639
quality	-10640
rection	-10641
▁Around	-10642
▁Europa	-10643
▁Kibera	-10644
▁Lakota	-10645
▁Social	-10646
▁asleep	-10647
▁bookst	-10648
▁checks	-10649
▁comedy	-10650
▁cosmos	-10651
▁crocod	-10652
▁dishes	-10653
▁equity	-10654
▁exotic	-10655
▁hotels	-10656
▁immort	-10657
▁interd	-10658
▁jungle	-10659
▁marker	-10660
▁occupy	-10661
▁powder	-10662
▁prayer	-10663
▁precip	-10664
▁prepar	-10665
▁psycho	-10666
▁riding	-10667
▁rolled	-10668
▁safely	-10669
▁salmon	-10670
▁shells	-10671
▁shifts	-10672
▁sovere	-10673
▁stereo	-10674
▁stolen	-10675
▁voyage	-10676
▁winner	-10677
computer	-10678
ifferent	-10679
positive	-10680
▁300,000	-10681
▁Caltech	-10682
▁Cassini	-10683
▁Galileo	-10684
▁Islamic	-10685
▁Natural	-10686
▁Sweeney	-10687
▁Village	-10688
▁acquire	-10689
▁amateur	-10690
▁artwork	-10691
▁ashamed	-10692
▁bridges	-10693
▁buttons	-10694
▁chaotic	-10695
▁charter	-10696
▁chasing	-10697
▁cholera	-10698
▁coastal	-10699
▁counsel	-10700
▁footage	-10701
▁generic	-10702
▁happily	-10703
▁janitor	-10704
▁labeled	-10705
▁mankind	-10706
▁mirrors	-10707
▁mustard	-10708
▁passage	-10709
▁reperto	-10710
▁returns	-10711
▁shifted	-10712
▁squares	-10713
▁Business	-10714
▁Maldives	-10715
▁attempts	-10716
▁balanced	-10717
▁baseline	-10718
▁bathroom	-10719
▁charcoal	-10720
▁crystall	-10721
▁deserves	-10722
▁elevator	-10723
▁embodied	-10724
▁envision	-10725
▁famously	-10726
▁flourish	-10727
▁glaciers	-10728
▁headline	-10729
▁helpless	-10730
▁interven	-10731
▁magician	-10732
▁migraine	-10733
▁minority	-10734
▁nonsense	-10735
▁nowadays	-10736
▁observer	-10737
▁optimism	-10738
▁prolifer	-10739
▁publicly	-10740
▁restrict	-10741
▁sections	-10742
ographical	-10743
▁According	-10744
▁Caribbean	-10745
▁Enceladus	-10746
▁Princeton	-10747
▁abandoned	-10748
▁addressed	-10749
▁aggregate	-10750
▁anonymous	-10751
▁answering	-10752
▁breakdown	-10753
▁champions	-10754
▁conducted	-10755
▁desperate	-10756
▁diplomacy	-10757
▁eliminate	-10758
▁fragments	-10759
▁geography	-10760
▁humankind	-10761
▁imagining	-10762
▁intensive	-10763
▁judgments	-10764
▁packaging	-10765
▁reasoning	-10766
▁reflected	-10767
▁apartments	-10768
▁approached	-10769
▁attachment	-10770
▁critically	-10771
▁describing	-10772
▁horizontal	-10773
▁intentions	-10774
▁likelihood	-10775
▁medication	-10776
▁parliament	-10777
▁previously	-10778
▁priorities	-10779
▁projection	-10780
▁randomness	-10781
▁reasonably	-10782
▁standpoint	-10783
▁sufficient	-10784
▁biomaterial	-10785
▁considering	-10786
▁correlation	-10787
▁documentary	-10788
▁expectation	-10789
▁investigate	-10790
▁operational	-10791
▁recognizing	-10792
▁sensitivity	-10793
▁specialized	-10794
▁Organization	-10795
▁improvements	-10796
▁participants	-10797
▁personalized	-10798
▁tremendously	-10799
▁environmentally	-10800
80	-10801
IA	-10802
SE	-10803
bu	-10804
hr	-10805
ja	-10806
no	-10807
300	-10808
One	-10809
awa	-10810
bye	-10811
cup	-10812
flu	-10813
hma	-10814
ods	-10815
rer	-10816
syl	-10817
wan	-10818
▁34	-10819
▁52	-10820
▁CN	-10821
▁CP	-10822
▁Hu	-10823
▁Ku	-10824
▁RG	-10825
▁Ra	-10826
▁ow	-10827
▁vo	-10828
▁ze	-10829
abad	-10830
aire	-10831
audi	-10832
bone	-10833
chet	-10834
core	-10835
emen	-10836
eros	-10837
gage	-10838
iana	-10839
know	-10840
mile	-10841
ocke	-10842
omic	-10843
ousy	-10844
oves	-10845
pons	-10846
redd	-10847
roid	-10848
roit	-10849
rove	-10850
stan	-10851
▁11,	-10852
▁12,	-10853
▁15-	-10854
▁Add	-10855
▁Ang	-10856
▁Dig	-10857
▁Fly	-10858
▁Has	-10859
▁IBM	-10860
▁Lee	-10861
▁Mel	-10862
▁Old	-10863
▁Pet	-10864
▁RNA	-10865
▁RSW	-10866
▁Sup	-10867
▁Tro	-10868
▁awe	-10869
▁gay	-10870
▁hij	-10871
▁jaw	-10872
▁rib	-10873
▁wow	-10874
Every	-10875
adium	-10876
agina	-10877
alore	-10878
appro	-10879
asive	-10880
avors	-10881
enger	-10882
glect	-10883
great	-10884
heart	-10885
heric	-10886
onaut	-10887
piece	-10888
urday	-10889
worth	-10890
▁Book	-10891
▁Cars	-10892
▁Cold	-10893
▁Didn	-10894
▁Emma	-10895
▁Evan	-10896
▁Hard	-10897
▁Lang	-10898
▁Pent	-10899
▁Plan	-10900
▁Post	-10901
▁Sher	-10902
▁Stop	-10903
▁Wait	-10904
▁Work	-10905
▁apes	-10906
▁aunt	-10907
▁beam	-10908
▁dece	-10909
▁dens	-10910
▁dirt	-10911
▁enab	-10912
▁inqu	-10913
▁lean	-10914
▁lips	-10915
▁mast	-10916
▁nail	-10917
▁offs	-10918
▁pond	-10919
▁ramp	-10920
▁rank	-10921
▁rust	-10922
▁sadd	-10923
▁sang	-10924
▁scal	-10925
▁scra	-10926
▁summ	-10927
▁unre	-10928
▁unst	-10929
▁util	-10930
▁vice	-10931
▁whip	-10932
action	-10933
carbon	-10934
coming	-10935
ements	-10936
employ	-10937
handed	-10938
health	-10939
iments	-10940
makers	-10941
placed	-10942
▁2001,	-10943
▁2003,	-10944
▁2005,	-10945
▁Carne	-10946
▁Color	-10947
▁Event	-10948
▁Matth	-10949
▁Roman	-10950
▁alarm	-10951
▁alert	-10952
▁blows	-10953
▁bluep	-10954
▁buses	-10955
▁chase	-10956
▁claws	-10957
▁crust	-10958
▁divid	-10959
▁dunes	-10960
▁dwell	-10961
▁epile	-10962
▁facil	-10963
▁fuzzy	-10964
▁gecko	-10965
▁grabs	-10966
▁grief	-10967
▁harsh	-10968
▁inequ	-10969
▁infra	-10970
▁irres	-10971
▁loans	-10972
▁macro	-10973
▁maneu	-10974
▁marks	-10975
▁myths	-10976
▁naive	-10977
▁norms	-10978
▁pumps	-10979
▁recur	-10980
▁revel	-10981
▁salad	-10982
▁veter	-10983
▁watts	-10984
banisha	-10985
develop	-10986
iscover	-10987
version	-10988
▁25,000	-10989
▁Having	-10990
▁Joseph	-10991
▁angels	-10992
▁assets	-10993
▁beside	-10994
▁canvas	-10995
▁crafts	-10996
▁elders	-10997
▁finite	-10998
▁fixing	-10999
▁freeze	-11000
▁grades	-11001
▁hammer	-11002
▁hotter	-11003
▁hunter	-11004
▁lately	-11005
▁lenses	-11006
▁mantis	-11007
▁pilots	-11008
▁refuse	-11009
▁reserv	-11010
▁spills	-11011
▁stairs	-11012
▁timing	-11013
▁titles	-11014
▁unimag	-11015
▁viable	-11016
▁violin	-11017
▁waited	-11018
lessness	-11019
othermal	-11020
sylvania	-11021
velength	-11022
▁150,000	-11023
▁Certain	-11024
▁Detroit	-11025
▁Francis	-11026
▁Journal	-11027
▁Looking	-11028
▁Philipp	-11029
▁catalog	-11030
▁confirm	-11031
▁conspir	-11032
▁cracked	-11033
▁crochet	-11034
▁denomin	-11035
▁dreamed	-11036
▁elderly	-11037
▁equator	-11038
▁expense	-11039
▁frontal	-11040
▁gardens	-11041
▁handful	-11042
▁laundry	-11043
▁neglect	-11044
▁ordered	-11045
▁pedestr	-11046
▁seeking	-11047
▁sensing	-11048
▁shortly	-11049
▁squared	-11050
▁textile	-11051
▁tipping	-11052
▁touches	-11053
ropolitan	-11054
▁Egyptian	-11055
▁Saturday	-11056
▁Together	-11057
▁abundant	-11058
▁adaptive	-11059
▁barriers	-11060
▁baseball	-11061
▁basement	-11062
▁checking	-11063
▁circuits	-11064
▁colorful	-11065
▁complain	-11066
▁composed	-11067
▁confined	-11068
▁envelope	-11069
▁evolving	-11070
▁founding	-11071
▁hopeless	-11072
▁humility	-11073
▁indirect	-11074
▁juggling	-11075
▁membrane	-11076
▁mentally	-11077
▁obstacle	-11078
▁operator	-11079
▁photosyn	-11080
▁pipeline	-11081
▁planting	-11082
▁presents	-11083
▁pristine	-11084
▁promised	-11085
▁promises	-11086
▁sexually	-11087
▁shocking	-11088
▁socially	-11089
▁suburban	-11090
▁velocity	-11091
▁websites	-11092
▁Bangalore	-11093
▁Education	-11094
▁Indonesia	-11095
▁Parkinson	-11096
▁activated	-11097
▁ambitious	-11098
▁attacking	-11099
▁celebrity	-11100
▁consuming	-11101
▁demograph	-11102
▁estimates	-11103
▁extensive	-11104
▁generates	-11105
▁improvise	-11106
▁launching	-11107
▁mammogram	-11108
▁medicines	-11109
▁metaphors	-11110
▁overnight	-11111
▁platforms	-11112
▁preserved	-11113
▁processed	-11114
▁realities	-11115
▁screening	-11116
▁secondary	-11117
▁triangles	-11118
▁vibrating	-11119
▁Eventually	-11120
▁Panbanisha	-11121
▁accelerate	-11122
▁accounting	-11123
▁candidates	-11124
▁convincing	-11125
▁culturally	-11126
▁disconnect	-11127
▁irrigation	-11128
▁networking	-11129
▁politician	-11130
▁preventing	-11131
▁procedures	-11132
▁prototypes	-11133
▁repertoire	-11134
▁sculptures	-11135
▁statements	-11136
▁suggestion	-11137
▁synthesize	-11138
▁transistor	-11139
▁worthwhile	-11140
▁continually	-11141
▁destination	-11142
▁enlightened	-11143
▁frequencies	-11144
▁instruction	-11145
▁integration	-11146
▁preparation	-11147
▁prototyping	-11148
▁statistical	-11149
▁transported	-11150
▁wonderfully	-11151
▁Pennsylvania	-11152
▁coordination	-11153
▁disappearing	-11154
▁disappointed	-11155
▁explanations	-11156
▁fluctuations	-11157
▁personalities	-11158
▁revolutionary	-11159
HC	-11160
IP	-11161
tr	-11162
tt	-11163
vy	-11164
yd	-11165
400	-11166
For	-11167
ISD	-11168
aph	-11169
but	-11170
dad	-11171
hil	-11172
iju	-11173
rah	-11174
roc	-11175
xon	-11176
▁98	-11177
▁DD	-11178
▁IR	-11179
▁KT	-11180
▁Mi	-11181
▁ST	-11182
Sook	-11183
Star	-11184
abwe	-11185
acre	-11186
aque	-11187
arat	-11188
bing	-11189
egas	-11190
eram	-11191
etts	-11192
five	-11193
four	-11194
ickr	-11195
ieth	-11196
iflu	-11197
iner	-11198
izza	-11199
neum	-11200
nutr	-11201
otal	-11202
oter	-11203
ovir	-11204
rays	-11205
rish	-11206
rose	-11207
rypt	-11208
teen	-11209
type	-11210
uest	-11211
ummy	-11212
▁1.5	-11213
▁12.	-11214
▁125	-11215
▁13.	-11216
▁40-	-11217
▁50,	-11218
▁900	-11219
▁BMW	-11220
▁Dev	-11221
▁IDE	-11222
▁McL	-11223
▁NGO	-11224
▁Nav	-11225
▁Nin	-11226
▁Ooh	-11227
▁Rog	-11228
▁Sel	-11229
▁Sum	-11230
▁Too	-11231
▁Tre	-11232
▁cum	-11233
▁los	-11234
▁pix	-11235
▁unp	-11236
▁unw	-11237
Great	-11238
achus	-11239
alone	-11240
aming	-11241
epher	-11242
erers	-11243
gebra	-11244
ijing	-11245
iumph	-11246
mates	-11247
ritic	-11248
rolab	-11249
stick	-11250
ulses	-11251
▁2001	-11252
▁Army	-11253
▁Bell	-11254
▁Bosn	-11255
▁Full	-11256
▁Gall	-11257
▁Hyun	-11258
▁Keep	-11259
▁Matt	-11260
▁Nich	-11261
▁Oper	-11262
▁RISD	-11263
▁SARS	-11264
▁Slow	-11265
▁Whit	-11266
▁Year	-11267
▁axes	-11268
▁buck	-11269
▁deaf	-11270
▁dose	-11271
▁dune	-11272
▁edit	-11273
▁envy	-11274
▁fier	-11275
▁grim	-11276
▁herd	-11277
▁hint	-11278
▁keys	-11279
▁menu	-11280
▁mild	-11281
▁perm	-11282
▁pipe	-11283
▁rupe	-11284
▁sket	-11285
▁skyd	-11286
achers	-11287
airobi	-11288
alized	-11289
asters	-11290
astics	-11291
cision	-11292
design	-11293
ertips	-11294
govern	-11295
iances	-11296
iately	-11297
ijuana	-11298
lights	-11299
minded	-11300
ologic	-11301
screen	-11302
strong	-11303
▁1,100	-11304
▁Barry	-11305
▁Exxon	-11306
▁Inuit	-11307
▁Kelly	-11308
▁Moses	-11309
▁Music	-11310
▁Nepal	-11311
▁Prime	-11312
▁Saudi	-11313
▁acids	-11314
▁ambul	-11315
▁arise	-11316
▁bleed	-11317
▁bumps	-11318
▁chore	-11319
▁flesh	-11320
▁flown	-11321
▁glory	-11322
▁homin	-11323
▁hoped	-11324
▁hunch	-11325
▁juice	-11326
▁lanes	-11327
▁limbs	-11328
▁merch	-11329
▁merit	-11330
▁moder	-11331
▁nomin	-11332
▁oblig	-11333
▁patri	-11334
▁rides	-11335
▁sells	-11336
▁steak	-11337
▁templ	-11338
▁wells	-11339
▁wrink	-11340
▁yards	-11341
assador	-11342
ictions	-11343
imbabwe	-11344
iogenic	-11345
iterate	-11346
itorium	-11347
sterdam	-11348
umental	-11349
umented	-11350
▁Acumen	-11351
▁Barack	-11352
▁Bertie	-11353
▁Flickr	-11354
▁Forest	-11355
▁Galois	-11356
▁Ground	-11357
▁Hadron	-11358
▁Incred	-11359
▁Korean	-11360
▁Nether	-11361
▁Nicole	-11362
▁Reagan	-11363
▁Simple	-11364
▁Warren	-11365
▁apolog	-11366
▁argued	-11367
▁assure	-11368
▁camels	-11369
▁cathed	-11370
▁cliffs	-11371
▁cousin	-11372
▁dating	-11373
▁depths	-11374
▁expose	-11375
▁fruits	-11376
▁hiding	-11377
▁hollow	-11378
▁insert	-11379
▁mammal	-11380
▁murder	-11381
▁orient	-11382
▁pirate	-11383
▁poorer	-11384
▁posted	-11385
▁preced	-11386
▁prosth	-11387
▁reader	-11388
▁regist	-11389
▁scarce	-11390
▁shield	-11391
▁shower	-11392
▁spades	-11393
▁stockp	-11394
▁submit	-11395
▁suburb	-11396
▁syring	-11397
▁tennis	-11398
▁weighs	-11399
elligent	-11400
ithmetic	-11401
▁Beijing	-11402
▁Georgia	-11403
▁Katrina	-11404
▁Nairobi	-11405
▁Supreme	-11406
▁Tamiflu	-11407
▁Windows	-11408
▁abalone	-11409
▁affairs	-11410
▁altered	-11411
▁bankers	-11412
▁beaches	-11413
▁cardiac	-11414
▁compact	-11415
▁compute	-11416
▁diamond	-11417
▁drivers	-11418
▁drought	-11419
▁emerges	-11420
▁folding	-11421
▁greatly	-11422
▁heights	-11423
▁injured	-11424
▁logging	-11425
▁magnets	-11426
▁mineral	-11427
▁observe	-11428
▁planted	-11429
▁polymer	-11430
▁posture	-11431
▁recipes	-11432
▁refined	-11433
▁refused	-11434
▁relates	-11435
▁shaking	-11436
▁spirits	-11437
▁swallow	-11438
▁talents	-11439
▁thermal	-11440
▁torture	-11441
▁trapped	-11442
▁warfare	-11443
▁whistle	-11444
▁whoever	-11445
▁wonders	-11446
achusetts	-11447
ependence	-11448
▁Carnegie	-11449
▁Collider	-11450
▁Stirling	-11451
▁TEDTalks	-11452
▁Williams	-11453
▁actively	-11454
▁activist	-11455
▁altruism	-11456
▁assembly	-11457
▁athletes	-11458
▁autistic	-11459
▁civilian	-11460
▁cleaning	-11461
▁compound	-11462
▁constitu	-11463
▁crawling	-11464
▁criteria	-11465
▁cylinder	-11466
▁defining	-11467
▁disabled	-11468
▁happiest	-11469
▁improvis	-11470
▁misunder	-11471
▁motivate	-11472
▁offshore	-11473
▁operates	-11474
▁overhead	-11475
▁passions	-11476
▁persuade	-11477
▁portable	-11478
▁producer	-11479
▁protocol	-11480
▁pursuing	-11481
▁sketches	-11482
▁stewards	-11483
▁supports	-11484
▁synchron	-11485
▁tropical	-11486
▁uniquely	-11487
angiogenic	-11488
ifications	-11489
▁Amsterdam	-11490
▁Darwinian	-11491
▁Hopefully	-11492
▁appearing	-11493
▁associate	-11494
▁decentral	-11495
▁disorders	-11496
▁gratitude	-11497
▁immensely	-11498
▁kilograms	-11499
▁kilometer	-11500
▁marijuana	-11501
▁observing	-11502
▁officials	-11503
▁principal	-11504
▁reporting	-11505
▁resilient	-11506
▁returning	-11507
▁satisfied	-11508
▁sequenced	-11509
▁submarine	-11510
▁synthesis	-11511
▁voluntary	-11512
▁wandering	-11513
▁Especially	-11514
▁centimeter	-11515
▁delivering	-11516
▁footprints	-11517
▁frequently	-11518
▁friendship	-11519
▁indication	-11520
▁inherently	-11521
▁intriguing	-11522
▁inventions	-11523
▁invitation	-11524
▁playground	-11525
▁responding	-11526
▁systematic	-11527
▁wavelength	-11528
▁Netherlands	-11529
▁automobiles	-11530
▁controversy	-11531
▁countryside	-11532
▁devastating	-11533
▁distinction	-11534
▁flexibility	-11535
▁frustrating	-11536
▁meaningless	-11537
▁negotiating	-11538
▁negotiation	-11539
▁rainforests	-11540
▁storyteller	-11541
▁synesthesia	-11542
▁grandparents	-11543
▁intersection	-11544
▁intervention	-11545
▁manipulation	-11546
▁nevertheless	-11547
▁prescription	-11548
▁representing	-11549
▁Interestingly	-11550
▁biotechnology	-11551
▁configuration	-11552
▁exponentially	-11553
▁participating	-11554
▁industrialized	-11555
▁bioluminescence	-11556
40	-11557
Ar	-11558
HO	-11559
Hi	-11560
ju	-11561
mn	-11562
600	-11563
800	-11564
Day	-11565
Mom	-11566
adp	-11567
aga	-11568
aid	-11569
arn	-11570
eyn	-11571
fts	-11572
isy	-11573
jud	-11574
non	-11575
ols	-11576
omy	-11577
oof	-11578
oux	-11579
pen	-11580
run	-11581
you	-11582
▁DG	-11583
▁DP	-11584
▁Ju	-11585
▁MA	-11586
▁NM	-11587
▁TS	-11588
▁VC	-11589
▁Wr	-11590
Good	-11591
acks	-11592
arks	-11593
bles	-11594
brow	-11595
bule	-11596
flow	-11597
ften	-11598
hall	-11599
hany	-11600
igan	-11601
iper	-11602
leum	-11603
lied	-11604
mine	-11605
nest	-11606
onto	-11607
rane	-11608
text	-11609
thal	-11610
ugal	-11611
uled	-11612
▁1.3	-11613
▁160	-11614
▁50-	-11615
▁Ach	-11616
▁Bad	-11617
▁Cat	-11618
▁Hot	-11619
▁Ill	-11620
▁Imp	-11621
▁Isa	-11622
▁LHC	-11623
▁Las	-11624
▁Map	-11625
▁Mot	-11626
▁Rel	-11627
▁Ric	-11628
▁Sty	-11629
▁Wil	-11630
▁agn	-11631
▁blo	-11632
▁dim	-11633
▁dys	-11634
▁les	-11635
▁owe	-11636
▁zoo	-11637
Point	-11638
abyte	-11639
acent	-11640
arded	-11641
athon	-11642
eenth	-11643
ensed	-11644
ergio	-11645
ilibr	-11646
ilson	-11647
inent	-11648
ipcar	-11649
izona	-11650
lical	-11651
olith	-11652
oping	-11653
ordon	-11654
ouses	-11655
ravel	-11656
roots	-11657
uster	-11658
venue	-11659
▁CEOs	-11660
▁Dick	-11661
▁Marg	-11662
▁Mola	-11663
▁Pass	-11664
▁Real	-11665
▁Sadd	-11666
▁Side	-11667
▁Such	-11668
▁Sudh	-11669
▁alar	-11670
▁bass	-11671
▁bats	-11672
▁boot	-11673
▁bowl	-11674
▁bron	-11675
▁budd	-11676
▁cage	-11677
▁conj	-11678
▁esca	-11679
▁fate	-11680
▁feas	-11681
▁flap	-11682
▁gaze	-11683
▁lege	-11684
▁lure	-11685
▁mama	-11686
▁padd	-11687
▁pron	-11688
▁semi	-11689
▁skip	-11690
▁suey	-11691
▁tadp	-11692
▁tips	-11693
▁ware	-11694
▁worm	-11695
boards	-11696
charge	-11697
formed	-11698
orters	-11699
ouched	-11700
ounder	-11701
rocess	-11702
social	-11703
ulates	-11704
▁2020.	-11705
▁8,000	-11706
▁Benki	-11707
▁DARPA	-11708
▁Emily	-11709
▁Exact	-11710
▁Freud	-11711
▁Intel	-11712
▁Leban	-11713
▁Often	-11714
▁Roots	-11715
▁Royal	-11716
▁Short	-11717
▁Sioux	-11718
▁Techn	-11719
▁Treat	-11720
▁Vegas	-11721
▁armed	-11722
▁asset	-11723
▁awake	-11724
▁backs	-11725
▁baker	-11726
▁beans	-11727
▁bonus	-11728
▁booms	-11729
▁boots	-11730
▁brows	-11731
▁burns	-11732
▁cares	-11733
▁dealt	-11734
▁dimin	-11735
▁doses	-11736
▁eager	-11737
▁escal	-11738
▁faint	-11739
▁gifts	-11740
▁halls	-11741
▁hobby	-11742
▁icons	-11743
▁infer	-11744
▁lakes	-11745
▁lever	-11746
▁nasty	-11747
▁parag	-11748
▁piles	-11749
▁pneum	-11750
▁rigid	-11751
▁riots	-11752
▁slave	-11753
▁slept	-11754
▁snake	-11755
▁sober	-11756
▁spine	-11757
▁stair	-11758
▁swear	-11759
▁swing	-11760
▁tread	-11761
▁twent	-11762
▁unity	-11763
▁vocal	-11764
▁withd	-11765
atories	-11766
frontal	-11767
growing	-11768
illance	-11769
ocratic	-11770
ospital	-11771
product	-11772
▁Easter	-11773
▁Energy	-11774
▁Engine	-11775
▁Gordon	-11776
▁Jersey	-11777
▁Ladies	-11778
▁Marine	-11779
▁Mozart	-11780
▁Nathan	-11781
▁Public	-11782
▁Sergio	-11783
▁Shoots	-11784
▁Sobule	-11785
▁Venter	-11786
▁Wilson	-11787
▁admire	-11788
▁bounce	-11789
▁bypass	-11790
▁cellul	-11791
▁cement	-11792
▁coined	-11793
▁county	-11794
▁depart	-11795
▁digits	-11796
▁enters	-11797
▁enzyme	-11798
▁execut	-11799
▁expend	-11800
▁filmed	-11801
▁fungus	-11802
▁guitar	-11803
▁insign	-11804
▁intest	-11805
▁intric	-11806
▁lethal	-11807
▁loaded	-11808
▁losses	-11809
▁louder	-11810
▁mature	-11811
▁offers	-11812
▁purely	-11813
▁ration	-11814
▁salary	-11815
▁singer	-11816
▁underp	-11817
▁undert	-11818
▁viewed	-11819
▁viewer	-11820
▁wasted	-11821
attering	-11822
culation	-11823
ilibrium	-11824
▁Arizona	-11825
▁Command	-11826
▁Stories	-11827
▁Suppose	-11828
▁Swedish	-11829
▁TEDster	-11830
▁Toronto	-11831
▁Turkish	-11832
▁algebra	-11833
▁anytime	-11834
▁appoint	-11835
▁chronic	-11836
▁commons	-11837
▁copying	-11838
▁deficit	-11839
▁desires	-11840
▁enzymes	-11841
▁forgive	-11842
▁genomes	-11843
▁holiday	-11844
▁jumping	-11845
▁matches	-11846
▁morally	-11847
▁peanuts	-11848
▁prevail	-11849
▁prisons	-11850
▁recycle	-11851
▁rockets	-11852
▁romance	-11853
▁sadness	-11854
▁shelves	-11855
▁stadium	-11856
▁stagger	-11857
▁strikes	-11858
▁surplus	-11859
▁tagging	-11860
▁thirdly	-11861
▁thunder	-11862
▁triumph	-11863
▁volumes	-11864
▁wounded	-11865
condition	-11866
▁Moreover	-11867
▁abnormal	-11868
▁atheists	-11869
▁calendar	-11870
▁contents	-11871
▁displays	-11872
▁division	-11873
▁duration	-11874
▁employee	-11875
▁habitats	-11876
▁impaired	-11877
▁informal	-11878
▁intimate	-11879
▁inviting	-11880
▁literary	-11881
▁managing	-11882
▁maneuver	-11883
▁memorial	-11884
▁modified	-11885
▁mutation	-11886
▁optimize	-11887
▁patience	-11888
▁periodic	-11889
▁priority	-11890
▁reflects	-11891
▁rejected	-11892
▁rotating	-11893
▁sympathy	-11894
▁unemploy	-11895
▁vacation	-11896
▁Argentina	-11897
▁Armstrong	-11898
▁Brazilian	-11899
▁Himalayas	-11900
▁achieving	-11901
▁addiction	-11902
▁afterward	-11903
▁asteroids	-11904
▁attracted	-11905
▁billboard	-11906
▁blindness	-11907
▁carbonate	-11908
▁distorted	-11909
▁educating	-11910
▁fertility	-11911
▁finishing	-11912
▁fisheries	-11913
▁heartbeat	-11914
▁ignorance	-11915
▁integrate	-11916
▁interfere	-11917
▁metabolic	-11918
▁petroleum	-11919
▁simulated	-11920
▁struggled	-11921
▁terrified	-11922
▁terrorist	-11923
▁Absolutely	-11924
▁Industrial	-11925
▁Mathematic	-11926
▁Vietnamese	-11927
▁attributes	-11928
▁beneficial	-11929
▁calculated	-11930
▁capacities	-11931
▁celebrated	-11932
▁diagnostic	-11933
▁disruptive	-11934
▁distribute	-11935
▁exceptions	-11936
▁infectious	-11937
▁infinitely	-11938
▁innovators	-11939
▁interfaces	-11940
▁practicing	-11941
▁propaganda	-11942
▁prosthetic	-11943
▁quantities	-11944
▁regulation	-11945
▁Development	-11946
▁accompanied	-11947
▁collaborate	-11948
▁commercials	-11949
▁convergence	-11950
▁discussions	-11951
▁equilibrium	-11952
▁perceptions	-11953
▁preventable	-11954
▁problematic	-11955
▁programmers	-11956
▁remembering	-11957
▁spontaneous	-11958
▁transmitted	-11959
▁understands	-11960
▁availability	-11961
▁demonstrated	-11962
▁disconnected	-11963
▁incidentally	-11964
▁interviewing	-11965
▁observations	-11966
▁supermassive	-11967
▁Massachusetts	-11968
▁comprehensive	-11969
▁corresponding	-11970
▁investigation	-11971
▁philosophical	-11972
▁antiangiogenic	-11973
▁characteristic	-11974
▁scientifically	-11975
To	-11976
ba	-11977
ni	-11978
11,	-11979
HIN	-11980
abs	-11981
bie	-11982
ctr	-11983
ecd	-11984
las	-11985
lav	-11986
mia	-11987
vae	-11988
vin	-11989
whe	-11990
▁DJ	-11991
▁Gi	-11992
▁Sk	-11993
▁UN	-11994
▁dy	-11995
adel	-11996
anzi	-11997
apot	-11998
arse	-11999
aven	-12000
carb	-12001
ccol	-12002
ched	-12003
cils	-12004
cult	-12005
hops	-12006
ippi	-12007
mann	-12008
olia	-12009
opes	-12010
ouge	-12011
phia	-12012
phor	-12013
rats	-12014
tion	-12015
ucky	-12016
urdy	-12017
wart	-12018
warz	-12019
yrus	-12020
▁14-	-12021
▁180	-12022
▁186	-12023
▁189	-12024
▁24-	-12025
▁Ask	-12026
▁Bat	-12027
▁Est	-12028
▁Fed	-12029
▁Han	-12030
▁Hem	-12031
▁IMF	-12032
▁Lyn	-12033
▁Mid	-12034
▁Pen	-12035
▁Pra	-12036
▁Sin	-12037
▁Ult	-12038
▁caf	-12039
▁cod	-12040
▁fer	-12041
▁fra	-12042
▁gur	-12043
▁gym	-12044
▁kit	-12045
▁mim	-12046
▁obe	-12047
▁ray	-12048
▁sap	-12049
▁vit	-12050
▁woo	-12051
ancer	-12052
aware	-12053
ccoli	-12054
eches	-12055
essim	-12056
ettes	-12057
icell	-12058
ieval	-12059
iraff	-12060
occup	-12061
ripts	-12062
rovir	-12063
ucked	-12064
ymmet	-12065
▁Bird	-12066
▁Fall	-12067
▁IDEO	-12068
▁Jews	-12069
▁Mall	-12070
▁Mind	-12071
▁Peru	-12072
▁Pink	-12073
▁Show	-12074
▁Sold	-12075
▁Stat	-12076
▁Stay	-12077
▁Type	-12078
▁Virt	-12079
▁apoc	-12080
▁appe	-12081
▁beet	-12082
▁bent	-12083
▁bulk	-12084
▁dome	-12085
▁eats	-12086
▁godd	-12087
▁hamb	-12088
▁heel	-12089
▁jury	-12090
▁lava	-12091
▁mash	-12092
▁narc	-12093
▁outl	-12094
▁rage	-12095
▁rear	-12096
▁rode	-12097
▁seiz	-12098
▁swam	-12099
▁thor	-12100
▁toll	-12101
▁trap	-12102
▁unin	-12103
abytes	-12104
consum	-12105
epherd	-12106
master	-12107
olving	-12108
rogram	-12109
uclear	-12110
▁1990,	-12111
▁2000.	-12112
▁Beach	-12113
▁Grace	-12114
▁Leone	-12115
▁Molas	-12116
▁Nolly	-12117
▁Paulo	-12118
▁Point	-12119
▁Radio	-12120
▁Roger	-12121
▁Rouge	-12122
▁Saint	-12123
▁Tower	-12124
▁Truth	-12125
▁Whole	-12126
▁album	-12127
▁anecd	-12128
▁ceram	-12129
▁chord	-12130
▁deleg	-12131
▁drain	-12132
▁draws	-12133
▁flock	-12134
▁hears	-12135
▁impat	-12136
▁index	-12137
▁inert	-12138
▁knees	-12139
▁mimic	-12140
▁nodes	-12141
▁pizza	-12142
▁poets	-12143
▁repet	-12144
▁royal	-12145
▁ruins	-12146
▁scope	-12147
▁scuba	-12148
▁slice	-12149
▁snaps	-12150
▁strat	-12151
▁traff	-12152
▁unint	-12153
Because	-12154
agement	-12155
ception	-12156
istance	-12157
lements	-12158
ometers	-12159
quarium	-12160
sharing	-12161
ulative	-12162
▁Andrew	-12163
▁Cancer	-12164
▁Desert	-12165
▁Empire	-12166
▁Kansas	-12167
▁Luther	-12168
▁Maslow	-12169
▁Murray	-12170
▁Norman	-12171
▁Office	-12172
▁Sudhir	-12173
▁Yellow	-12174
▁aerial	-12175
▁asthma	-12176
▁banned	-12177
▁benign	-12178
▁biases	-12179
▁bloody	-12180
▁cables	-12181
▁chimps	-12182
▁contag	-12183
▁cooler	-12184
▁crowds	-12185
▁denial	-12186
▁entity	-12187
▁ethics	-12188
▁exceed	-12189
▁frames	-12190
▁handed	-12191
▁inputs	-12192
▁larvae	-12193
▁melted	-12194
▁microp	-12195
▁mouths	-12196
▁pessim	-12197
▁potent	-12198
▁presum	-12199
▁queens	-12200
▁respir	-12201
▁rupees	-12202
▁slaves	-12203
▁slogan	-12204
▁speeds	-12205
▁steady	-12206
▁sticky	-12207
▁towers	-12208
▁trauma	-12209
▁unexpl	-12210
▁voters	-12211
adelphia	-12212
chemical	-12213
controll	-12214
ountered	-12215
pectives	-12216
▁Exactly	-12217
▁Kingdom	-12218
▁Langley	-12219
▁Schwarz	-12220
▁Service	-12221
▁Similar	-12222
▁apprent	-12223
▁auction	-12224
▁blocked	-12225
▁cabinet	-12226
▁capsule	-12227
▁categor	-12228
▁clarity	-12229
▁complim	-12230
▁cookies	-12231
▁crushed	-12232
▁dragged	-12233
▁earning	-12234
▁editing	-12235
▁episode	-12236
▁fathers	-12237
▁filters	-12238
▁invaded	-12239
▁mentors	-12240
▁migrate	-12241
▁needles	-12242
▁partial	-12243
▁priorit	-12244
▁reduces	-12245
▁regimes	-12246
▁restric	-12247
▁seafood	-12248
▁seasons	-12249
▁settled	-12250
▁skilled	-12251
▁tightly	-12252
▁tourist	-12253
istically	-12254
▁Consider	-12255
▁Lawrence	-12256
▁Margaret	-12257
▁Marshall	-12258
▁Pentagon	-12259
▁Scottish	-12260
▁accuracy	-12261
▁acoustic	-12262
▁ancestry	-12263
▁assigned	-12264
▁astrolab	-12265
▁colonial	-12266
▁conceive	-12267
▁consists	-12268
▁contacts	-12269
▁democrat	-12270
▁depended	-12271
▁employed	-12272
▁gigantic	-12273
▁immortal	-12274
▁infinity	-12275
▁infrared	-12276
▁kilogram	-12277
▁noticing	-12278
▁observed	-12279
▁paradise	-12280
▁rainfall	-12281
▁redefine	-12282
▁referred	-12283
▁releases	-12284
▁resident	-12285
▁sacrific	-12286
▁schedule	-12287
▁sessions	-12288
▁squatter	-12289
▁starving	-12290
▁stunning	-12291
▁supernov	-12292
▁talented	-12293
▁visiting	-12294
▁weekends	-12295
▁Biosphere	-12296
▁Certainly	-12297
▁Mountains	-12298
▁Nollywood	-12299
▁academics	-12300
▁cigarette	-12301
▁committee	-12302
▁container	-12303
▁declining	-12304
▁diffusion	-12305
▁directors	-12306
▁displaced	-12307
▁elevation	-12308
▁eradicate	-12309
▁extending	-12310
▁fishermen	-12311
▁galleries	-12312
▁imitation	-12313
▁injection	-12314
▁installed	-12315
▁intersect	-12316
▁lightning	-12317
▁microbial	-12318
▁mutations	-12319
▁nightmare	-12320
▁obsession	-12321
▁recovered	-12322
▁relevance	-12323
▁replacing	-12324
▁similarly	-12325
▁strengths	-12326
▁submitted	-12327
▁successes	-12328
▁survivors	-12329
▁volcanoes	-12330
▁Copernicus	-12331
▁PowerPoint	-12332
▁accurately	-12333
▁appliances	-12334
▁arithmetic	-12335
▁assessment	-12336
▁auditorium	-12337
▁basketball	-12338
▁beekeepers	-12339
▁casualties	-12340
▁comparable	-12341
▁compressed	-12342
▁compromise	-12343
▁conspiracy	-12344
▁documented	-12345
▁grassroots	-12346
▁guidelines	-12347
▁harvesting	-12348
▁millimeter	-12349
▁reflective	-12350
▁replicator	-12351
▁sanitation	-12352
▁staggering	-12353
▁supportive	-12354
▁terrorists	-12355
▁Information	-12356
▁appreciated	-12357
▁conclusions	-12358
▁desperately	-12359
▁disciplines	-12360
▁distinctive	-12361
▁emotionally	-12362
▁encountered	-12363
▁financially	-12364
▁maintaining	-12365
▁projections	-12366
▁scaffolding	-12367
▁Philadelphia	-12368
▁partnerships	-12369
▁subconscious	-12370
▁surroundings	-12371
▁surveillance	-12372
▁appropriately	-12373
▁authoritarian	-12374
▁breakthroughs	-12375
▁conservatives	-12376
▁consideration	-12377
▁decentralized	-12378
▁deforestation	-12379
▁manifestation	-12380
▁presentations	-12381
▁schizophrenia	-12382
▁nanotechnology	-12383
▁representative	-12384
":	-12385
.5	-12386
SP	-12387
gu	-12388
ECD	-12389
Not	-12390
aka	-12391
alo	-12392
any	-12393
apy	-12394
boy	-12395
cia	-12396
gue	-12397
hib	-12398
isa	-12399
kel	-12400
lla	-12401
obe	-12402
ogs	-12403
ona	-12404
oqu	-12405
rim	-12406
two	-12407
umm	-12408
urp	-12409
▁31	-12410
▁44	-12411
▁Av	-12412
▁KS	-12413
▁MP	-12414
▁TD	-12415
ahum	-12416
aken	-12417
amas	-12418
amen	-12419
avil	-12420
bury	-12421
eman	-12422
enza	-12423
eron	-12424
iatr	-12425
imee	-12426
imit	-12427
inas	-12428
inea	-12429
izzy	-12430
ndip	-12431
opsy	-12432
rame	-12433
rock	-12434
rosh	-12435
rust	-12436
shah	-12437
shot	-12438
star	-12439
step	-12440
them	-12441
week	-12442
with	-12443
▁15,	-12444
▁80-	-12445
▁Abu	-12446
▁Alh	-12447
▁Ast	-12448
▁CNN	-12449
▁Cou	-12450
▁Cut	-12451
▁Hus	-12452
▁Les	-12453
▁Naz	-12454
▁Oil	-12455
▁Ted	-12456
▁Top	-12457
▁WHO	-12458
▁cyn	-12459
▁epo	-12460
▁fee	-12461
▁hoo	-12462
▁piv	-12463
▁ply	-12464
▁quo	-12465
▁spa	-12466
▁ups	-12467
▁zip	-12468
5,000	-12469
These	-12470
adequ	-12471
akery	-12472
ambia	-12473
amous	-12474
artes	-12475
ashes	-12476
bolic	-12477
brain	-12478
edron	-12479
elect	-12480
ennes	-12481
fight	-12482
gered	-12483
green	-12484
icism	-12485
icken	-12486
inate	-12487
iolet	-12488
itage	-12489
opath	-12490
opoly	-12491
osion	-12492
oster	-12493
rator	-12494
rison	-12495
uated	-12496
umann	-12497
write	-12498
▁1800	-12499
▁2008	-12500
▁Ages	-12501
▁Andy	-12502
▁Avel	-12503
▁Bono	-12504
▁Conf	-12505
▁Dave	-12506
▁Desp	-12507
▁Khan	-12508
▁Left	-12509
▁Lind	-12510
▁Lots	-12511
▁Mong	-12512
▁OECD	-12513
▁Poll	-12514
▁Rift	-12515
▁USDA	-12516
▁Wild	-12517
▁Word	-12518
▁aura	-12519
▁bond	-12520
▁buzz	-12521
▁curt	-12522
▁deny	-12523
▁ecst	-12524
▁encl	-12525
▁exit	-12526
▁fees	-12527
▁fidd	-12528
▁ghar	-12529
▁gosh	-12530
▁haul	-12531
▁hike	-12532
▁hipp	-12533
▁keen	-12534
▁lamb	-12535
▁magg	-12536
▁muff	-12537
▁node	-12538
▁owns	-12539
▁pies	-12540
▁rept	-12541
▁rhin	-12542
▁sync	-12543
▁taxi	-12544
▁tofu	-12545
▁torn	-12546
▁unve	-12547
change	-12548
haired	-12549
icular	-12550
igator	-12551
igrade	-12552
incere	-12553
intend	-12554
irable	-12555
istant	-12556
levant	-12557
ndered	-12558
oulder	-12559
puters	-12560
replic	-12561
resses	-12562
ricane	-12563
rowing	-12564
secure	-12565
thesis	-12566
urance	-12567
vasive	-12568
▁Allen	-12569
▁Beaut	-12570
▁Bruce	-12571
▁Cheet	-12572
▁Costa	-12573
▁Doesn	-12574
▁Dubai	-12575
▁Eames	-12576
▁Going	-12577
▁Happy	-12578
▁Jacqu	-12579
▁Linux	-12580
▁Magaz	-12581
▁Satan	-12582
▁Skype	-12583
▁Stand	-12584
▁Ushah	-12585
▁appet	-12586
▁arose	-12587
▁arter	-12588
▁bands	-12589
▁beast	-12590
▁blobs	-12591
▁carbs	-12592
▁cobra	-12593
▁divor	-12594
▁erupt	-12595
▁flags	-12596
▁fleet	-12597
▁fount	-12598
▁goats	-12599
▁grave	-12600
▁gyrus	-12601
▁humil	-12602
▁hurry	-12603
▁masks	-12604
▁meets	-12605
▁moons	-12606
▁newly	-12607
▁noble	-12608
▁occas	-12609
▁orang	-12610
▁panic	-12611
▁parab	-12612
▁peaks	-12613
▁races	-12614
▁recip	-12615
▁sanct	-12616
▁slate	-12617
▁souls	-12618
▁steer	-12619
▁tails	-12620
▁tense	-12621
▁tiger	-12622
▁towel	-12623
▁trunk	-12624
▁wages	-12625
▁wives	-12626
▁wrest	-12627
ahumara	-12628
centric	-12629
healthy	-12630
issippi	-12631
ivation	-12632
ortical	-12633
ularity	-12634
▁Apollo	-12635
▁Arabia	-12636
▁Bonobo	-12637
▁Garden	-12638
▁Greeks	-12639
▁Hubble	-12640
▁Humans	-12641
▁Listen	-12642
▁Rachel	-12643
▁Spring	-12644
▁Tennes	-12645
▁Toyota	-12646
▁Walter	-12647
▁Wonder	-12648
▁Yorker	-12649
▁allies	-12650
▁bronze	-12651
▁carrot	-12652
▁compat	-12653
▁cooked	-12654
▁corrid	-12655
▁courts	-12656
▁curved	-12657
▁dancer	-12658
▁fibers	-12659
▁firmly	-12660
▁giraff	-12661
▁guards	-12662
▁heroic	-12663
▁invade	-12664
▁joyful	-12665
▁laying	-12666
▁legisl	-12667
▁lining	-12668
▁malign	-12669
▁meadow	-12670
▁pollut	-12671
▁poured	-12672
▁prints	-12673
▁rebell	-12674
▁redund	-12675
▁regret	-12676
▁rented	-12677
▁retros	-12678
▁scaled	-12679
▁spines	-12680
▁starch	-12681
▁throws	-12682
▁timber	-12683
▁treaty	-12684
▁truths	-12685
▁twenty	-12686
▁update	-12687
▁varied	-12688
▁ventil	-12689
▁writes	-12690
ceptable	-12691
novation	-12692
otherapy	-12693
▁250,000	-12694
▁Amazing	-12695
▁Climate	-12696
▁Company	-12697
▁Digital	-12698
▁Hawking	-12699
▁Israeli	-12700
▁Liberia	-12701
▁Perfect	-12702
▁Working	-12703
▁abandon	-12704
▁anatomy	-12705
▁breasts	-12706
▁broadly	-12707
▁captain	-12708
▁cleaner	-12709
▁contest	-12710
▁defines	-12711
▁deserts	-12712
▁easiest	-12713
▁evident	-12714
▁examine	-12715
▁extends	-12716
▁flatten	-12717
▁gharial	-12718
▁grasses	-12719
▁inadequ	-12720
▁marries	-12721
▁modeled	-12722
▁nucleus	-12723
▁onstage	-12724
▁patents	-12725
▁pathway	-12726
▁payment	-12727
▁proport	-12728
▁resolve	-12729
▁singers	-12730
▁slowing	-12731
▁sponsor	-12732
▁strains	-12733
▁summary	-12734
▁tickets	-12735
▁toilets	-12736
▁tracked	-12737
▁unified	-12738
▁viewing	-12739
▁violate	-12740
▁volcano	-12741
effective	-12742
nutrition	-12743
roportion	-12744
▁Anything	-12745
▁Building	-12746
▁Guardian	-12747
▁Hospital	-12748
▁Medicine	-12749
▁Movement	-12750
▁Portugal	-12751
▁absorbed	-12752
▁accommod	-12753
▁backpack	-12754
▁daylight	-12755
▁delicate	-12756
▁develops	-12757
▁dominate	-12758
▁donation	-12759
▁doubling	-12760
▁drilling	-12761
▁entitled	-12762
▁epiphany	-12763
▁fairness	-12764
▁forehead	-12765
▁glorious	-12766
▁highways	-12767
▁holistic	-12768
▁insecure	-12769
▁instruct	-12770
▁literacy	-12771
▁obtained	-12772
▁peripher	-12773
▁prospect	-12774
▁regulate	-12775
▁resolved	-12776
▁searches	-12777
▁sediment	-12778
▁siblings	-12779
▁stealing	-12780
industrial	-12781
resolution	-12782
▁Excellent	-12783
▁Holocaust	-12784
▁Tennessee	-12785
▁ambulance	-12786
▁arbitrary	-12787
▁blueprint	-12788
▁bookstore	-12789
▁collapses	-12790
▁contribut	-12791
▁criticism	-12792
▁detectors	-12793
▁disasters	-12794
▁embracing	-12795
▁execution	-12796
▁explorers	-12797
▁exquisite	-12798
▁inventors	-12799
▁isolation	-12800
▁offspring	-12801
▁penetrate	-12802
▁physician	-12803
▁pneumonia	-12804
▁precision	-12805
▁promising	-12806
▁psychiatr	-12807
▁qualified	-12808
▁relatives	-12809
▁southwest	-12810
▁stimulate	-12811
▁stretched	-12812
▁sustained	-12813
▁universes	-12814
▁Tarahumara	-12815
▁acceptable	-12816
▁accidental	-12817
▁adaptation	-12818
▁adolescent	-12819
▁aesthetics	-12820
▁antibodies	-12821
▁biomimicry	-12822
▁conducting	-12823
▁developers	-12824
▁imperative	-12825
▁incomplete	-12826
▁insignific	-12827
▁journalism	-12828
▁meditation	-12829
▁occupation	-12830
▁orchestras	-12831
▁outrageous	-12832
▁perceptual	-12833
▁physiology	-12834
▁sequencing	-12835
▁suspicious	-12836
▁Independent	-12837
▁Mississippi	-12838
▁accountable	-12839
▁aspirations	-12840
▁association	-12841
▁coincidence	-12842
▁extinctions	-12843
▁functioning	-12844
▁imaginative	-12845
▁implication	-12846
▁incremental	-12847
▁permanently	-12848
▁respiratory	-12849
▁suggestions	-12850
▁technicians	-12851
▁willingness	-12852
▁arrangements	-12853
▁astronomical	-12854
▁differential	-12855
▁illustration	-12856
▁individually	-12857
▁laboratories	-12858
▁metaphorical	-12859
▁negotiations	-12860
▁philosophers	-12861
▁pigmentation	-12862
▁presidential	-12863
▁regenerative	-12864
▁collaborators	-12865
ER	-12866
Mr	-12867
OD	-12868
Of	-12869
uf	-12870
uj	-12871
vo	-12872
Get	-12873
aic	-12874
api	-12875
asa	-12876
bee	-12877
bot	-12878
chw	-12879
cir	-12880
eid	-12881
eur	-12882
fat	-12883
gel	-12884
ila	-12885
ira	-12886
mor	-12887
sis	-12888
sor	-12889
vao	-12890
▁1:	-12891
▁Ba	-12892
▁CB	-12893
▁CT	-12894
▁Cr	-12895
▁HA	-12896
▁Sl	-12897
▁UV	-12898
▁uh	-12899
arin	-12900
arts	-12901
asis	-12902
asso	-12903
bell	-12904
emon	-12905
enet	-12906
home	-12907
iche	-12908
icut	-12909
itty	-12910
lder	-12911
mart	-12912
math	-12913
onte	-12914
oris	-12915
oved	-12916
pora	-12917
prot	-12918
rise	-12919
unal	-12920
urbs	-12921
velt	-12922
wall	-12923
▁1.2	-12924
▁140	-12925
▁16-	-12926
▁18,	-12927
▁188	-12928
▁99.	-12929
▁Bed	-12930
▁Bil	-12931
▁Bow	-12932
▁Bud	-12933
▁CDs	-12934
▁Cir	-12935
▁Cub	-12936
▁Dip	-12937
▁Dra	-12938
▁End	-12939
▁Gap	-12940
▁Hud	-12941
▁Ide	-12942
▁Mem	-12943
▁Muh	-12944
▁Nev	-12945
▁Ram	-12946
▁Rec	-12947
▁Viv	-12948
▁Von	-12949
▁abd	-12950
▁avo	-12951
▁bot	-12952
▁dug	-12953
▁dye	-12954
▁haz	-12955
▁mit	-12956
▁mun	-12957
▁nun	-12958
▁pad	-12959
▁sel	-12960
▁wax	-12961
Hello	-12962
annel	-12963
asant	-12964
atson	-12965
built	-12966
catch	-12967
eling	-12968
ester	-12969
fting	-12970
graph	-12971
idesp	-12972
idity	-12973
month	-12974
ogens	-12975
ordan	-12976
oshop	-12977
osoph	-12978
rable	-12979
regon	-12980
shirt	-12981
sight	-12982
uates	-12983
ulent	-12984
▁2006	-12985
▁Best	-12986
▁Bret	-12987
▁Brig	-12988
▁Case	-12989
▁Chap	-12990
▁Club	-12991
▁Cond	-12992
▁Core	-12993
▁Cuba	-12994
▁Deep	-12995
▁Diam	-12996
▁Eden	-12997
▁Fast	-12998
▁Feyn	-12999
▁Grey	-13000
▁Hero	-13001
▁Land	-13002
▁Lead	-13003
▁Less	-13004
▁Palm	-13005
▁Rena	-13006
▁Rush	-13007
▁Sand	-13008
▁Sift	-13009
▁Snow	-13010
▁True	-13011
▁adul	-13012
▁aged	-13013
▁asph	-13014
▁bail	-13015
▁cane	-13016
▁carc	-13017
▁cher	-13018
▁eman	-13019
▁fame	-13020
▁filt	-13021
▁folk	-13022
▁glow	-13023
▁glut	-13024
▁gour	-13025
▁guid	-13026
▁hydr	-13027
▁iter	-13028
▁moms	-13029
▁moss	-13030
▁obso	-13031
▁pear	-13032
▁pest	-13033
▁pets	-13034
▁pose	-13035
▁slam	-13036
▁smug	-13037
▁sush	-13038
▁swar	-13039
▁tops	-13040
▁traw	-13041
▁utop	-13042
▁wage	-13043
▁wipe	-13044
Listen	-13045
anting	-13046
engers	-13047
giving	-13048
imated	-13049
imitri	-13050
ivores	-13051
legged	-13052
matics	-13053
nesota	-13054
ranean	-13055
ueling	-13056
unteer	-13057
urated	-13058
▁1960,	-13059
▁1994,	-13060
▁1995,	-13061
▁Chief	-13062
▁Diana	-13063
▁Domin	-13064
▁Dougl	-13065
▁Early	-13066
▁Fifty	-13067
▁GPHIN	-13068
▁Hindu	-13069
▁Iraqi	-13070
▁Isaac	-13071
▁Kanzi	-13072
▁Khmer	-13073
▁Laure	-13074
▁Oprah	-13075
▁Roose	-13076
▁Serge	-13077
▁Susan	-13078
▁Susie	-13079
▁Trust	-13080
▁Wired	-13081
▁alike	-13082
▁angel	-13083
▁arena	-13084
▁banjo	-13085
▁bikes	-13086
▁carve	-13087
▁cheer	-13088
▁coach	-13089
▁drama	-13090
▁exerc	-13091
▁fatty	-13092
▁flame	-13093
▁handy	-13094
▁landf	-13095
▁lifel	-13096
▁livel	-13097
▁lobes	-13098
▁mites	-13099
▁olive	-13100
▁overf	-13101
▁paths	-13102
▁poles	-13103
▁rever	-13104
▁roles	-13105
▁rolls	-13106
▁ruled	-13107
▁spear	-13108
▁stink	-13109
▁tales	-13110
▁tenth	-13111
▁trait	-13112
▁tuber	-13113
▁vents	-13114
▁volat	-13115
▁volts	-13116
▁zeros	-13117
appropr	-13118
artheid	-13119
carbons	-13120
culosis	-13121
rasound	-13122
▁Barbie	-13123
▁Better	-13124
▁Colomb	-13125
▁Excuse	-13126
▁Galvao	-13127
▁Jordan	-13128
▁Miller	-13129
▁Ninety	-13130
▁Oregon	-13131
▁Recent	-13132
▁Saddam	-13133
▁Viking	-13134
▁Watson	-13135
▁Wouldn	-13136
▁artery	-13137
▁brakes	-13138
▁brutal	-13139
▁carved	-13140
▁dispos	-13141
▁dumped	-13142
▁elites	-13143
▁empire	-13144
▁fishes	-13145
▁gently	-13146
▁graphs	-13147
▁hijack	-13148
▁hugely	-13149
▁humble	-13150
▁intend	-13151
▁issued	-13152
▁manure	-13153
▁marshm	-13154
▁messed	-13155
▁metric	-13156
▁microw	-13157
▁optics	-13158
▁parked	-13159
▁payoff	-13160
▁petals	-13161
▁pissed	-13162
▁plural	-13163
▁polite	-13164
▁primal	-13165
▁prizes	-13166
▁quotes	-13167
▁racing	-13168
▁refine	-13169
▁reflex	-13170
▁render	-13171
▁resort	-13172
▁retrof	-13173
▁snails	-13174
▁spinal	-13175
▁stated	-13176
▁statue	-13177
▁stigma	-13178
▁tastes	-13179
▁testim	-13180
▁theirs	-13181
▁thrust	-13182
▁triple	-13183
▁turtle	-13184
▁unfair	-13185
▁vastly	-13186
▁wallet	-13187
▁washed	-13188
▁widesp	-13189
▁wiring	-13190
ceptible	-13191
ospheric	-13192
▁Already	-13193
▁Chicken	-13194
▁Dimitri	-13195
▁Feynman	-13196
▁Lebanon	-13197
▁Mermaid	-13198
▁Neither	-13199
▁Siberia	-13200
▁Stewart	-13201
▁Virtual	-13202
▁apparat	-13203
▁assumed	-13204
▁atheist	-13205
▁bladder	-13206
▁careers	-13207
▁charged	-13208
▁chemist	-13209
▁compost	-13210
▁crowded	-13211
▁derived	-13212
▁escaped	-13213
▁focuses	-13214
▁forcing	-13215
▁founder	-13216
▁inspect	-13217
▁maggots	-13218
▁missile	-13219
▁monster	-13220
▁novelty	-13221
▁oneself	-13222
▁overlap	-13223
▁plywood	-13224
▁popping	-13225
▁posters	-13226
▁prayers	-13227
▁quietly	-13228
▁reclaim	-13229
▁relaxed	-13230
▁ringing	-13231
▁sapiens	-13232
▁scanned	-13233
▁secular	-13234
▁seminal	-13235
▁sensual	-13236
▁shadows	-13237
▁shipped	-13238
▁sterile	-13239
▁subsequ	-13240
▁surveys	-13241
▁ticking	-13242
generated	-13243
ographing	-13244
organized	-13245
structure	-13246
▁Achilles	-13247
▁Arkansas	-13248
▁Magazine	-13249
▁Scotland	-13250
▁Superman	-13251
▁Ushahidi	-13252
▁addicted	-13253
▁agnostic	-13254
▁bloggers	-13255
▁bothered	-13256
▁broccoli	-13257
▁captures	-13258
▁chapters	-13259
▁contexts	-13260
▁creators	-13261
▁credible	-13262
▁declared	-13263
▁delusion	-13264
▁detected	-13265
▁diagnose	-13266
▁discount	-13267
▁dreaming	-13268
▁embraced	-13269
▁emergent	-13270
▁emission	-13271
▁enabling	-13272
▁feminine	-13273
▁friction	-13274
▁geniuses	-13275
▁goodness	-13276
▁guidance	-13277
▁headache	-13278
▁horrific	-13279
▁idealism	-13280
▁lifespan	-13281
▁matching	-13282
▁midnight	-13283
▁moisture	-13284
▁momentum	-13285
▁monsters	-13286
▁murdered	-13287
▁notebook	-13288
▁numerous	-13289
▁orbiting	-13290
▁passport	-13291
▁plastics	-13292
▁policing	-13293
▁preoccup	-13294
▁pressing	-13295
▁province	-13296
▁quantity	-13297
▁realizes	-13298
▁relieved	-13299
▁remotely	-13300
▁resonate	-13301
▁richness	-13302
▁roommate	-13303
▁sensible	-13304
▁serendip	-13305
▁strictly	-13306
▁stripped	-13307
▁stumbled	-13308
▁switches	-13309
▁symphony	-13310
▁tectonic	-13311
▁tortured	-13312
▁troubled	-13313
▁unstable	-13314
▁weakness	-13315
generation	-13316
▁Minnesota	-13317
▁Pakistani	-13318
▁Roosevelt	-13319
▁alongside	-13320
▁analyzing	-13321
▁apologize	-13322
▁assistant	-13323
▁attempted	-13324
▁automatic	-13325
▁continuum	-13326
▁cosmology	-13327
▁cultivate	-13328
▁databases	-13329
▁demanding	-13330
▁evaporate	-13331
▁followers	-13332
▁geometric	-13333
▁hostility	-13334
▁imaginary	-13335
▁instincts	-13336
▁ministers	-13337
▁northeast	-13338
▁orphanage	-13339
▁pigmented	-13340
▁preferred	-13341
▁pregnancy	-13342
▁publisher	-13343
▁receiving	-13344
▁respected	-13345
▁responded	-13346
▁roughness	-13347
▁selective	-13348
▁slaughter	-13349
▁stabilize	-13350
▁strangely	-13351
▁strangers	-13352
▁subsidies	-13353
▁summarize	-13354
▁supernova	-13355
▁unhealthy	-13356
▁variables	-13357
▁waterfall	-13358
▁workshops	-13359
▁Incredible	-13360
▁announcing	-13361
▁beginnings	-13362
▁brilliance	-13363
▁capitalist	-13364
▁cartoonist	-13365
▁cigarettes	-13366
▁conception	-13367
▁confronted	-13368
▁coordinate	-13369
▁depressing	-13370
▁downstairs	-13371
▁employment	-13372
▁expressive	-13373
▁foreground	-13374
▁fulfilling	-13375
▁geographic	-13376
▁geological	-13377
▁homosexual	-13378
▁intuitions	-13379
▁liberation	-13380
▁measurable	-13381
▁motorcycle	-13382
▁obligation	-13383
▁pesticides	-13384
▁programmed	-13385
▁registered	-13386
▁repeatedly	-13387
▁revelation	-13388
▁specialize	-13389
▁stimulated	-13390
▁subjective	-13391
▁supposedly	-13392
▁temptation	-13393
▁widespread	-13394
▁Connecticut	-13395
▁abstraction	-13396
▁astronomers	-13397
▁blogosphere	-13398
▁calculation	-13399
▁calculators	-13400
▁circulation	-13401
▁citizenship	-13402
▁contemplate	-13403
▁denominator	-13404
▁documenting	-13405
▁expeditions	-13406
▁inefficient	-13407
▁intentional	-13408
▁introducing	-13409
▁involvement	-13410
▁lightweight	-13411
▁researching	-13412
▁revolutions	-13413
▁Commandments	-13414
▁accumulation	-13415
▁announcement	-13416
▁anthropology	-13417
▁collaborator	-13418
▁deliberately	-13419
▁hydrocarbons	-13420
▁malnutrition	-13421
▁unacceptable	-13422
▁unimaginable	-13423
▁Environmental	-13424
▁characterized	-13425
▁disproportion	-13426
▁intrinsically	-13427
▁manufacturers	-13428
▁proliferation	-13429
▁unsustainable	-13430
▁concentrations	-13431
▁mathematically	-13432
Bs	-13433
PL	-13434
sa	-13435
?'"	-13436
May	-13437
bad	-13438
bet	-13439
bly	-13440
cre	-13441
ean	-13442
ieu	-13443
igs	-13444
imi	-13445
inf	-13446
inn	-13447
lan	-13448
lem	-13449
mah	-13450
ogy	-13451
oug	-13452
pit	-13453
ppy	-13454
sen	-13455
sim	-13456
tic	-13457
ulu	-13458
una	-13459
urf	-13460
▁49	-13461
▁AG	-13462
▁Ax	-13463
▁BC	-13464
▁CL	-13465
▁Da	-13466
▁ED	-13467
▁FA	-13468
▁IT	-13469
▁MM	-13470
▁RH	-13471
▁Uh	-13472
▁eu	-13473
▁zo	-13474
Stop	-13475
Your	-13476
airy	-13477
aism	-13478
atan	-13479
axis	-13480
bery	-13481
bral	-13482
cats	-13483
coll	-13484
door	-13485
gath	-13486
gill	-13487
held	-13488
kill	-13489
lene	-13490
peer	-13491
prof	-13492
pson	-13493
real	-13494
requ	-13495
reya	-13496
scen	-13497
sein	-13498
ssip	-13499
tese	-13500
that	-13501
uite	-13502
ulin	-13503
unky	-13504
viol	-13505
▁'30	-13506
▁12-	-13507
▁16,	-13508
▁203	-13509
▁Att	-13510
▁Beh	-13511
▁Buy	-13512
▁Cre	-13513
▁Dur	-13514
▁Fil	-13515
▁Fur	-13516
▁Leo	-13517
▁MBI	-13518
▁Max	-13519
▁Mut	-13520
▁Sol	-13521
▁Sri	-13522
▁Tai	-13523
▁Ter	-13524
▁Tso	-13525
▁Wis	-13526
▁cav	-13527
▁chk	-13528
▁fis	-13529
▁hal	-13530
▁lex	-13531
▁luc	-13532
▁mol	-13533
▁ove	-13534
▁rab	-13535
▁umb	-13536
▁unb	-13537
Afric	-13538
antor	-13539
arith	-13540
awatt	-13541
belts	-13542
cerpt	-13543
cular	-13544
erget	-13545
ffiti	-13546
iages	-13547
icion	-13548
igers	-13549
ipper	-13550
irrel	-13551
isure	-13552
matic	-13553
munic	-13554
named	-13555
onics	-13556
onomy	-13557
orial	-13558
rodes	-13559
swana	-13560
uguay	-13561
unter	-13562
watch	-13563
wheel	-13564
years	-13565
ysics	-13566
▁Astr	-13567
▁Ball	-13568
▁Call	-13569
▁Dead	-13570
▁Harr	-13571
▁Joey	-13572
▁LEDs	-13573
▁Lapt	-13574
▁Maur	-13575
▁Near	-13576
▁Path	-13577
▁Read	-13578
▁Terr	-13579
▁Troy	-13580
▁UCLA	-13581
▁Whoa	-13582
▁auto	-13583
▁beds	-13584
▁bias	-13585
▁blob	-13586
▁brow	-13587
▁buys	-13588
▁cafe	-13589
▁cens	-13590
▁clog	-13591
▁cram	-13592
▁drip	-13593
▁duck	-13594
▁ease	-13595
▁fins	-13596
▁gait	-13597
▁germ	-13598
▁jets	-13599
▁kite	-13600
▁leak	-13601
▁mega	-13602
▁orth	-13603
▁puff	-13604
▁silk	-13605
▁skys	-13606
▁sque	-13607
▁stir	-13608
▁twin	-13609
▁veil	-13610
▁watt	-13611
angled	-13612
iathan	-13613
idding	-13614
ilbert	-13615
luence	-13616
manuel	-13617
schild	-13618
violet	-13619
▁1998,	-13620
▁2,500	-13621
▁2008.	-13622
▁Ahmed	-13623
▁Aimee	-13624
▁Allah	-13625
▁Bruno	-13626
▁Femin	-13627
▁Galax	-13628
▁Hyper	-13629
▁Labor	-13630
▁Lagos	-13631
▁Ready	-13632
▁Robot	-13633
▁Starb	-13634
▁Thula	-13635
▁Using	-13636
▁adequ	-13637
▁adhes	-13638
▁blend	-13639
▁boost	-13640
▁booth	-13641
▁centr	-13642
▁chess	-13643
▁crown	-13644
▁cyber	-13645
▁deriv	-13646
▁disse	-13647
▁doctr	-13648
▁downs	-13649
▁draft	-13650
▁drank	-13651
▁empir	-13652
▁erase	-13653
▁essay	-13654
▁fired	-13655
▁focal	-13656
▁gears	-13657
▁goose	-13658
▁grape	-13659
▁helix	-13660
▁hyena	-13661
▁loops	-13662
▁lousy	-13663
▁lover	-13664
▁modes	-13665
▁nests	-13666
▁pants	-13667
▁preca	-13668
▁proto	-13669
▁puppy	-13670
▁reuse	-13671
▁rises	-13672
▁scare	-13673
▁skies	-13674
▁skins	-13675
▁soils	-13676
▁spike	-13677
▁stole	-13678
▁sunny	-13679
▁sushi	-13680
▁swamp	-13681
▁therm	-13682
▁token	-13683
▁trail	-13684
▁treas	-13685
▁unlim	-13686
▁vapor	-13687
▁verge	-13688
▁wield	-13689
▁wreck	-13690
aitreya	-13691
ameless	-13692
avilion	-13693
chester	-13694
ererana	-13695
fulness	-13696
irlwind	-13697
ocation	-13698
ologues	-13699
orative	-13700
▁35,000	-13701
▁Agency	-13702
▁Associ	-13703
▁Browne	-13704
▁Danish	-13705
▁Diplom	-13706
▁Doctor	-13707
▁Either	-13708
▁Harlem	-13709
▁Herbie	-13710
▁Hillis	-13711
▁Hudson	-13712
▁Invest	-13713
▁Johnny	-13714
▁Julian	-13715
▁Kenyan	-13716
▁League	-13717
▁Market	-13718
▁Oliver	-13719
▁Ronald	-13720
▁Taiwan	-13721
▁Unlike	-13722
▁WorldW	-13723
▁abused	-13724
▁archae	-13725
▁bitter	-13726
▁bumble	-13727
▁cleans	-13728
▁cloned	-13729
▁defect	-13730
▁drinks	-13731
▁drople	-13732
▁edited	-13733
▁embark	-13734
▁fierce	-13735
▁flames	-13736
▁flutes	-13737
▁folder	-13738
▁fooled	-13739
▁foster	-13740
▁gossip	-13741
▁hambur	-13742
▁heated	-13743
▁improb	-13744
▁indoor	-13745
▁inward	-13746
▁jacket	-13747
▁lasted	-13748
▁lastly	-13749
▁learns	-13750
▁libert	-13751
▁makeup	-13752
▁melody	-13753
▁metals	-13754
▁nuclei	-13755
▁obsess	-13756
▁pixels	-13757
▁poorly	-13758
▁prejud	-13759
▁prohib	-13760
▁prompt	-13761
▁pushes	-13762
▁quarks	-13763
▁raises	-13764
▁ranges	-13765
▁recurs	-13766
▁refers	-13767
▁rooted	-13768
▁selves	-13769
▁sequel	-13770
▁serial	-13771
▁spores	-13772
▁spouse	-13773
▁stocks	-13774
▁strips	-13775
▁sweats	-13776
▁taxpay	-13777
▁teapot	-13778
▁throat	-13779
▁trunks	-13780
▁unlock	-13781
▁viscer	-13782
arithmic	-13783
breaking	-13784
function	-13785
ictional	-13786
iscovery	-13787
▁400,000	-13788
▁Between	-13789
▁Despite	-13790
▁Enlight	-13791
▁Getting	-13792
▁Hundred	-13793
▁Hussein	-13794
▁Judaism	-13795
▁Justice	-13796
▁Maltese	-13797
▁Mediter	-13798
▁Neander	-13799
▁Neumann	-13800
▁Uruguay	-13801
▁accused	-13802
▁apocaly	-13803
▁charism	-13804
▁council	-13805
▁diffuse	-13806
▁dispute	-13807
▁donated	-13808
▁editors	-13809
▁energet	-13810
▁epidemi	-13811
▁erosion	-13812
▁explode	-13813
▁exports	-13814
▁eyebrow	-13815
▁fellows	-13816
▁fireman	-13817
▁hallway	-13818
▁heavens	-13819
▁honesty	-13820
▁humming	-13821
▁iceberg	-13822
▁imposed	-13823
▁intimid	-13824
▁joining	-13825
▁justify	-13826
▁leisure	-13827
▁liberty	-13828
▁masters	-13829
▁mocking	-13830
▁obscure	-13831
▁optimal	-13832
▁packing	-13833
▁reactor	-13834
▁recipro	-13835
▁rehabil	-13836
▁reinfor	-13837
▁sailing	-13838
▁sincere	-13839
▁strokes	-13840
▁suburbs	-13841
▁surfing	-13842
▁threads	-13843
▁unravel	-13844
▁uranium	-13845
▁urgency	-13846
▁victory	-13847
▁visuals	-13848
▁volunte	-13849
▁wasting	-13850
▁worries	-13851
astically	-13852
icultural	-13853
▁Botswana	-13854
▁Brigades	-13855
▁Ministry	-13856
▁acquired	-13857
▁adjacent	-13858
▁advocate	-13859
▁amateurs	-13860
▁annoying	-13861
▁applause	-13862
▁assuming	-13863
▁balances	-13864
▁believer	-13865
▁centered	-13866
▁cerebral	-13867
▁ceremony	-13868
▁clapping	-13869
▁currents	-13870
▁cymatics	-13871
▁deconstr	-13872
▁diplomat	-13873
▁disposal	-13874
▁dividing	-13875
▁dreadful	-13876
▁energies	-13877
▁findings	-13878
▁flooding	-13879
▁frequent	-13880
▁handsome	-13881
▁immunity	-13882
▁imprison	-13883
▁laughter	-13884
▁liberals	-13885
▁maternal	-13886
▁mosquito	-13887
▁mutually	-13888
▁obsolete	-13889
▁occupied	-13890
▁pathways	-13891
▁primates	-13892
▁reconcil	-13893
▁reporter	-13894
▁rhinovir	-13895
▁shepherd	-13896
▁shouting	-13897
▁sideways	-13898
▁speeches	-13899
▁suburbia	-13900
▁suitcase	-13901
▁vascular	-13902
technology	-13903
▁Hungarian	-13904
▁Riverside	-13905
▁Similarly	-13906
▁Starbucks	-13907
▁Volunteer	-13908
▁apparatus	-13909
▁assembled	-13910
▁attribute	-13911
▁belonging	-13912
▁boyfriend	-13913
▁byproduct	-13914
▁campaigns	-13915
▁cathedral	-13916
▁certified	-13917
▁cockroach	-13918
▁cooperate	-13919
▁countless	-13920
▁crocodile	-13921
▁delighted	-13922
▁dictators	-13923
▁discussed	-13924
▁exclusive	-13925
▁exhausted	-13926
▁generator	-13927
▁headaches	-13928
▁historian	-13929
▁imperfect	-13930
▁inclusive	-13931
▁inherited	-13932
▁intervene	-13933
▁mainframe	-13934
▁marriages	-13935
▁memorable	-13936
▁motivates	-13937
▁pervasive	-13938
▁pleasures	-13939
▁poisoning	-13940
▁populated	-13941
▁predatory	-13942
▁reconnect	-13943
▁schooling	-13944
▁twentieth	-13945
▁unlimited	-13946
▁unrelated	-13947
▁viewpoint	-13948
▁villagers	-13949
▁warehouse	-13950
▁advantages	-13951
▁articulate	-13952
▁calculator	-13953
▁clinically	-13954
▁containers	-13955
▁customized	-13956
▁disgusting	-13957
▁electrodes	-13958
▁explosions	-13959
▁inadequate	-13960
▁irrelevant	-13961
▁livelihood	-13962
▁pedestrian	-13963
▁pioneering	-13964
▁positively	-13965
▁practition	-13966
▁rediscover	-13967
▁references	-13968
▁relational	-13969
▁settlement	-13970
▁starvation	-13971
governmental	-13972
organization	-13973
▁Mathematica	-13974
▁Philippines	-13975
▁arrangement	-13976
▁competitors	-13977
▁complaining	-13978
▁degradation	-13979
▁deprivation	-13980
▁desperation	-13981
▁flourishing	-13982
▁interrupted	-13983
▁logarithmic	-13984
▁preferences	-13985
▁progressive	-13986
▁publication	-13987
▁reinventing	-13988
▁ultraviolet	-13989
▁Conservation	-13990
▁acceleration	-13991
▁achievements	-13992
▁combinations	-13993
▁demographics	-13994
▁enthusiastic	-13995
▁exploitation	-13996
▁interconnect	-13997
▁interference	-13998
▁microprocess	-13999
▁perspectives	-14000
▁prostitution	-14001
▁quantitative	-14002
▁tuberculosis	-14003
▁Mediterranean	-14004
▁Schwarzschild	-14005
▁establishment	-14006
▁functionality	-14007
▁improvisation	-14008
▁instinctively	-14009
▁traditionally	-14010
▁undergraduate	-14011
▁administrators	-14012
▁anthropologist	-14013
▁identification	-14014
▁specialization	-14015
-3	-14016
-4	-14017
10	-14018
An	-14019
Bl	-14020
EG	-14021
FO	-14022
Ma	-14023
Ms	-14024
ho	-14025
Aid	-14026
Man	-14027
acc	-14028
adv	-14029
ahs	-14030
ais	-14031
alm	-14032
aug	-14033
bao	-14034
cat	-14035
chi	-14036
coc	-14037
enz	-14038
eys	-14039
fig	-14040
gbo	-14041
hry	-14042
ige	-14043
ika	-14044
iro	-14045
iry	-14046
ito	-14047
los	-14048
oam	-14049
pol	-14050
rot	-14051
ths	-14052
ulg	-14053
uri	-14054
utu	-14055
▁58	-14056
▁8.	-14057
▁96	-14058
▁AL	-14059
▁AR	-14060
▁Aw	-14061
▁BA	-14062
▁BG	-14063
▁BL	-14064
▁Di	-14065
▁EC	-14066
▁Ep	-14067
▁JC	-14068
▁Mt	-14069
▁Ny	-14070
▁TB	-14071
▁Wy	-14072
▁ov	-14073
Give	-14074
Have	-14075
Just	-14076
Life	-14077
aeda	-14078
anas	-14079
ashy	-14080
assy	-14081
athe	-14082
atis	-14083
atre	-14084
boat	-14085
code	-14086
eera	-14087
eren	-14088
fers	-14089
fran	-14090
fund	-14091
high	-14092
hire	-14093
igin	-14094
igms	-14095
ihil	-14096
insp	-14097
itha	-14098
kers	-14099
mala	-14100
mics	-14101
nell	-14102
nels	-14103
obic	-14104
rian	-14105
rist	-14106
rony	-14107
rost	-14108
sens	-14109
spec	-14110
town	-14111
ugos	-14112
wear	-14113
ylan	-14114
▁110	-14115
▁ABC	-14116
▁Ash	-14117
▁Aus	-14118
▁BBC	-14119
▁Bah	-14120
▁CIA	-14121
▁Cru	-14122
▁DDT	-14123
▁Der	-14124
▁Dod	-14125
▁Edu	-14126
▁Eis	-14127
▁Fox	-14128
▁Gar	-14129
▁Hop	-14130
▁Neg	-14131
▁Pic	-14132
▁Ple	-14133
▁Rag	-14134
▁Rod	-14135
▁Rus	-14136
▁Sao	-14137
▁Sit	-14138
▁Spl	-14139
▁Wed	-14140
▁aph	-14141
▁bib	-14142
▁bol	-14143
▁kin	-14144
▁nug	-14145
▁pee	-14146
▁por	-14147
▁sof	-14148
▁vig	-14149
Maybe	-14150
World	-14151
abama	-14152
acity	-14153
ambra	-14154
ammad	-14155
apses	-14156
ardon	-14157
avage	-14158
creat	-14159
first	-14160
iatur	-14161
ilage	-14162
integ	-14163
ishes	-14164
marin	-14165
mines	-14166
ocene	-14167
ockef	-14168
opran	-14169
ottom	-14170
pical	-14171
stood	-14172
story	-14173
tenth	-14174
uffle	-14175
unned	-14176
unted	-14177
wired	-14178
▁1940	-14179
▁2002	-14180
▁2020	-14181
▁Arts	-14182
▁Bali	-14183
▁Balk	-14184
▁Beat	-14185
▁Buck	-14186
▁Cook	-14187
▁Corn	-14188
▁Furb	-14189
▁Hold	-14190
▁Holy	-14191
▁Home	-14192
▁Huge	-14193
▁Jama	-14194
▁Jenn	-14195
▁Lank	-14196
▁Lock	-14197
▁Nash	-14198
▁Navy	-14199
▁Need	-14200
▁Nine	-14201
▁Noah	-14202
▁Pear	-14203
▁Pope	-14204
▁RHex	-14205
▁Reed	-14206
▁Road	-14207
▁Sach	-14208
▁Sort	-14209
▁TEDx	-14210
▁Wide	-14211
▁Wood	-14212
▁abys	-14213
▁adap	-14214
▁arth	-14215
▁awak	-14216
▁bunk	-14217
▁calf	-14218
▁clap	-14219
▁cone	-14220
▁cues	-14221
▁dung	-14222
▁dwar	-14223
▁fest	-14224
▁fond	-14225
▁fuse	-14226
▁grip	-14227
▁hect	-14228
▁herb	-14229
▁hind	-14230
▁hood	-14231
▁hull	-14232
▁inex	-14233
▁jeal	-14234
▁obey	-14235
▁pine	-14236
▁pore	-14237
▁quiz	-14238
▁quot	-14239
▁retr	-14240
▁rows	-14241
▁sabb	-14242
▁stap	-14243
▁sums	-14244
▁syll	-14245
▁trek	-14246
▁warn	-14247
aluate	-14248
aments	-14249
ancies	-14250
astery	-14251
azeera	-14252
belief	-14253
ennett	-14254
ennium	-14255
issors	-14256
istrib	-14257
itious	-14258
minate	-14259
nesday	-14260
odynam	-14261
omatic	-14262
orable	-14263
oscope	-14264
ougher	-14265
terior	-14266
uitive	-14267
ulence	-14268
ulsive	-14269
ustice	-14270
utches	-14271
verbal	-14272
yrinth	-14273
ysical	-14274
▁2002,	-14275
▁2010,	-14276
▁2050,	-14277
▁2050.	-14278
▁Actor	-14279
▁Among	-14280
▁Bever	-14281
▁Blair	-14282
▁Board	-14283
▁Brand	-14284
▁Choir	-14285
▁Clark	-14286
▁Clear	-14287
▁Corex	-14288
▁Cuban	-14289
▁Dylan	-14290
▁Exper	-14291
▁Gehry	-14292
▁Girls	-14293
▁Hands	-14294
▁Jamie	-14295
▁Miami	-14296
▁Natal	-14297
▁Norse	-14298
▁Sadly	-14299
▁Vinci	-14300
▁Yugos	-14301
▁alpha	-14302
▁alter	-14303
▁astro	-14304
▁atroc	-14305
▁avian	-14306
▁beats	-14307
▁binds	-14308
▁brink	-14309
▁briqu	-14310
▁clash	-14311
▁clues	-14312
▁coins	-14313
▁comed	-14314
▁comet	-14315
▁conve	-14316
▁cords	-14317
▁crabs	-14318
▁crawl	-14319
▁daddy	-14320
▁dates	-14321
▁discl	-14322
▁dried	-14323
▁etern	-14324
▁exams	-14325
▁excav	-14326
▁fring	-14327
▁gangs	-14328
▁grapp	-14329
▁hated	-14330
▁heels	-14331
▁hitch	-14332
▁incon	-14333
▁juven	-14334
▁lawns	-14335
▁lifts	-14336
▁monks	-14337
▁noisy	-14338
▁notor	-14339
▁palms	-14340
▁paran	-14341
▁perme	-14342
▁pipes	-14343
▁plumb	-14344
▁pools	-14345
▁posed	-14346
▁poses	-14347
▁radar	-14348
▁rebel	-14349
▁regul	-14350
▁resid	-14351
▁scand	-14352
▁seize	-14353
▁semen	-14354
▁sneak	-14355
▁swine	-14356
▁sword	-14357
▁synag	-14358
▁vague	-14359
▁verte	-14360
▁wears	-14361
centure	-14362
comfort	-14363
discipl	-14364
eastern	-14365
entions	-14366
ifiable	-14367
raining	-14368
species	-14369
ulously	-14370
walking	-14371
▁Avenue	-14372
▁Batman	-14373
▁Bilbao	-14374
▁Bonnet	-14375
▁Bosnia	-14376
▁Commun	-14377
▁Cooper	-14378
▁Father	-14379
▁Graham	-14380
▁Greece	-14381
▁Laptop	-14382
▁Nation	-14383
▁Nevada	-14384
▁Rights	-14385
▁Rockef	-14386
▁Senate	-14387
▁Studio	-14388
▁Though	-14389
▁acquis	-14390
▁agrees	-14391
▁backed	-14392
▁bakery	-14393
▁banana	-14394
▁banker	-14395
▁basics	-14396
▁chunks	-14397
▁closes	-14398
▁closet	-14399
▁consol	-14400
▁contra	-14401
▁costly	-14402
▁dances	-14403
▁defeat	-14404
▁dining	-14405
▁disson	-14406
▁facult	-14407
▁fluids	-14408
▁forbid	-14409
▁galvan	-14410
▁gloves	-14411
▁insult	-14412
▁judges	-14413
▁knives	-14414
▁legend	-14415
▁marked	-14416
▁metast	-14417
▁mosque	-14418
▁nerves	-14419
▁newest	-14420
▁novels	-14421
▁peanut	-14422
▁phases	-14423
▁praise	-14424
▁propos	-14425
▁provin	-14426
▁racism	-14427
▁reluct	-14428
▁retain	-14429
▁retina	-14430
▁ripped	-14431
▁roller	-14432
▁ruined	-14433
▁rushed	-14434
▁sevent	-14435
▁shores	-14436
▁skiing	-14437
▁sorrow	-14438
▁splend	-14439
▁sugars	-14440
▁taller	-14441
▁tender	-14442
▁thesis	-14443
▁titled	-14444
▁trance	-14445
▁transc	-14446
▁transm	-14447
▁uncles	-14448
▁vector	-14449
▁wished	-14450
appiness	-14451
specific	-14452
▁500,000	-14453
▁Alabama	-14454
▁Alexand	-14455
▁Balkans	-14456
▁Believe	-14457
▁Chariot	-14458
▁Douglas	-14459
▁Eduardo	-14460
▁Medical	-14461
▁Orchest	-14462
▁Program	-14463
▁Reserve	-14464
▁Russell	-14465
▁advised	-14466
▁archive	-14467
▁assured	-14468
▁athlete	-14469
▁ballast	-14470
▁boiling	-14471
▁cafeter	-14472
▁calving	-14473
▁cheated	-14474
▁checked	-14475
▁chewing	-14476
▁cleaned	-14477
▁collide	-14478
▁combust	-14479
▁commute	-14480
▁compose	-14481
▁conceiv	-14482
▁congest	-14483
▁critics	-14484
▁crystal	-14485
▁enforce	-14486
▁evolves	-14487
▁excerpt	-14488
▁expands	-14489
▁framing	-14490
▁genital	-14491
▁grounds	-14492
▁hacking	-14493
▁harmful	-14494
▁inflate	-14495
▁inhabit	-14496
▁insulin	-14497
▁intoler	-14498
▁judging	-14499
▁knocked	-14500
▁lacking	-14501
▁lifting	-14502
▁loyalty	-14503
▁mandate	-14504
▁modular	-14505
▁mounted	-14506
▁municip	-14507
▁museums	-14508
▁oysters	-14509
▁pasting	-14510
▁pioneer	-14511
▁placebo	-14512
▁portray	-14513
▁prophet	-14514
▁readily	-14515
▁retired	-14516
▁reveals	-14517
▁shaping	-14518
▁squeeze	-14519
▁stunned	-14520
▁superst	-14521
▁synapse	-14522
▁syringe	-14523
▁telecom	-14524
▁turtles	-14525
▁unthink	-14526
▁vibrant	-14527
▁vividly	-14528
▁winners	-14529
izational	-14530
protected	-14531
struction	-14532
▁Alhambra	-14533
▁Americas	-14534
▁Colorado	-14535
▁Computer	-14536
▁Diplomat	-14537
▁Emmanuel	-14538
▁Maitreya	-14539
▁Michigan	-14540
▁Mongolia	-14541
▁Muhammad	-14542
▁Recently	-14543
▁Redwoods	-14544
▁Students	-14545
▁Universe	-14546
▁Yugoslav	-14547
▁alarming	-14548
▁backward	-14549
▁bicycles	-14550
▁bleeding	-14551
▁blocking	-14552
▁coherent	-14553
▁colleges	-14554
▁composer	-14555
▁coumarin	-14556
▁dedicate	-14557
▁displace	-14558
▁dividend	-14559
▁downhill	-14560
▁dressing	-14561
▁emphasis	-14562
▁epilepsy	-14563
▁equipped	-14564
▁extrater	-14565
▁foragers	-14566
▁foraging	-14567
▁fractals	-14568
▁fragment	-14569
▁freedoms	-14570
▁graffiti	-14571
▁immersed	-14572
▁insisted	-14573
▁invasion	-14574
▁marathon	-14575
▁meantime	-14576
▁miracles	-14577
▁protects	-14578
▁reactors	-14579
▁regarded	-14580
▁resemble	-14581
▁respects	-14582
▁seasonal	-14583
▁simplify	-14584
▁smartest	-14585
▁spectros	-14586
▁squirrel	-14587
▁stepping	-14588
▁stressed	-14589
▁superior	-14590
▁suppress	-14591
▁thorough	-14592
▁tolerant	-14593
▁tolerate	-14594
▁treaties	-14595
▁Accenture	-14596
▁Antarctic	-14597
▁Interface	-14598
▁Northwest	-14599
▁Otherwise	-14600
▁Photoshop	-14601
▁Southeast	-14602
▁Wednesday	-14603
▁WorldWide	-14604
▁acknowled	-14605
▁astrolabe	-14606
▁astronaut	-14607
▁backstage	-14608
▁balconies	-14609
▁blindfold	-14610
▁cartilage	-14611
▁circuitry	-14612
▁civilians	-14613
▁collector	-14614
▁companion	-14615
▁contracts	-14616
▁displayed	-14617
▁disturbed	-14618
▁donations	-14619
▁exploding	-14620
▁filmmaker	-14621
▁frontiers	-14622
▁genuinely	-14623
▁illnesses	-14624
▁inability	-14625
▁inflation	-14626
▁intensely	-14627
▁intermedi	-14628
▁intrigued	-14629
▁labyrinth	-14630
▁messaging	-14631
▁paragraph	-14632
▁partially	-14633
▁pathology	-14634
▁practiced	-14635
▁promotion	-14636
▁provision	-14637
▁rainwater	-14638
▁reinforce	-14639
▁revealing	-14640
▁seatbelts	-14641
▁shoreline	-14642
▁shrinking	-14643
▁skydiving	-14644
▁spaceship	-14645
▁suppliers	-14646
▁surrounds	-14647
▁synchrony	-14648
▁triggered	-14649
▁visionary	-14650
▁Democratic	-14651
▁Depression	-14652
▁Innovation	-14653
▁Millennium	-14654
▁Scientific	-14655
▁Ultimately	-14656
▁acceptance	-14657
▁adventures	-14658
[...]
