<pad>	0
<unk>	0
<s>	0
</s>	0
en	-0
er	-1
ch	-2
▁d	-3
in	-4
ie	-5
▁w	-6
▁s	-7
un	-8
ich	-9
▁e	-10
an	-11
st	-12
as	-13
▁die	-14
ei	-15
▁a	-16
▁m	-17
▁un	-18
▁ein	-19
te	-20
ge	-21
▁S	-22
▁i	-23
on	-24
▁v	-25
ir	-26
▁h	-27
▁z	-28
▁n	-29
ll	-30
sch	-31
▁das	-32
▁und	-33
ar	-34
gen	-35
▁b	-36
es	-37
ten	-38
▁D	-39
hr	-40
▁A	-41
▁W	-42
▁zu	-43
▁k	-44
▁M	-45
▁der	-46
▁ist	-47
at	-48
ein	-49
or	-50
▁in	-51
it	-52
▁wir	-53
em	-54
au	-55
▁E	-56
der	-57
▁au	-58
icht	-59
▁I	-60
de	-61
lich	-62
den	-63
ach	-64
ier	-65
ben	-66
▁g	-67
▁G	-68
al	-69
▁f	-70
▁U	-71
ber	-72
▁ich	-73
▁ge	-74
el	-75
▁B	-76
▁es	-77
ur	-78
ter	-79
▁K	-80
▁Un	-81
▁dies	-82
▁sie	-83
ung	-84
▁F	-85
le	-86
▁an	-87
▁er	-88
▁Sie	-89
▁P	-90
▁den	-91
mm	-92
▁L	-93
ür	-94
▁Und	-95
um	-96
nen	-97
ro	-98
ls	-99
▁T	-100
▁nicht	-101
ig	-102
▁ver	-103
eh	-104
▁von	-105
sen	-106
▁dass	-107
▁eine	-108
eit	-109
is	-110
▁ha	-111
re	-112
▁be	-113
ck	-114
ann	-115
▁auf	-116
▁H	-117
▁so	-118
▁mit	-119
tz	-120
▁V	-121
ind	-122
ion	-123
▁wie	-124
enn	-125
▁R	-126
isch	-127
▁N	-128
us	-129
am	-130
▁als	-131
▁uns	-132
▁war	-133
ra	-134
▁sich	-135
▁sch	-136
kt	-137
▁Ich	-138
ent	-139
▁l	-140
▁J	-141
eu	-142
▁t	-143
▁Z	-144
be	-145
▁o	-146
▁sind	-147
▁haben	-148
ahr	-149
über	-150
ft	-151
ön	-152
ol	-153
ehr	-154
▁man	-155
▁für	-156
▁hat	-157
se	-158
▁j	-159
ste	-160
▁aus	-161
lle	-162
ag	-163
▁-	-164
▁um	-165
ik	-166
and	-167
il	-168
▁Das	-169
iel	-170
▁über	-171
ff	-172
▁kön	-173
▁Es	-174
eine	-175
ehen	-176
▁wer	-177
▁p	-178
än	-179
▁St	-180
▁was	-181
▁"	-182
ut	-183
▁Die	-184
och	-185
tw	-186
▁da	-187
om	-188
llen	-189
▁Ge	-190
▁Wir	-191
▁Sch	-192
▁diese	-193
eil	-194
hl	-195
▁dem	-196
sten	-197
▁In	-198
▁Er	-199
▁im	-200
▁O	-201
igen	-202
▁wenn	-203
ern	-204
bt	-205
omm	-206
▁einen	-207
rei	-208
▁C	-209
chen	-210
sp	-211
ieren	-212
▁ihr	-213
▁des	-214
▁je	-215
▁Ver	-216
ne	-217
▁können	-218
▁werden	-219
ensch	-220
▁Jahr	-221
elt	-222
wei	-223
▁Ar	-224
▁sein	-225
iv	-226
iert	-227
ige	-228
▁Pro	-229
▁unser	-230
rau	-231
▁vor	-232
ien	-233
▁oder	-234
▁hier	-235
▁--	-236
▁kann	-237
zu	-238
rü	-239
scha	-240
▁An	-241
ungen	-242
▁wo	-243
▁1	-244
▁ander	-245
▁mach	-246
ation	-247
▁Aber	-248
▁aber	-249
anz	-250
▁sehr	-251
▁auch	-252
▁einer	-253
▁wird	-254
ort	-255
ing	-256
▁etw	-257
hnen	-258
▁nach	-259
▁einem	-260
men	-261
▁all	-262
▁Mensch	-263
ken	-264
ibt	-265
hen	-266
uch	-267
00	-268
▁dar	-269
▁mein	-270
▁nur	-271
▁Be	-272
os	-273
▁Ein	-274
ischen	-275
aus	-276
▁gibt	-277
ht	-278
▁dann	-279
ser	-280
fen	-281
▁bei	-282
▁ent	-283
äch	-284
hn	-285
lau	-286
issen	-287
▁Menschen	-288
▁–	-289
ill	-290
ör	-291
ot	-292
urch	-293
▁mich	-294
▁also	-295
tzt	-296
▁le	-297
og	-298
▁st	-299
▁etwas	-300
ommen	-301
▁habe	-302
▁Re	-303
▁wur	-304
▁Le	-305
▁sp	-306
▁En	-307
▁sehen	-308
eute	-309
gt	-310
und	-311
hal	-312
ät	-313
▁noch	-314
et	-315
▁her	-316
ru	-317
rie	-318
▁Welt	-319
▁Als	-320
bl	-321
ick	-322
▁wei	-323
agen	-324
▁dieser	-325
schaft	-326
ang	-327
tet	-328
bei	-329
dern	-330
▁sag	-331
mmer	-332
▁Sp	-333
roß	-334
klich	-335
▁Was	-336
ab	-337
▁vie	-338
▁re	-339
▁kl	-340
ers	-341
▁durch	-342
ul	-343
acht	-344
op	-345
▁mehr	-346
ische	-347
▁mir	-348
▁gen	-349
keit	-350
all	-351
mal	-352
."	-353
heit	-354
we	-355
ffen	-356
▁wirklich	-357
▁♫	-358
▁Wenn	-359
lichen	-360
amm	-361
ke	-362
▁viel	-363
he	-364
▁Leben	-365
fach	-366
▁Zeit	-367
▁alle	-368
▁Au	-369
▁mö	-370
liche	-371
uss	-372
▁ganz	-373
▁machen	-374
end	-375
ess	-376
▁wür	-377
ähr	-378
üs	-379
är	-380
▁2	-381
ze	-382
▁Ihnen	-383
fü	-384
▁Also	-385
▁zum	-386
▁groß	-387
cht	-388
her	-389
▁wurde	-390
inge	-391
▁unter	-392
▁ab	-393
▁zwei	-394
oll	-395
▁einfach	-396
▁Gesch	-397
assen	-398
fl	-399
imm	-400
▁r	-401
ass	-402
br	-403
▁ste	-404
▁meine	-405
ech	-406
▁tun	-407
ingen	-408
▁immer	-409
▁weil	-410
rück	-411
▁am	-412
ist	-413
bst	-414
chte	-415
ungs	-416
tzen	-417
▁bes	-418
▁kon	-419
wer	-420
ah	-421
▁dieses	-422
for	-423
▁Gr	-424
im	-425
art	-426
ekt	-427
age	-428
nte	-429
schie	-430
bar	-431
▁Art	-432
▁bis	-433
che	-434
▁fü	-435
ap	-436
▁neu	-437
▁Leute	-438
▁wissen	-439
▁Dinge	-440
▁hin	-441
▁müs	-442
▁hatte	-443
lie	-444
ob	-445
▁diesem	-446
glich	-447
gel	-448
ad	-449
▁ges	-450
inden	-451
ner	-452
ück	-453
▁sagen	-454
▁keine	-455
eiten	-456
stell	-457
tern	-458
ran	-459
ionen	-460
iz	-461
unkt	-462
▁sel	-463
▁Ihr	-464
▁sagte	-465
▁unsere	-466
aten	-467
ehmen	-468
▁dam	-469
▁diesen	-470
leich	-471
kommen	-472
iger	-473
olog	-474
▁bin	-475
per	-476
gend	-477
▁müssen	-478
ats	-479
omp	-480
ßen	-481
itte	-482
▁ihre	-483
▁soll	-484
ger	-485
▁weiter	-486
▁Jahren	-487
▁Man	-488
▁beg	-489
est	-490
hlen	-491
dem	-492
äu	-493
▁Or	-494
▁glau	-495
▁jetzt	-496
▁waren	-497
pt	-498
▁viele	-499
zen	-500
einen	-501
lan	-502
ild	-503
rä	-504
▁Kon	-505
unden	-506
▁Kin	-507
blem	-508
du	-509
▁gew	-510
ster	-511
▁würde	-512
▁lie	-513
ammen	-514
lt	-515
▁alles	-516
▁eines	-517
▁Vor	-518
▁Zu	-519
rach	-520
▁andere	-521
ichte	-522
▁wieder	-523
▁du	-524
▁zei	-525
▁gem	-526
▁eigen	-527
▁anderen	-528
▁vers	-529
▁Ges	-530
auf	-531
ität	-532
▁Mill	-533
▁damit	-534
ichtig	-535
det	-536
▁ar	-537
▁So	-538
ver	-539
pp	-540
eg	-541
▁Wie	-542
▁Problem	-543
▁Ch	-544
ed	-545
ri	-546
▁Der	-547
▁geht	-548
▁nie	-549
▁selbst	-550
auen	-551
▁Aus	-552
lleicht	-553
▁zur	-554
▁Bei	-555
off	-556
▁wel	-557
▁Jahre	-558
..	-559
ächlich	-560
under	-561
eln	-562
ün	-563
▁zurück	-564
▁wen	-565
nis	-566
tes	-567
▁ger	-568
▁muss	-569
ast	-570
ande	-571
amen	-572
▁Nun	-573
ßer	-574
kl	-575
▁dort	-576
mer	-577
spiel	-578
angen	-579
▁zus	-580
von	-581
zi	-582
änder	-583
atsächlich	-584
▁schon	-585
▁gut	-586
war	-587
▁Dies	-588
äre	-589
▁ber	-590
fe	-591
▁denn	-592
yst	-593
rö	-594
igkeit	-595
fr	-596
▁möchte	-597
▁Kinder	-598
▁Ide	-599
zent	-600
beit	-601
inn	-602
▁ob	-603
▁heraus	-604
ragen	-605
▁ihnen	-606
ler	-607
ystem	-608
lei	-609
zeu	-610
ommt	-611
ale	-612
vor	-613
▁Um	-614
▁Auf	-615
geb	-616
▁pass	-617
aar	-618
halten	-619
▁davon	-620
▁drei	-621
▁verst	-622
stellen	-623
des	-624
nten	-625
▁Teil	-626
▁Ne	-627
ahl	-628
▁letz	-629
schl	-630
▁Frau	-631
▁Her	-632
itt	-633
echn	-634
▁br	-635
▁ir	-636
▁pro	-637
▁zusammen	-638
ug	-639
ert	-640
▁arbei	-641
atür	-642
ant	-643
ade	-644
pf	-645
▁Hier	-646
▁vielleicht	-647
▁best	-648
me	-649
zie	-650
▁3	-651
▁brau	-652
mlich	-653
▁Geschichte	-654
▁inter	-655
ak	-656
rechen	-657
▁son	-658
▁werde	-659
halb	-660
▁Bild	-661
▁Land	-662
▁tatsächlich	-663
aum	-664
▁gleich	-665
ierte	-666
wo	-667
fahr	-668
ationen	-669
sam	-670
ell	-671
aut	-672
esen	-673
ater	-674
▁bet	-675
▁einige	-676
▁Fl	-677
cken	-678
uchen	-679
▁jem	-680
weise	-681
zä	-682
▁heute	-683
▁Wissen	-684
▁könnte	-685
000	-686
▁darüber	-687
▁hatten	-688
▁genau	-689
▁Dan	-690
▁gehen	-691
hne	-692
▁Techn	-693
ok	-694
schen	-695
▁ihn	-696
▁Bl	-697
▁nun	-698
ha	-699
▁Wei	-700
ennen	-701
▁denke	-702
alen	-703
ologie	-704
ichten	-705
▁Kl	-706
▁kein	-707
gef	-708
▁Arbeit	-709
▁verb	-710
ache	-711
▁paar	-712
▁wahr	-713
▁Je	-714
atur	-715
▁zie	-716
für	-717
anden	-718
att	-719
▁einz	-720
kte	-721
oren	-722
eld	-723
▁wollen	-724
unde	-725
▁Gen	-726
▁Ber	-727
atz	-728
wick	-729
▁For	-730
ändern	-731
form	-732
▁Geb	-733
▁Nach	-734
▁irgend	-735
?"	-736
alt	-737
▁Geh	-738
▁gemacht	-739
rage	-740
atürlich	-741
▁zw	-742
▁weiß	-743
▁woll	-744
▁glaube	-745
hm	-746
ika	-747
▁ben	-748
qu	-749
net	-750
unktion	-751
▁Wasser	-752
reich	-753
▁will	-754
ährend	-755
hren	-756
▁verw	-757
▁meiner	-758
▁wurden	-759
▁Unter	-760
ielen	-761
rag	-762
▁Diese	-763
ine	-764
tlich	-765
▁kommen	-766
hör	-767
▁Se	-768
schieden	-769
▁Mon	-770
▁Des	-771
eite	-772
▁gu	-773
▁bek	-774
öglich	-775
▁Beispiel	-776
▁grö	-777
eich	-778
▁gab	-779
▁Da	-780
äd	-781
▁gef	-782
ite	-783
schein	-784
▁macht	-785
ode	-786
▁seine	-787
▁wäre	-788
▁5	-789
▁Inter	-790
▁neue	-791
ander	-792
gie	-793
▁19	-794
▁bede	-795
utzen	-796
ativ	-797
▁vom	-798
▁denen	-799
▁besser	-800
▁unserer	-801
▁geben	-802
▁interess	-803
gar	-804
▁Mit	-805
▁dazu	-806
irn	-807
▁Ab	-808
eisten	-809
▁Grund	-810
ma	-811
▁hei	-812
▁entwick	-813
änd	-814
▁leben	-815
▁kommt	-816
▁erzä	-817
keiten	-818
▁gerade	-819
▁Wer	-820
▁lang	-821
▁sondern	-822
▁Mar	-823
▁Ü	-824
ult	-825
▁Al	-826
ud	-827
achte	-828
▁Ste	-829
fol	-830
▁einmal	-831
▁Aut	-832
achen	-833
▁Prozent	-834
utz	-835
▁finden	-836
▁funktion	-837
schei	-838
ay	-839
rün	-840
▁dr	-841
▁jeder	-842
äh	-843
▁Ent	-844
teil	-845
▁dafür	-846
akt	-847
▁ange	-848
alten	-849
▁hät	-850
▁Fre	-851
▁zeigen	-852
▁erst	-853
▁denken	-854
▁passiert	-855
lück	-856
▁letzten	-857
gan	-858
▁würden	-859
▁näch	-860
enden	-861
ue	-862
chten	-863
▁zwischen	-864
▁wichtig	-865
aufen	-866
▁Millionen	-867
▁nichts	-868
▁Me	-869
hem	-870
▁sieht	-871
▁Tag	-872
cher	-873
ivers	-874
▁Frage	-875
hin	-876
▁ex	-877
▁Mal	-878
ia	-879
fer	-880
geben	-881
ittel	-882
od	-883
ss	-884
▁ja	-885
▁während	-886
▁4	-887
▁Im	-888
▁warum	-889
gehen	-890
▁erste	-891
ikan	-892
▁bedeu	-893
ften	-894
erson	-895
▁gegen	-896
▁Idee	-897
▁ohne	-898
andel	-899
▁sogar	-900
▁verl	-901
▁Lebens	-902
▁20	-903
▁Eine	-904
ßt	-905
▁natürlich	-906
▁verschieden	-907
öff	-908
ic	-909
▁bekommen	-910
▁verstehen	-911
ign	-912
ierung	-913
tschaft	-914
▁konnte	-915
▁ihren	-916
▁ersten	-917
▁ziemlich	-918
sehen	-919
.000	-920
▁mus	-921
▁10	-922
▁ganze	-923
ischer	-924
▁Ex	-925
▁daran	-926
gr	-927
▁lassen	-928
sicht	-929
▁Über	-930
rupp	-931
ingt	-932
olle	-933
ergie	-934
▁mal	-935
ollar	-936
ate	-937
▁sollte	-938
ße	-939
▁Ph	-940
weg	-941
▁mensch	-942
stellt	-943
nell	-944
▁Univers	-945
▁Raum	-946
zeit	-947
agt	-948
immt	-949
▁klein	-950
▁große	-951
▁Plan	-952
▁besch	-953
▁meisten	-954
▁Weg	-955
▁gesch	-956
▁sagt	-957
▁Geld	-958
wie	-959
äl	-960
▁Hand	-961
▁sicher	-962
▁sprechen	-963
ide	-964
▁etwa	-965
▁versuch	-966
erst	-967
jekt	-968
ompu	-969
▁Mus	-970
ord	-971
ys	-972
▁geb	-973
▁arbeiten	-974
innen	-975
▁jemand	-976
▁wollte	-977
▁gel	-978
ktur	-979
▁Reg	-980
iele	-981
ogen	-982
scheinlich	-983
hrt	-984
▁Dollar	-985
igt	-986
▁schw	-987
▁get	-988
▁vier	-989
▁scha	-990
ckt	-991
▁Ihre	-992
▁Gehirn	-993
▁ging	-994
▁Men	-995
sel	-996
ange	-997
▁sollten	-998
ös	-999
llt	-1000
▁We	-1001
iere	-1002
▁Daten	-1003
▁Sache	-1004
▁Frauen	-1005
pro	-1006
fte	-1007
ker	-1008
sst	-1009
ären	-1010
▁kam	-1011
schied	-1012
▁dabei	-1013
▁nehmen	-1014
▁komp	-1015
aupt	-1016
▁meinem	-1017
▁ins	-1018
dien	-1019
pl	-1020
als	-1021
▁schnell	-1022
ramm	-1023
blich	-1024
ält	-1025
olut	-1026
...	-1027
utter	-1028
gew	-1029
kun	-1030
rank	-1031
fühl	-1032
enz	-1033
yp	-1034
wir	-1035
▁War	-1036
stand	-1037
omputer	-1038
▁welche	-1039
finden	-1040
▁Dann	-1041
▁Person	-1042
▁meinen	-1043
▁könnten	-1044
lung	-1045
▁hör	-1046
▁gesehen	-1047
▁Min	-1048
ce	-1049
▁Denn	-1050
eht	-1051
urz	-1052
▁Pl	-1053
ele	-1054
annt	-1055
▁Ende	-1056
▁Ger	-1057
rad	-1058
▁Med	-1059
onder	-1060
▁Mann	-1061
orden	-1062
id	-1063
itz	-1064
▁kleinen	-1065
▁Möglich	-1066
▁star	-1067
▁Wo	-1068
▁Kind	-1069
▁Afr	-1070
▁Schl	-1071
▁Seite	-1072
▁Entw	-1073
▁darauf	-1074
kunft	-1075
▁Ö	-1076
twort	-1077
ts	-1078
▁Ä	-1079
str	-1080
äng	-1081
▁All	-1082
ial	-1083
▁bereit	-1084
▁kleine	-1085
▁„	-1086
▁Wissenschaft	-1087
äft	-1088
▁bringen	-1089
▁ung	-1090
orgen	-1091
io	-1092
▁ihrer	-1093
eist	-1094
▁schl	-1095
▁Energie	-1096
mus	-1097
▁Inform	-1098
▁dir	-1099
▁Rei	-1100
ennt	-1101
▁Y	-1102
ganis	-1103
▁Fall	-1104
bs	-1105
tr	-1106
ive	-1107
▁Verb	-1108
▁Weise	-1109
▁weniger	-1110
▁Computer	-1111
tt	-1112
▁Q	-1113
örper	-1114
▁El	-1115
licher	-1116
▁Lie	-1117
▁Menge	-1118
raft	-1119
▁eigentlich	-1120
reiben	-1121
▁dachte	-1122
▁Technologie	-1123
gl	-1124
nah	-1125
fall	-1126
▁System	-1127
▁bedeutet	-1128
amil	-1129
▁gest	-1130
▁ihm	-1131
▁seit	-1132
▁möglich	-1133
richt	-1134
arbei	-1135
▁Mein	-1136
uten	-1137
▁brauchen	-1138
▁großen	-1139
unter	-1140
gefähr	-1141
iar	-1142
▁Erde	-1143
▁Bo	-1144
▁Son	-1145
äter	-1146
ott	-1147
▁doch	-1148
adt	-1149
▁Ja	-1150
▁Fil	-1151
asch	-1152
eten	-1153
▁Buch	-1154
▁wenig	-1155
▁Gem	-1156
▁außer	-1157
th	-1158
schw	-1159
ald	-1160
fin	-1161
ernen	-1162
▁sol	-1163
ierten	-1164
▁versuchen	-1165
▁wunder	-1166
olit	-1167
ition	-1168
achsen	-1169
stellung	-1170
ruck	-1171
▁fün	-1172
▁Dank	-1173
ätz	-1174
iges	-1175
▁Kre	-1176
▁gesagt	-1177
our	-1178
▁unseren	-1179
nung	-1180
▁Stra	-1181
▁Famil	-1182
▁jeden	-1183
▁Kar	-1184
▁sei	-1185
▁keinen	-1186
dr	-1187
wegen	-1188
▁ganzen	-1189
▁Te	-1190
halt	-1191
▁beh	-1192
opf	-1193
▁fin	-1194
▁gern	-1195
hlt	-1196
asse	-1197
Ich	-1198
ges	-1199
▁Licht	-1200
▁al	-1201
▁Natur	-1202
▁Du	-1203
ktiv	-1204
▁ungefähr	-1205
▁Milliar	-1206
tete	-1207
▁Zukunft	-1208
▁glauben	-1209
fft	-1210
▁hoch	-1211
▁schle	-1212
▁Ko	-1213
ernt	-1214
oment	-1215
▁unglau	-1216
ip	-1217
▁Woch	-1218
achten	-1219
▁gehör	-1220
rin	-1221
oten	-1222
legen	-1223
reis	-1224
▁6	-1225
▁Vers	-1226
▁Entwick	-1227
▁Am	-1228
ium	-1229
▁se	-1230
▁dan	-1231
▁200	-1232
ard	-1233
usst	-1234
ga	-1235
alis	-1236
denken	-1237
".	-1238
▁voll	-1239
iss	-1240
raf	-1241
▁Schu	-1242
rieben	-1243
ruktur	-1244
▁Spiel	-1245
hle	-1246
ust	-1247
leben	-1248
ett	-1249
wohl	-1250
kten	-1251
▁Grupp	-1252
▁ausge	-1253
▁US	-1254
▁en	-1255
▁fünf	-1256
rat	-1257
ultur	-1258
icher	-1259
ähn	-1260
essen	-1261
▁hätte	-1262
▁Ort	-1263
▁heißt	-1264
stoff	-1265
▁stellen	-1266
▁funktioniert	-1267
lex	-1268
tro	-1269
▁Design	-1270
ho	-1271
▁Tage	-1272
▁Mutter	-1273
lo	-1274
▁De	-1275
allen	-1276
▁Ob	-1277
echs	-1278
bringen	-1279
eilen	-1280
reichen	-1281
▁Augen	-1282
▁Groß	-1283
▁wahrscheinlich	-1284
▁Afrika	-1285
ED	-1286
▁verm	-1287
▁c	-1288
▁Ged	-1289
▁gute	-1290
▁einge	-1291
lekt	-1292
fahren	-1293
▁später	-1294
schaften	-1295
ormal	-1296
▁Amer	-1297
ständ	-1298
isches	-1299
nehmen	-1300
zeug	-1301
▁indem	-1302
▁Universum	-1303
yn	-1304
▁Ideen	-1305
▁Jetzt	-1306
▁genug	-1307
▁Gew	-1308
▁Haus	-1309
▁jedes	-1310
▁schaffen	-1311
▁te	-1312
▁verk	-1313
▁eigenen	-1314
schn	-1315
▁Planeten	-1316
ph	-1317
▁Ma	-1318
▁vielen	-1319
▁konnten	-1320
▁lange	-1321
▁Bi	-1322
ks	-1323
folg	-1324
satz	-1325
▁Den	-1326
gramm	-1327
hol	-1328
▁nä	-1329
öl	-1330
spro	-1331
▁Wahr	-1332
ließ	-1333
euten	-1334
▁betrach	-1335
▁Hin	-1336
elfen	-1337
zahl	-1338
▁Bil	-1339
isten	-1340
▁erzählen	-1341
kel	-1342
zeich	-1343
itten	-1344
▁Vide	-1345
▁allen	-1346
▁offen	-1347
▁schön	-1348
eile	-1349
▁rie	-1350
ausen	-1351
▁Ro	-1352
▁fest	-1353
▁Ha	-1354
ritt	-1355
▁besonder	-1356
▁gl	-1357
gangen	-1358
ändert	-1359
▁Musik	-1360
▁weg	-1361
▁Lehr	-1362
▁Schul	-1363
no	-1364
▁At	-1365
▁oft	-1366
volut	-1367
▁herum	-1368
▁Probleme	-1369
",	-1370
▁Gemein	-1371
aden	-1372
▁TED	-1373
▁Sta	-1374
duz	-1375
▁Br	-1376
▁Stu	-1377
ina	-1378
▁Ok	-1379
▁Mater	-1380
▁Körper	-1381
▁ne	-1382
▁Schw	-1383
▁Stadt	-1384
so	-1385
undheit	-1386
▁Par	-1387
alität	-1388
▁Moment	-1389
volution	-1390
welt	-1391
▁100	-1392
ellen	-1393
▁Form	-1394
▁15	-1395
▁50	-1396
▁Arten	-1397
▁weit	-1398
ehn	-1399
▁aller	-1400
▁helfen	-1401
▁seiner	-1402
rieg	-1403
▁Produ	-1404
glichen	-1405
▁richtig	-1406
ossen	-1407
▁lernen	-1408
asst	-1409
▁Warum	-1410
▁Leuten	-1411
schaffen	-1412
▁bisschen	-1413
▁nächsten	-1414
▁Mode	-1415
▁fast	-1416
kon	-1417
▁Vielen	-1418
▁schwer	-1419
▁Lin	-1420
▁Wor	-1421
▁begann	-1422
▁Lu	-1423
▁Untern	-1424
▁Sprach	-1425
▁größer	-1426
reffen	-1427
öffent	-1428
▁unserem	-1429
zess	-1430
igkeiten	-1431
▁8	-1432
chn	-1433
▁30	-1434
▁Fot	-1435
▁größ	-1436
bracht	-1437
anzen	-1438
▁Danke	-1439
▁gehört	-1440
▁kennen	-1441
raum	-1442
liches	-1443
▁bauen	-1444
▁beim	-1445
▁Mo	-1446
▁Qu	-1447
▁Nicht	-1448
umen	-1449
itzen	-1450
▁Meer	-1451
▁zeigt	-1452
▁ko	-1453
▁Dar	-1454
ren	-1455
▁Su	-1456
äche	-1457
▁neuen	-1458
▁Kam	-1459
▁we	-1460
ause	-1461
setzt	-1462
kennen	-1463
▁Milliarden	-1464
▁fal	-1465
fä	-1466
▁Fäh	-1467
▁Gegen	-1468
omen	-1469
sche	-1470
ünst	-1471
▁nah	-1472
▁reden	-1473
▁gemein	-1474
▁euch	-1475
▁fol	-1476
▁sah	-1477
▁bevor	-1478
▁sagten	-1479
▁New	-1480
▁Punkt	-1481
▁anders	-1482
mp	-1483
▁eben	-1484
▁kurz	-1485
▁oben	-1486
land	-1487
▁nutzen	-1488
▁bestimm	-1489
▁überall	-1490
▁recht	-1491
▁Gebäu	-1492
▁Gesundheit	-1493
gang	-1494
▁jede	-1495
▁wicht	-1496
▁Män	-1497
▁großart	-1498
öt	-1499
▁ern	-1500
ahlen	-1501
akter	-1502
▁blei	-1503
ädchen	-1504
▁Indien	-1505
▁verändern	-1506
▁7	-1507
scheid	-1508
dig	-1509
wusst	-1510
▁Kopf	-1511
▁seinen	-1512
▁9	-1513
▁inner	-1514
▁hö	-1515
eiden	-1516
▁Stück	-1517
chmal	-1518
iker	-1519
▁Zus	-1520
▁Film	-1521
▁Weil	-1522
andeln	-1523
onen	-1524
▁Met	-1525
inner	-1526
▁Gott	-1527
▁stehen	-1528
▁Pu	-1529
▁frü	-1530
hunder	-1531
▁Projekt	-1532
▁Di	-1533
eig	-1534
dent	-1535
▁Sel	-1536
nisse	-1537
lö	-1538
itu	-1539
zus	-1540
▁de	-1541
sk	-1542
▁nennen	-1543
▁Minuten	-1544
▁Glück	-1545
▁darum	-1546
▁Gesell	-1547
je	-1548
ktion	-1549
indung	-1550
▁wus	-1551
▁sozi	-1552
ffe	-1553
▁na	-1554
▁klar	-1555
▁normal	-1556
▁Mädchen	-1557
ief	-1558
▁ro	-1559
ezie	-1560
▁machte	-1561
unst	-1562
▁Pat	-1563
▁Netz	-1564
heiten	-1565
ome	-1566
öhn	-1567
utzt	-1568
zept	-1569
▁anf	-1570
▁erm	-1571
▁erkl	-1572
gleich	-1573
▁USA	-1574
▁Vort	-1575
▁Richt	-1576
▁Schule	-1577
▁bereits	-1578
mand	-1579
▁entwickelt	-1580
▁erreichen	-1581
anken	-1582
▁Internet	-1583
▁irgendwie	-1584
inen	-1585
▁Far	-1586
▁gar	-1587
▁liegt	-1588
▁Geschichten	-1589
rieb	-1590
▁bem	-1591
▁sechs	-1592
▁Bau	-1593
▁anderes	-1594
ib	-1595
forder	-1596
▁gerne	-1597
▁dich	-1598
▁Fragen	-1599
einander	-1600
▁Exper	-1601
▁steht	-1602
▁Bü	-1603
fang	-1604
▁Bür	-1605
punkt	-1606
▁erkennen	-1607
was	-1608
geln	-1609
zieh	-1610
▁Ang	-1611
ütz	-1612
▁ü	-1613
eim	-1614
▁Zwei	-1615
▁Dieses	-1616
ände	-1617
änger	-1618
amens	-1619
zentr	-1620
▁darin	-1621
▁Möglichkeit	-1622
▁Sü	-1623
ucht	-1624
▁musste	-1625
ere	-1626
llig	-1627
mals	-1628
voll	-1629
gem	-1630
▁Video	-1631
▁entde	-1632
▁gesam	-1633
▁Wirtschaft	-1634
▁Meine	-1635
▁halten	-1636
los	-1637
▁Gl	-1638
▁Kunst	-1639
▁welch	-1640
▁Antwort	-1641
▁hal	-1642
uster	-1643
▁anzu	-1644
▁hinter	-1645
▁Fir	-1646
▁Oder	-1647
▁seinem	-1648
cke	-1649
ilfe	-1650
▁mag	-1651
▁ihrem	-1652
▁richt	-1653
▁Erfahr	-1654
aun	-1655
▁Dr	-1656
▁Flug	-1657
zei	-1658
inde	-1659
▁hören	-1660
▁Bilder	-1661
▁schwier	-1662
▁verschiedene	-1663
▁Informationen	-1664
system	-1665
▁Zusammen	-1666
▁Für	-1667
pr	-1668
▁Lös	-1669
grund	-1670
▁namens	-1671
▁Gruppe	-1672
▁Organis	-1673
▁unglaublich	-1674
▁Kor	-1675
▁drau	-1676
▁komm	-1677
▁Jahrhunder	-1678
▁abge	-1679
erweise	-1680
▁benutzen	-1681
pen	-1682
berfl	-1683
andelt	-1684
▁Vie	-1685
▁Luft	-1686
lichkeit	-1687
auer	-1688
twor	-1689
▁hoff	-1690
▁fragen	-1691
scheiden	-1692
▁Beg	-1693
mittel	-1694
richten	-1695
▁Familie	-1696
▁spielen	-1697
uß	-1698
▁ho	-1699
▁bef	-1700
▁einzige	-1701
▁entwickeln	-1702
▁vorstellen	-1703
▁beginnen	-1704
heor	-1705
▁abs	-1706
▁erf	-1707
ismus	-1708
▁aufge	-1709
▁Auto	-1710
▁Fü	-1711
ings	-1712
▁Stud	-1713
▁Sachen	-1714
let	-1715
▁Selbst	-1716
▁Chr	-1717
▁ähn	-1718
▁Herz	-1719
▁Dingen	-1720
▁Bereich	-1721
▁besonders	-1722
ehe	-1723
▁Ur	-1724
setzen	-1725
▁einigen	-1726
tel	-1727
stehen	-1728
if	-1729
▁Them	-1730
▁statt	-1731
▁Forsch	-1732
▁Gebäude	-1733
▁braucht	-1734
elle	-1735
sent	-1736
▁flie	-1737
▁jedem	-1738
▁Stunden	-1739
ack	-1740
err	-1741
ure	-1742
eren	-1743
ließlich	-1744
deut	-1745
▁Bed	-1746
ölker	-1747
bo	-1748
tem	-1749
euer	-1750
ielt	-1751
ient	-1752
▁Fol	-1753
lektr	-1754
▁wohl	-1755
▁Gefühl	-1756
▁Entscheid	-1757
▁Nu	-1758
endet	-1759
ase	-1760
▁Po	-1761
▁ch	-1762
werk	-1763
ässt	-1764
▁Arm	-1765
▁hätten	-1766
▁interessan	-1767
etz	-1768
son	-1769
▁18	-1770
hält	-1771
▁frag	-1772
▁Krank	-1773
ont	-1774
▁sage	-1775
zeugen	-1776
▁Gener	-1777
ahn	-1778
ian	-1779
zug	-1780
bare	-1781
setz	-1782
▁...	-1783
▁Rob	-1784
chite	-1785
▁Kön	-1786
▁alt	-1787
▁tro	-1788
▁glück	-1789
▁'	-1790
ank	-1791
▁bewegen	-1792
▁verschiedenen	-1793
ösen	-1794
erv	-1795
haupt	-1796
▁versucht	-1797
führt	-1798
hemat	-1799
mpf	-1800
annte	-1801
▁Gesellschaft	-1802
icherheit	-1803
ohn	-1804
ume	-1805
wär	-1806
ala	-1807
uer	-1808
▁Lage	-1809
▁Sinn	-1810
▁Verhalten	-1811
▁Unternehmen	-1812
eut	-1813
esse	-1814
▁Mat	-1815
▁ries	-1816
▁Beweg	-1817
▁führen	-1818
gung	-1819
vest	-1820
▁Kindern	-1821
zustellen	-1822
▁innerhalb	-1823
üt	-1824
häng	-1825
▁jen	-1826
▁verwenden	-1827
aß	-1828
zean	-1829
reten	-1830
▁Eigen	-1831
▁erhalten	-1832
▁Kultur	-1833
▁nämlich	-1834
bte	-1835
▁per	-1836
gestellt	-1837
urs	-1838
ützen	-1839
▁Gesicht	-1840
▁menschlichen	-1841
genommen	-1842
▁Hö	-1843
▁lin	-1844
▁Komp	-1845
▁glob	-1846
▁Macht	-1847
▁Veränder	-1848
▁beein	-1849
schnitt	-1850
▁Umwelt	-1851
▁Material	-1852
ock	-1853
ute	-1854
▁zwar	-1855
▁bemer	-1856
▁unterschied	-1857
blik	-1858
onnen	-1859
▁unbe	-1860
▁Vater	-1861
annen	-1862
▁Wort	-1863
▁Sprache	-1864
zin	-1865
▁Unser	-1866
▁beiden	-1867
▁ändern	-1868
▁gr	-1869
▁Krieg	-1870
▁Grö	-1871
▁Neu	-1872
▁Prä	-1873
▁los	-1874
ersön	-1875
nahme	-1876
lligen	-1877
unge	-1878
▁Durch	-1879
▁Freund	-1880
one	-1881
▁China	-1882
▁allem	-1883
▁ansch	-1884
▁getan	-1885
▁wegen	-1886
▁einzel	-1887
kehr	-1888
▁erw	-1889
▁Werk	-1890
▁erlau	-1891
▁gleichen	-1892
ai	-1893
▁Yor	-1894
inger	-1895
▁brach	-1896
▁schauen	-1897
fel	-1898
iet	-1899
enne	-1900
izin	-1901
▁Eis	-1902
▁Grün	-1903
▁manchmal	-1904
enzen	-1905
stens	-1906
▁Part	-1907
▁verändert	-1908
itze	-1909
sy	-1910
▁Ant	-1911
▁rau	-1912
icken	-1913
rom	-1914
▁Wochen	-1915
▁Entwicklung	-1916
▁Nein	-1917
▁Ozean	-1918
▁stell	-1919
uf	-1920
igten	-1921
▁Kont	-1922
führen	-1923
schlossen	-1924
▁überhaupt	-1925
gesch	-1926
bel	-1927
iken	-1928
▁Bes	-1929
▁frei	-1930
▁unten	-1931
▁treffen	-1932
imen	-1933
▁Rest	-1934
▁Rück	-1935
▁Ziel	-1936
▁Anfang	-1937
▁Eltern	-1938
reifen	-1939
▁Struktur	-1940
kü	-1941
gabe	-1942
ider	-1943
ienten	-1944
▁Tiere	-1945
flanzen	-1946
▁Str	-1947
auso	-1948
eint	-1949
entr	-1950
▁Res	-1951
spr	-1952
▁40	-1953
▁Kr	-1954
elig	-1955
▁tut	-1956
▁Ster	-1957
ym	-1958
urop	-1959
▁for	-1960
▁Verein	-1961
▁Öl	-1962
führ	-1963
▁erk	-1964
gende	-1965
immen	-1966
▁entf	-1967
▁Grunde	-1968
▁besten	-1969
▁Staaten	-1970
▁wollten	-1971
bild	-1972
▁Ergeb	-1973
ja	-1974
gal	-1975
ipp	-1976
sie	-1977
ängt	-1978
▁eher	-1979
▁weitere	-1980
sichtlich	-1981
▁Regierung	-1982
ima	-1983
▁Hause	-1984
▁Dieser	-1985
▁Heraus	-1986
▁falsch	-1987
▁kaufen	-1988
dlich	-1989
blikum	-1990
oss	-1991
▁produz	-1992
▁niemand	-1993
▁nächste	-1994
ow	-1995
▁[	-1996
isk	-1997
▁or	-1998
▁Dem	-1999
▁wor	-2000
▁Okay	-2001
▁verd	-2002
aschine	-2003
▁betrachten	-2004
▁kamen	-2005
ivi	-2006
ahren	-2007
▁Kn	-2008
ächt	-2009
▁Gol	-2010
▁Sol	-2011
▁ster	-2012
▁Lehrer	-2013
▁dessen	-2014
▁Kap	-2015
▁Länder	-2016
▁sieben	-2017
telligen	-2018
▁gleiche	-2019
▁Vielleicht	-2020
zip	-2021
ffekt	-2022
völker	-2023
▁Prozess	-2024
▁Komm	-2025
▁Essen	-2026
▁worden	-2027
▁Geschäft	-2028
▁OK	-2029
▁Männer	-2030
gte	-2031
druck	-2032
▁vert	-2033
berfläche	-2034
zt	-2035
han	-2036
hlte	-2037
denten	-2038
erikan	-2039
▁Publikum	-2040
stet	-2041
ative	-2042
uelle	-2043
▁Schwe	-2044
▁Archite	-2045
▁Programm	-2046
ore	-2047
rakt	-2048
▁lei	-2049
▁Char	-2050
▁grund	-2051
▁menschliche	-2052
▁Pr	-2053
äten	-2054
wesen	-2055
ächst	-2056
▁Fern	-2057
ziehen	-2058
▁welches	-2059
▁Sicherheit	-2060
▁Herausforder	-2061
▁jed	-2062
eister	-2063
möglich	-2064
itiv	-2065
▁Typ	-2066
ograf	-2067
ond	-2068
▁25	-2069
▁ersch	-2070
antwort	-2071
▁Bezieh	-2072
▁Lassen	-2073
▁Gedanken	-2074
▁12	-2075
▁To	-2076
▁Zum	-2077
▁bel	-2078
teten	-2079
▁Doch	-2080
▁lässt	-2081
▁Mittel	-2082
baren	-2083
eigen	-2084
▁beob	-2085
tzlich	-2086
▁Möglichkeiten	-2087
av	-2088
nov	-2089
haus	-2090
▁erstaun	-2091
erk	-2092
ager	-2093
▁erre	-2094
▁Beh	-2095
falls	-2096
▁fand	-2097
▁Nacht	-2098
▁eigene	-2099
▁obwohl	-2100
ragt	-2101
▁Ist	-2102
▁Prin	-2103
▁Hilfe	-2104
▁bitte	-2105
▁exist	-2106
▁letzte	-2107
▁verschw	-2108
▁Erfahrung	-2109
ende	-2110
arten	-2111
▁gescha	-2112
▁jedoch	-2113
▁leicht	-2114
▁interessant	-2115
esser	-2116
fluss	-2117
iziert	-2118
ikro	-2119
iment	-2120
▁Denken	-2121
▁bl	-2122
▁Nahr	-2123
▁eins	-2124
▁Liebe	-2125
▁wären	-2126
ational	-2127
▁damals	-2128
▁York	-2129
▁Gleich	-2130
▁genauso	-2131
sph	-2132
▁Ho	-2133
haft	-2134
ikaner	-2135
rieden	-2136
▁hervor	-2137
▁Co	-2138
ilden	-2139
ument	-2140
▁besteht	-2141
▁draußen	-2142
mot	-2143
▁Fr	-2144
▁Sk	-2145
tens	-2146
▁gro	-2147
lungs	-2148
▁Markt	-2149
▁Stand	-2150
▁hunder	-2151
▁Unterschied	-2152
▁funktionieren	-2153
bung	-2154
▁Kraft	-2155
oter	-2156
▁Bro	-2157
blick	-2158
zogen	-2159
▁Angst	-2160
▁bringt	-2161
Was	-2162
man	-2163
▁fl	-2164
innern	-2165
▁direkt	-2166
ift	-2167
▁fühlen	-2168
ame	-2169
äus	-2170
auft	-2171
sych	-2172
uren	-2173
▁Pol	-2174
▁Süd	-2175
▁berü	-2176
▁benöt	-2177
▁Modell	-2178
▁wusste	-2179
▁mussten	-2180
▁Fähigkeit	-2181
▁Inst	-2182
▁mo	-2183
▁ph	-2184
sein	-2185
▁Feh	-2186
▁Vir	-2187
▁zehn	-2188
▁auszu	-2189
izieren	-2190
▁zweite	-2191
sprochen	-2192
▁Verbindung	-2193
▁Tats	-2194
get	-2195
heorie	-2196
▁Kü	-2197
innt	-2198
bauen	-2199
▁Städ	-2200
▁essen	-2201
▁meines	-2202
▁Information	-2203
wert	-2204
▁Namen	-2205
▁Tr	-2206
▁Engl	-2207
▁Situ	-2208
gefühl	-2209
▁hinein	-2210
▁Stellen	-2211
▁bleiben	-2212
▁sterben	-2213
xt	-2214
iff	-2215
rop	-2216
▁Pap	-2217
ransp	-2218
▁öffent	-2219
▁Patienten	-2220
▁schreiben	-2221
St	-2222
imme	-2223
▁Bet	-2224
gegen	-2225
▁Frei	-2226
▁Tier	-2227
▁Boden	-2228
▁Haupt	-2229
▁aufzu	-2230
▁erwar	-2231
▁mache	-2232
opp	-2233
▁Li	-2234
▁vö	-2235
riff	-2236
zeuge	-2237
▁hast	-2238
▁Ander	-2239
▁Tages	-2240
▁Muster	-2241
▁solche	-2242
▁passieren	-2243
▁Sek	-2244
okrat	-2245
▁Woche	-2246
▁stellt	-2247
▁gemeinsam	-2248
jekte	-2249
▁Sehen	-2250
▁liebe	-2251
▁weltw	-2252
▁Freunde	-2253
bene	-2254
▁Alles	-2255
▁kleines	-2256
ey	-2257
ub	-2258
▁Pf	-2259
ogra	-2260
spir	-2261
bau	-2262
bes	-2263
ital	-2264
atten	-2265
chter	-2266
statt	-2267
▁Vert	-2268
arbeit	-2269
▁Polit	-2270
▁trotz	-2271
▁zuvor	-2272
▁sprach	-2273
sm	-2274
reck	-2275
stra	-2276
▁übr	-2277
spiele	-2278
cen	-2279
ens	-2280
▁Per	-2281
▁Wahl	-2282
erstör	-2283
▁Klima	-2284
▁ermö	-2285
reiten	-2286
ologien	-2287
▁Monate	-2288
▁vorher	-2289
arbeitet	-2290
langen	-2291
▁polit	-2292
▁herauszu	-2293
zeigt	-2294
▁Jeder	-2295
▁Amerika	-2296
▁scheint	-2297
ans	-2298
elbe	-2299
reibt	-2300
annten	-2301
▁Thema	-2302
▁erinner	-2303
▁langsam	-2304
kraft	-2305
▁Fort	-2306
▁bist	-2307
▁Blick	-2308
▁fragte	-2309
▁gebaut	-2310
▁schwierig	-2311
jen	-2312
lin	-2313
dust	-2314
▁Bab	-2315
drück	-2316
wasser	-2317
▁Krebs	-2318
▁Vorstellung	-2319
pe	-2320
cker	-2321
vers	-2322
▁Lab	-2323
troll	-2324
▁dein	-2325
ließen	-2326
▁Erfolg	-2327
▁wachsen	-2328
▁entscheiden	-2329
bend	-2330
▁plö	-2331
licht	-2332
▁schwar	-2333
▁Tatsache	-2334
are	-2335
▁bi	-2336
▁Ind	-2337
▁acht	-2338
▁genannt	-2339
▁möchten	-2340
▁Mathemat	-2341
▁Job	-2342
▁erh	-2343
rifft	-2344
▁Team	-2345
▁völlig	-2346
▁gelernt	-2347
▁gewesen	-2348
▁verbunden	-2349
ehm	-2350
▁Go	-2351
▁Mil	-2352
itein	-2353
nahmen	-2354
ranken	-2355
▁bekommt	-2356
▁gefunden	-2357
▁sollen	-2358
▁beschäft	-2359
ies	-2360
ator	-2361
▁Kat	-2362
hören	-2363
▁fort	-2364
▁teil	-2365
aschen	-2366
▁Autos	-2367
▁mitein	-2368
▁konzentr	-2369
fort	-2370
uellen	-2371
▁Anzahl	-2372
▁jemals	-2373
▁glücklich	-2374
inne	-2375
wirk	-2376
▁Fahr	-2377
▁sehe	-2378
▁deren	-2379
▁Schritt	-2380
▁amerikan	-2381
▁Is	-2382
äuft	-2383
sieht	-2384
▁danach	-2385
▁Technik	-2386
▁kleiner	-2387
▁geworden	-2388
▁Wel	-2389
ieten	-2390
▁Reihe	-2391
▁führt	-2392
▁lesen	-2393
▁Bedeut	-2394
▁Lösung	-2395
▁daraus	-2396
▁teilen	-2397
▁erschaffen	-2398
NA	-2399
ool	-2400
▁Hoff	-2401
▁Preis	-2402
▁Umgeb	-2403
▁persön	-2404
▁komplex	-2405
▁tief	-2406
▁anderer	-2407
▁Richtung	-2408
asen	-2409
bten	-2410
jähr	-2411
wend	-2412
▁Tür	-2413
ählen	-2414
▁nahm	-2415
▁sonst	-2416
▁Roboter	-2417
▁niemals	-2418
▁Wirklich	-2419
▁anfangen	-2420
mo	-2421
trem	-2422
▁ged	-2423
▁Natürlich	-2424
▁Na	-2425
▁qu	-2426
oral	-2427
räsent	-2428
▁Mitte	-2429
ausende	-2430
▁Medien	-2431
▁Sonnen	-2432
▁Bewegung	-2433
▁60	-2434
▁sa	-2435
samkeit	-2436
▁deshalb	-2437
▁entfernt	-2438
▁Oberfläche	-2439
aren	-2440
lauf	-2441
uche	-2442
ochen	-2443
rauen	-2444
zellen	-2445
▁nimmt	-2446
▁länger	-2447
▁versch	-2448
▁unseres	-2449
völkerung	-2450
äß	-2451
▁CA	-2452
▁tö	-2453
▁Tat	-2454
achst	-2455
ament	-2456
▁miteinander	-2457
▁schließlich	-2458
In	-2459
Das	-2460
änden	-2461
▁Alle	-2462
▁bewe	-2463
▁hoffe	-2464
tworten	-2465
▁Gesetz	-2466
▁erklären	-2467
▁plötzlich	-2468
ct	-2469
ance	-2470
ätze	-2471
▁Bru	-2472
▁Fuß	-2473
▁Kal	-2474
▁Ding	-2475
gewöhn	-2476
▁Ihren	-2477
▁neben	-2478
▁unters	-2479
▁größten	-2480
▁Gemeinschaft	-2481
ise	-2482
viel	-2483
▁Zeu	-2484
immer	-2485
gessen	-2486
dustrie	-2487
▁Bildung	-2488
▁aussehen	-2489
merk	-2490
▁Mot	-2491
alien	-2492
▁Sonne	-2493
▁Evolution	-2494
olz	-2495
▁Kil	-2496
gliche	-2497
sphäre	-2498
▁Alter	-2499
▁reich	-2500
▁stark	-2501
▁nachzu	-2502
▁Prinzip	-2503
▁schlecht	-2504
sta	-2505
▁Ru	-2506
alter	-2507
▁Firma	-2508
▁Teile	-2509
▁hinaus	-2510
▁fr	-2511
alax	-2512
itut	-2513
rain	-2514
scht	-2515
ssen	-2516
weisen	-2517
▁Zellen	-2518
▁suchen	-2519
▁nachdem	-2520
▁erinnern	-2521
▁Mitgefühl	-2522
▁nachdenken	-2523
ark	-2524
fon	-2525
▁ur	-2526
ertig	-2527
▁nein	-2528
▁raus	-2529
▁lösen	-2530
▁größte	-2531
▁80	-2532
aler	-2533
▁Bar	-2534
▁Nie	-2535
▁Tem	-2536
▁Geist	-2537
▁Größe	-2538
zw	-2539
▁Bä	-2540
ment	-2541
stein	-2542
▁Foto	-2543
▁techn	-2544
▁Wissenschaftler	-2545
ose	-2546
dete	-2547
wand	-2548
▁Unsere	-2549
fäh	-2550
ines	-2551
lett	-2552
▁bew	-2553
ividu	-2554
achstum	-2555
▁laufen	-2556
▁unterst	-2557
▁verloren	-2558
▁Jahrhundert	-2559
si	-2560
ffiz	-2561
anten	-2562
zeugt	-2563
älfte	-2564
▁grün	-2565
▁Innov	-2566
unehmen	-2567
▁beginnt	-2568
▁verwendet	-2569
äuf	-2570
▁Nord	-2571
▁Viel	-2572
ativen	-2573
▁fahren	-2574
▁Familien	-2575
▁Wahrheit	-2576
▁Tatsächlich	-2577
gn	-2578
zü	-2579
▁11	-2580
lant	-2581
▁Gef	-2582
▁Viele	-2583
▁Ländern	-2584
▁Veränderung	-2585
▁Technologien	-2586
min	-2587
omb	-2588
ämp	-2589
äss	-2590
lage	-2591
wohn	-2592
▁Europ	-2593
▁Sicht	-2594
▁guten	-2595
del	-2596
pfen	-2597
änge	-2598
▁Bel	-2599
stück	-2600
▁Führ	-2601
▁Hinter	-2602
▁bekannt	-2603
▁Pflanzen	-2604
wirtschaft	-2605
▁interessiert	-2606
sprechen	-2607
▁Aufgabe	-2608
▁gesamte	-2609
▁erreicht	-2610
▁Erw	-2611
▁lau	-2612
zeitig	-2613
▁Regeln	-2614
▁Meinung	-2615
▁kü	-2616
▁Dam	-2617
▁Mag	-2618
teilt	-2619
▁Wert	-2620
▁höher	-2621
▁findet	-2622
▁gezeigt	-2623
▁Vereinigten	-2624
ime	-2625
arkt	-2626
elte	-2627
fern	-2628
▁Blut	-2629
▁führ	-2630
▁rein	-2631
▁Galax	-2632
jenigen	-2633
▁Vortrag	-2634
▁Studenten	-2635
▁gegenüber	-2636
▁HI	-2637
ysik	-2638
▁199	-2639
älter	-2640
ierend	-2641
▁folgen	-2642
.“	-2643
immel	-2644
▁erle	-2645
aktion	-2646
▁Mikro	-2647
▁alten	-2648
agieren	-2649
▁Bakter	-2650
tten	-2651
▁Tele	-2652
▁egal	-2653
▁jemanden	-2654
▁Bedeutung	-2655
▁Situation	-2656
ve	-2657
esent	-2658
▁beide	-2659
▁nennt	-2660
▁zeige	-2661
ama	-2662
iko	-2663
twas	-2664
▁Baum	-2665
▁Wind	-2666
▁Zahl	-2667
▁wert	-2668
lassen	-2669
▁Reise	-2670
▁verrück	-2671
▁genommen	-2672
▁ak	-2673
▁gek	-2674
aszin	-2675
recht	-2676
▁Karte	-2677
▁bewusst	-2678
▁stellte	-2679
▁rei	-2680
bliche	-2681
▁daher	-2682
▁gesprochen	-2683
urt	-2684
itzt	-2685
ware	-2686
▁Rad	-2687
igens	-2688
unkte	-2689
▁Ihrem	-2690
▁Meter	-2691
ikation	-2692
schieht	-2693
▁erfolg	-2694
▁Deshalb	-2695
▁wissenschaft	-2696
!"	-2697
eid	-2698
ese	-2699
▁Oh	-2700
lang	-2701
▁Dor	-2702
▁Ris	-2703
gaben	-2704
rauch	-2705
▁schau	-2706
▁absolut	-2707
▁geschieht	-2708
▁herauszufinden	-2709
▁Hü	-2710
rech	-2711
▁Gra	-2712
▁HIV	-2713
▁tot	-2714
ienen	-2715
ängen	-2716
▁Orte	-2717
▁toll	-2718
findet	-2719
▁Kamer	-2720
ünstler	-2721
▁gefähr	-2722
▁gingen	-2723
▁fliegen	-2724
▁Entwicklungs	-2725
▁fanden	-2726
▁beeinfl	-2727
▁Generation	-2728
win	-2729
▁hil	-2730
auber	-2731
ehmer	-2732
▁empf	-2733
▁hinzu	-2734
▁mögen	-2735
▁natür	-2736
▁Spezie	-2737
▁sofort	-2738
▁brachte	-2739
ette	-2740
▁DNA	-2741
▁dun	-2742
spekt	-2743
▁schrieb	-2744
ity	-2745
ikel	-2746
ällt	-2747
▁Recht	-2748
▁ernst	-2749
▁—	-2750
umm	-2751
seit	-2752
▁geh	-2753
▁öff	-2754
ister	-2755
dessen	-2756
ichtet	-2757
itäten	-2758
▁Kosten	-2759
alls	-2760
tzut	-2761
▁ind	-2762
antast	-2763
▁Platz	-2764
▁bekam	-2765
▁entst	-2766
▁Hälfte	-2767
▁großer	-2768
▁einfache	-2769
▁geschrieben	-2770
nt	-2771
Sch	-2772
reu	-2773
▁ru	-2774
▁kur	-2775
▁tat	-2776
eutzut	-2777
▁Einige	-2778
▁bewegt	-2779
▁machten	-2780
eutzutage	-2781
▁Herausforderung	-2782
öst	-2783
▁Är	-2784
fekt	-2785
▁verbr	-2786
▁Bücher	-2787
▁Leiden	-2788
▁ok	-2789
igner	-2790
▁Mars	-2791
ologen	-2792
schlag	-2793
▁Stimme	-2794
arbeiten	-2795
▁ansehen	-2796
▁benutzt	-2797
▁Umgebung	-2798
hang	-2799
weis	-2800
iegel	-2801
ograph	-2802
▁Druck	-2803
rans	-2804
durch	-2805
ätzen	-2806
▁Zeug	-2807
▁samm	-2808
essour	-2809
▁tragen	-2810
▁Schauen	-2811
▁Schulen	-2812
▁komplett	-2813
▁offensichtlich	-2814
Die	-2815
legt	-2816
lern	-2817
schr	-2818
uell	-2819
▁Erd	-2820
▁Einz	-2821
▁Gebiet	-2822
▁kosten	-2823
▁spezie	-2824
▁wichtiger	-2825
iver	-2826
▁Goog	-2827
▁Schü	-2828
▁Ihrer	-2829
▁kannst	-2830
▁liegen	-2831
radition	-2832
struktur	-2833
▁richtige	-2834
ilis	-2835
iten	-2836
lekü	-2837
▁bas	-2838
raten	-2839
▁Rolle	-2840
▁Fehler	-2841
schlagen	-2842
▁Nachbar	-2843
wusstsein	-2844
kle	-2845
mit	-2846
▁Stat	-2847
▁beste	-2848
▁finde	-2849
▁ziehen	-2850
▁Ka	-2851
▁stand	-2852
▁Straße	-2853
▁allein	-2854
▁inspir	-2855
▁Kranken	-2856
▁Während	-2857
▁Krankheit	-2858
ehl	-2859
ons	-2860
▁Ku	-2861
apan	-2862
isst	-2863
▁Kan	-2864
▁Ganz	-2865
▁Glau	-2866
▁Labor	-2867
▁Schön	-2868
ieg	-2869
▁Test	-2870
▁gebe	-2871
abhäng	-2872
indest	-2873
▁Seiten	-2874
▁gegeben	-2875
indigkeit	-2876
▁16	-2877
▁pr	-2878
vent	-2879
ollen	-2880
▁blau	-2881
▁Aktiv	-2882
▁setzen	-2883
▁zuerst	-2884
▁geboren	-2885
▁soziale	-2886
▁Ju	-2887
▁Sau	-2888
▁zer	-2889
▁Elektr	-2890
▁biolog	-2891
▁früher	-2892
▁runter	-2893
▁dachten	-2894
▁Fähigkeiten	-2895
ile	-2896
▁Har	-2897
▁Bürger	-2898
▁extrem	-2899
▁Monaten	-2900
▁gleichzeitig	-2901
line	-2902
▁hab	-2903
schul	-2904
▁Chem	-2905
▁Chris	-2906
▁faszin	-2907
▁verurs	-2908
▁Maschine	-2909
▁bemerken	-2910
Wir	-2911
inz	-2912
rägt	-2913
uchs	-2914
▁Ord	-2915
igung	-2916
▁Forschung	-2917
▁Nachrichten	-2918
af	-2919
Pro	-2920
▁My	-2921
glie	-2922
imul	-2923
itel	-2924
▁Dorf	-2925
laufen	-2926
▁defin	-2927
▁prakt	-2928
▁Google	-2929
▁Ressour	-2930
▁Spezies	-2931
ote	-2932
roh	-2933
▁CO	-2934
▁Th	-2935
▁Von	-2936
▁Webs	-2937
roffen	-2938
▁Geschw	-2939
▁Himmel	-2940
▁Regier	-2941
▁bilden	-2942
▁lieben	-2943
▁Beziehung	-2944
▁passierte	-2945
▁Universität	-2946
itter	-2947
▁Sohn	-2948
▁Meeres	-2949
▁wirtschaft	-2950
▁erfolgreich	-2951
ins	-2952
atte	-2953
▁Nur	-2954
▁Neur	-2955
▁Spaß	-2956
▁enor	-2957
▁Heute	-2958
▁Tagen	-2959
▁echte	-2960
▁gewis	-2961
▁zerstör	-2962
▁Hoffnung	-2963
▁schlechte	-2964
az	-2965
▁Gel	-2966
▁kre	-2967
▁pos	-2968
▁neues	-2969
▁Nummer	-2970
▁anstatt	-2971
▁ähnlich	-2972
▁Realität	-2973
▁versuche	-2974
Wie	-2975
amp	-2976
▁Fä	-2977
▁Hel	-2978
iegen	-2979
▁Eines	-2980
▁Relig	-2981
▁Wieder	-2982
▁stimmt	-2983
▁Politik	-2984
▁Einfluss	-2985
▁veröffent	-2986
▁Experiment	-2987
nete	-2988
zial	-2989
affen	-2990
gendes	-2991
▁Finger	-2992
▁Kommun	-2993
▁Morgen	-2994
▁Objekt	-2995
▁Mathematik	-2996
kr	-2997
▁Ir	-2998
▁Tro	-2999
▁Ange	-3000
▁Bill	-3001
▁abzu	-3002
▁bein	-3003
lungen	-3004
▁Fisch	-3005
▁kontroll	-3006
▁Wirklichkeit	-3007
klär	-3008
stru	-3009
auern	-3010
eisen	-3011
quenz	-3012
ferenz	-3013
trolle	-3014
andlung	-3015
▁erlaubt	-3016
▁begannen	-3017
▁Vergangen	-3018
▁nachzudenken	-3019
▁Entscheidungen	-3020
enk	-3021
grö	-3022
omat	-3023
daten	-3024
hnung	-3025
stern	-3026
▁Berg	-3027
▁Monat	-3028
▁erfor	-3029
▁Zahlen	-3030
▁Wachstum	-3031
▁ö	-3032
deck	-3033
sell	-3034
schir	-3035
ändig	-3036
▁Höhe	-3037
indungen	-3038
▁Konzept	-3039
▁Produkt	-3040
▁Straßen	-3041
▁Ergebnis	-3042
▁einzelne	-3043
▁Bevölkerung	-3044
rate	-3045
▁Maß	-3046
ussen	-3047
örter	-3048
▁Phil	-3049
▁Wohl	-3050
▁nahe	-3051
ftware	-3052
▁Armut	-3053
▁Ebene	-3054
▁deine	-3055
▁elektr	-3056
▁finanz	-3057
aschinen	-3058
▁fantast	-3059
▁gekommen	-3060
▁irgendwo	-3061
▁trotzdem	-3062
▁anschauen	-3063
▁schneller	-3064
▁gearbeitet	-3065
▁Architektur	-3066
alle	-3067
▁Frü	-3068
▁Gut	-3069
kommt	-3070
▁Sinne	-3071
▁kompl	-3072
▁links	-3073
▁Städte	-3074
▁vorbei	-3075
ständnis	-3076
▁Grenzen	-3077
▁erzeugen	-3078
▁möglichen	-3079
▁Vergangenheit	-3080
co	-3081
sto	-3082
▁90	-3083
bert	-3084
▁Fin	-3085
▁Ker	-3086
▁bed	-3087
▁angef	-3088
▁nenne	-3089
▁näher	-3090
▁Europa	-3091
▁erzählt	-3092
▁befinden	-3093
bet	-3094
▁dig	-3095
▁lok	-3096
▁selt	-3097
ausend	-3098
▁sahen	-3099
▁Stelle	-3100
▁arbeitet	-3101
▁richtigen	-3102
▁interessante	-3103
50	-3104
ix	-3105
abel	-3106
▁Vis	-3107
istan	-3108
▁überr	-3109
▁verlieren	-3110
▁zumindest	-3111
▁Entscheidung	-3112
▁Wahrscheinlich	-3113
ürz	-3114
▁et	-3115
amer	-3116
iell	-3117
stes	-3118
▁Ton	-3119
elegen	-3120
▁Stamm	-3121
wirkungen	-3122
kul	-3123
dert	-3124
▁Car	-3125
▁ant	-3126
ombin	-3127
▁rund	-3128
edizin	-3129
machen	-3130
▁einzu	-3131
▁sitzen	-3132
▁welcher	-3133
▁bedeuten	-3134
▁weltweit	-3135
▁Bakterien	-3136
▁Beispiele	-3137
▁geschehen	-3138
merksamkeit	-3139
▁Gesundheits	-3140
ützt	-3141
▁Erk	-3142
▁Ern	-3143
emand	-3144
orfen	-3145
twend	-3146
▁bald	-3147
▁heut	-3148
eitung	-3149
▁Medik	-3150
▁Wesen	-3151
▁verfü	-3152
▁fertig	-3153
▁Gruppen	-3154
▁Theorie	-3155
▁Aufmerksamkeit	-3156
rift	-3157
▁Bus	-3158
▁erg	-3159
reise	-3160
▁Elem	-3161
▁alte	-3162
▁Regel	-3163
▁falls	-3164
▁aussieht	-3165
▁bestimmt	-3166
▁verlassen	-3167
▁Amerikaner	-3168
▁beobachten	-3169
▁end	-3170
sprün	-3171
▁vorh	-3172
▁Zentr	-3173
▁übert	-3174
▁Charakter	-3175
Oh	-3176
app	-3177
apt	-3178
beh	-3179
zif	-3180
üll	-3181
▁Lö	-3182
▁ca	-3183
falt	-3184
iven	-3185
nern	-3186
▁Wür	-3187
▁Auch	-3188
▁Orten	-3189
▁Strom	-3190
▁Zeich	-3191
▁aufre	-3192
▁Molekü	-3193
▁bleibt	-3194
▁retten	-3195
▁Million	-3196
▁Ordnung	-3197
▁produzieren	-3198
sion	-3199
verb	-3200
▁Uhr	-3201
▁vis	-3202
▁stud	-3203
ometer	-3204
▁aktiv	-3205
▁Invest	-3206
▁bestimmten	-3207
▁17	-3208
▁daß	-3209
▁fre	-3210
▁neun	-3211
essern	-3212
▁Feuer	-3213
▁danke	-3214
schritt	-3215
▁dritte	-3216
▁arbeite	-3217
▁irgendw	-3218
▁schreck	-3219
▁Menschheit	-3220
ID	-3221
▁Kern	-3222
▁Arbei	-3223
▁denkt	-3224
▁übrigens	-3225
▁geschaffen	-3226
rit	-3227
▁rep	-3228
digen	-3229
echan	-3230
schön	-3231
▁vergessen	-3232
les	-3233
rig	-3234
üss	-3235
▁He	-3236
▁Zw	-3237
gten	-3238
▁Bot	-3239
▁spr	-3240
asche	-3241
genie	-3242
orben	-3243
▁Hoch	-3244
▁Mark	-3245
▁überw	-3246
▁invest	-3247
▁morgen	-3248
▁gebracht	-3249
hy	-3250
ry	-3251
▁Sa	-3252
ickt	-3253
zähl	-3254
▁Det	-3255
▁Miss	-3256
ierter	-3257
otwend	-3258
uchten	-3259
wissen	-3260
▁Kolle	-3261
▁Papier	-3262
▁gesamten	-3263
▁versuchte	-3264
imp	-3265
met	-3266
▁Do	-3267
▁Sy	-3268
onie	-3269
ählt	-3270
▁Rau	-3271
▁Ziv	-3272
elten	-3273
▁Prof	-3274
▁Bezug	-3275
peratur	-3276
zusagen	-3277
▁großes	-3278
▁einander	-3279
▁bestimmte	-3280
▁heutzutage	-3281
▁Gu	-3282
arte	-3283
iter	-3284
ynam	-3285
▁Jed	-3286
▁Herr	-3287
▁Mehr	-3288
▁älter	-3289
bildung	-3290
ierende	-3291
▁Können	-3292
▁gewöhn	-3293
zeichnet	-3294
▁Medizin	-3295
▁Software	-3296
▁entdecken	-3297
▁14	-3298
▁pl	-3299
▁Krä	-3300
▁John	-3301
altung	-3302
▁Farbe	-3303
▁Gerät	-3304
▁moder	-3305
▁wussten	-3306
▁wichtige	-3307
▁großartig	-3308
▁Verantwort	-3309
aul	-3310
▁ehr	-3311
etzen	-3312
▁Linie	-3313
▁Regen	-3314
▁Super	-3315
▁verfol	-3316
gebracht	-3317
▁Telefon	-3318
▁großartige	-3319
▁normalerweise	-3320
gor	-3321
▁Nä	-3322
orge	-3323
önen	-3324
▁Sex	-3325
▁Dien	-3326
▁Gefü	-3327
▁Schn	-3328
▁fing	-3329
▁krei	-3330
▁erklär	-3331
▁Schüler	-3332
▁Flugzeug	-3333
▁unmöglich	-3334
mt	-3335
ums	-3336
unt	-3337
▁Vo	-3338
▁of	-3339
ille	-3340
▁Vol	-3341
gemein	-3342
itionen	-3343
▁verstanden	-3344
▁Bewusstsein	-3345
aup	-3346
▁Sh	-3347
ehme	-3348
▁hol	-3349
▁tie	-3350
▁gesp	-3351
frikan	-3352
▁Jahrz	-3353
▁ihres	-3354
▁bessere	-3355
▁handelt	-3356
▁Demokrat	-3357
hode	-3358
stelle	-3359
ämpfen	-3360
▁Genau	-3361
▁moral	-3362
erstoff	-3363
ständig	-3364
ätzlich	-3365
▁Firmen	-3366
▁außerhalb	-3367
▁Innovation	-3368
▁Ressourcen	-3369
arf	-3370
mäß	-3371
stä	-3372
▁Sc	-3373
ufen	-3374
▁Trä	-3375
▁Büro	-3376
▁Präsi	-3377
▁Glauben	-3378
▁Nahrung	-3379
▁Versuch	-3380
▁bestehen	-3381
▁diejenigen	-3382
▁App	-3383
▁lern	-3384
▁Außer	-3385
▁wider	-3386
schluss	-3387
▁Schwar	-3388
▁Wörter	-3389
▁Komplex	-3390
▁organis	-3391
▁solchen	-3392
▁Designer	-3393
▁betrachtet	-3394
▁entschieden	-3395
ace	-3396
oph	-3397
seh	-3398
▁Hy	-3399
▁aut	-3400
altet	-3401
ildet	-3402
▁Lauf	-3403
▁hält	-3404
▁wann	-3405
utzung	-3406
werfen	-3407
▁ebenso	-3408
▁überleben	-3409
▁70	-3410
▁Ök	-3411
echt	-3412
ktor	-3413
▁Fel	-3414
▁lebt	-3415
wenden	-3416
▁Kreis	-3417
▁niedr	-3418
▁Gelegen	-3419
▁Institut	-3420
▁erfahren	-3421
▁herunter	-3422
▁Intelligen	-3423
Ja	-3424
go	-3425
▁13	-3426
ales	-3427
merz	-3428
▁Sym	-3429
holen	-3430
werke	-3431
▁Ball	-3432
reitet	-3433
teilen	-3434
▁hörte	-3435
unächst	-3436
▁seltsam	-3437
fre	-3438
leb	-3439
tert	-3440
▁Pos	-3441
▁reg	-3442
frika	-3443
indet	-3444
reche	-3445
▁dest	-3446
stoffe	-3447
▁Konfl	-3448
▁Worte	-3449
▁Formen	-3450
▁messen	-3451
▁Partner	-3452
▁entdeckt	-3453
▁Zeitpunkt	-3454
▁Sauerstoff	-3455
IDS	-3456
iot	-3457
org	-3458
vie	-3459
dung	-3460
grün	-3461
obil	-3462
ücht	-3463
ünft	-3464
▁Baby	-3465
▁Geburt	-3466
▁Gewalt	-3467
▁Gründe	-3468
▁rechts	-3469
▁sowohl	-3470
▁Ingenie	-3471
▁gefragt	-3472
ationalen	-3473
▁Sekunden	-3474
▁gestellt	-3475
▁wunderbar	-3476
▁untersuchen	-3477
mö	-3478
iti	-3479
schu	-3480
▁Tod	-3481
ächen	-3482
▁Haut	-3483
glicht	-3484
schirm	-3485
zimmer	-3486
▁Psych	-3487
▁führte	-3488
▁warten	-3489
▁Englisch	-3490
▁gegangen	-3491
▁arbeitete	-3492
▁Verständnis	-3493
ov	-3494
ret	-3495
▁21	-3496
pfer	-3497
▁Kur	-3498
▁ans	-3499
mmern	-3500
▁Blog	-3501
▁unge	-3502
▁hilft	-3503
▁Beginn	-3504
▁Chance	-3505
▁Jahres	-3506
▁selben	-3507
▁Frieden	-3508
▁gewinnen	-3509
▁Kontrolle	-3510
▁intelligen	-3511
how	-3512
uhr	-3513
ven	-3514
wür	-3515
▁Cl	-3516
▁äu	-3517
ährt	-3518
▁Bas	-3519
▁Somm	-3520
▁bill	-3521
▁zufä	-3522
änomen	-3523
▁Abend	-3524
▁entwe	-3525
▁komme	-3526
▁Klimaw	-3527
▁manche	-3528
▁ständig	-3529
▁zweiten	-3530
▁befindet	-3531
▁ermöglicht	-3532
▁verbessern	-3533
ami	-3534
Nein	-3535
anke	-3536
feld	-3537
▁Gene	-3538
▁Name	-3539
▁winz	-3540
▁dahin	-3541
▁hinge	-3542
▁reduz	-3543
▁bisher	-3544
▁keiner	-3545
▁Individu	-3546
▁Nachricht	-3547
▁Revolution	-3548
igh	-3549
rak	-3550
zte	-3551
äst	-3552
mmet	-3553
zwei	-3554
odell	-3555
▁kaum	-3556
gebaut	-3557
ielten	-3558
▁Herzen	-3559
▁kommun	-3560
gefunden	-3561
mosphäre	-3562
▁National	-3563
▁Schönheit	-3564
▁verkaufen	-3565
ou	-3566
itär	-3567
▁Kol	-3568
▁blo	-3569
etten	-3570
▁Fakt	-3571
▁Mitt	-3572
▁Noch	-3573
▁Wand	-3574
▁Plast	-3575
▁jungen	-3576
ingungen	-3577
▁Artikel	-3578
▁sammeln	-3579
▁Künstler	-3580
▁Interesse	-3581
▁grundlegen	-3582
▁1,	-3583
▁kn	-3584
ifor	-3585
▁Mond	-3586
nungen	-3587
▁läuft	-3588
▁voller	-3589
▁aufgrund	-3590
▁erzählte	-3591
▁Materialien	-3592
▁Ad	-3593
▁Mö	-3594
▁us	-3595
▁Red	-3596
▁akt	-3597
▁Golf	-3598
▁Hirn	-3599
▁Fotos	-3600
▁Landes	-3601
ativität	-3602
▁medizin	-3603
▁Netzwerk	-3604
▁Personen	-3605
▁verrückt	-3606
▁herstellen	-3607
Un	-3608
rab	-3609
iete	-3610
igte	-3611
▁198	-3612
▁Win	-3613
maßen	-3614
volle	-3615
üssel	-3616
▁umge	-3617
assung	-3618
forsch	-3619
▁Japan	-3620
▁Tisch	-3621
▁Sterne	-3622
▁geschah	-3623
▁entweder	-3624
▁Organisation	-3625
ail	-3626
ari	-3627
ürf	-3628
hand	-3629
orgt	-3630
▁The	-3631
ruppe	-3632
samen	-3633
wärts	-3634
▁Sign	-3635
▁höch	-3636
▁lief	-3637
▁Poten	-3638
▁digit	-3639
▁entsp	-3640
ssystem	-3641
▁seines	-3642
▁riesige	-3643
▁Vergleich	-3644
▁Demokratie	-3645
▁Kommunikation	-3646
ka	-3647
kn	-3648
ante	-3649
bald	-3650
ball	-3651
mmen	-3652
mung	-3653
▁Ser	-3654
▁Spr	-3655
▁opt	-3656
enken	-3657
produ	-3658
äufig	-3659
▁Brot	-3660
▁cool	-3661
▁Hände	-3662
▁genet	-3663
▁junge	-3664
▁intern	-3665
▁spielt	-3666
▁Materie	-3667
▁dorthin	-3668
▁einzelnen	-3669
▁Krankheiten	-3670
▁%	-3671
hre	-3672
buch	-3673
iels	-3674
pfel	-3675
plan	-3676
wart	-3677
▁Grad	-3678
▁Loch	-3679
▁setz	-3680
▁verh	-3681
astrop	-3682
▁leisten	-3683
▁ursprün	-3684
▁verdien	-3685
stellungen	-3686
▁unglaubliche	-3687
ießen	-3688
▁Auge	-3689
▁Heim	-3690
▁Stre	-3691
▁stär	-3692
motion	-3693
passen	-3694
zahlen	-3695
▁Bühne	-3696
▁Daher	-3697
▁Instr	-3698
▁Arbeits	-3699
▁afrikan	-3700
▁erfunden	-3701
▁verbinden	-3702
▁herausfinden	-3703
bü	-3704
zer	-3705
zut	-3706
ckte	-3707
ente	-3708
▁196	-3709
▁Dav	-3710
illen	-3711
äusch	-3712
▁Anal	-3713
▁Disk	-3714
▁Oper	-3715
▁Ereig	-3716
▁fühle	-3717
▁Ahnung	-3718
▁Stunde	-3719
▁benutz	-3720
▁dadurch	-3721
▁Lösungen	-3722
▁dasselbe	-3723
▁globalen	-3724
▁schicken	-3725
▁Auswirkungen	-3726
pu	-3727
fra	-3728
kop	-3729
▁Bu	-3730
▁Fo	-3731
ikas	-3732
leist	-3733
▁Park	-3734
rochen	-3735
stände	-3736
entlich	-3737
frieden	-3738
▁Gefäng	-3739
▁sobald	-3740
▁Universums	-3741
ake	-3742
▁km	-3743
eigt	-3744
lebt	-3745
stre	-3746
▁Bio	-3747
▁Not	-3748
eller	-3749
▁Krie	-3750
▁Sand	-3751
▁Verl	-3752
▁Traum	-3753
▁Verfü	-3754
▁belie	-3755
▁äußer	-3756
blichen	-3757
▁Jungen	-3758
▁Punkte	-3759
▁hundert	-3760
▁Projekte	-3761
▁schützen	-3762
▁angefangen	-3763
Sp	-3764
ko	-3765
War	-3766
such	-3767
bruch	-3768
iforn	-3769
seite	-3770
▁erhö	-3771
▁inte	-3772
▁Einzel	-3773
▁Zugang	-3774
▁nahmen	-3775
▁jemandem	-3776
▁Geschwindigkeit	-3777
▁tä	-3778
letz	-3779
▁grü	-3780
bewer	-3781
▁krie	-3782
▁mitt	-3783
▁uner	-3784
ession	-3785
▁Bäume	-3786
▁Einer	-3787
▁Junge	-3788
▁gutes	-3789
▁Bedürf	-3790
▁Entdeck	-3791
▁Gehirns	-3792
▁durchge	-3793
▁notwend	-3794
▁Erwachsen	-3795
▁Industrie	-3796
▁existiert	-3797
licherweise	-3798
▁außergewöhn	-3799
▁Verantwortung	-3800
ek	-3801
sser	-3802
▁Ben	-3803
▁Lei	-3804
▁Wal	-3805
▁Terr	-3806
▁bean	-3807
▁hart	-3808
ations	-3809
schutz	-3810
▁Prote	-3811
▁Werte	-3812
▁taten	-3813
▁Finanz	-3814
▁Sommer	-3815
▁Studie	-3816
▁behaup	-3817
▁berühm	-3818
▁fangen	-3819
▁gewalt	-3820
▁Nahrungs	-3821
▁begonnen	-3822
▁einzigen	-3823
▁sozialen	-3824
alisierung	-3825
▁Einkommen	-3826
▁Kilometer	-3827
▁ebenfalls	-3828
▁Zusammenhang	-3829
▁herzustellen	-3830
Es	-3831
ane	-3832
▁24	-3833
▁lag	-3834
▁tau	-3835
auert	-3836
einer	-3837
techn	-3838
▁Wohn	-3839
utlich	-3840
▁Jedes	-3841
▁König	-3842
▁fällt	-3843
▁mächt	-3844
▁perfe	-3845
▁Worten	-3846
▁kultur	-3847
zunehmen	-3848
▁Studien	-3849
▁Version	-3850
▁geschafft	-3851
▁getroffen	-3852
▁sozusagen	-3853
▁Komplexität	-3854
▁unterstützen	-3855
▁amerikanischen	-3856
reg	-3857
▁and	-3858
▁bau	-3859
▁usw	-3860
▁Wett	-3861
▁traf	-3862
tember	-3863
▁Inner	-3864
▁Liste	-3865
▁Virus	-3866
▁desto	-3867
schiede	-3868
▁Teilen	-3869
▁langen	-3870
arbeiter	-3871
▁Plastik	-3872
▁mehrere	-3873
▁einfachen	-3874
▁entstehen	-3875
▁Jahrhunderts	-3876
▁Leidenschaft	-3877
abr	-3878
öse	-3879
▁On	-3880
anda	-3881
▁197	-3882
▁500	-3883
▁Bis	-3884
▁Spe	-3885
▁gep	-3886
ahmen	-3887
▁Freu	-3888
▁Hall	-3889
▁Klei	-3890
achtet	-3891
bieren	-3892
▁Leist	-3893
ffizien	-3894
▁Religion	-3895
▁größeren	-3896
▁Behandlung	-3897
▁Eigenschaften	-3898
ac	-3899
ana	-3900
arm	-3901
irt	-3902
mel	-3903
▁Mc	-3904
weil	-3905
▁San	-3906
appen	-3907
aptop	-3908
dings	-3909
▁gehe	-3910
ennung	-3911
riffen	-3912
▁Kohle	-3913
▁unver	-3914
setzung	-3915
wendung	-3916
▁Massen	-3917
▁kostet	-3918
▁voraus	-3919
ologische	-3920
▁heutigen	-3921
▁Atmosphäre	-3922
▁konzentrieren	-3923
▁.	-3924
aben	-3925
nehm	-3926
stieg	-3927
uchte	-3928
▁Hund	-3929
▁Inse	-3930
▁Kons	-3931
▁Müll	-3932
▁auft	-3933
izität	-3934
▁Besch	-3935
▁Masse	-3936
▁Trans	-3937
greifen	-3938
▁Zustand	-3939
▁Biologie	-3940
▁Konferenz	-3941
▁tradition	-3942
▁Regierungen	-3943
▁durchschnitt	-3944
ca	-3945
ath	-3946
▁he	-3947
ammt	-3948
ippe	-3949
lose	-3950
▁300	-3951
▁Mos	-3952
▁Pil	-3953
auran	-3954
fälle	-3955
istor	-3956
ütter	-3957
▁buch	-3958
▁jene	-3959
▁Fluss	-3960
▁Organ	-3961
▁Geheim	-3962
▁Physik	-3963
▁akzept	-3964
▁wenige	-3965
▁wesent	-3966
▁zeigte	-3967
ransport	-3968
▁Zentrum	-3969
▁gedacht	-3970
▁unabhäng	-3971
▁behandeln	-3972
▁bemerkens	-3973
bol	-3974
kam	-3975
sse	-3976
äte	-3977
▁Ep	-3978
ails	-3979
keln	-3980
stag	-3981
Warum	-3982
deten	-3983
flanz	-3984
itive	-3985
▁Kurz	-3986
▁Wald	-3987
▁kürz	-3988
indust	-3989
▁Damit	-3990
▁guter	-3991
▁künst	-3992
▁einzig	-3993
▁Methode	-3994
▁spricht	-3995
▁verantwort	-3996
tra	-3997
räge	-3998
stab	-3999
wood	-4000
▁Dis	-4001
folge	-4002
krieg	-4003
unsch	-4004
äuser	-4005
▁echt	-4006
▁phys	-4007
▁Brust	-4008
▁Schlag	-4009
▁chines	-4010
▁spreche	-4011
industrie	-4012
▁Funktion	-4013
▁Krankenhaus	-4014
mme	-4015
will	-4016
▁Tim	-4017
▁Lebe	-4018
▁prof	-4019
▁schn	-4020
imente	-4021
spielt	-4022
▁erwei	-4023
barkeit	-4024
▁Schutz	-4025
▁Zeiten	-4026
ationale	-4027
▁Gefühle	-4028
▁mittler	-4029
▁Intelligenz	-4030
▁aufgenommen	-4031
up	-4032
▁Fe	-4033
onom	-4034
pekt	-4035
▁Bud	-4036
inken	-4037
stütz	-4038
▁Haar	-4039
fassen	-4040
brechen	-4041
istisch	-4042
▁Schluss	-4043
▁größere	-4044
▁verbringen	-4045
▁öffentlichen	-4046
aur	-4047
ikt	-4048
urg	-4049
▁oh	-4050
opul	-4051
▁dür	-4052
dimen	-4053
konom	-4054
unger	-4055
fallen	-4056
▁Poliz	-4057
haltung	-4058
organis	-4059
▁Bauern	-4060
▁Manche	-4061
▁verste	-4062
▁Ameisen	-4063
▁Einfach	-4064
▁Fernseh	-4065
▁verkauft	-4066
▁weiterhin	-4067
frastruktur	-4068
▁Gelegenheit	-4069
▁Hintergrund	-4070
aw	-4071
tu	-4072
abe	-4073
ull	-4074
üren	-4075
▁Pal	-4076
stadt	-4077
▁Diag	-4078
▁Mich	-4079
▁Rich	-4080
ington	-4081
▁kenne	-4082
alismus	-4083
gleichen	-4084
▁Statist	-4085
▁Werkzeuge	-4086
▁produziert	-4087
▁Veränderungen	-4088
Ge	-4089
kre	-4090
orn	-4091
ärm	-4092
üsse	-4093
▁eng	-4094
▁Auss	-4095
▁David	-4096
▁Liebl	-4097
▁zeich	-4098
sichtig	-4099
▁Kamera	-4100
▁Kunden	-4101
▁Wunder	-4102
▁erstes	-4103
▁fallen	-4104
▁trifft	-4105
▁öffnen	-4106
▁Erstens	-4107
▁Zivilis	-4108
▁ehrlich	-4109
▁eigenes	-4110
▁Freiheit	-4111
▁Teilchen	-4112
▁entschied	-4113
▁Temperatur	-4114
▁Fortschritt	-4115
▁beschäftigt	-4116
blü	-4117
geg	-4118
ilt	-4119
urm	-4120
▁Kö	-4121
ames	-4122
orte	-4123
sinn	-4124
view	-4125
▁Sen	-4126
▁Nähe	-4127
▁Prot	-4128
ruppen	-4129
▁Affen	-4130
▁Kaffe	-4131
▁Suche	-4132
▁Meilen	-4133
▁Risiko	-4134
▁bezahl	-4135
▁drehen	-4136
▁schaut	-4137
▁verhin	-4138
▁emotion	-4139
▁erzeugt	-4140
▁handeln	-4141
▁Manchmal	-4142
▁riesigen	-4143
▁Medikamen	-4144
▁Milliarde	-4145
▁einfacher	-4146
▁Ergebnisse	-4147
▁wichtigsten	-4148
▁at	-4149
afen	-4150
omin	-4151
seln	-4152
▁wün	-4153
atter	-4154
▁Arzt	-4155
▁High	-4156
▁Lond	-4157
▁nütz	-4158
andels	-4159
ochter	-4160
raucht	-4161
▁Osten	-4162
▁Freude	-4163
▁rechten	-4164
▁Kollegen	-4165
▁Vielfalt	-4166
▁Antworten	-4167
lam	-4168
ong	-4169
ppe	-4170
▁Ak	-4171
▁la	-4172
ügen	-4173
▁Tal	-4174
▁mer	-4175
lange	-4176
▁Brie	-4177
▁Gang	-4178
▁Wege	-4179
▁hört	-4180
▁nutz	-4181
▁west	-4182
leisch	-4183
rücken	-4184
▁Typen	-4185
▁davor	-4186
▁nehme	-4187
isieren	-4188
otograf	-4189
▁Ansatz	-4190
undament	-4191
zeichnen	-4192
▁Phänomen	-4193
▁Standard	-4194
▁erwarten	-4195
▁Fernsehen	-4196
▁Geschäfts	-4197
▁,	-4198
▁Wü	-4199
▁Än	-4200
fter	-4201
holt	-4202
ling	-4203
▁Dir	-4204
▁Kir	-4205
▁Syn	-4206
▁Ausw	-4207
▁Pfer	-4208
▁West	-4209
fangen	-4210
▁Laptop	-4211
▁lautet	-4212
stäblich	-4213
▁entlang	-4214
▁benötigt	-4215
▁nachhalt	-4216
▁Lebewesen	-4217
▁vollkommen	-4218
▁Infrastruktur	-4219
rug	-4220
▁Bal	-4221
▁Fen	-4222
▁Wol	-4223
▁kor	-4224
artig	-4225
ielle	-4226
▁Fran	-4227
▁Irak	-4228
▁Quad	-4229
▁lust	-4230
▁okay	-4231
orgung	-4232
▁Handy	-4233
▁Region	-4234
▁Tieren	-4235
▁werfen	-4236
istische	-4237
▁Kontakt	-4238
▁Systeme	-4239
▁Reaktion	-4240
▁Verfügung	-4241
▁Überleben	-4242
▁existieren	-4243
▁natürliche	-4244
▁ermöglichen	-4245
yr	-4246
maß	-4247
anne	-4248
gier	-4249
icks	-4250
▁Del	-4251
schte	-4252
▁weiss	-4253
▁Ärzte	-4254
eutlich	-4255
klärung	-4256
▁Schwier	-4257
▁endlich	-4258
▁globale	-4259
▁Produkte	-4260
▁Kreativität	-4261
▁erstaunlich	-4262
▁buchstäblich	-4263
kur	-4264
olo	-4265
prü	-4266
▁Ei	-4267
▁is	-4268
geht	-4269
text	-4270
wech	-4271
▁Kop	-4272
▁See	-4273
▁AIDS	-4274
▁Abst	-4275
▁Text	-4276
▁Kampf	-4277
▁fühlt	-4278
▁legen	-4279
▁sowie	-4280
▁Result	-4281
▁Spitze	-4282
▁Terror	-4283
▁effekt	-4284
▁frühen	-4285
zwischen	-4286
▁Richard	-4287
▁Einstein	-4288
▁erinnere	-4289
▁erlauben	-4290
geschichte	-4291
ungssystem	-4292
▁Gefängnis	-4293
▁wunderschön	-4294
hö	-4295
die	-4296
ged	-4297
len	-4298
rum	-4299
ähl	-4300
▁on	-4301
▁Con	-4302
▁Los	-4303
eitet	-4304
▁Dort	-4305
▁Drei	-4306
▁Glas	-4307
▁gilt	-4308
ährung	-4309
▁neuer	-4310
▁Kohlen	-4311
▁Erinner	-4312
▁Tochter	-4313
▁genutzt	-4314
▁gestern	-4315
gendetwas	-4316
▁Galaxien	-4317
▁Interess	-4318
sellschaft	-4319
▁verursacht	-4320
fs	-4321
vel	-4322
gien	-4323
leun	-4324
umor	-4325
webe	-4326
älte	-4327
▁Sep	-4328
▁zug	-4329
erven	-4330
ilien	-4331
inder	-4332
itann	-4333
schlä	-4334
▁Erst	-4335
▁Holz	-4336
▁ließ	-4337
liegen	-4338
selben	-4339
▁Jungs	-4340
▁Vogel	-4341
▁ident	-4342
entwick	-4343
▁Farben	-4344
▁Fische	-4345
▁London	-4346
▁erwähn	-4347
programm	-4348
spektive	-4349
▁dritten	-4350
▁besitzen	-4351
▁brauchte	-4352
▁entsteht	-4353
▁wiederum	-4354
▁Botschaft	-4355
▁Maschinen	-4356
▁Organismen	-4357
▁erforschen	-4358
▁Verbindungen	-4359
▁herausgefunden	-4360
utt	-4361
ört	-4362
fisch	-4363
rogen	-4364
▁Muse	-4365
digung	-4366
▁Haben	-4367
▁Zucker	-4368
▁passen	-4369
▁sauber	-4370
▁schlimm	-4371
dimension	-4372
▁deutlich	-4373
▁Schlüssel	-4374
▁benötigen	-4375
▁repräsent	-4376
▁Klimawandel	-4377
▁Entwicklungsl	-4378
,"	-4379
AS	-4380
fg	-4381
zy	-4382
spe	-4383
abil	-4384
dass	-4385
imal	-4386
mann	-4387
acken	-4388
eting	-4389
frist	-4390
▁Trei	-4391
afrika	-4392
▁Beste	-4393
▁Wider	-4394
▁tolle	-4395
aterial	-4396
▁Spiele	-4397
▁Wunsch	-4398
▁fühlte	-4399
▁verfüg	-4400
▁Fleisch	-4401
▁Niemand	-4402
▁dagegen	-4403
▁schafft	-4404
▁sicherlich	-4405
Nun	-4406
ost	-4407
ford	-4408
inos	-4409
ourn	-4410
▁Erf	-4411
▁Tel	-4412
▁för	-4413
▁rel	-4414
fügen	-4415
ilder	-4416
stimm	-4417
▁Fett	-4418
▁auss	-4419
▁blie	-4420
▁Stein	-4421
▁hielt	-4422
enntnis	-4423
▁ganzes	-4424
▁ändert	-4425
ifornien	-4426
▁Knochen	-4427
zubringen	-4428
▁Durchschnitt	-4429
Er	-4430
gnor	-4431
renz	-4432
schm	-4433
weit	-4434
▁Zug	-4435
▁tue	-4436
etter	-4437
herap	-4438
hilfe	-4439
laden	-4440
▁Eind	-4441
▁Gest	-4442
▁verg	-4443
▁Gespr	-4444
▁hängt	-4445
eistert	-4446
▁schöne	-4447
▁selten	-4448
▁erleben	-4449
▁perfekt	-4450
indestens	-4451
▁Insekten	-4452
▁Korallen	-4453
▁Werkzeug	-4454
▁gelangen	-4455
▁gegenseit	-4456
▁vermutlich	-4457
▁Landwirtschaft	-4458
▁möglicherweise	-4459
ax	-4460
uh	-4461
Ver	-4462
arch	-4463
▁150	-4464
▁Web	-4465
▁Zit	-4466
halte	-4467
lagen	-4468
neten	-4469
▁Feld	-4470
▁Sehr	-4471
▁Szen	-4472
▁Falls	-4473
▁Todes	-4474
▁zentr	-4475
drücken	-4476
stellte	-4477
▁linken	-4478
▁stecken	-4479
▁Ausdruck	-4480
▁gestalten	-4481
▁Beziehungen	-4482
▁irgendetwas	-4483
▁kontrollieren	-4484
oo	-4485
Wenn	-4486
aria	-4487
eien	-4488
serv	-4489
▁Ken	-4490
▁spe	-4491
dingt	-4492
fghan	-4493
riere	-4494
▁Atom	-4495
führer	-4496
iertel	-4497
▁Reich	-4498
▁seien	-4499
schauen	-4500
▁Westen	-4501
▁wählen	-4502
itannien	-4503
▁Gewicht	-4504
▁kompliz	-4505
▁Soldaten	-4506
▁gewisser	-4507
▁gewonnen	-4508
▁September	-4509
▁Produktion	-4510
▁Erfahrungen	-4511
hi	-4512
zur	-4513
äne	-4514
▁As	-4515
port	-4516
▁Mär	-4517
▁res	-4518
rücke	-4519
scher	-4520
▁darf	-4521
▁krit	-4522
▁vern	-4523
▁Dimen	-4524
▁Keine	-4525
▁haupt	-4526
osystem	-4527
▁Großbr	-4528
▁Kontin	-4529
▁sorgen	-4530
▁steckt	-4531
▁Einsatz	-4532
▁Fenster	-4533
▁Modelle	-4534
▁Objekte	-4535
▁letztes	-4536
▁Freunden	-4537
▁erinnert	-4538
▁erstellen	-4539
ox	-4540
spl	-4541
bank	-4542
▁Ach	-4543
▁Bri	-4544
▁Mem	-4545
▁jün	-4546
ption	-4547
▁Gold	-4548
▁Graf	-4549
▁habt	-4550
atisch	-4551
▁Beine	-4552
▁Titel	-4553
▁relig	-4554
▁Strate	-4555
▁erhält	-4556
▁lernte	-4557
▁Gedanke	-4558
▁Mitglie	-4559
▁Sekunde	-4560
▁alleine	-4561
▁erklärt	-4562
▁nochmal	-4563
▁positiv	-4564
▁Position	-4565
ologischen	-4566
▁Aktivität	-4567
▁Unterschiede	-4568
▁kommunizieren	-4569
ieß	-4570
örp	-4571
▁su	-4572
kauf	-4573
oper	-4574
▁Dun	-4575
▁Fün	-4576
platz	-4577
▁Denk	-4578
▁Fein	-4579
▁Impf	-4580
▁Port	-4581
▁ober	-4582
isiert	-4583
nissen	-4584
sprach	-4585
▁Stift	-4586
hington	-4587
▁10.000	-4588
▁schwarz	-4589
alisieren	-4590
▁Unternehmer	-4591
▁investieren	-4592
▁vollständig	-4593
cy	-4594
asi	-4595
bed	-4596
ron	-4597
kung	-4598
▁Col	-4599
▁Sil	-4600
▁typ	-4601
eiger	-4602
füllt	-4603
hafte	-4604
raben	-4605
▁Arme	-4606
▁Bank	-4607
▁Eins	-4608
▁chem	-4609
▁fehl	-4610
schrän	-4611
vollen	-4612
zeiten	-4613
▁Schne	-4614
▁absch	-4615
▁psych	-4616
▁solch	-4617
bereich	-4618
▁Themen	-4619
▁haupts	-4620
▁Auswahl	-4621
▁Spielen	-4622
▁derzeit	-4623
▁falsche	-4624
istischen	-4625
▁weiteres	-4626
▁Restauran	-4627
▁unbedingt	-4628
▁Washington	-4629
▁überzeugen	-4630
▁sü	-4631
anst	-4632
eits	-4633
gern	-4634
gest	-4635
raut	-4636
▁Rom	-4637
chern	-4638
▁Jede	-4639
▁Letz	-4640
▁Lied	-4641
▁Schr	-4642
▁anal	-4643
echsel	-4644
▁Stoff	-4645
▁dreht	-4646
▁kurze	-4647
▁sitzt	-4648
▁wirst	-4649
zusehen	-4650
▁Erzähl	-4651
▁Nehmen	-4652
▁Sorgen	-4653
▁Zimmer	-4654
▁hinweg	-4655
▁online	-4656
▁schlie	-4657
▁sodass	-4658
▁umgehen	-4659
blichkeit	-4660
▁deswegen	-4661
▁erwartet	-4662
▁verdienen	-4663
▁Ökosystem	-4664
▁Unterstütz	-4665
Sie	-4666
amt	-4667
wahr	-4668
weck	-4669
▁Wik	-4670
▁Dass	-4671
▁Verm	-4672
▁früh	-4673
wiesen	-4674
▁Basis	-4675
▁Genom	-4676
▁Niger	-4677
▁Trend	-4678
▁fragt	-4679
ichtbar	-4680
▁Karten	-4681
▁selber	-4682
▁verlie	-4683
▁Diskuss	-4684
▁Drittel	-4685
▁Galaxie	-4686
▁Männern	-4687
▁Zweitens	-4688
▁betrifft	-4689
▁scheinen	-4690
▁Präsident	-4691
▁verbreitet	-4692
▁letztendlich	-4693
ep	-4694
ham	-4695
ruf	-4696
gere	-4697
ingu	-4698
tend	-4699
▁Got	-4700
▁Log	-4701
amour	-4702
macht	-4703
▁Auft	-4704
▁Sein	-4705
▁getö	-4706
artige	-4707
▁Filme	-4708
▁Liter	-4709
▁dauer	-4710
zugehen	-4711
▁Haufen	-4712
▁Wandel	-4713
▁lieber	-4714
▁religi	-4715
▁wächst	-4716
alisiert	-4717
ographie	-4718
▁geführt	-4719
▁schönen	-4720
ungskraft	-4721
▁bezahlen	-4722
▁hunderte	-4723
▁nächstes	-4724
▁zufällig	-4725
▁Bildschirm	-4726
▁Landschaft	-4727
▁Strukturen	-4728
▁mindestens	-4729
▁politische	-4730
▁Bedingungen	-4731
▁Kalifornien	-4732
▁beschreiben	-4733
▁Großbritannien	-4734
ags	-4735
hei	-4736
kan	-4737
pft	-4738
ehnt	-4739
ikal	-4740
omit	-4741
otyp	-4742
▁Che	-4743
▁Mut	-4744
▁Sal	-4745
▁saß	-4746
▁Öff	-4747
urcht	-4748
▁Kann	-4749
wirken	-4750
▁Autor	-4751
▁Beruf	-4752
▁Innen	-4753
▁Metap	-4754
▁Schau	-4755
▁sogen	-4756
▁töten	-4757
achtung	-4758
▁Händen	-4759
▁Planet	-4760
▁Rücken	-4761
▁gesund	-4762
minister	-4763
▁Qualität	-4764
▁außerdem	-4765
▁dieselbe	-4766
▁stellten	-4767
▁reagieren	-4768
▁überzeugt	-4769
▁irgendwann	-4770
▁wichtigste	-4771
ain	-4772
adem	-4773
klus	-4774
losen	-4775
osoph	-4776
werte	-4777
▁2000	-4778
▁Gras	-4779
▁Heil	-4780
▁Paul	-4781
▁Rand	-4782
▁Show	-4783
▁Will	-4784
▁aufw	-4785
istenz	-4786
umente	-4787
wohner	-4788
▁Frank	-4789
▁Motor	-4790
▁hohen	-4791
athemat	-4792
spielen	-4793
änglich	-4794
▁Altern	-4795
▁Hunder	-4796
▁Lernen	-4797
▁grunds	-4798
▁verein	-4799
▁Bildern	-4800
▁Gründen	-4801
▁Mission	-4802
▁einiger	-4803
▁fotograf	-4804
▁praktisch	-4805
▁hoffentlich	-4806
möglichkeiten	-4807
▁beeinflussen	-4808
▁interessanter	-4809
▁veröffentlicht	-4810
Du	-4811
ly	-4812
uck	-4813
▁1.	-4814
bahn	-4815
frei	-4816
idem	-4817
kton	-4818
netz	-4819
▁Zur	-4820
haben	-4821
hause	-4822
rüben	-4823
▁Band	-4824
▁disk	-4825
▁kauf	-4826
▁Bitte	-4827
▁Spekt	-4828
▁Verbr	-4829
▁krank	-4830
▁könnt	-4831
hältnis	-4832
zeichen	-4833
ältigen	-4834
▁häufig	-4835
▁Kontext	-4836
▁Schmerz	-4837
▁anderem	-4838
▁kümmern	-4839
▁Wahrnehm	-4840
▁begeistert	-4841
▁Medikamente	-4842
▁hergestellt	-4843
▁durchgeführt	-4844
▁verantwortlich	-4845
▁X	-4846
van	-4847
zep	-4848
▁Vö	-4849
ivat	-4850
wärt	-4851
▁20.	-4852
▁400	-4853
▁Gas	-4854
▁Hil	-4855
▁Tau	-4856
oppelt	-4857
sweise	-4858
▁eröff	-4859
änderte	-4860
▁Nichts	-4861
▁Rahmen	-4862
▁drüben	-4863
▁echten	-4864
▁verwir	-4865
▁Klassen	-4866
▁kämpfen	-4867
▁Gemeinde	-4868
▁Wettbewer	-4869
▁behandelt	-4870
▁entwerfen	-4871
▁eingesetzt	-4872
▁erscheinen	-4873
▁wunderbare	-4874
▁beeinflusst	-4875
ada	-4876
arb	-4877
▁Jo	-4878
band	-4879
omme	-4880
▁Nan	-4881
▁nöt	-4882
eskop	-4883
langt	-4884
▁Atem	-4885
▁entw	-4886
▁läch	-4887
▁virt	-4888
sionen	-4889
▁Folge	-4890
▁absol	-4891
▁halte	-4892
▁holen	-4893
▁ignor	-4894
▁musst	-4895
okument	-4896
ordnung	-4897
▁Symmet	-4898
▁erster	-4899
▁leider	-4900
▁Begriff	-4901
▁Patient	-4902
▁erzähle	-4903
▁getötet	-4904
▁kürzlich	-4905
▁modernen	-4906
▁verbracht	-4907
▁gefährlich	-4908
▁überraschen	-4909
▁Organisationen	-4910
2-	-4911
fil	-4912
par	-4913
pfe	-4914
▁Em	-4915
▁MI	-4916
▁Com	-4917
▁Tie	-4918
aster	-4919
beweg	-4920
▁Seit	-4921
▁Tanz	-4922
▁dank	-4923
▁laut	-4924
▁Train	-4925
▁spiel	-4926
itieren	-4927
steller	-4928
▁Heimat	-4929
▁Voraus	-4930
▁dürfen	-4931
richtung	-4932
stellten	-4933
▁Kapital	-4934
▁Präsent	-4935
▁Großteil	-4936
▁gestorben	-4937
▁natürlichen	-4938
▁Elektrizität	-4939
ith	-4940
dige	-4941
hrop	-4942
skop	-4943
▁Exp	-4944
▁Mir	-4945
▁zog	-4946
gener	-4947
ieben	-4948
markt	-4949
▁Glob	-4950
▁hohe	-4951
▁rede	-4952
hängig	-4953
iellen	-4954
jekten	-4955
recher	-4956
▁Milch	-4957
▁Sport	-4958
▁Stufe	-4959
▁heran	-4960
▁starb	-4961
▁wohin	-4962
steigen	-4963
▁Bruder	-4964
▁Dienst	-4965
▁Klasse	-4966
▁Minute	-4967
▁dauert	-4968
▁mitten	-4969
▁Weltraum	-4970
▁Untersuch	-4971
▁verfolgen	-4972
▁Augenblick	-4973
▁versuchten	-4974
ld	-4975
osm	-4976
▁35	-4977
▁Gi	-4978
amin	-4979
edia	-4980
enze	-4981
hört	-4982
olly	-4983
▁mot	-4984
▁rad	-4985
frage	-4986
gress	-4987
▁Fest	-4988
▁Jobs	-4989
▁Lang	-4990
▁Null	-4991
▁Temp	-4992
formen	-4993
▁Etwas	-4994
▁Franc	-4995
▁Momen	-4996
▁begeg	-4997
▁kennt	-4998
▁setzt	-4999
geladen	-5000
rauchen	-5001
▁Darwin	-5002
▁Effekt	-5003
▁Quelle	-5004
▁bitten	-5005
▁England	-5006
▁gelesen	-5007
▁präsent	-5008
▁gehalten	-5009
▁mathemat	-5010
▁zurückzu	-5011
▁verwandeln	-5012
▁Zivilisation	-5013
▁hauptsächlich	-5014
20	-5015
Ar	-5016
üh	-5017
Der	-5018
dru	-5019
för	-5020
ädt	-5021
▁Rä	-5022
nost	-5023
vert	-5024
eiste	-5025
hoden	-5026
lette	-5027
derung	-5028
▁Ident	-5029
▁Offen	-5030
▁Schei	-5031
▁verle	-5032
schloss	-5033
▁Mütter	-5034
▁Vision	-5035
▁deinen	-5036
▁kurzen	-5037
▁schick	-5038
jährigen	-5039
▁Führung	-5040
▁Jahrzeh	-5041
▁Spiegel	-5042
▁brauche	-5043
▁kreativ	-5044
▁worüber	-5045
▁besseren	-5046
▁gewissen	-5047
▁verbesser	-5048
▁übertragen	-5049
öpf	-5050
eise	-5051
▁Ele	-5052
ätsel	-5053
▁plan	-5054
kehren	-5055
schule	-5056
▁Ganze	-5057
▁Insel	-5058
▁Seele	-5059
▁total	-5060
▁weder	-5061
jährige	-5062
▁Besitz	-5063
▁Jemand	-5064
▁Kräfte	-5065
▁Nation	-5066
▁Nerven	-5067
▁aussch	-5068
▁beteil	-5069
▁klingt	-5070
ausenden	-5071
▁Quadrat	-5072
▁Städten	-5073
▁steigen	-5074
▁welchem	-5075
▁Karriere	-5076
▁Verstand	-5077
▁weiteren	-5078
richtungen	-5079
▁Perspektive	-5080
▁auseinander	-5081
▁Lebensmittel	-5082
▁entwickelten	-5083
▁interagieren	-5084
An	-5085
yse	-5086
ühr	-5087
▁Kä	-5088
irne	-5089
isse	-5090
ppen	-5091
▁zuk	-5092
geber	-5093
ippen	-5094
▁Ecke	-5095
▁Fach	-5096
▁Mund	-5097
▁dran	-5098
▁geha	-5099
ournal	-5100
werden	-5101
▁Staat	-5102
▁lebte	-5103
quenzen	-5104
▁Gottes	-5105
▁Linien	-5106
▁Nutzen	-5107
▁Website	-5108
▁stärker	-5109
▁Aufgaben	-5110
▁Eindruck	-5111
▁Problemen	-5112
▁Individuen	-5113
▁entspricht	-5114
▁verbreiten	-5115
▁zusammenge	-5116
li	-5117
uft	-5118
ates	-5119
ions	-5120
lied	-5121
▁Gar	-5122
▁Säu	-5123
▁Tom	-5124
atell	-5125
ehung	-5126
ähren	-5127
▁Kerl	-5128
▁Körp	-5129
▁drin	-5130
aturen	-5131
iertes	-5132
▁stolz	-5133
gegeben	-5134
gewicht	-5135
▁Afghan	-5136
▁Batter	-5137
▁Kombin	-5138
▁Schrift	-5139
▁basiert	-5140
▁starten	-5141
▁Sprachen	-5142
▁Kontinent	-5143
wissenschaft	-5144
▁Kohlenstoff	-5145
▁politischen	-5146
▁Generationen	-5147
▁Schwierigkeiten	-5148
?“	-5149
Na	-5150
rot	-5151
alte	-5152
iden	-5153
plos	-5154
▁feh	-5155
▁kom	-5156
unken	-5157
▁Aben	-5158
▁Satz	-5159
ondere	-5160
spiels	-5161
▁Brenn	-5162
▁Statt	-5163
▁Zelle	-5164
▁gener	-5165
▁nutzt	-5166
führung	-5167
spieler	-5168
▁Schwei	-5169
▁dauern	-5170
▁gehabt	-5171
▁Details	-5172
▁Experten	-5173
▁Nachbarn	-5174
▁zunehmen	-5175
▁Erklärung	-5176
▁Schwester	-5177
▁notwendig	-5178
▁vorhanden	-5179
▁Unterstützung	-5180
nü	-5181
▁♪	-5182
air	-5183
unk	-5184
digt	-5185
läss	-5186
oler	-5187
wegs	-5188
▁Gal	-5189
▁Hem	-5190
▁NAS	-5191
eucht	-5192
front	-5193
lecht	-5194
nimmt	-5195
reite	-5196
riffe	-5197
wagen	-5198
▁Beob	-5199
▁Mach	-5200
▁Wurz	-5201
▁herr	-5202
▁schm	-5203
▁trin	-5204
atoren	-5205
mutter	-5206
▁Außen	-5207
▁Defin	-5208
▁Jeden	-5209
▁Klang	-5210
▁fängt	-5211
agement	-5212
teilung	-5213
▁Irgend	-5214
▁Schlaf	-5215
▁Videos	-5216
isierung	-5217
maschine	-5218
▁Francis	-5219
▁zukünft	-5220
▁Elemente	-5221
▁erfinden	-5222
▁tausende	-5223
▁Gegensatz	-5224
▁verhindern	-5225
▁grundlegende	-5226
abl	-5227
hek	-5228
ike	-5229
int	-5230
tin	-5231
aust	-5232
ügel	-5233
▁Imm	-5234
▁Uns	-5235
bliot	-5236
▁Rede	-5237
▁Stär	-5238
▁Wein	-5239
▁ausb	-5240
▁mass	-5241
▁verr	-5242
▁Colle	-5243
▁Erleb	-5244
▁gaben	-5245
▁Drogen	-5246
▁Fällen	-5247
▁Schiff	-5248
▁diskut	-5249
motionen	-5250
verständ	-5251
▁bezahlt	-5252
▁tausend	-5253
▁wenigen	-5254
▁Außerdem	-5255
▁Hinsicht	-5256
▁abhängig	-5257
▁schlimmer	-5258
▁arbeiteten	-5259
▁entstanden	-5260
▁interessieren	-5261
ice	-5262
ird	-5263
use	-5264
▁el	-5265
▁tr	-5266
adel	-5267
flug	-5268
▁MIT	-5269
▁Mex	-5270
▁fäh	-5271
akten	-5272
ckten	-5273
passt	-5274
▁Bett	-5275
▁City	-5276
▁eure	-5277
▁getr	-5278
gruppe	-5279
gument	-5280
spruch	-5281
▁frage	-5282
▁klass	-5283
▁passt	-5284
▁trägt	-5285
scheint	-5286
▁Inhalt	-5287
▁Waffen	-5288
▁ausgeb	-5289
▁eigent	-5290
▁müsste	-5291
▁Spieler	-5292
▁Wichtig	-5293
▁automat	-5294
▁gebeten	-5295
▁Anderson	-5296
▁Kindheit	-5297
▁Konflikt	-5298
▁zunächst	-5299
▁Emotionen	-5300
▁bestimmen	-5301
▁verbindet	-5302
▁vergangen	-5303
▁Ausbildung	-5304
▁allerdings	-5305
▁beschäftigen	-5306
▁amerikanische	-5307
vol	-5308
▁Gü	-5309
anen	-5310
etik	-5311
▁Abs	-5312
▁Pak	-5313
▁Rat	-5314
▁Ter	-5315
▁Tre	-5316
ologe	-5317
▁inst	-5318
▁Weile	-5319
▁teuer	-5320
▁Grafik	-5321
▁Wesent	-5322
▁leiden	-5323
▁ließen	-5324
▁Malaria	-5325
▁begrenz	-5326
▁kriegen	-5327
▁Arbeiten	-5328
▁normalen	-5329
▁erscheint	-5330
▁inspiriert	-5331
▁schlechter	-5332
▁entsprechen	-5333
The	-5334
ics	-5335
kor	-5336
▁45	-5337
igur	-5338
klen	-5339
▁kap	-5340
▁par	-5341
essor	-5342
mögen	-5343
▁Chin	-5344
▁NASA	-5345
▁rech	-5346
▁sinn	-5347
▁verf	-5348
▁gross	-5349
▁wechs	-5350
wärmung	-5351
▁Garten	-5352
▁Häuser	-5353
▁einsch	-5354
▁hinten	-5355
▁gespielt	-5356
▁individu	-5357
▁schwarze	-5358
echtigkeit	-5359
▁Verhaltens	-5360
ago	-5361
amb	-5362
dit	-5363
pag	-5364
▁UN	-5365
▁ag	-5366
glau	-5367
osen	-5368
asste	-5369
ektor	-5370
heben	-5371
ischt	-5372
▁heil	-5373
igsten	-5374
itteln	-5375
jemand	-5376
▁Anrei	-5377
▁Neben	-5378
▁Radio	-5379
▁quasi	-5380
▁regel	-5381
▁somit	-5382
umenten	-5383
vention	-5384
▁Grippe	-5385
▁Museum	-5386
▁antwor	-5387
▁nannte	-5388
▁schaff	-5389
▁testen	-5390
ierenden	-5391
▁Theater	-5392
▁Werbung	-5393
▁bemerkt	-5394
▁gewisse	-5395
▁reichen	-5396
forschung	-5397
fähigkeit	-5398
▁Leistung	-5399
▁Neuronen	-5400
▁Südafrika	-5401
▁Vertrauen	-5402
▁aufregend	-5403
▁brauchten	-5404
▁entworfen	-5405
▁verfügbar	-5406
▁persönlich	-5407
▁reduzieren	-5408
ahe	-5409
urf	-5410
eils	-5411
lege	-5412
mack	-5413
ober	-5414
ogar	-5415
reie	-5416
trag	-5417
usch	-5418
vard	-5419
▁Eth	-5420
▁Nor	-5421
▁neg	-5422
▁prä	-5423
impan	-5424
press	-5425
schau	-5426
▁Fabr	-5427
▁Ober	-5428
▁aufs	-5429
talien	-5430
▁Links	-5431
▁Parad	-5432
▁World	-5433
▁beweg	-5434
▁train	-5435
diglich	-5436
▁Helden	-5437
▁lebten	-5438
▁stelle	-5439
▁tiefer	-5440
▁zählen	-5441
▁Polizei	-5442
▁Zeichen	-5443
▁Nationen	-5444
▁langweil	-5445
▁Vorfahren	-5446
▁schließen	-5447
▁beantworten	-5448
▁entwickelte	-5449
▁Präsentation	-5450
▁Gesellschaften	-5451
▁unterschiedlich	-5452
,5	-5453
▁»	-5454
ara	-5455
leg	-5456
zig	-5457
äbe	-5458
▁hü	-5459
▁iP	-5460
krie	-5461
rael	-5462
sver	-5463
▁Akt	-5464
▁Ans	-5465
bares	-5466
tzeit	-5467
▁Cent	-5468
▁Eing	-5469
▁bloß	-5470
▁fiel	-5471
▁jähr	-5472
▁naja	-5473
aurier	-5474
füllen	-5475
gehend	-5476
ischem	-5477
▁Elekt	-5478
▁Zweck	-5479
▁einst	-5480
▁zieht	-5481
ständen	-5482
▁Belohn	-5483
▁Christ	-5484
▁Gegend	-5485
▁Größen	-5486
▁Kaffee	-5487
▁Rechen	-5488
▁aufgew	-5489
▁herein	-5490
▁vieler	-5491
▁Charles	-5492
▁konstru	-5493
▁überras	-5494
▁Moleküle	-5495
▁Schimpan	-5496
▁Lieblings	-5497
▁irgendein	-5498
▁Forschungs	-5499
▁definieren	-5500
▁Architekten	-5501
▁Experimente	-5502
▁unterscheiden	-5503
sh	-5504
ash	-5505
ton	-5506
önt	-5507
üge	-5508
▁Ap	-5509
▁Cr	-5510
▁Sl	-5511
azif	-5512
erne	-5513
▁Tit	-5514
boden	-5515
enter	-5516
▁Blau	-5517
▁Fünf	-5518
▁Maus	-5519
▁Orig	-5520
▁Phot	-5521
▁halb	-5522
▁trau	-5523
▁zeit	-5524
rechte	-5525
▁Brief	-5526
▁Dinos	-5527
▁Ihres	-5528
▁Times	-5529
▁Wikip	-5530
▁Zitat	-5531
▁fähig	-5532
▁sowas	-5533
▁Gefahr	-5534
▁Nieder	-5535
▁integr	-5536
▁vorber	-5537
▁zahlen	-5538
aktionen	-5539
▁Ansicht	-5540
▁Berechn	-5541
▁Entfern	-5542
▁Zeitung	-5543
▁morgens	-5544
▁welchen	-5545
▁kreieren	-5546
▁meistens	-5547
▁schlagen	-5548
▁angesehen	-5549
▁zerstören	-5550
▁beobachtet	-5551
▁wesentlich	-5552
▁Zusammenarbeit	-5553
arr	-5554
krä	-5555
vit	-5556
pret	-5557
uman	-5558
ynth	-5559
▁Hom	-5560
aktiv	-5561
zelle	-5562
▁Phys	-5563
sichts	-5564
sprung	-5565
▁Mobil	-5566
▁Zusch	-5567
▁unend	-5568
artigen	-5569
einhalb	-5570
erseits	-5571
gründet	-5572
ografie	-5573
▁Jugend	-5574
▁Löcher	-5575
▁Wellen	-5576
▁verknü	-5577
zusetzen	-5578
▁Richtig	-5579
▁beinhal	-5580
▁dennoch	-5581
▁fördern	-5582
▁Kulturen	-5583
▁brachten	-5584
▁entgegen	-5585
▁Bereichen	-5586
▁einsetzen	-5587
▁fundament	-5588
▁Eigentlich	-5589
▁Afghanistan	-5590
▁Wirtschafts	-5591
▁erstaunliche	-5592
▁verschwinden	-5593
ica	-5594
pon	-5595
berg	-5596
eter	-5597
ffer	-5598
ward	-5599
▁201	-5600
▁Roh	-5601
▁las	-5602
fahrt	-5603
llekt	-5604
ängst	-5605
ösung	-5606
▁Pass	-5607
▁dram	-5608
reisen	-5609
werten	-5610
▁Folie	-5611
▁exper	-5612
▁vorne	-5613
▁übrig	-5614
züglich	-5615
▁Beweis	-5616
▁Obwohl	-5617
▁glaubt	-5618
▁hoffen	-5619
▁lustig	-5620
▁meiste	-5621
▁schlau	-5622
ollywood	-5623
▁Afrikas	-5624
▁Gesetze	-5625
▁Vorteil	-5626
▁bekamen	-5627
▁hierher	-5628
▁relativ	-5629
▁verteilt	-5630
▁Arbeitspl	-5631
▁Identität	-5632
▁lediglich	-5633
▁studieren	-5634
▁Erkenntnis	-5635
▁Bedürfnisse	-5636
▁Dinosaurier	-5637
▁Stammzellen	-5638
▁Wahrnehmung	-5639
▁gegenseitig	-5640
▁grundsätzlich	-5641
by	-5642
com	-5643
änn	-5644
▁99	-5645
eben	-5646
jahr	-5647
omet	-5648
▁11.	-5649
▁abl	-5650
ätter	-5651
▁Boot	-5652
▁Sitz	-5653
▁Volk	-5654
▁höre	-5655
▁tats	-5656
ategor	-5657
flicht	-5658
imeter	-5659
▁Angel	-5660
▁Lager	-5661
▁Phase	-5662
▁Pingu	-5663
▁brill	-5664
▁Ausmaß	-5665
▁Bienen	-5666
▁Persön	-5667
▁Rätsel	-5668
▁Satell	-5669
▁Stücke	-5670
▁dunkle	-5671
▁heisst	-5672
▁treten	-5673
▁Bibliot	-5674
▁Teleskop	-5675
▁aufbauen	-5676
▁aufhören	-5677
▁Gegenteil	-5678
▁Katastrop	-5679
▁Wikipedia	-5680
▁Institutionen	-5681
▁afrikanischen	-5682
0,	-5683
Re	-5684
ozi	-5685
ube	-5686
hmus	-5687
ilde	-5688
leib	-5689
▁21.	-5690
▁Ama	-5691
▁Anw	-5692
▁Bon	-5693
▁Ill	-5694
▁Skl	-5695
▁zut	-5696
ietet	-5697
stren	-5698
utzer	-5699
▁Auff	-5700
▁Samm	-5701
▁Zahn	-5702
▁Zent	-5703
▁engl	-5704
▁gäbe	-5705
▁priv	-5706
▁zuzu	-5707
gewalt	-5708
▁halbe	-5709
▁lernt	-5710
▁optim	-5711
▁versp	-5712
▁bedeut	-5713
▁gelebt	-5714
▁gelöst	-5715
▁gering	-5716
▁setzte	-5717
▁verblü	-5718
▁Militär	-5719
▁Nigeria	-5720
▁beinahe	-5721
▁fragten	-5722
besondere	-5723
▁Tausende	-5724
▁nützlich	-5725
▁Politiker	-5726
▁gegründet	-5727
▁wirkliche	-5728
▁Bewegungen	-5729
▁beschlossen	-5730
"-	-5731
tels	-5732
▁000	-5733
▁Les	-5734
▁Okt	-5735
▁Zer	-5736
▁bat	-5737
▁sex	-5738
ierer	-5739
lösen	-5740
rufen	-5741
usion	-5742
weile	-5743
▁Chir	-5744
▁Dach	-5745
▁Eben	-5746
▁Früh	-5747
▁Sind	-5748
▁rück	-5749
▁zahl	-5750
auchen	-5751
bieten	-5752
fragen	-5753
▁Krise	-5754
▁Moral	-5755
▁enorm	-5756
▁roten	-5757
▁schne	-5758
▁wieso	-5759
▁wisst	-5760
▁wobei	-5761
andelte	-5762
etische	-5763
problem	-5764
▁Normal	-5765
▁Summen	-5766
▁Zuerst	-5767
▁stammt	-5768
▁starke	-5769
▁steigt	-5770
▁Öffent	-5771
▁Element	-5772
▁Maßstab	-5773
▁Momente	-5774
▁gefällt	-5775
▁genauer	-5776
▁schaute	-5777
▁Deswegen	-5778
▁annehmen	-5779
▁anwenden	-5780
▁geschickt	-5781
▁Entdeckung	-5782
▁Interessen	-5783
▁schlechten	-5784
▁verbrachte	-5785
▁schrecklich	-5786
sb	-5787
iag	-5788
ogn	-5789
umb	-5790
▁Ke	-5791
akte	-5792
heim	-5793
hers	-5794
mitt	-5795
ohnt	-5796
samt	-5797
▁600	-5798
▁wes	-5799
gerät	-5800
zieht	-5801
▁Bein	-5802
▁Kein	-5803
▁Mosk	-5804
recken	-5805
ynamik	-5806
▁Hunde	-5807
▁Klein	-5808
▁Phant	-5809
▁vorge	-5810
▁wuchs	-5811
örtlich	-5812
▁Gesamt	-5813
▁Transp	-5814
▁Wetter	-5815
▁hinauf	-5816
▁kombin	-5817
▁vergrö	-5818
issionen	-5819
▁Nachdem	-5820
▁Schnitt	-5821
▁Verletz	-5822
▁erkennt	-5823
▁gehören	-5824
▁müssten	-5825
▁normale	-5826
▁äußerst	-5827
▁überprü	-5828
▁beeindru	-5829
▁effektiv	-5830
▁geändert	-5831
▁komplexe	-5832
▁schlafen	-5833
▁Marketing	-5834
▁aufgebaut	-5835
▁verhalten	-5836
▁darstellen	-5837
▁zugänglich	-5838
▁öffentliche	-5839
Ok	-5840
aat	-5841
aff	-5842
▁ök	-5843
blei	-5844
elev	-5845
gibt	-5846
imin	-5847
ipul	-5848
raht	-5849
▁Gro	-5850
anzös	-5851
elben	-5852
ichen	-5853
icket	-5854
mäßig	-5855
▁Alex	-5856
▁Paar	-5857
▁Rech	-5858
riften	-5859
▁Armen	-5860
▁Austr	-5861
▁Konse	-5862
▁Viren	-5863
▁Wagen	-5864
wirkung	-5865
▁Erwart	-5866
▁Norden	-5867
▁Tonnen	-5868
▁Weiter	-5869
▁Welche	-5870
▁Winter	-5871
▁heißen	-5872
▁moment	-5873
▁schrei	-5874
▁singen	-5875
▁soviel	-5876
ätigkeit	-5877
▁College	-5878
▁Fahrrad	-5879
▁Fischer	-5880
▁Sternen	-5881
▁vorhers	-5882
verbrauch	-5883
▁Bereiche	-5884
▁Existenz	-5885
▁Vorstell	-5886
▁behalten	-5887
▁erkannte	-5888
▁speziell	-5889
▁Netzwerke	-5890
▁berichten	-5891
▁langfrist	-5892
▁vergleichen	-5893
▁traditionellen	-5894
mar	-5895
pha	-5896
sum	-5897
esie	-5898
fält	-5899
igem	-5900
test	-5901
uern	-5902
▁Gre	-5903
▁Sob	-5904
▁min	-5905
anger	-5906
fähig	-5907
hlung	-5908
karte	-5909
lekul	-5910
viele	-5911
▁Code	-5912
▁Deut	-5913
▁Lern	-5914
▁Tour	-5915
▁Trag	-5916
▁fuhr	-5917
merzen	-5918
muster	-5919
▁Gutes	-5920
▁Opfer	-5921
▁Stuhl	-5922
▁Trotz	-5923
▁Wüste	-5924
▁motiv	-5925
▁wofür	-5926
amerika	-5927
reibung	-5928
▁Geräte	-5929
▁Ozeane	-5930
▁Rechte	-5931
▁Steuer	-5932
▁langer	-5933
▁schien	-5934
▁zusätz	-5935
▁Geistes	-5936
▁Körpers	-5937
▁ansieht	-5938
▁identif	-5939
▁täglich	-5940
▁zurückge	-5941
▁Interview	-5942
▁transport	-5943
▁wichtigen	-5944
spielsweise	-5945
▁Definition	-5946
▁Diskussion	-5947
verständlich	-5948
▁Schimpansen	-5949
▁Sicherheits	-5950
▁stattdessen	-5951
▁vorzustellen	-5952
Hey	-5953
pol	-5954
▁AB	-5955
▁BF	-5956
▁DH	-5957
mord	-5958
summ	-5959
äfte	-5960
▁Air	-5961
▁Jul	-5962
▁Lar	-5963
ausch	-5964
grenz	-5965
nungs	-5966
rasch	-5967
▁Naja	-5968
▁Rock	-5969
▁erwä	-5970
bstoff	-5971
idemie	-5972
▁Kapit	-5973
▁Laufe	-5974
▁Solar	-5975
▁Start	-5976
▁blieb	-5977
▁umher	-5978
meister	-5979
stoffen	-5980
▁Privat	-5981
▁Sozial	-5982
▁belieb	-5983
▁realen	-5984
▁spüren	-5985
ffizienz	-5986
▁Journal	-5987
▁Verkehr	-5988
▁bekomme	-5989
▁gekauft	-5990
▁Diagramm	-5991
▁schätzen	-5992
▁weiterer	-5993
▁Erfindung	-5994
▁Wohlstand	-5995
▁besondere	-5996
▁gebraucht	-5997
▁Großmutter	-5998
▁Verhältnis	-5999
▁Kombination	-6000
▁großartigen	-6001
▁kompliziert	-6002
▁Öffentlichkeit	-6003
▁Ac	-6004
aser	-6005
mehr	-6006
tial	-6007
▁Lad	-6008
▁Opt	-6009
▁Stä	-6010
▁arm	-6011
▁dur	-6012
ancen	-6013
stung	-6014
▁Aspe	-6015
▁Gerü	-6016
▁Gute	-6017
▁Zell	-6018
▁brit	-6019
▁froh	-6020
▁nerv	-6021
▁real	-6022
▁rief	-6023
finder	-6024
leitet	-6025
räumen	-6026
untern	-6027
▁1.000	-6028
▁Fälle	-6029
▁Kenia	-6030
▁Seine	-6031
▁Weihn	-6032
▁unbek	-6033
sterben	-6034
▁Führer	-6035
▁Mengen	-6036
▁Willen	-6037
▁allgem	-6038
▁analys	-6039
▁erlebt	-6040
▁kurzem	-6041
▁meinte	-6042
▁weißen	-6043
▁willst	-6044
▁Harvard	-6045
▁berührt	-6046
▁solcher	-6047
▁spannen	-6048
▁spielte	-6049
▁umgeben	-6050
▁Arbeiter	-6051
▁Forscher	-6052
▁Prototyp	-6053
▁Schatten	-6054
▁gefallen	-6055
versorgung	-6056
▁Folgendes	-6057
▁Francisco	-6058
▁dieselben	-6059
▁aufzubauen	-6060
▁überrascht	-6061
.,	-6062
oß	-6063
Ein	-6064
har	-6065
ley	-6066
zon	-6067
▁Tw	-6068
icro	-6069
inkt	-6070
▁194	-6071
▁Brü	-6072
▁Bur	-6073
artet	-6074
denkt	-6075
ement	-6076
krank	-6077
seits	-6078
▁Bang	-6079
▁Betr	-6080
▁Bras	-6081
▁Fast	-6082
▁Mont	-6083
▁Wild	-6084
▁leid	-6085
▁länd	-6086
▁miss	-6087
▁seid	-6088
eicher	-6089
eilung	-6090
▁Dabei	-6091
▁Sogar	-6092
▁Süden	-6093
▁Vergn	-6094
▁ermut	-6095
▁kolle	-6096
▁weißt	-6097
dlichen	-6098
schrift	-6099
▁Andere	-6100
▁Aspekt	-6101
▁Gewebe	-6102
▁formen	-6103
▁soweit	-6104
▁Gericht	-6105
▁Molekül	-6106
▁Stimmen	-6107
▁Viertel	-6108
▁besitzt	-6109
erstörung	-6110
▁Erlebnis	-6111
▁Zunächst	-6112
▁ungewöhn	-6113
▁zerstört	-6114
▁Ernährung	-6115
▁Geschmack	-6116
▁Grundlage	-6117
▁folgendes	-6118
▁industrie	-6119
▁Instrument	-6120
▁verbessert	-6121
▁Sonnenlicht	-6122
▁persönlichen	-6123
▁unterrichten	-6124
▁Gerechtigkeit	-6125
ael	-6126
fir	-6127
läu	-6128
osh	-6129
▁La	-6130
fert	-6131
laub	-6132
stat	-6133
▁Deb	-6134
▁Pan	-6135
▁Ruf	-6136
ettet	-6137
flekt	-6138
linge	-6139
okuss	-6140
weite	-6141
zepte	-6142
▁Akte	-6143
▁Biom	-6144
▁Mess	-6145
▁Nest	-6146
▁Schä	-6147
▁beit	-6148
▁grau	-6149
nehmer	-6150
olitik	-6151
▁Islam	-6152
▁Lasst	-6153
▁Vögel	-6154
▁Würde	-6155
▁Ziele	-6156
▁außen	-6157
▁nötig	-6158
▁wahre	-6159
▁wovon	-6160
fordert	-6161
▁Anteil	-6162
▁Blumen	-6163
▁Faktor	-6164
▁Grenze	-6165
▁Israel	-6166
▁Schnee	-6167
▁School	-6168
▁bieten	-6169
▁ergibt	-6170
▁fingen	-6171
▁nieder	-6172
gelassen	-6173
schritte	-6174
▁Annahme	-6175
▁Student	-6176
▁Wechsel	-6177
▁erwähnt	-6178
▁tatsäch	-6179
▁Freundin	-6180
▁erstellt	-6181
▁gefangen	-6182
berflächen	-6183
▁Gesichter	-6184
▁Literatur	-6185
▁Professor	-6186
▁Tradition	-6187
▁beibringen	-6188
▁unabhängig	-6189
▁Ausstellung	-6190
sterblichkeit	-6191
▁irgendjemand	-6192
▁menschlicher	-6193
▁menschliches	-6194
wä	-6195
ips	-6196
ota	-6197
ots	-6198
ruh	-6199
ähm	-6200
äum	-6201
▁2.	-6202
▁Et	-6203
▁Zä	-6204
ging	-6205
ombe	-6206
reif	-6207
▁Haw	-6208
▁Tor	-6209
▁etc	-6210
▁inf	-6211
biert	-6212
euern	-6213
iesen	-6214
igend	-6215
linie	-6216
räume	-6217
▁Beim	-6218
▁Empf	-6219
▁Post	-6220
▁Tief	-6221
▁baut	-6222
▁stop	-6223
geregt	-6224
geschw	-6225
staben	-6226
öntgen	-6227
▁Bibel	-6228
▁Küste	-6229
▁Micro	-6230
▁Pfund	-6231
▁Samen	-6232
▁angeb	-6233
▁armen	-6234
ikalien	-6235
ruption	-6236
ächtnis	-6237
▁Chemie	-6238
▁Damals	-6239
▁Mechan	-6240
▁Signal	-6241
▁Träume	-6242
▁Zauber	-6243
▁reicht	-6244
▁Beweise	-6245
▁Elektro	-6246
▁Konflik	-6247
▁Krieges	-6248
▁Michael	-6249
▁enthält	-6250
▁glaubte	-6251
▁seitdem	-6252
▁unglück	-6253
▁Aufnahme	-6254
▁Methoden	-6255
▁Pakistan	-6256
▁verstehe	-6257
▁versteht	-6258
▁verwende	-6259
▁Gegenwart	-6260
▁digitalen	-6261
▁beinhaltet	-6262
▁Mitarbeiter	-6263
▁Statistiken	-6264
▁feststellen	-6265
▁Unterhaltung	-6266
▁medizinische	-6267
MS	-6268
ex	-6269
sa	-6270
uz	-6271
vis	-6272
▁27	-6273
azin	-6274
förm	-6275
gefü	-6276
nahm	-6277
ästh	-6278
▁Dia	-6279
▁Oel	-6280
▁dün	-6281
▁rot	-6282
▁ruh	-6283
euert	-6284
rustr	-6285
▁Anim	-6286
▁Chic	-6287
▁Russ	-6288
▁Verw	-6289
▁genü	-6290
▁hieß	-6291
▁spät	-6292
fische	-6293
folgen	-6294
haften	-6295
äusern	-6296
▁Stahl	-6297
▁innov	-6298
▁super	-6299
herapie	-6300
ließend	-6301
zentrum	-6302
▁Brücke	-6303
▁Gewinn	-6304
▁Kirche	-6305
▁Strand	-6306
▁Welten	-6307
▁ausger	-6308
▁berech	-6309
▁intens	-6310
▁kannte	-6311
▁landen	-6312
▁ökonom	-6313
▁Respekt	-6314
▁einiges	-6315
▁verkauf	-6316
▁Ereignis	-6317
▁Zwischen	-6318
▁demokrat	-6319
▁perfekte	-6320
▁beschleun	-6321
▁entdeckte	-6322
technologie	-6323
▁Restaurant	-6324
▁Satelliten	-6325
▁Einfachheit	-6326
▁durchführen	-6327
▁fantastisch	-6328
▁gemeinsamen	-6329
▁unterstützt	-6330
▁Wesentlichen	-6331
▁Vorstellungen	-6332
▁Gemeinschaften	-6333
zz	-6334
▁“	-6335
ams	-6336
ban	-6337
hnt	-6338
▁75	-6339
▁kä	-6340
ackt	-6341
irbt	-6342
▁Ech	-6343
▁Rhy	-6344
▁fei	-6345
▁ums	-6346
ender	-6347
inter	-6348
staat	-6349
uhren	-6350
üssen	-6351
▁Rake	-6352
▁Verp	-6353
▁expl	-6354
▁form	-6355
bücher	-6356
testen	-6357
▁Asien	-6358
▁Hilfs	-6359
▁James	-6360
▁Neues	-6361
▁Popul	-6362
▁geist	-6363
▁innen	-6364
▁jener	-6365
tztlich	-6366
▁Handel	-6367
▁anfing	-6368
▁kümmer	-6369
▁Quellen	-6370
▁Twitter	-6371
▁besorgt	-6372
▁Gespräch	-6373
▁Komponen	-6374
▁Regionen	-6375
▁Schritte	-6376
▁Webseite	-6377
▁ersetzen	-6378
▁springen	-6379
▁wechseln	-6380
schmutzung	-6381
▁Abschluss	-6382
▁Operation	-6383
▁Potential	-6384
▁Verbesser	-6385
▁Verstehen	-6386
▁schwimmen	-6387
▁bezeichnen	-6388
▁gemeinsame	-6389
▁Wasserstoff	-6390
▁Sonnensystem	-6391
▁verschwunden	-6392
▁Nachbarschaft	-6393
▁unglaublichen	-6394
AR	-6395
Be	-6396
see	-6397
sun	-6398
ült	-6399
▁Tö	-6400
ehrt	-6401
emin	-6402
omos	-6403
▁Ast	-6404
▁Bef	-6405
▁Bem	-6406
▁Ehe	-6407
▁Hor	-6408
dreht	-6409
iveau	-6410
ppich	-6411
rafen	-6412
▁Euch	-6413
▁Weis	-6414
▁fern	-6415
▁mark	-6416
ammelt	-6417
endung	-6418
ingern	-6419
ätzung	-6420
▁Eisen	-6421
▁Immer	-6422
▁Titan	-6423
▁enden	-6424
▁folgt	-6425
▁meist	-6426
▁stehe	-6427
atische	-6428
gedacht	-6429
schafft	-6430
spiegel	-6431
ziehung	-6432
▁Atlant	-6433
▁Schild	-6434
▁Schuld	-6435
▁Staats	-6436
▁Zufall	-6437
▁achten	-6438
▁histor	-6439
derungen	-6440
omputern	-6441
▁solange	-6442
▁überein	-6443
▁Besonder	-6444
▁Geräusch	-6445
▁Metapher	-6446
▁besuchen	-6447
▁beweisen	-6448
▁hinunter	-6449
▁sprachen	-6450
▁Afrikaner	-6451
▁Vergnügen	-6452
▁erweitern	-6453
▁kostenlos	-6454
▁Erwachsenen	-6455
▁akzeptieren	-6456
▁faszinierend	-6457
rt	-6458
bek	-6459
lad	-6460
▁Ox	-6461
beln	-6462
okus	-6463
soft	-6464
teln	-6465
äuse	-6466
▁Hei	-6467
▁Hör	-6468
▁Nat	-6469
▁Toi	-6470
▁Vag	-6471
▁You	-6472
▁ide	-6473
barer	-6474
ehren	-6475
krebs	-6476
kreis	-6477
onstr	-6478
osten	-6479
▁Hühn	-6480
▁Mama	-6481
▁Musl	-6482
▁Verd	-6483
▁jung	-6484
▁neur	-6485
▁trag	-6486
ichter	-6487
▁Karik	-6488
▁Simul	-6489
▁angen	-6490
▁domin	-6491
▁drauf	-6492
▁still	-6493
▁voran	-6494
▁Dunkel	-6495
▁Gipfel	-6496
▁Island	-6497
▁lebens	-6498
atastrop	-6499
▁100.000	-6500
▁Betrach	-6501
▁gewählt	-6502
▁manchen	-6503
▁Resultat	-6504
▁Schweden	-6505
▁anschaut	-6506
▁Geheimnis	-6507
▁Symmetrie	-6508
▁aufnehmen	-6509
▁darstellt	-6510
▁erwachsen	-6511
▁evolution	-6512
▁schwarzen	-6513
▁spezielle	-6514
▁angenommen	-6515
▁vermitteln	-6516
▁westlichen	-6517
▁Dimensionen	-6518
▁automatisch	-6519
▁geschlossen	-6520
▁nachgedacht	-6521
▁aufgewachsen	-6522
bas	-6523
hls	-6524
iop	-6525
rän	-6526
▁23	-6527
▁ra	-6528
achs	-6529
bern	-6530
tele	-6531
ulpt	-6532
▁Ban	-6533
▁Fle	-6534
▁Kle	-6535
▁wüs	-6536
behör	-6537
zesse	-6538
▁1000	-6539
▁Benz	-6540
▁Bush	-6541
▁Iran	-6542
▁Jung	-6543
▁Mamm	-6544
▁Sens	-6545
▁Trau	-6546
▁lebe	-6547
kelett	-6548
orient	-6549
▁Hotel	-6550
▁Laden	-6551
▁Ohren	-6552
▁Steve	-6553
▁Tiefe	-6554
▁Tumor	-6555
▁städt	-6556
schicht	-6557
▁George	-6558
▁Gravit	-6559
▁Kriegs	-6560
▁Moskit	-6561
▁Schwer	-6562
▁Völker	-6563
▁enorme	-6564
▁grosse	-6565
bewegung	-6566
leistung	-6567
sprozess	-6568
▁Gebiete	-6569
▁Gleiche	-6570
▁Mittler	-6571
▁Risiken	-6572
▁Röntgen	-6573
▁wieviel	-6574
▁digitale	-6575
▁vertraut	-6576
▁Anwendung	-6577
▁Microsoft	-6578
▁Philosoph	-6579
▁Potenzial	-6580
▁allgemein	-6581
▁bekannten	-6582
▁beschloss	-6583
▁irgendwel	-6584
bevölkerung	-6585
▁Entfernung	-6586
▁Korruption	-6587
▁Wettbewerb	-6588
▁speziellen	-6589
▁verwandelt	-6590
gesellschaft	-6591
▁Chemikalien	-6592
▁Stattdessen	-6593
▁insbesondere	-6594
▁internationalen	-6595
its	-6596
oth	-6597
züg	-6598
▁Ed	-6599
▁Tu	-6600
▁wü	-6601
ulen	-6602
▁Ost	-6603
▁Tun	-6604
▁erz	-6605
▁kop	-6606
▁mut	-6607
▁ult	-6608
lesen	-6609
omben	-6610
tritt	-6611
▁Best	-6612
▁Eier	-6613
▁Kart	-6614
▁Nase	-6615
▁Stan	-6616
▁Vern	-6617
▁arme	-6618
▁dreh	-6619
▁erhe	-6620
▁moch	-6621
▁zust	-6622
drückt	-6623
fernen	-6624
letten	-6625
rieren	-6626
winkel	-6627
▁Blatt	-6628
▁Einen	-6629
▁dynam	-6630
▁fährt	-6631
schland	-6632
standen	-6633
▁Doktor	-6634
▁Inspir	-6635
▁Leider	-6636
▁Mexiko	-6637
▁besagt	-6638
▁dunkel	-6639
▁fokuss	-6640
▁rechte	-6641
▁spezif	-6642
qualität	-6643
▁Blätter	-6644
▁Chicago	-6645
▁Kameras	-6646
▁Kinders	-6647
▁Konstru	-6648
▁Wirkung	-6649
▁dauerte	-6650
▁gründen	-6651
▁offenen	-6652
▁gerettet	-6653
▁positive	-6654
▁behaupten	-6655
▁entfernen	-6656
▁Verbrechen	-6657
▁irgendeine	-6658
▁wundervoll	-6659
▁vergangenen	-6660
▁konzentriert	-6661
▁organisieren	-6662
▁interessanten	-6663
oh	-6664
gyp	-6665
hof	-6666
ire	-6667
ney	-6668
▁KB	-6669
frau	-6670
omas	-6671
▁And	-6672
▁Urs	-6673
andid	-6674
ember	-6675
▁Frie	-6676
▁Inte	-6677
▁Klin	-6678
▁Life	-6679
▁eint	-6680
▁enth	-6681
▁klin	-6682
▁verz	-6683
▁zuge	-6684
bungen	-6685
einbar	-6686
hängen	-6687
quelle	-6688
stechn	-6689
▁Nadel	-6690
▁Pferd	-6691
▁Theor	-6692
▁organ	-6693
▁sucht	-6694
richtet	-6695
rüstung	-6696
▁Kindes	-6697
▁angeht	-6698
▁auspro	-6699
▁bietet	-6700
▁gewiss	-6701
▁junger	-6702
aufnahme	-6703
▁Gedicht	-6704
▁Hindern	-6705
▁Komment	-6706
▁Verlust	-6707
▁eindeut	-6708
▁erkannt	-6709
▁lokalen	-6710
schriften	-6711
▁Bevölker	-6712
▁Bildungs	-6713
▁momentan	-6714
▁ähnliche	-6715
haltigkeit	-6716
▁einfaches	-6717
▁teilweise	-6718
▁vermeiden	-6719
friedenheit	-6720
▁Prinzipien	-6721
▁Regierungs	-6722
▁eingeladen	-6723
▁hinzufügen	-6724
▁moralische	-6725
▁untersucht	-6726
▁übernehmen	-6727
▁persönliche	-6728
▁wunderbaren	-6729
▁biologischen	-6730
En	-6731
▁$	-6732
ias	-6733
kal	-6734
wen	-6735
üse	-6736
▁Ki	-6737
ilen	-6738
▁Hyp	-6739
▁Jan	-6740
▁log	-6741
▁Ähn	-6742
acher	-6743
andem	-6744
preis	-6745
unruh	-6746
▁Krit	-6747
▁Soll	-6748
▁fürs	-6749
▁kogn	-6750
▁land	-6751
▁spir	-6752
Wissen	-6753
azifik	-6754
freund	-6755
gebiet	-6756
inhalb	-6757
▁Babys	-6758
▁Kabel	-6759
▁Obama	-6760
▁Stern	-6761
▁poten	-6762
▁schwe	-6763
prozess	-6764
▁Ballon	-6765
▁Explos	-6766
▁Lungen	-6767
▁Skulpt	-6768
▁ausser	-6769
▁furcht	-6770
▁höhere	-6771
▁körper	-6772
▁leiten	-6773
▁reisen	-6774
▁vieles	-6775
▁Bestand	-6776
▁Zuhause	-6777
▁beenden	-6778
▁ergeben	-6779
▁grundle	-6780
▁moderne	-6781
▁standen	-6782
▁trinken	-6783
unktionen	-6784
▁Entschul	-6785
▁Gesichts	-6786
▁Mehrheit	-6787
▁Russland	-6788
▁Weisheit	-6789
▁entstand	-6790
▁schreibt	-6791
▁verfolgt	-6792
oberfläche	-6793
ordentlich	-6794
▁Brasilien	-6795
▁Computern	-6796
▁Strategie	-6797
▁Buchstaben	-6798
▁Geschlecht	-6799
▁Jedenfalls	-6800
▁fasziniert	-6801
▁Oberflächen	-6802
▁Schließlich	-6803
▁Verbreitung	-6804
▁biologische	-6805
▁ursprünglich	-6806
Bo	-6807
to	-6808
wa	-6809
yd	-6810
por	-6811
way	-6812
▁ew	-6813
andt	-6814
angs	-6815
füll	-6816
hung	-6817
ison	-6818
ones	-6819
oßen	-6820
phen	-6821
urer	-6822
▁Ath	-6823
▁Ins	-6824
hlten	-6825
küste	-6826
▁Frem	-6827
▁Intu	-6828
▁männ	-6829
reiche	-6830
schaut	-6831
▁Anzei	-6832
▁Berge	-6833
▁Damen	-6834
▁Flüss	-6835
▁Toten	-6836
▁Treib	-6837
▁fehlt	-6838
▁Aktion	-6839
▁Folgen	-6840
▁Presse	-6841
▁Stärke	-6842
▁altern	-6843
▁ausgew	-6844
▁deiner	-6845
▁kaufte	-6846
▁lehren	-6847
▁machst	-6848
ierungen	-6849
pflanzen	-6850
sproblem	-6851
▁Aspekte	-6852
▁Chancen	-6853
▁Nutzung	-6854
▁bestand	-6855
▁grossen	-6856
▁verlang	-6857
▁zweimal	-6858
▁Amerikan	-6859
▁Lebenser	-6860
▁Zeitraum	-6861
▁nebenbei	-6862
▁Gemeinden	-6863
▁Zeitalter	-6864
▁Zuschauer	-6865
▁basierend	-6866
▁enthalten	-6867
▁ernsthaft	-6868
▁langsamer	-6869
▁Zerstörung	-6870
▁wenigstens	-6871
▁Neuigkeiten	-6872
▁Psychologie	-6873
▁beschrieben	-6874
▁dargestellt	-6875
▁inspirieren	-6876
▁zurückgehen	-6877
▁Fortschritte	-6878
▁Innovationen	-6879
▁Mathematiker	-6880
▁dreidimension	-6881
eah	-6882
eis	-6883
gin	-6884
put	-6885
▁Ta	-6886
▁Äl	-6887
Okay	-6888
abor	-6889
brid	-6890
elen	-6891
volv	-6892
▁Can	-6893
▁Jun	-6894
▁Seh	-6895
▁fil	-6896
▁rom	-6897
▁Übr	-6898
brech	-6899
kette	-6900
lager	-6901
reide	-6902
rüche	-6903
teile	-6904
▁1960	-6905
▁Elef	-6906
▁Koll	-6907
▁Stad	-6908
▁Witz	-6909
▁heiß	-6910
▁Ägyp	-6911
bringt	-6912
chtern	-6913
holfen	-6914
modell	-6915
nommen	-6916
tragen	-6917
ysikal	-6918
▁Autom	-6919
▁Bevor	-6920
▁Hallo	-6921
▁Kurve	-6922
▁Platt	-6923
▁Tests	-6924
▁Trick	-6925
▁anget	-6926
▁produ	-6927
▁vorzu	-6928
ungsver	-6929
▁Danach	-6930
▁Fakten	-6931
▁Ganzen	-6932
▁Symbol	-6933
▁Umfeld	-6934
▁konsum	-6935
▁überqu	-6936
ologisch	-6937
▁Bericht	-6938
▁beunruh	-6939
▁gezogen	-6940
arbeitung	-6941
▁Gebrauch	-6942
▁Physiker	-6943
▁Vorteile	-6944
▁besessen	-6945
▁getrennt	-6946
▁zeichnen	-6947
▁Billionen	-6948
▁Geschäfte	-6949
▁Jahrzehnt	-6950
▁bezüglich	-6951
▁Australien	-6952
▁Bibliothek	-6953
▁Geburtstag	-6954
▁Ingenieure	-6955
▁eingeführt	-6956
▁verblüffen	-6957
▁überwinden	-6958
▁Deutschland	-6959
▁bemerkenswert	-6960
▁funktionierte	-6961
geschwindigkeit	-6962
▁Nachhaltigkeit	-6963
30	-6964
far	-6965
flu	-6966
gas	-6967
kap	-6968
änz	-6969
▁Ug	-6970
▁Wh	-6971
arth	-6972
fand	-6973
groß	-6974
ifiz	-6975
nach	-6976
▁Ehr	-6977
▁Eng	-6978
▁Get	-6979
▁Kuh	-6980
▁Mas	-6981
▁Sub	-6982
▁wid	-6983
asien	-6984
eufel	-6985
reift	-6986
undes	-6987
ünden	-6988
▁Astr	-6989
▁Flie	-6990
▁Gore	-6991
▁Jeff	-6992
▁hind	-6993
▁mult	-6994
Dollar	-6995
gesetz	-6996
summen	-6997
▁Algor	-6998
▁Geräu	-6999
▁Initi	-7000
▁Leber	-7001
▁atmen	-7002
▁baute	-7003
▁platz	-7004
▁rufen	-7005
▁worum	-7006
▁Atomen	-7007
▁Detail	-7008
▁Gemüse	-7009
▁Herren	-7010
▁Lachen	-7011
▁Metall	-7012
▁Sobald	-7013
▁Thomas	-7014
▁freund	-7015
▁gelang	-7016
▁romant	-7017
▁stirbt	-7018
▁worauf	-7019
scheidet	-7020
▁Darüber	-7021
▁Einheit	-7022
▁Kategor	-7023
▁Schicks	-7024
▁Treffen	-7025
▁treiben	-7026
scheinend	-7027
▁Schulter	-7028
▁dahinter	-7029
▁darunter	-7030
▁leichter	-7031
▁mögliche	-7032
lichkeiten	-7033
▁mitnehmen	-7034
gehensweise	-7035
▁Frankreich	-7036
▁inzwischen	-7037
▁Instrumente	-7038
▁Situationen	-7039
▁beispielsweise	-7040
▁wirtschaftliche	-7041
-,	-7042
Ex	-7043
kst	-7044
zum	-7045
▁li	-7046
▁pf	-7047
erin	-7048
lymp	-7049
stud	-7050
zipl	-7051
ärme	-7052
ühen	-7053
▁250	-7054
▁Mor	-7055
▁Sei	-7056
▁Top	-7057
▁Tur	-7058
endes	-7059
heuer	-7060
reuen	-7061
stero	-7062
örung	-7063
▁Ruhe	-7064
▁Schm	-7065
▁Sozi	-7066
▁Vari	-7067
▁Voll	-7068
▁klet	-7069
▁koll	-7070
▁stre	-7071
agiert	-7072
erkwür	-7073
klasse	-7074
ogramm	-7075
plomat	-7076
rohung	-7077
▁Dafür	-7078
▁Darum	-7079
▁Erdbe	-7080
▁Gehen	-7081
▁Haiti	-7082
▁Paris	-7083
▁Räume	-7084
▁Stock	-7085
▁lande	-7086
▁selbe	-7087
▁verab	-7088
blieben	-7089
wechsel	-7090
▁Alters	-7091
▁Benzin	-7092
▁Besuch	-7093
▁Kanada	-7094
▁Medium	-7095
▁Online	-7096
▁Robert	-7097
▁abstra	-7098
▁grünen	-7099
▁hängen	-7100
▁hörten	-7101
amerikan	-7102
bekommen	-7103
ktivität	-7104
▁Angeles	-7105
▁Chromos	-7106
▁Schwanz	-7107
▁Schwarz	-7108
▁Taschen	-7109
▁erhöhen	-7110
▁starben	-7111
▁Geschenk	-7112
▁Schweine	-7113
▁folgende	-7114
▁genügend	-7115
▁hindurch	-7116
▁physikal	-7117
▁sichtbar	-7118
▁Überzeug	-7119
▁betroffen	-7120
▁Überrasch	-7121
▁beschreibt	-7122
▁langweilig	-7123
▁zusammenzu	-7124
▁Darstellung	-7125
▁beigebracht	-7126
▁voneinander	-7127
▁Bevölkerungs	-7128
▁Untersuchung	-7129
▁Investitionen	-7130
Wo	-7131
aku	-7132
bür	-7133
iox	-7134
ius	-7135
kün	-7136
ole	-7137
▁32	-7138
▁Mr	-7139
▁Ol	-7140
ktes	-7141
nütz	-7142
rett	-7143
star	-7144
yram	-7145
ätzt	-7146
▁Cam	-7147
▁Fal	-7148
▁Kom	-7149
▁Mac	-7150
▁Sar	-7151
▁Zie	-7152
▁ang	-7153
▁the	-7154
iogen	-7155
leger	-7156
mpath	-7157
nchen	-7158
änner	-7159
▁2005	-7160
▁Bier	-7161
▁Dame	-7162
▁Kohl	-7163
▁Laut	-7164
▁Thun	-7165
▁Vier	-7166
▁ethn	-7167
▁kalt	-7168
▁prim	-7169
▁trug	-7170
andern	-7171
lernen	-7172
unkten	-7173
▁Angeb	-7174
▁Anruf	-7175
▁Hitze	-7176
▁Kolon	-7177
▁Küche	-7178
▁Motiv	-7179
▁Noten	-7180
▁Schle	-7181
▁Wieso	-7182
▁lasst	-7183
▁staat	-7184
▁weiße	-7185
yramide	-7186
▁Abfall	-7187
▁Kommen	-7188
▁Mangel	-7189
▁Pollen	-7190
▁inform	-7191
▁involv	-7192
▁lokale	-7193
▁system	-7194
▁Gehirne	-7195
▁Quanten	-7196
▁Schicht	-7197
▁Skelett	-7198
▁Vorhers	-7199
▁dringen	-7200
▁letzter	-7201
▁mächtig	-7202
▁neugier	-7203
erkennung	-7204
▁Ausnahme	-7205
▁Gegenden	-7206
▁Problems	-7207
▁Richtige	-7208
▁Schwefel	-7209
▁ausgeben	-7210
▁befassen	-7211
▁geholfen	-7212
▁konfront	-7213
▁schauten	-7214
▁seltsame	-7215
▁unmittel	-7216
▁Spielzeug	-7217
▁intellekt	-7218
▁versorgen	-7219
▁Medikament	-7220
▁Verwendung	-7221
▁bezeichnet	-7222
▁veränderte	-7223
▁wahrnehmen	-7224
▁Einstellung	-7225
▁Herstellung	-7226
▁schwieriger	-7227
▁vorbereitet	-7228
▁wundervolle	-7229
IP	-7230
ba	-7231
hh	-7232
tn	-7233
cyc	-7234
▁26	-7235
▁Hu	-7236
▁Sä	-7237
▁lö	-7238
book	-7239
gefä	-7240
same	-7241
sens	-7242
▁19.	-7243
▁195	-7244
▁Rot	-7245
ianer	-7246
weich	-7247
▁Allt	-7248
▁Beit	-7249
▁Füße	-7250
▁Saal	-7251
▁Stau	-7252
▁Teen	-7253
▁Urkn	-7254
▁YouT	-7255
▁dick	-7256
▁rote	-7257
▁umzu	-7258
▁älte	-7259
anlage	-7260
gelöst	-7261
itiven	-7262
kultur	-7263
körper	-7264
manden	-7265
rinzip	-7266
▁Haare	-7267
▁Kugel	-7268
▁extra	-7269
▁grüne	-7270
▁womit	-7271
▁woran	-7272
gruppen	-7273
▁Aufbau	-7274
▁Fabrik	-7275
▁Flücht	-7276
▁Hunger	-7277
▁Konsum	-7278
▁Säuget	-7279
▁Teufel	-7280
▁Vagina	-7281
▁Vorder	-7282
▁billig	-7283
▁neigen	-7284
▁Italien	-7285
▁Lektion	-7286
▁Batterie	-7287
▁ernähren	-7288
▁erwähnen	-7289
▁gemessen	-7290
▁glaubten	-7291
▁Angelegen	-7292
▁anzusehen	-7293
▁aufgeregt	-7294
▁betreiben	-7295
zeichnungen	-7296
▁Ereignisse	-7297
▁Richtungen	-7298
▁künstliche	-7299
▁verglichen	-7300
▁Änderungen	-7301
▁unternehmen	-7302
▁fantastische	-7303
▁mittlerweile	-7304
▁Normalerweise	-7305
yl	-7306
“.	-7307
500	-7308
ene	-7309
jet	-7310
rav	-7311
res	-7312
ric	-7313
rüf	-7314
vin	-7315
▁Rö	-7316
▁Vi	-7317
▁fe	-7318
Welt	-7319
eins	-7320
kord	-7321
rise	-7322
uzin	-7323
▁120	-7324
▁Abl	-7325
▁Lam	-7326
▁Wäl	-7327
aucht	-7328
ience	-7329
ommun	-7330
▁Face	-7331
▁Klim	-7332
▁Koch	-7333
▁Kond	-7334
▁Näch	-7335
▁Nähr	-7336
▁Ohne	-7337
▁Song	-7338
▁Verz	-7339
▁welt	-7340
bilden	-7341
karten	-7342
messer	-7343
werken	-7344
▁Erste	-7345
▁Serie	-7346
▁Spann	-7347
▁expon	-7348
▁japan	-7349
▁jenen	-7350
▁wirkt	-7351
gebiete	-7352
sprache	-7353
▁Pocken	-7354
▁Reisen	-7355
▁Schuhe	-7356
▁Uganda	-7357
▁danken	-7358
▁explod	-7359
▁freien	-7360
▁kommer	-7361
▁nervös	-7362
▁planen	-7363
▁Designs	-7364
▁Phantom	-7365
▁Schaden	-7366
▁Wurzeln	-7367
▁YouTube	-7368
▁gesetzt	-7369
▁respekt	-7370
▁steuern	-7371
▁weshalb	-7372
▁Chinesen	-7373
▁Schlacht	-7374
▁Schwarze	-7375
▁bemerkte	-7376
▁besseres	-7377
▁bewirken	-7378
▁gründete	-7379
▁lebendig	-7380
▁vielmehr	-7381
▁Programme	-7382
▁bedeutete	-7383
▁betrieben	-7384
▁eindeutig	-7385
▁überlegen	-7386
▁Erinnerung	-7387
▁Interessan	-7388
▁technischen	-7389
▁Konsequenzen	-7390
▁überraschend	-7391
wahrscheinlich	-7392
▁Klassenzimmer	-7393
▁Zufriedenheit	-7394
▁repräsentiert	-7395
▁Nahrungsmittel	-7396
▁außergewöhnlich	-7397
Wer	-7398
bie	-7399
bit	-7400
cks	-7401
haf	-7402
ink	-7403
rah	-7404
rel	-7405
stu	-7406
uld	-7407
▁RB	-7408
▁Wa	-7409
Aber	-7410
deln	-7411
fone	-7412
züge	-7413
▁Alt	-7414
▁Ass	-7415
▁Cra	-7416
▁Don	-7417
▁Hal	-7418
▁Sam	-7419
▁wär	-7420
alley	-7421
fällt	-7422
fühlt	-7423
halts	-7424
hängt	-7425
iness	-7426
räger	-7427
thmus	-7428
▁Anti	-7429
▁Ehre	-7430
▁Jack	-7431
▁Leid	-7432
▁Open	-7433
▁Span	-7434
▁gefr	-7435
▁legt	-7436
▁nett	-7437
▁stet	-7438
eigung	-7439
onomie	-7440
schild	-7441
stitut	-7442
▁Aller	-7443
▁Misch	-7444
▁Tragö	-7445
▁alter	-7446
▁blaue	-7447
▁gehei	-7448
▁günst	-7449
dringen	-7450
gemacht	-7451
ierungs	-7452
ulieren	-7453
zwungen	-7454
▁Anwend	-7455
▁Astero	-7456
▁Darauf	-7457
▁Fläche	-7458
▁Glücks	-7459
▁Handys	-7460
▁Kampag	-7461
▁Preise	-7462
▁Reihen	-7463
▁Reserv	-7464
▁Riesen	-7465
▁berück	-7466
▁blauen	-7467
▁modern	-7468
▁sonder	-7469
▁trafen	-7470
▁wirken	-7471
schätzen	-7472
▁Absicht	-7473
▁Analyse	-7474
▁Signale	-7475
▁Verzwei	-7476
▁doppelt	-7477
▁glamour	-7478
▁liefern	-7479
▁mittels	-7480
▁Anführer	-7481
▁Mitglied	-7482
▁begegnen	-7483
▁bekannte	-7484
▁elektron	-7485
▁falschen	-7486
▁programm	-7487
▁umfassen	-7488
▁verliert	-7489
ussendlich	-7490
▁Aufnahmen	-7491
▁Gleichung	-7492
▁Transport	-7493
▁Vorschlag	-7494
▁folgenden	-7495
▁Sichtweise	-7496
▁ländlichen	-7497
▁Erwartungen	-7498
▁Interaktion	-7499
▁gesellschaft	-7500
▁kontrolliert	-7501
▁wunderschöne	-7502
▁zurückkehren	-7503
▁Persönlichkeit	-7504
--	-7505
tä	-7506
ola	-7507
pel	-7508
tum	-7509
▁2,	-7510
▁65	-7511
▁TV	-7512
▁nu	-7513
Null	-7514
anal	-7515
dach	-7516
irca	-7517
länd	-7518
nose	-7519
ston	-7520
▁Pra	-7521
▁Pri	-7522
▁Rel	-7523
▁rum	-7524
▁sym	-7525
alent	-7526
hoben	-7527
▁Bran	-7528
▁Mass	-7529
▁frem	-7530
▁gere	-7531
bellen	-7532
gesamt	-7533
linien	-7534
mechan	-7535
melzen	-7536
person	-7537
punkte	-7538
stands	-7539
stücke	-7540
▁Bauch	-7541
▁Conne	-7542
▁Fokus	-7543
▁Kreuz	-7544
▁Level	-7545
▁Sechs	-7546
▁Zähne	-7547
▁repar	-7548
▁saßen	-7549
▁simul	-7550
▁trans	-7551
▁verpf	-7552
bleiben	-7553
raucher	-7554
▁Budget	-7555
▁Infekt	-7556
▁Laufen	-7557
▁Metern	-7558
▁Märkte	-7559
▁Studio	-7560
▁hassen	-7561
▁oberen	-7562
▁Anstatt	-7563
▁drücken	-7564
▁kreiert	-7565
▁nannten	-7566
▁stoppen	-7567
▁visuell	-7568
▁Biologen	-7569
▁Dokument	-7570
▁Epidemie	-7571
▁Führungs	-7572
▁Kleidung	-7573
▁aktuelle	-7574
▁berühren	-7575
▁exponent	-7576
▁genießen	-7577
produktion	-7578
▁Hollywood	-7579
▁Weltkrieg	-7580
▁Zeitungen	-7581
▁ausmachen	-7582
▁begreifen	-7583
▁letztlich	-7584
▁niemanden	-7585
▁reduziert	-7586
▁ausgesetzt	-7587
▁wirklichen	-7588
▁Inspiration	-7589
▁eigentliche	-7590
▁elektrische	-7591
▁grundlegend	-7592
▁Entdeckungen	-7593
la	-7594
edy	-7595
hst	-7596
ios	-7597
pos	-7598
▁22	-7599
▁ad	-7600
baut	-7601
eder	-7602
komp	-7603
wehr	-7604
▁Dad	-7605
▁Hat	-7606
▁Mad	-7607
▁Ohr	-7608
▁Tex	-7609
▁Äth	-7610
Techn	-7611
oppel	-7612
srate	-7613
ünder	-7614
▁Dial	-7615
▁Ehem	-7616
▁Myth	-7617
▁gefl	-7618
▁gift	-7619
▁vorn	-7620
flanze	-7621
fläche	-7622
fühlen	-7623
leicht	-7624
stoßen	-7625
▁Alpha	-7626
▁Block	-7627
▁Figur	-7628
▁Immun	-7629
▁könne	-7630
▁relev	-7631
eichert	-7632
konomen	-7633
lichten	-7634
schläge	-7635
▁Bedarf	-7636
▁Center	-7637
▁Howard	-7638
▁Inseln	-7639
▁Oxford	-7640
▁bauten	-7641
▁beherr	-7642
▁heilen	-7643
▁nachts	-7644
▁schaue	-7645
▁sparen	-7646
▁univer	-7647
▁Äthiop	-7648
befinden	-7649
▁Ausgang	-7650
▁Magazin	-7651
▁Musiker	-7652
▁Verschw	-7653
▁Verwand	-7654
▁entfern	-7655
▁merkwür	-7656
▁schmerz	-7657
▁verschm	-7658
▁Freiwill	-7659
▁Hinblick	-7660
▁Spektrum	-7661
▁anbieten	-7662
▁anstelle	-7663
▁erfüllen	-7664
▁lebenden	-7665
▁verdient	-7666
▁verstand	-7667
▁vorwärts	-7668
▁wertvoll	-7669
▁Belohnung	-7670
▁Innerhalb	-7671
▁beteiligt	-7672
▁scheinbar	-7673
▁versteckt	-7674
▁vertrauen	-7675
▁Jahrzehnte	-7676
▁Standpunkt	-7677
▁weltweiten	-7678
▁Blickwinkel	-7679
▁Komponenten	-7680
▁Konsumenten	-7681
▁genetischen	-7682
▁moralischen	-7683
▁organisiert	-7684
▁elektrischen	-7685
▁hinsichtlich	-7686
▁Gleichgewicht	-7687
'.	-7688
8.	-7689
oc	-7690
▁:	-7691
Ach	-7692
anc	-7693
ida	-7694
ils	-7695
vir	-7696
▁Fa	-7697
▁PC	-7698
▁my	-7699
Mail	-7700
appt	-7701
aver	-7702
ches	-7703
fakt	-7704
gert	-7705
holz	-7706
puls	-7707
rast	-7708
stel	-7709
öpfe	-7710
▁Aug	-7711
▁Cha	-7712
▁Ski	-7713
▁Tab	-7714
▁Tin	-7715
aturn	-7716
menge	-7717
ordin	-7718
ürzen	-7719
▁2007	-7720
▁Aust	-7721
▁Bord	-7722
▁Brow	-7723
▁Dist	-7724
▁Fels	-7725
▁Hill	-7726
▁Kenn	-7727
▁Mahl	-7728
▁Mart	-7729
▁Ment	-7730
▁Salz	-7731
▁Wann	-7732
▁entt	-7733
▁häss	-7734
▁isol	-7735
▁risk	-7736
design	-7737
dliche	-7738
irgend	-7739
ittelt	-7740
▁Achse	-7741
▁Apple	-7742
▁Blogs	-7743
▁Feind	-7744
▁Front	-7745
▁Sympt	-7746
▁circa	-7747
▁human	-7748
▁korre	-7749
▁woher	-7750
fliegen	-7751
twortet	-7752
▁Früher	-7753
▁Ruanda	-7754
▁Sprung	-7755
▁Status	-7756
▁Valley	-7757
▁anhand	-7758
▁befrei	-7759
▁bestät	-7760
▁dienen	-7761
▁eingeb	-7762
▁jünger	-7763
abilität	-7764
atischen	-7765
▁Anstren	-7766
▁General	-7767
▁Pazifik	-7768
▁Schnell	-7769
▁Sequenz	-7770
▁Verlauf	-7771
▁Zweifel	-7772
▁besucht	-7773
▁dunklen	-7774
▁molekul	-7775
▁schwere	-7776
▁starken	-7777
▁unteren	-7778
▁Echtzeit	-7779
▁Erfinder	-7780
▁Gebieten	-7781
▁Systemen	-7782
▁anhalten	-7783
▁begrenzt	-7784
▁vernünft	-7785
▁visuelle	-7786
▁Mobiltele	-7787
▁Schicksal	-7788
▁Umständen	-7789
▁Weihnacht	-7790
▁kommerzie	-7791
▁kreativen	-7792
▁unterwegs	-7793
▁zufrieden	-7794
ischerweise	-7795
▁besonderen	-7796
▁investiert	-7797
▁sogenannten	-7798
▁Wohlbefinden	-7799
▁hinterlassen	-7800
▁intelligente	-7801
▁grundlegenden	-7802
▁medizinischen	-7803
▁Weltbevölkerung	-7804
di	-7805
zo	-7806
hai	-7807
iat	-7808
▁kr	-7809
▁ue	-7810
eier	-7811
flei	-7812
rang	-7813
spar	-7814
tere	-7815
wort	-7816
ßern	-7817
ütte	-7818
▁Ray	-7819
▁Ros	-7820
▁Sec	-7821
▁Süß	-7822
▁Vul	-7823
bchen	-7824
ropie	-7825
sagen	-7826
ttung	-7827
uropä	-7828
zweif	-7829
ähern	-7830
▁2001	-7831
▁Fehl	-7832
▁Nutz	-7833
▁Repu	-7834
▁hand	-7835
▁umso	-7836
ritten	-7837
wellen	-7838
zählen	-7839
▁Guten	-7840
▁Heran	-7841
▁exakt	-7842
▁gelie	-7843
▁schei	-7844
▁spont	-7845
brochen	-7846
fassung	-7847
▁Ameise	-7848
▁Extrem	-7849
▁Felsen	-7850
▁Großen	-7851
▁Niveau	-7852
▁Organe	-7853
▁Saturn	-7854
▁Wolken	-7855
▁erhöht	-7856
▁lächer	-7857
▁winzig	-7858
gefallen	-7859
pression	-7860
stimmung	-7861
zukommen	-7862
▁Angriff	-7863
▁Anstieg	-7864
▁Flasche	-7865
▁Glamour	-7866
▁Kapitel	-7867
▁benutze	-7868
▁französ	-7869
▁stimmen	-7870
▁zuhören	-7871
▁Konzepte	-7872
▁Ursprung	-7873
▁anpassen	-7874
▁beschrän	-7875
▁eingehen	-7876
▁erfassen	-7877
▁gefahren	-7878
▁riesiges	-7879
▁wahrhaft	-7880
▁Ingenieur	-7881
▁betreffen	-7882
▁erledigen	-7883
▁ungeheuer	-7884
▁Dunkelheit	-7885
▁profession	-7886
▁vorsichtig	-7887
▁Aktivitäten	-7888
▁Flüssigkeit	-7889
▁verursachen	-7890
▁Informations	-7891
▁ausschließlich	-7892
▁internationale	-7893
Und	-7894
ati	-7895
hir	-7896
ino	-7897
mon	-7898
mut	-7899
une	-7900
urd	-7901
xis	-7902
zir	-7903
▁sä	-7904
agte	-7905
appe	-7906
asie	-7907
atik	-7908
bein	-7909
bran	-7910
gste	-7911
part	-7912
städ	-7913
ugen	-7914
▁Cal	-7915
▁Flu	-7916
anzig	-7917
betes	-7918
fache	-7919
formt	-7920
ioxid	-7921
istin	-7922
izont	-7923
onald	-7924
stete	-7925
örder	-7926
▁Arch	-7927
▁Aufl	-7928
▁Budd	-7929
▁Glet	-7930
▁half	-7931
▁halt	-7932
System	-7933
bilder	-7934
ithmen	-7935
ivileg	-7936
ktiven	-7937
messen	-7938
▁Chaos	-7939
▁Enkel	-7940
▁Entst	-7941
▁Exped	-7942
▁Große	-7943
▁Stick	-7944
▁liebt	-7945
fleisch	-7946
ktionen	-7947
▁Amazon	-7948
▁Beinen	-7949
▁Bundes	-7950
▁Bäumen	-7951
▁Dinger	-7952
▁Golden	-7953
▁Machen	-7954
▁Rezept	-7955
▁Sicher	-7956
▁Tasche	-7957
▁drehte	-7958
▁feiern	-7959
▁senden	-7960
zuführen	-7961
▁Debatte	-7962
▁Dritten	-7963
▁Fliegen	-7964
▁Handels	-7965
▁beträgt	-7966
▁geraten	-7967
▁hielten	-7968
▁höchste	-7969
▁höheren	-7970
▁setzten	-7971
▁verschl	-7972
igerweise	-7973
schnitten	-7974
▁Erdbeben	-7975
▁Facebook	-7976
▁Gebäuden	-7977
▁Pinguine	-7978
▁Theorien	-7979
▁Training	-7980
▁leuchten	-7981
▁verliebt	-7982
▁Ökonomen	-7983
▁Übrigens	-7984
▁Effizienz	-7985
▁Intuition	-7986
▁Projekten	-7987
▁Resultate	-7988
▁komplexen	-7989
▁Elektronen	-7990
▁Funktionen	-7991
▁antwortete	-7992
▁ausgegeben	-7993
▁genetische	-7994
▁technische	-7995
▁Investition	-7996
▁Philosophie	-7997
▁Kapitalismus	-7998
Sc	-7999
bi	-8000
Wei	-8001
beg	-8002
gut	-8003
hel	-8004
own	-8005
ule	-8006
▁CD	-8007
▁Op	-8008
gelt	-8009
ight	-8010
llos	-8011
okol	-8012
räum	-8013
äger	-8014
▁Anh	-8015
▁Box	-8016
▁Fer	-8017
▁Sur	-8018
▁Sus	-8019
▁hüb	-8020
▁imm	-8021
▁mil	-8022
▁ret	-8023
Spiel	-8024
atein	-8025
auten	-8026
lever	-8027
riebs	-8028
ucken	-8029
ymmet	-8030
äufer	-8031
▁Chef	-8032
▁Ener	-8033
▁Sing	-8034
▁dire	-8035
▁dumm	-8036
▁flog	-8037
▁hung	-8038
▁ille	-8039
ammeln	-8040
archie	-8041
decken	-8042
drehen	-8043
fachen	-8044
kosten	-8045
schaff	-8046
straße	-8047
undern	-8048
▁Carol	-8049
▁Logik	-8050
▁Magie	-8051
▁Meere	-8052
▁Orche	-8053
▁Szene	-8054
▁Teams	-8055
▁geöff	-8056
▁lasse	-8057
▁veran	-8058
ahnsinn	-8059
▁Abhäng	-8060
▁Muskel	-8061
▁Reicht	-8062
▁Schalt	-8063
▁Street	-8064
▁Stämme	-8065
▁Trends	-8066
▁Tränen	-8067
▁Unfall	-8068
▁einzus	-8069
▁inklus	-8070
▁sozial	-8071
etischen	-8072
gekommen	-8073
geschäft	-8074
material	-8075
▁Antarkt	-8076
▁Connect	-8077
▁Handeln	-8078
▁Inhalte	-8079
▁Inneren	-8080
▁Laptops	-8081
▁brechen	-8082
▁erhielt	-8083
▁führten	-8084
▁gewöhnt	-8085
▁reflekt	-8086
▁unerwar	-8087
formation	-8088
schneiden	-8089
▁Argument	-8090
▁Diabetes	-8091
▁Gefangen	-8092
▁Teenager	-8093
▁heiraten	-8094
▁jenseits	-8095
leistungen	-8096
▁Flugzeuge	-8097
▁Höhepunkt	-8098
▁gegenwärt	-8099
▁umzugehen	-8100
▁Ausrüstung	-8101
▁Erwachsene	-8102
▁Gedächtnis	-8103
▁Organismus	-8104
▁kulturelle	-8105
▁schwierige	-8106
▁Katastrophe	-8107
▁anscheinend	-8108
▁festgestellt	-8109
▁Überraschung	-8110
▁Schriftsteller	-8111
▁y	-8112
igr	-8113
las	-8114
▁SW	-8115
akul	-8116
ibel	-8117
igma	-8118
roht	-8119
ular	-8120
äden	-8121
ürzt	-8122
▁Dör	-8123
▁Jes	-8124
▁Pre	-8125
▁san	-8126
▁wem	-8127
glück	-8128
ikale	-8129
kehrt	-8130
legte	-8131
ohlen	-8132
orien	-8133
ratet	-8134
uldig	-8135
vater	-8136
wirkt	-8137
ächer	-8138
üster	-8139
▁2006	-8140
▁Gibt	-8141
▁Klar	-8142
▁Kosm	-8143
▁Manh	-8144
▁Serv	-8145
▁aust	-8146
▁diag	-8147
▁lass	-8148
andert	-8149
dienst	-8150
kungen	-8151
leiten	-8152
lichem	-8153
pflanz	-8154
steine	-8155
utzend	-8156
waffen	-8157
ührung	-8158
▁Decke	-8159
▁Ernst	-8160
▁Koran	-8161
▁Onkel	-8162
▁Wegen	-8163
▁Wicht	-8164
▁alltä	-8165
▁hoher	-8166
▁unvor	-8167
agessen	-8168
eichern	-8169
igungen	-8170
▁Pandem	-8171
▁Pflege	-8172
▁Streit	-8173
▁bildet	-8174
▁deinem	-8175
▁echtes	-8176
▁gewann	-8177
ständige	-8178
wachstum	-8179
▁Auftrag	-8180
▁Aussage	-8181
▁Dynamik	-8182
▁Teppich	-8183
▁Verkauf	-8184
▁Wissens	-8185
▁archite	-8186
▁fließen	-8187
▁lebende	-8188
▁regener	-8189
▁traurig	-8190
ianischen	-8191
schreiben	-8192
▁Aufstieg	-8193
▁Erinnern	-8194
▁Fettleib	-8195
▁Fotograf	-8196
▁Handlung	-8197
▁Proteine	-8198
▁Stanford	-8199
▁draussen	-8200
▁effizien	-8201
▁eröffnet	-8202
▁mehreren	-8203
▁schickte	-8204
▁schnelle	-8205
▁schreibe	-8206
▁zweitens	-8207
▁Erwärmung	-8208
▁Explosion	-8209
▁Treibhaus	-8210
▁Versuchen	-8211
▁gebrochen	-8212
▁gestartet	-8213
▁infiziert	-8214
▁interpret	-8215
▁irgendwas	-8216
▁niedriger	-8217
▁zunehmend	-8218
▁Äthiopien	-8219
▁Geschäftsm	-8220
▁Motivation	-8221
▁Reaktionen	-8222
▁Religionen	-8223
▁Schwestern	-8224
▁Treibstoff	-8225
▁wiederholt	-8226
▁Eigenschaft	-8227
▁Videospiele	-8228
▁aufeinander	-8229
▁afrikanische	-8230
▁fotografiert	-8231
▁ursprüngliche	-8232
.«	-8233
vo	-8234
Auf	-8235
Kon	-8236
col	-8237
kol	-8238
opt	-8239
oto	-8240
prä	-8241
rey	-8242
▁kg	-8243
aven	-8244
dest	-8245
iale	-8246
iffe	-8247
inal	-8248
iums	-8249
klar	-8250
obby	-8251
rien	-8252
well	-8253
ürze	-8254
▁Meg	-8255
▁Uni	-8256
▁gig	-8257
▁mel	-8258
▁ärm	-8259
deckt	-8260
heber	-8261
letzt	-8262
orten	-8263
selbe	-8264
teuer	-8265
ätten	-8266
▁Foss	-8267
▁Ghan	-8268
▁Homo	-8269
▁Konz	-8270
▁Mais	-8271
▁Trin	-8272
▁fuer	-8273
▁hell	-8274
▁hilf	-8275
▁lieb	-8276
▁ment	-8277
▁rest	-8278
▁spür	-8279
genden	-8280
schiff	-8281
▁Gramm	-8282
▁Mount	-8283
▁blind	-8284
▁geeig	-8285
▁gefol	-8286
▁harte	-8287
▁linke	-8288
▁ruhig	-8289
gesetzt	-8290
wartung	-8291
▁Chirur	-8292
▁Ebenen	-8293
▁Geruch	-8294
▁Gerüst	-8295
▁Intern	-8296
▁Partei	-8297
▁Ratten	-8298
▁Sieben	-8299
▁Virgin	-8300
▁befest	-8301
▁clever	-8302
▁durchs	-8303
▁fuhren	-8304
▁global	-8305
▁merken	-8306
▁späten	-8307
▁tanzen	-8308
▁transp	-8309
▁treibt	-8310
ffizient	-8311
reichend	-8312
tausende	-8313
▁Schädel	-8314
▁Systems	-8315
▁ausgest	-8316
▁empfind	-8317
▁enormen	-8318
▁erneuer	-8319
▁musikal	-8320
▁schöner	-8321
▁tauchen	-8322
▁unsicht	-8323
▁verließ	-8324
losigkeit	-8325
sprogramm	-8326
▁Entropie	-8327
▁Kontroll	-8328
▁Konzentr	-8329
▁Prozesse	-8330
▁Stiftung	-8331
▁besuchte	-8332
▁erklärte	-8333
▁gelassen	-8334
▁geöffnet	-8335
▁hingehen	-8336
▁höchsten	-8337
▁studiert	-8338
▁Geräusche	-8339
▁chemische	-8340
▁derselben	-8341
▁nachdenkt	-8342
▁neugierig	-8343
▁probieren	-8344
unternehmen	-8345
▁Abendessen	-8346
▁beeindruck	-8347
▁dramatisch	-8348
▁experiment	-8349
▁unsichtbar	-8350
▁Alternative	-8351
▁Mittagessen	-8352
▁Präsidenten	-8353
▁architekton	-8354
▁diskutieren	-8355
▁chinesischen	-8356
▁entscheidend	-8357
▁irgendwelche	-8358
▁schreckliche	-8359
▁gewissermaßen	-8360
▁Fettleibigkeit	-8361
2,	-8362
4.	-8363
8,	-8364
:"	-8365
ku	-8366
▁JH	-8367
▁Zy	-8368
▁cm	-8369
▁zü	-8370
back	-8371
fäll	-8372
iban	-8373
kept	-8374
last	-8375
obel	-8376
weie	-8377
▁700	-8378
▁Act	-8379
▁Dig	-8380
▁Tri	-8381
▁mar	-8382
▁nör	-8383
agern	-8384
chtet	-8385
ettel	-8386
gebäu	-8387
ktive	-8388
leute	-8389
lässt	-8390
terte	-8391
weils	-8392
▁Flag	-8393
▁Flor	-8394
▁Gall	-8395
▁Gast	-8396
▁Glüh	-8397
▁Lass	-8398
▁Male	-8399
▁Merk	-8400
▁Poly	-8401
▁Prop	-8402
▁Prüf	-8403
▁Reis	-8404
▁Stil	-8405
▁arab	-8406
▁ausw	-8407
▁ehem	-8408
▁fett	-8409
▁leer	-8410
▁live	-8411
▁tanz	-8412
gewebe	-8413
ildern	-8414
itiert	-8415
mensch	-8416
wecken	-8417
▁5.000	-8418
▁Möbel	-8419
▁Sagen	-8420
▁Sorge	-8421
▁Zivil	-8422
▁herab	-8423
▁knapp	-8424
▁stieg	-8425
▁tötet	-8426
▁verur	-8427
▁Älter	-8428
auschen	-8429
ichtete	-8430
mpathie	-8431
projekt	-8432
▁Köpfen	-8433
▁Steine	-8434
▁Wahlen	-8435
▁beides	-8436
▁gigant	-8437
▁keines	-8438
▁spiele	-8439
▁vierte	-8440
▁Angebot	-8441
▁Kohlend	-8442
▁Meister	-8443
▁Muskeln	-8444
▁Raketen	-8445
▁Schlagz	-8446
▁Science	-8447
▁gelangt	-8448
▁grösser	-8449
▁niedrig	-8450
▁schönes	-8451
▁Überall	-8452
alisierte	-8453
ikationen	-8454
▁Ausgaben	-8455
▁Blutgefä	-8456
▁Elektron	-8457
▁Faktoren	-8458
▁Gebäudes	-8459
▁Hunderte	-8460
▁Kongress	-8461
▁Umstände	-8462
▁ausmacht	-8463
▁benutzte	-8464
▁gegessen	-8465
▁wünschte	-8466
▁Denkweise	-8467
▁Dimension	-8468
▁Mittleren	-8469
▁Statistik	-8470
▁Verfahren	-8471
▁beobachte	-8472
▁definiert	-8473
▁indischen	-8474
▁physische	-8475
▁Individuum	-8476
▁University	-8477
▁Zentimeter	-8478
▁involviert	-8479
▁offensicht	-8480
▁zusätzlich	-8481
▁Widerspruch	-8482
▁irgendeinem	-8483
▁unterhalten	-8484
▁wiederholen	-8485
▁Abhängigkeit	-8486
▁überwältigen	-8487
▁Universitäten	-8488
Fl	-8489
“,	-8490
agd	-8491
aya	-8492
dat	-8493
mat	-8494
uar	-8495
yon	-8496
üte	-8497
▁är	-8498
baum	-8499
eige	-8500
mmel	-8501
orth	-8502
reut	-8503
umpf	-8504
▁End	-8505
▁Eur	-8506
▁Sir	-8507
▁Tee	-8508
▁Zut	-8509
▁prü	-8510
arian	-8511
arren	-8512
avier	-8513
ektar	-8514
gänge	-8515
ifest	-8516
ämpft	-8517
▁Acht	-8518
▁Camp	-8519
▁Dazu	-8520
▁Juni	-8521
▁Live	-8522
▁Mult	-8523
▁Roll	-8524
▁Star	-8525
▁Such	-8526
▁deut	-8527
▁entz	-8528
▁kosm	-8529
▁qual	-8530
annter	-8531
ektion	-8532
geräte	-8533
gungen	-8534
lehnen	-8535
mitten	-8536
ymmetr	-8537
▁Armee	-8538
▁Bruch	-8539
▁Dreie	-8540
▁Gemäl	-8541
▁Hügel	-8542
▁Lehre	-8543
▁Stimm	-8544
▁Tempo	-8545
▁Vietn	-8546
▁Wasch	-8547
▁Welle	-8548
▁Werbe	-8549
▁dicht	-8550
▁heiße	-8551
▁nukle	-8552
▁synth	-8553
ammlung	-8554
anthrop	-8555
brachte	-8556
gerufen	-8557
owissen	-8558
wachsen	-8559
▁Futter	-8560
▁Liefer	-8561
▁Monter	-8562
▁Second	-8563
▁Umgang	-8564
▁echter	-8565
▁entwar	-8566
▁frustr	-8567
▁innere	-8568
▁keinem	-8569
▁kochen	-8570
▁reiste	-8571
▁stabil	-8572
▁suchte	-8573
beziehen	-8574
jähriger	-8575
▁Anthrop	-8576
▁Betrieb	-8577
▁Cricket	-8578
▁Dutzend	-8579
▁Lehrern	-8580
▁Letzten	-8581
▁Oktober	-8582
▁Vorgang	-8583
▁angehen	-8584
▁brennen	-8585
▁jeweils	-8586
▁manipul	-8587
▁trocken	-8588
▁verstär	-8589
▁zurecht	-8590
▁zweites	-8591
▁zwingen	-8592
▁Kampagne	-8593
▁Krankenh	-8594
▁Rhythmus	-8595
▁billiger	-8596
▁dokument	-8597
▁gesunden	-8598
▁schießen	-8599
▁Elefanten	-8600
▁Kreaturen	-8601
▁errichten	-8602
▁geschützt	-8603
▁inklusive	-8604
▁insgesamt	-8605
▁schwarzes	-8606
▁unendlich	-8607
▁verlangen	-8608
▁verteilen	-8609
▁Heutzutage	-8610
▁Population	-8611
▁Wörterbuch	-8612
▁emotionale	-8613
▁sogenannte	-8614
abhängigkeit	-8615
▁Jahrzehnten	-8616
▁Verbraucher	-8617
▁chinesische	-8618
▁vorgestellt	-8619
▁verschwindet	-8620
wissenschaften	-8621
▁bemerkenswerte	-8622
▁Lebenserwartung	-8623
ET	-8624
Le	-8625
bru	-8626
lim	-8627
rid	-8628
zel	-8629
▁36	-8630
▁bo	-8631
,000	-8632
able	-8633
ahre	-8634
ffin	-8635
gült	-8636
hone	-8637
male	-8638
stil	-8639
zusp	-8640
▁Ann	-8641
▁Anp	-8642
▁Aqu	-8643
▁Hey	-8644
▁Mel	-8645
▁Pop	-8646
▁Wen	-8647
▁att	-8648
▁met	-8649
▁sub	-8650
aumen	-8651
besch	-8652
dacht	-8653
itute	-8654
raham	-8655
teils	-8656
▁Dreh	-8657
▁Kurs	-8658
▁Lück	-8659
averei	-8660
barung	-8661
breite	-8662
etisch	-8663
ffekte	-8664
imiert	-8665
kräfte	-8666
leiter	-8667
länder	-8668
ordnet	-8669
schten	-8670
spunkt	-8671
steckt	-8672
öpfung	-8673
▁Marke	-8674
▁Notiz	-8675
▁Optim	-8676
▁Subst	-8677
▁Wärme	-8678
▁freie	-8679
▁frühe	-8680
▁kauft	-8681
▁mikro	-8682
▁reale	-8683
▁rüber	-8684
▁schüt	-8685
▁ultim	-8686
▁verfl	-8687
▁verkl	-8688
▁zweie	-8689
▁zählt	-8690
fordern	-8691
hundert	-8692
oleranz	-8693
ometrie	-8694
schönen	-8695
äuschen	-8696
ötzlich	-8697
▁20.000	-8698
▁Flügel	-8699
▁Höhlen	-8700
▁Marken	-8701
▁Wüsten	-8702
▁garant	-8703
▁mochte	-8704
▁schief	-8705
▁schock	-8706
▁symbol	-8707
▁wahren	-8708
▁wenden	-8709
▁öffnet	-8710
▁üblich	-8711
schieben	-8712
▁Anreize	-8713
▁Beitrag	-8714
▁Entwurf	-8715
▁Kolonie	-8716
▁Schokol	-8717
▁Urknall	-8718
▁erfüllt	-8719
▁würdest	-8720
▁zeigten	-8721
▁übersch	-8722
verhalten	-8723
▁Betracht	-8724
▁Getreide	-8725
▁Männchen	-8726
▁Tragödie	-8727
▁befreien	-8728
▁behaupte	-8729
▁intensiv	-8730
▁schließt	-8731
▁Bedrohung	-8732
▁Bedürfnis	-8733
▁Biosphäre	-8734
▁Konflikte	-8735
▁Schmerzen	-8736
▁beitragen	-8737
▁denselben	-8738
▁empfinden	-8739
▁mittleren	-8740
▁vergleich	-8741
▁Depression	-8742
▁Entstehung	-8743
▁Gegenstand	-8744
▁Versorgung	-8745
▁Verteilung	-8746
▁nachhaltig	-8747
▁virtuellen	-8748
▁Zeichnungen	-8749
▁angetrieben	-8750
▁Berechnungen	-8751
▁beeindrucken	-8752
▁komplizierte	-8753
▁konfrontiert	-8754
▁optimistisch	-8755
▁Geschichtener	-8756
▁weiterentwick	-8757
▁wunderschönen	-8758
▁Entschuldigung	-8759
▁Globalisierung	-8760
▁identifizieren	-8761
▁veröffentlichen	-8762
Te	-8763
ln	-8764
▁«	-8765
Ber	-8766
lem	-8767
tex	-8768
äub	-8769
▁3.	-8770
▁Ah	-8771
▁Lo	-8772
▁PM	-8773
Naja	-8774
errt	-8775
etts	-8776
isto	-8777
kins	-8778
kopf	-8779
wjet	-8780
ämpf	-8781
▁Grü	-8782
▁Sah	-8783
▁Tja	-8784
▁Wow	-8785
▁hey	-8786
▁mon	-8787
▁rob	-8788
▁umf	-8789
▁Ära	-8790
eidet	-8791
firma	-8792
rippe	-8793
steht	-8794
sätze	-8795
umpen	-8796
uropa	-8797
werks	-8798
ähler	-8799
änzen	-8800
ässer	-8801
▁1970	-8802
▁Farm	-8803
▁Indu	-8804
▁Last	-8805
▁foss	-8806
▁gele	-8807
▁intu	-8808
▁line	-8809
▁sorg	-8810
▁trat	-8811
gänger	-8812
▁Füßen	-8813
▁Künst	-8814
▁Summe	-8815
▁Willi	-8816
▁Wände	-8817
▁Zehen	-8818
▁allzu	-8819
▁ueber	-8820
▁wirft	-8821
▁zweit	-8822
laubnis	-8823
üchtern	-8824
▁Boston	-8825
▁Kredit	-8826
▁Praxis	-8827
▁Stufen	-8828
▁Tenden	-8829
▁Vertei	-8830
▁Weißen	-8831
▁Werden	-8832
▁Winkel	-8833
▁Zurück	-8834
▁halben	-8835
▁lenken	-8836
▁nahezu	-8837
▁region	-8838
▁schlug	-8839
▁wartet	-8840
▁wütend	-8841
designer	-8842
▁Balance	-8843
▁Königin	-8844
▁Muslime	-8845
▁Neugier	-8846
▁Platten	-8847
▁Redwood	-8848
▁Weltall	-8849
▁bewegte	-8850
▁vermute	-8851
▁vertrau	-8852
▁Amerikas	-8853
▁Herkunft	-8854
▁Kontinen	-8855
▁Schreibt	-8856
▁Symptome	-8857
▁Vorträge	-8858
▁aufrecht	-8859
▁einziges	-8860
▁früheren	-8861
▁inmitten	-8862
▁sinnvoll	-8863
▁verständ	-8864
▁winzigen	-8865
alisierten	-8866
▁Gespräche	-8867
▁Impfstoff	-8868
▁Mikroskop	-8869
▁Nachfrage	-8870
▁Schwimmen	-8871
▁Wachstums	-8872
▁abgesehen	-8873
▁antworten	-8874
▁erforscht	-8875
▁geblieben	-8876
▁Bandbreite	-8877
▁Simulation	-8878
▁Strategien	-8879
▁Umgebungen	-8880
▁Wichtigste	-8881
▁bewältigen	-8882
▁dazwischen	-8883
▁öffentlich	-8884
▁Gravitation	-8885
▁Terrorismus	-8886
▁Unterwasser	-8887
▁verbrauchen	-8888
▁weitermachen	-8889
▁wundervollen	-8890
▁schlussendlich	-8891
So	-8892
ary	-8893
car	-8894
hil	-8895
ony	-8896
ris	-8897
uth	-8898
▁28	-8899
▁95	-8900
▁to	-8901
..."	-8902
Test	-8903
bell	-8904
film	-8905
ilem	-8906
▁Anf	-8907
▁Lau	-8908
▁Roy	-8909
▁Sud	-8910
▁zun	-8911
amera	-8912
bruar	-8913
flung	-8914
iefer	-8915
ortex	-8916
twick	-8917
▁1990	-8918
▁Bron	-8919
▁Enzy	-8920
▁Hard	-8921
▁Kauf	-8922
▁King	-8923
▁Yeah	-8924
▁Zehn	-8925
▁sens	-8926
▁stra	-8927
ertigt	-8928
graben	-8929
spanne	-8930
wendet	-8931
önland	-8932
üchtig	-8933
▁Absch	-8934
▁Earth	-8935
▁Gates	-8936
▁Ghana	-8937
▁Indem	-8938
▁Katze	-8939
▁Knopf	-8940
▁Proje	-8941
▁Staub	-8942
▁Waren	-8943
▁Wende	-8944
▁abend	-8945
▁draht	-8946
▁leist	-8947
▁liest	-8948
▁offiz	-8949
▁theor	-8950
griffen	-8951
imieren	-8952
osphäre	-8953
systeme	-8954
▁Babies	-8955
▁Kriege	-8956
▁Poesie	-8957
▁Spiels	-8958
▁Szenar	-8959
▁erfand	-8960
▁lachen	-8961
▁liebte	-8962
▁tiefen	-8963
▁tolles	-8964
▁werdet	-8965
mögliche	-8966
ographic	-8967
sichtigt	-8968
▁Februar	-8969
▁Klavier	-8970
▁Konvers	-8971
▁Manager	-8972
▁Manhatt	-8973
▁Veranst	-8974
▁dreimal	-8975
▁ersetzt	-8976
▁greifen	-8977
▁hierfür	-8978
▁Ägypten	-8979
setzungen	-8980
▁Diplomat	-8981
▁Skulptur	-8982
▁Trotzdem	-8983
▁Weltbank	-8984
▁freiwill	-8985
▁gebildet	-8986
▁künstler	-8987
▁sozialer	-8988
▁struktur	-8989
▁überlebt	-8990
▁Animation	-8991
▁Architekt	-8992
▁Fundament	-8993
▁Geometrie	-8994
▁Karikatur	-8995
▁Kreislauf	-8996
▁angepasst	-8997
▁bekämpfen	-8998
▁benutzten	-8999
▁gesammelt	-9000
▁gezwungen	-9001
▁schafften	-9002
▁vergewalt	-9003
▁Engagement	-9004
▁Lebensraum	-9005
▁Mitglieder	-9006
▁angemessen	-9007
▁ignorieren	-9008
▁Anerkennung	-9009
▁Beobachtung	-9010
▁Mittelpunkt	-9011
▁Reihenfolge	-9012
▁einzigartig	-9013
▁finanzieren	-9014
▁irgendeiner	-9015
▁stattfindet	-9016
▁Kohlendioxid	-9017
▁Konstruktion	-9018
▁Schauspieler	-9019
▁Verzweiflung	-9020
▁Einrichtungen	-9021
▁komplizierter	-9022
▁sicherstellen	-9023
▁verschiedener	-9024
1.	-9025
Se	-9026
gs	-9027
ua	-9028
ux	-9029
Als	-9030
Des	-9031
Reg	-9032
aby	-9033
krö	-9034
ops	-9035
▁Pe	-9036
▁Yo	-9037
Mein	-9038
erry	-9039
flie	-9040
herz	-9041
hett	-9042
icon	-9043
king	-9044
ogie	-9045
otto	-9046
quem	-9047
rufe	-9048
stär	-9049
wald	-9050
▁800	-9051
▁Bör	-9052
▁Kos	-9053
▁Lou	-9054
▁Zig	-9055
▁irr	-9056
Inter	-9057
ampag	-9058
brach	-9059
chron	-9060
größe	-9061
ibiot	-9062
obile	-9063
riech	-9064
▁2008	-9065
▁Cart	-9066
▁Dich	-9067
▁Egal	-9068
▁Kore	-9069
▁Tode	-9070
▁Verk	-9071
▁fein	-9072
▁jahr	-9073
eitete	-9074
fältig	-9075
garten	-9076
gebung	-9077
ilität	-9078
lichte	-9079
reicht	-9080
sitzen	-9081
ziplin	-9082
ählten	-9083
▁Appar	-9084
▁Green	-9085
▁Jesus	-9086
▁Kongo	-9087
▁Köpfe	-9088
▁Reden	-9089
▁Synth	-9090
▁beruh	-9091
▁heben	-9092
▁mater	-9093
▁schie	-9094
klichen	-9095
ometern	-9096
staaten	-9097
▁Anlage	-9098
▁Brüder	-9099
▁Chines	-9100
▁Dialog	-9101
▁Dichte	-9102
▁Europä	-9103
▁Impuls	-9104
▁Integr	-9105
▁Katzen	-9106
▁Leiter	-9107
▁Martin	-9108
▁Pferde	-9109
▁Proben	-9110
▁Rollen	-9111
▁Stille	-9112
▁Yorker	-9113
▁bedien	-9114
▁drüber	-9115
▁ehemal	-9116
▁fliegt	-9117
▁fließt	-9118
▁senken	-9119
▁verhei	-9120
aufgaben	-9121
gegangen	-9122
ierendes	-9123
iogenese	-9124
▁Abraham	-9125
▁Dadurch	-9126
▁Drucker	-9127
▁Erstaun	-9128
▁Fußball	-9129
▁Hinweis	-9130
▁Pflanze	-9131
▁Rechner	-9132
▁Vietnam	-9133
▁dankbar	-9134
▁geformt	-9135
▁gefüllt	-9136
▁gelegen	-9137
▁geredet	-9138
▁richten	-9139
▁stammen	-9140
▁änderte	-9141
▁ärmsten	-9142
▁Anhänger	-9143
▁Bescheid	-9144
▁Grönland	-9145
▁Pyramide	-9146
▁Ungefähr	-9147
▁Vielzahl	-9148
▁beachten	-9149
▁diagnost	-9150
▁erledigt	-9151
▁geworfen	-9152
▁handelte	-9153
▁jährlich	-9154
▁relevant	-9155
▁vielmals	-9156
▁Feuerwehr	-9157
▁Gletscher	-9158
▁Sklaverei	-9159
▁anzugehen	-9160
▁definitiv	-9161
▁gestaltet	-9162
▁hoffnungs	-9163
▁unterhalb	-9164
▁vergrößer	-9165
▁visuellen	-9166
▁weltweite	-9167
▁ähnlichen	-9168
▁Handlungen	-9169
▁Unterricht	-9170
▁britischen	-9171
▁finanziert	-9172
▁nationalen	-9173
▁regelmäßig	-9174
▁reparieren	-9175
▁überprüfen	-9176
▁Algorithmen	-9177
▁Erforschung	-9178
▁abschließen	-9179
▁anzuschauen	-9180
▁großartiger	-9181
▁konsumieren	-9182
▁kulturellen	-9183
▁profitieren	-9184
▁schlimmsten	-9185
▁zweieinhalb	-9186
owissenschaft	-9187
verschmutzung	-9188
▁Schreibtisch	-9189
▁zurückkommen	-9190
▁abgeschlossen	-9191
▁beeindruckend	-9192
▁interessantes	-9193
2.	-9194
üd	-9195
Kön	-9196
das	-9197
fiz	-9198
low	-9199
mil	-9200
Kopf	-9201
akes	-9202
ania	-9203
delt	-9204
face	-9205
iene	-9206
onds	-9207
park	-9208
takt	-9209
zone	-9210
▁17.	-9211
▁Cor	-9212
▁Hir	-9213
▁Hum	-9214
▁McD	-9215
▁Mio	-9216
▁Wün	-9217
dauer	-9218
krise	-9219
lings	-9220
llige	-9221
läuft	-9222
right	-9223
▁2003	-9224
▁Brun	-9225
▁Cola	-9226
▁Fund	-9227
▁Güte	-9228
▁Haie	-9229
▁Halb	-9230
▁Held	-9231
▁Kalk	-9232
▁Ritu	-9233
▁Tsun	-9234
▁Vaku	-9235
▁anre	-9236
▁gete	-9237
▁iPod	-9238
▁serv	-9239
▁tend	-9240
handel	-9241
iguren	-9242
kasten	-9243
mengen	-9244
männer	-9245
orenen	-9246
rachen	-9247
uschel	-9248
ustern	-9249
zeigen	-9250
zenten	-9251
▁Dauer	-9252
▁Extra	-9253
▁Genie	-9254
▁Hyper	-9255
▁Löwen	-9256
▁Media	-9257
▁Olymp	-9258
▁Paten	-9259
▁Schon	-9260
▁dient	-9261
▁drück	-9262
▁misst	-9263
▁tritt	-9264
▁übers	-9265
anlagen	-9266
bezogen	-9267
duktion	-9268
mitglie	-9269
sperson	-9270
stecken	-9271
stimmen	-9272
systems	-9273
▁Anders	-9274
▁Behand	-9275
▁Belast	-9276
▁Filter	-9277
▁Methan	-9278
▁Sowjet	-9279
▁Spuren	-9280
▁durfte	-9281
▁erneut	-9282
▁höchst	-9283
▁iPhone	-9284
eitungen	-9285
erkennen	-9286
getragen	-9287
▁Abstand	-9288
▁Anderen	-9289
▁Ausland	-9290
▁Industr	-9291
▁Install	-9292
▁Kleider	-9293
▁Protein	-9294
▁Urheber	-9295
▁Ursache	-9296
▁anfängt	-9297
▁bedeckt	-9298
▁geteilt	-9299
▁koennen	-9300
▁nirgend	-9301
▁reicher	-9302
▁verbrei	-9303
▁wandern	-9304
arenergie	-9305
sprechend	-9306
▁Antibiot	-9307
▁Freizeit	-9308
▁Minister	-9309
▁Schülern	-9310
▁andauern	-9311
▁erkunden	-9312
▁kleinere	-9313
▁schaffte	-9314
▁startete	-9315
▁wünschen	-9316
▁Übergang	-9317
Nullsummen	-9318
▁Antarktis	-9319
▁Fischerei	-9320
▁Institute	-9321
▁Plattform	-9322
▁Schreiben	-9323
▁ausführen	-9324
▁berichtet	-9325
▁komplette	-9326
▁leistungs	-9327
▁perfekten	-9328
▁schrieben	-9329
▁vielerlei	-9330
▁Allerdings	-9331
▁Expedition	-9332
▁Reichweite	-9333
▁angeschaut	-9334
▁biologisch	-9335
▁Angiogenese	-9336
▁Atomenergie	-9337
▁Restaurants	-9338
▁analysieren	-9339
▁ausreichend	-9340
▁glücklicher	-9341
▁großartiges	-9342
▁zusätzliche	-9343
▁Verbesserung	-9344
▁auszudrücken	-9345
▁entschlossen	-9346
▁präsentieren	-9347
▁erstaunlichen	-9348
▁eingeschlossen	-9349
De	-9350
EC	-9351
GO	-9352
NS	-9353
Up	-9354
afe	-9355
ani	-9356
ish	-9357
kei	-9358
nel	-9359
rix	-9360
twa	-9361
wäl	-9362
ött	-9363
▁IM	-9364
▁Id	-9365
▁JA	-9366
▁LG	-9367
Zahl	-9368
brot	-9369
ckel	-9370
enkt	-9371
geld	-9372
größ	-9373
hern	-9374
iens	-9375
oris	-9376
strö	-9377
uste	-9378
wach	-9379
änen	-9380
▁Jim	-9381
▁Mai	-9382
▁Mün	-9383
▁Tar	-9384
▁Tra	-9385
▁ass	-9386
▁biz	-9387
▁eth	-9388
▁gez	-9389
▁kat	-9390
▁tre	-9391
ehlen	-9392
hafen	-9393
ikeln	-9394
irnen	-9395
itäre	-9396
ocken	-9397
swert	-9398
ählte	-9399
änzer	-9400
▁2009	-9401
▁Arkt	-9402
▁Ever	-9403
▁Gift	-9404
▁Lärm	-9405
▁Mist	-9406
▁fair	-9407
▁phil	-9408
▁wozu	-9409
▁zugr	-9410
bridge	-9411
deuten	-9412
drücke	-9413
eigern	-9414
fällen	-9415
glaubt	-9416
ildete	-9417
mittag	-9418
werben	-9419
▁Algen	-9420
▁Apfel	-9421
▁Count	-9422
▁Ethan	-9423
▁Galer	-9424
▁Hölle	-9425
▁Kluft	-9426
▁Laser	-9427
▁Länge	-9428
▁Mauer	-9429
▁Woher	-9430
▁breit	-9431
▁derer	-9432
▁jenes	-9433
▁schme	-9434
▁stimm	-9435
▁verne	-9436
▁zogen	-9437
arakter	-9438
behörde	-9439
istotel	-9440
itation	-9441
mitteln	-9442
quellen	-9443
riechen	-9444
verläss	-9445
▁50.000	-9446
▁Besten	-9447
▁Daumen	-9448
▁Ernähr	-9449
▁Januar	-9450
▁Klinik	-9451
▁Liebes	-9452
▁Schlei	-9453
▁Schrei	-9454
▁Unglau	-9455
▁Werten	-9456
▁brauch	-9457
▁herbei	-9458
▁kaputt	-9459
▁potent	-9460
▁tollen	-9461
▁umwelt	-9462
▁vorhin	-9463
▁widmen	-9464
handlung	-9465
▁Anzeige	-9466
▁Autoren	-9467
▁Erfolgs	-9468
▁Gemälde	-9469
▁Gestalt	-9470
▁Indiens	-9471
▁Johnson	-9472
▁Tendenz	-9473
▁ankommt	-9474
▁bevorzu	-9475
▁digital	-9476
▁gesunde	-9477
▁gewinnt	-9478
▁kümmert	-9479
▁militär	-9480
▁negativ	-9481
▁zugeben	-9482
andidaten	-9483
gegenwärt	-9484
zeichnung	-9485
▁Besitzer	-9486
▁Business	-9487
▁Erschein	-9488
▁Sprecher	-9489
▁Versuche	-9490
▁Vortrags	-9491
▁erwähnte	-9492
▁geringer	-9493
▁gesünder	-9494
▁schlicht	-9495
▁spannend	-9496
▁verdammt	-9497
▁zentrale	-9498
▁zugrunde	-9499
▁Autorität	-9500
▁Cambridge	-9501
▁Erlaubnis	-9502
▁Plötzlich	-9503
▁Schlechte	-9504
▁Standards	-9505
▁aufstehen	-9506
▁bedeutend	-9507
▁bedeutsam	-9508
▁berechnen	-9509
▁erinnerte	-9510
▁nationale	-9511
▁politisch	-9512
▁vorkommen	-9513
▁westliche	-9514
bewusstsein	-9515
▁Gestaltung	-9516
▁Management	-9517
▁Supermarkt	-9518
▁festhalten	-9519
▁physischen	-9520
▁religiösen	-9521
▁umzusetzen	-9522
▁verdoppelt	-9523
▁zueinander	-9524
▁Anwendungen	-9525
▁Institution	-9526
▁Mechanismus	-9527
▁Operationen	-9528
▁allgemeinen	-9529
▁kombinieren	-9530
▁nachhaltige	-9531
▁stattfinden	-9532
▁zukünftigen	-9533
▁Angestellten	-9534
▁Erinnerungen	-9535
▁Klimawandels	-9536
▁Solarenergie	-9537
▁Größenordnung	-9538
▁Produktivität	-9539
▁durchzuführen	-9540
▁Menschlichkeit	-9541
▁ursprünglichen	-9542
',	-9543
Kl	-9544
ds	-9545
cel	-9546
erz	-9547
ktu	-9548
pal	-9549
ses	-9550
▁Fi	-9551
▁GP	-9552
ardo	-9553
kurs	-9554
mith	-9555
unft	-9556
ätig	-9557
ätte	-9558
▁191	-9559
▁Bek	-9560
▁Bob	-9561
▁Dop	-9562
▁Hub	-9563
▁Jer	-9564
▁Kün	-9565
▁Pet	-9566
▁Tax	-9567
▁bra	-9568
achel	-9569
allel	-9570
haber	-9571
hörer	-9572
iffen	-9573
insel	-9574
ision	-9575
kohol	-9576
masse	-9577
öhnen	-9578
▁2004	-9579
▁Chip	-9580
▁Clin	-9581
▁Dete	-9582
▁Foie	-9583
▁Knie	-9584
▁Migr	-9585
▁Neun	-9586
▁Prie	-9587
▁Spur	-9588
▁Wäre	-9589
▁brei	-9590
▁frie	-9591
▁löst	-9592
▁räum	-9593
▁warm	-9594
▁wild	-9595
Mensch	-9596
blasen	-9597
ropfen	-9598
ändler	-9599
▁Autob	-9600
▁Berat	-9601
▁Blase	-9602
▁Genen	-9603
▁Hemis	-9604
▁Miner	-9605
▁Mäuse	-9606
▁Party	-9607
▁Pläne	-9608
▁Rover	-9609
▁Slums	-9610
▁block	-9611
▁flach	-9612
▁meint	-9613
▁tiefe	-9614
eilchen	-9615
kriegen	-9616
ografen	-9617
steiger	-9618
tragung	-9619
wandeln	-9620
▁Allgem	-9621
▁August	-9622
▁Baumkr	-9623
▁Comics	-9624
▁Doppel	-9625
▁Kreise	-9626
▁Kurzem	-9627
▁Mandel	-9628
▁Newton	-9629
▁Rechts	-9630
▁Varian	-9631
▁Weizen	-9632
▁Wälder	-9633
▁akadem	-9634
▁begrün	-9635
▁bringe	-9636
▁klasse	-9637
▁prüfen	-9638
▁sinken	-9639
▁spirit	-9640
▁zusamm	-9641
bteilung	-9642
schalten	-9643
vielfalt	-9644
zumachen	-9645
äuschung	-9646
▁Büchern	-9647
▁Ehemann	-9648
▁Einkauf	-9649
▁beginne	-9650
▁betonen	-9651
▁bewirkt	-9652
▁einzeln	-9653
▁konserv	-9654
▁lernten	-9655
▁neulich	-9656
lantation	-9657
operation	-9658
▁Energien	-9659
▁Flaschen	-9660
▁Gefahren	-9661
▁Halluzin	-9662
▁Monterey	-9663
▁Pandemie	-9664
▁Speicher	-9665
▁Strassen	-9666
▁argument	-9667
▁berühmte	-9668
▁beziehen	-9669
▁dringend	-9670
▁geglaubt	-9671
▁getestet	-9672
▁schwerer	-9673
▁verlangt	-9674
handlungen	-9675
raditionen	-9676
temperatur	-9677
▁Fernseher	-9678
▁Flughafen	-9679
▁Manhattan	-9680
▁Rückseite	-9681
▁Strahlung	-9682
▁Techniken	-9683
▁Tätigkeit	-9684
▁anstellen	-9685
▁glamourös	-9686
▁herstellt	-9687
▁komplexer	-9688
▁produktiv	-9689
▁verkaufte	-9690
▁verknüpft	-9691
▁verrückte	-9692
▁wichtiges	-9693
▁wiederver	-9694
▁zentralen	-9695
▁ähnliches	-9696
▁übersetzt	-9697
wasserstoff	-9698
▁Emissionen	-9699
▁Initiative	-9700
▁Selbstmord	-9701
▁Verpflicht	-9702
▁ausdrücken	-9703
▁schlechtes	-9704
▁verbrennen	-9705
organisation	-9706
▁Durchmesser	-9707
▁fokussieren	-9708
▁beizubringen	-9709
▁tatsächliche	-9710
▁unterscheidet	-9711
▁landwirtschaft	-9712
EO	-9713
IS	-9714
va	-9715
Man	-9716
ena	-9717
fro	-9718
gra	-9719
sey	-9720
uge	-9721
ägt	-9722
äle	-9723
▁3,	-9724
▁Ec	-9725
▁Sn	-9726
▁mü	-9727
Amer	-9728
agos	-9729
aker	-9730
coln	-9731
gase	-9732
haut	-9733
laus	-9734
ller	-9735
lles	-9736
oben	-9737
stoß	-9738
umpe	-9739
ühle	-9740
ünde	-9741
▁Anl	-9742
▁BIP	-9743
▁DNS	-9744
▁Dat	-9745
▁Dod	-9746
▁Dün	-9747
▁Pho	-9748
▁brä	-9749
arden	-9750
elles	-9751
iland	-9752
iller	-9753
ipend	-9754
thent	-9755
ville	-9756
▁Cous	-9757
▁Gand	-9758
▁Krab	-9759
▁Long	-9760
▁Lust	-9761
▁Matt	-9762
▁Maße	-9763
▁Visu	-9764
▁Watt	-9765
▁Wird	-9766
▁befr	-9767
▁simp	-9768
fanden	-9769
folger	-9770
fällig	-9771
immern	-9772
ingung	-9773
ordnen	-9774
schrei	-9775
steigt	-9776
▁Brand	-9777
▁Carto	-9778
▁Güter	-9779
▁Höhen	-9780
▁Kamel	-9781
▁Kapaz	-9782
▁Lesen	-9783
▁Meile	-9784
▁Myzel	-9785
▁Nobel	-9786
▁Orbit	-9787
▁Pause	-9788
▁Peter	-9789
▁Schäd	-9790
▁Smith	-9791
▁altes	-9792
▁desig	-9793
▁elekt	-9794
▁lokal	-9795
▁spekt	-9796
▁unaus	-9797
artiges	-9798
blicken	-9799
gebäude	-9800
imenten	-9801
lichung	-9802
zustand	-9803
▁30.000	-9804
▁Akadem	-9805
▁Diesen	-9806
▁Mannes	-9807
▁Redner	-9808
▁Vakuum	-9809
▁Wurzel	-9810
▁aussah	-9811
▁erfuhr	-9812
▁forder	-9813
▁magnet	-9814
▁verlei	-9815
illionen	-9816
änderung	-9817
▁Antrieb	-9818
▁Planung	-9819
▁Punkten	-9820
▁Stammes	-9821
▁Streben	-9822
▁authent	-9823
▁berühmt	-9824
▁bezieht	-9825
▁entsetz	-9826
▁install	-9827
▁komisch	-9828
▁symmetr	-9829
▁winzige	-9830
schrieben	-9831
wesenheit	-9832
▁Benutzer	-9833
▁Frequenz	-9834
▁Kalorien	-9835
▁Liebling	-9836
▁Objekten	-9837
▁Reichtum	-9838
▁Toilette	-9839
▁Weibchen	-9840
▁ausgehen	-9841
▁bedenken	-9842
▁bewahren	-9843
▁erschien	-9844
▁eröffnen	-9845
▁kreative	-9846
▁pflanzen	-9847
▁rational	-9848
▁unsicher	-9849
▁verboten	-9850
▁zugleich	-9851
▁Allgemein	-9852
▁Austausch	-9853
▁Erziehung	-9854
▁Unternehm	-9855
▁berühmten	-9856
▁effizient	-9857
▁genetisch	-9858
▁interview	-9859
▁trainiert	-9860
▁täglichen	-9861
▁verletzen	-9862
bedingungen	-9863
geschritten	-9864
▁akzeptiert	-9865
▁gemeinnütz	-9866
▁gewöhnlich	-9867
▁teilnehmen	-9868
▁trainieren	-9869
▁verringern	-9870
▁städtischen	-9871
▁Stoffwechsel	-9872
▁Unternehmens	-9873
▁gemeinschaft	-9874
▁gewöhnlichen	-9875
▁traditionelle	-9876
▁Lebensqualität	-9877
▁Unabhängigkeit	-9878
].	-9879
?",	-9880
ETI	-9881
Ger	-9882
beu	-9883
bew	-9884
ble	-9885
bul	-9886
eta	-9887
hor	-9888
hte	-9889
ini	-9890
mod	-9891
mär	-9892
stö	-9893
wis	-9894
▁Mu	-9895
▁Ti	-9896
▁Wä	-9897
amie	-9898
erte	-9899
etze	-9900
etzt	-9901
lehr	-9902
olum	-9903
reng	-9904
vern	-9905
üben	-9906
▁350	-9907
▁Bay	-9908
▁Cap	-9909
▁Dez	-9910
▁Kok	-9911
▁Kum	-9912
▁Nam	-9913
▁Nov	-9914
▁eur	-9915
▁süß	-9916
▁ört	-9917
agnet	-9918
arben	-9919
asern	-9920
ierst	-9921
motor	-9922
zahlt	-9923
▁1950	-9924
▁2020	-9925
▁Brad	-9926
▁Dias	-9927
▁Enth	-9928
▁Farb	-9929
▁Ford	-9930
▁Hass	-9931
▁Kram	-9932
▁Käse	-9933
▁Kühe	-9934
▁Kühl	-9935
▁Riff	-9936
▁Zelt	-9937
▁euer	-9938
▁heim	-9939
▁herz	-9940
▁hing	-9941
▁stat	-9942
anders	-9943
assten	-9944
brüche	-9945
fahrer	-9946
lament	-9947
lösung	-9948
plätze	-9949
ussten	-9950
ächeln	-9951
ächter	-9952
▁2.000	-9953
▁Beide	-9954
▁Beton	-9955
▁Gehör	-9956
▁Graph	-9957
▁Haust	-9958
▁Hawai	-9959
▁Humor	-9960
▁Roman	-9961
▁Somit	-9962
▁Volks	-9963
▁Werke	-9964
▁auslö	-9965
▁endet	-9966
▁legte	-9967
▁müsst	-9968
▁Übung	-9969
Problem	-9970
Projekt	-9971
branche	-9972
flossen	-9973
konomie	-9974
produkt	-9975
präsent	-9976
theorie	-9977
▁Albert	-9978
▁Anreiz	-9979
▁County	-9980
▁Hektar	-9981
▁Magnet	-9982
▁Wander	-9983
▁Wirbel	-9984
▁Würden	-9985
▁konkur	-9986
▁kontin	-9987
▁kurzer	-9988
▁mechan	-9989
▁offene	-9990
▁riecht	-9991
▁vollen	-9992
springen	-9993
undation	-9994
▁Alkohol	-9995
▁Genauso	-9996
▁Hemisph	-9997
▁Lincoln	-9998
▁Meeting	-9999
▁Spitzen	-10000
▁Tiefsee	-10001
▁beschäd	-10002
▁gelehrt	-10003
▁großzüg	-10004
▁heutige	-10005
▁inneren	-10006
▁liefert	-10007
▁spontan	-10008
▁trennen	-10009
▁zuhause	-10010
maschinen	-10011
plizieren	-10012
▁Autismus	-10013
▁Bedenken	-10014
▁Diagnose	-10015
▁Kolonien	-10016
▁Lehrerin	-10017
▁Mischung	-10018
▁Privileg	-10019
▁Therapie	-10020
▁größeres	-10021
▁interakt	-10022
▁spielten	-10023
▁Änderung	-10024
▁Auflösung	-10025
▁Orchester	-10026
▁Selektion	-10027
▁Verlangen	-10028
▁auftreten	-10029
▁einfallen	-10030
▁ermutigen	-10031
▁erzählten	-10032
▁führenden	-10033
▁getrieben	-10034
▁jedermann	-10035
▁verpflich	-10036
▁Asteroiden	-10037
▁Auswirkung	-10038
▁Berechnung	-10039
▁Brennstoff	-10040
▁Charaktere	-10041
▁Dankeschön	-10042
▁Interviews	-10043
▁allgemeine	-10044
▁chemischen	-10045
▁geschlagen	-10046
▁glückliche	-10047
▁verstecken	-10048
▁ausgebildet	-10049
▁beantwortet	-10050
▁eingeschrän	-10051
▁experimente	-10052
▁gefährliche	-10053
▁gewöhnliche	-10054
▁intelligent	-10055
▁natürlicher	-10056
▁verarbeiten	-10057
▁Interessante	-10058
▁Journalisten	-10059
▁fundamentale	-10060
▁Bildungssystem	-10061
▁repräsentieren	-10062
▁fortgeschritten	-10063
3.	-10064
5.	-10065
99	-10066
KW	-10067
RI	-10068
],	-10069
ci	-10070
cl	-10071
aot	-10072
bod	-10073
dro	-10074
gst	-10075
ict	-10076
ood	-10077
ope	-10078
ory	-10079
▁29	-10080
▁Ba	-10081
▁DV	-10082
▁Dü	-10083
atom	-10084
ithm	-10085
klop	-10086
oden	-10087
osex	-10088
rümm	-10089
zehn	-10090
älen	-10091
äufe	-10092
öser	-10093
▁1,5	-10094
▁Agr	-10095
▁Emm	-10096
▁Fro	-10097
▁Jon	-10098
▁Mau	-10099
▁Rem	-10100
▁Sag	-10101
▁Ted	-10102
▁Tes	-10103
▁Wut	-10104
▁Zeh	-10105
▁Zun	-10106
▁kal	-10107
▁weh	-10108
Gesch	-10109
anner	-10110
block	-10111
eifen	-10112
ismen	-10113
kamen	-10114
rägen	-10115
sorge	-10116
steck	-10117
strom	-10118
ttern	-10119
wandt	-10120
ämmer	-10121
öpfen	-10122
▁Etwa	-10123
▁Feed	-10124
▁Hals	-10125
▁Lein	-10126
▁Prem	-10127
▁Prim	-10128
▁Raub	-10129
▁Zero	-10130
▁klug	-10131
▁sign	-10132
▁wach	-10133
acheln	-10134
brauch	-10135
echnet	-10136
grippe	-10137
iftung	-10138
istent	-10139
ktoren	-10140
ladung	-10141
strahl	-10142
treten	-10143
uchsen	-10144
uliert	-10145
voller	-10146
wollen	-10147
▁Atome	-10148
▁Craig	-10149
▁Erden	-10150
▁Femin	-10151
▁Gebur	-10152
▁Glühb	-10153
▁Griff	-10154
▁Kosov	-10155
▁Larry	-10156
▁Leser	-10157
▁Neutr	-10158
▁Prior	-10159
▁Probe	-10160
▁Rauch	-10161
▁Straf	-10162
▁Zigar	-10163
▁Zwill	-10164
▁chaot	-10165
▁klare	-10166
▁lagen	-10167
▁redet	-10168
▁sinkt	-10169
enschwe	-10170
isierte	-10171
pressiv	-10172
setzten	-10173
sonsten	-10174
ungslos	-10175
zession	-10176
örungen	-10177
▁Blasen	-10178
▁Gerade	-10179
▁Krähen	-10180
▁Könnte	-10181
▁Latein	-10182
▁Ozeans	-10183
▁Schall	-10184
▁Therap	-10185
▁Wortes	-10186
▁beseit	-10187
▁festge	-10188
▁füllen	-10189
▁kooper	-10190
▁redete	-10191
▁rennen	-10192
▁stoßen	-10193
▁wüsste	-10194
bereiten	-10195
ettbewer	-10196
steuropa	-10197
ventuell	-10198
vermögen	-10199
▁Branche	-10200
▁Dopamin	-10201
▁Genetik	-10202
▁Kartoff	-10203
▁Lichter	-10204
▁Richter	-10205
▁Silicon	-10206
▁Sklaven	-10207
▁Spezial	-10208
▁Tsunami	-10209
▁Unglück	-10210
▁Vorbild	-10211
▁bedroht	-10212
▁blicken	-10213
▁erfasst	-10214
▁fressen	-10215
▁gelingt	-10216
▁kannten	-10217
▁landete	-10218
▁sequenz	-10219
▁züchten	-10220
enntnisse	-10221
iversität	-10222
katastrop	-10223
▁Bewohner	-10224
▁Dezember	-10225
▁Erzähler	-10226
▁Fahrzeug	-10227
▁Griechen	-10228
▁Hinweise	-10229
▁Illusion	-10230
▁McDonald	-10231
▁Sensoren	-10232
▁Ungleich	-10233
▁bedienen	-10234
▁demonstr	-10235
▁geflogen	-10236
▁nochmals	-10237
▁privaten	-10238
ungsmittel	-10239
▁Bakterium	-10240
▁Ressource	-10241
▁Schlangen	-10242
▁Tausenden	-10243
▁auswählen	-10244
▁erschafft	-10245
▁folgender	-10246
▁positiven	-10247
▁spektakul	-10248
▁tausenden	-10249
▁virtuelle	-10250
▁Ausschnitt	-10251
▁Betrachten	-10252
▁Durchbruch	-10253
▁Foundation	-10254
▁Geographic	-10255
▁Prototypen	-10256
▁Stabilität	-10257
▁angekommen	-10258
▁angesichts	-10259
▁auftauchen	-10260
▁ausgewählt	-10261
▁einbringen	-10262
▁englischen	-10263
▁erschienen	-10264
▁vergrößern	-10265
▁vermittelt	-10266
▁Geheimnisse	-10267
▁Traditionen	-10268
▁beeindruckt	-10269
▁eingestellt	-10270
▁einzusetzen	-10271
▁schwierigen	-10272
▁verblüffend	-10273
▁vorhersagen	-10274
▁Arbeitsplatz	-10275
▁Beschreibung	-10276
▁Krankenschwe	-10277
▁Mammographie	-10278
▁allgegenwärt	-10279
▁finanziellen	-10280
▁industrielle	-10281
▁unterrichtet	-10282
▁Arbeitsplätze	-10283
▁Meeresspiegel	-10284
▁fantastischen	-10285
wissenschaftler	-10286
▁Offensichtlich	-10287
▁Untersuchungen	-10288
▁interpretieren	-10289
.'	-10290
7,	-10291
7.	-10292
DA	-10293
äm	-10294
▁0	-10295
▁]	-10296
Ist	-10297
Tal	-10298
add	-10299
aps	-10300
emp	-10301
enh	-10302
ibr	-10303
med	-10304
ura	-10305
wel	-10306
öne	-10307
▁55	-10308
▁85	-10309
▁Sw	-10310
ader	-10311
ahme	-10312
fügt	-10313
gets	-10314
hole	-10315
lade	-10316
ocht	-10317
rand	-10318
tent	-10319
unts	-10320
wich	-10321
▁Asp	-10322
▁Big	-10323
▁Gän	-10324
▁Göt	-10325
▁Hon	-10326
▁Lux	-10327
▁Oft	-10328
▁SMS	-10329
▁Syl	-10330
▁kle	-10331
▁sau	-10332
arenz	-10333
blatt	-10334
eiler	-10335
eiter	-10336
gehör	-10337
geord	-10338
günst	-10339
iffer	-10340
otter	-10341
union	-10342
▁1980	-10343
▁Brit	-10344
▁Böse	-10345
▁Hong	-10346
▁Kell	-10347
▁Lego	-10348
▁Meme	-10349
▁News	-10350
▁Qual	-10351
▁Rick	-10352
▁Robo	-10353
▁SETI	-10354
▁Tenn	-10355
▁Ther	-10356
▁Wale	-10357
▁Weiß	-10358
▁beru	-10359
▁beur	-10360
▁grös	-10361
▁plus	-10362
▁sech	-10363
▁treu	-10364
▁wirk	-10365
▁wuer	-10366
achter	-10367
hafter	-10368
haftes	-10369
heimer	-10370
ilemma	-10371
jenige	-10372
schlei	-10373
▁Astro	-10374
▁Gange	-10375
▁Kompl	-10376
▁Tiger	-10377
▁beten	-10378
▁freue	-10379
▁impro	-10380
▁jagen	-10381
▁konst	-10382
▁spezi	-10383
▁stets	-10384
▁trage	-10385
▁öfter	-10386
politik	-10387
station	-10388
▁Anweis	-10389
▁Banken	-10390
▁Bomben	-10391
▁Buches	-10392
▁Glaube	-10393
▁Hypoth	-10394
▁Keiner	-10395
▁Portra	-10396
▁Stress	-10397
▁Türkei	-10398
▁Umlauf	-10399
▁Wollen	-10400
▁ernten	-10401
▁fassen	-10402
▁kurzes	-10403
▁lauter	-10404
▁untere	-10405
▁wärmer	-10406
Programm	-10407
ifiziert	-10408
probleme	-10409
schlägen	-10410
stheorie	-10411
wechseln	-10412
ächtigen	-10413
▁Ausgabe	-10414
▁Distanz	-10415
▁Motoren	-10416
▁Nordpol	-10417
▁Origami	-10418
▁Rettung	-10419
▁Tropfen	-10420
▁Ursprün	-10421
▁Welches	-10422
▁direkte	-10423
▁gedreht	-10424
▁gemeint	-10425
▁schmutz	-10426
▁streben	-10427
▁veranst	-10428
▁widersp	-10429
▁zuletzt	-10430
▁zusehen	-10431
▁älteren	-10432
bereitung	-10433
probieren	-10434
stelligen	-10435
ungsweise	-10436
unterhalt	-10437
▁Carolina	-10438
▁Drittens	-10439
▁Priester	-10440
▁absolute	-10441
▁gebunden	-10442
▁generell	-10443
▁gewissem	-10444
▁hundertt	-10445
▁indische	-10446
▁sicherer	-10447
▁steigern	-10448
▁verfügen	-10449
▁zerbrech	-10450
unterricht	-10451
▁Abenteuer	-10452
▁Ansichten	-10453
▁Anzeichen	-10454
▁Aristotel	-10455
▁Automobil	-10456
▁Chromosom	-10457
▁Datenbank	-10458
▁Internets	-10459
▁Vereinten	-10460
▁Wiederauf	-10461
▁aufhalten	-10462
▁betrachte	-10463
▁erfordert	-10464
▁erhielten	-10465
▁innovativ	-10466
▁kleinsten	-10467
▁technisch	-10468
▁Auffassung	-10469
▁Connectome	-10470
▁Grundstück	-10471
▁einstellen	-10472
▁gebrauchen	-10473
▁lächerlich	-10474
▁simulieren	-10475
▁zukünftige	-10476
▁Erfindungen	-10477
▁Gegenstände	-10478
▁Nordamerika	-10479
▁ausprobiert	-10480
▁darzustellen	-10481
▁konstruieren	-10482
▁ungewöhnlich	-10483
▁vergewaltigt	-10484
▁wahrgenommen	-10485
▁Bürgermeister	-10486
▁schrecklichen	-10487
▁transportieren	-10488
▁sicherzustellen	-10489
10	-10490
AA	-10491
fa	-10492
hu	-10493
hü	-10494
▁?	-10495
Gen	-10496
Ges	-10497
Wow	-10498
inf	-10499
nik	-10500
ona	-10501
osn	-10502
tur	-10503
val	-10504
via	-10505
▁No	-10506
▁WK	-10507
▁fä	-10508
Bahn	-10509
erei	-10510
gels	-10511
grad	-10512
hnte	-10513
kler	-10514
mpor	-10515
okal	-10516
opft	-10517
zten	-10518
▁10,	-10519
▁Gig	-10520
▁Hai	-10521
▁Hut	-10522
▁Int	-10523
▁Lim	-10524
▁Van	-10525
▁gol	-10526
▁int	-10527
▁max	-10528
▁maß	-10529
armen	-10530
hinge	-10531
inson	-10532
meter	-10533
öpfer	-10534
▁Agen	-10535
▁Bohr	-10536
▁Darf	-10537
▁Dein	-10538
▁Kilo	-10539
▁Kong	-10540
▁Nick	-10541
▁Rate	-10542
▁Tans	-10543
▁Teig	-10544
▁bele	-10545
▁betr	-10546
▁ewig	-10547
▁quer	-10548
▁stab	-10549
▁zwöl	-10550
endete	-10551
halter	-10552
ierbar	-10553
ivität	-10554
physik	-10555
skraft	-10556
üttern	-10557
▁Ethik	-10558
▁Höhle	-10559
▁Jäger	-10560
▁Kanal	-10561
▁Kleid	-10562
▁Kopie	-10563
▁Lande	-10564
▁Liber	-10565
▁North	-10566
▁Panik	-10567
▁Pilot	-10568
▁Shang	-10569
▁Stell	-10570
▁Texas	-10571
▁Trink	-10572
▁anerk	-10573
▁begrü	-10574
▁jenem	-10575
▁popul	-10576
▁sicht	-10577
analyse	-10578
flächen	-10579
führten	-10580
konstru	-10581
merksam	-10582
schwing	-10583
technik	-10584
▁Bereit	-10585
▁Einmal	-10586
▁Gandhi	-10587
▁Hawaii	-10588
▁Jedoch	-10589
▁Lieder	-10590
▁Poster	-10591
▁Rennen	-10592
▁Schock	-10593
▁Sektor	-10594
▁Talent	-10595
▁abgest	-10596
▁assozi	-10597
▁aufger	-10598
▁europä	-10599
▁falten	-10600
▁leeren	-10601
▁modell	-10602
▁muslim	-10603
▁verlor	-10604
anischen	-10605
eigerung	-10606
icherung	-10607
werkraft	-10608
ästhesie	-10609
▁Everest	-10610
▁Florida	-10611
▁Gelände	-10612
▁Letztes	-10613
▁Lächeln	-10614
▁Notwend	-10615
▁Schwein	-10616
▁Töchter	-10617
▁Unfälle	-10618
▁aktuell	-10619
▁ausländ	-10620
▁beliebt	-10621
▁diesmal	-10622
▁drinnen	-10623
▁erstens	-10624
▁gerufen	-10625
▁private	-10626
▁unangen	-10627
▁verdeut	-10628
pretation	-10629
rankungen	-10630
schätzung	-10631
▁Demonstr	-10632
▁Direktor	-10633
▁Einblick	-10634
▁Empathie	-10635
▁Feedback	-10636
▁Mikroben	-10637
▁basieren	-10638
▁besserer	-10639
▁durchaus	-10640
▁einziger	-10641
▁erzielen	-10642
▁geeignet	-10643
▁getragen	-10644
▁herrscht	-10645
▁neuesten	-10646
▁universe	-10647
▁Ökologie	-10648
▁ältesten	-10649
landschaft	-10650
verstanden	-10651
wohnheiten	-10652
▁Absichten	-10653
▁Einschrän	-10654
▁Fahrzeuge	-10655
▁Meinungen	-10656
▁Metaphern	-10657
▁Prozesses	-10658
▁angewandt	-10659
▁begriffen	-10660
▁einnehmen	-10661
▁ermöglich	-10662
▁eventuell	-10663
▁hilfreich	-10664
▁ignoriert	-10665
▁kritische	-10666
▁motiviert	-10667
▁religiöse	-10668
krankheiten	-10669
▁Elektronik	-10670
▁Fallschirm	-10671
▁Investoren	-10672
▁Kilometern	-10673
▁Skelettmus	-10674
▁Teilnehmer	-10675
▁Wohnzimmer	-10676
▁aufmerksam	-10677
▁entdeckten	-10678
▁jedenfalls	-10679
▁klassische	-10680
▁menschlich	-10681
▁verurteilt	-10682
▁überlassen	-10683
▁Allgemeinen	-10684
▁Aristoteles	-10685
▁Schwerkraft	-10686
▁Wichtigkeit	-10687
▁durchlaufen	-10688
▁verwendeten	-10689
▁Schlagzeilen	-10690
▁Umweltschutz	-10691
▁Unsicherheit	-10692
▁Verletzungen	-10693
▁eigentlichen	-10694
▁exponentiell	-10695
▁individuelle	-10696
▁leidenschaft	-10697
▁verpflichtet	-10698
▁Angelegenheit	-10699
▁transportiert	-10700
▁Halluzinationen	-10701
▁Lebensunterhalt	-10702
.:	-10703
ER	-10704
Em	-10705
uk	-10706
gab	-10707
izz	-10708
ows	-10709
ynd	-10710
ärt	-10711
▁33	-10712
▁46	-10713
▁AM	-10714
▁EU	-10715
▁Ky	-10716
▁Wi	-10717
▁rü	-10718
Gott	-10719
Jähr	-10720
agon	-10721
auce	-10722
bele	-10723
belt	-10724
burg	-10725
ehle	-10726
enke	-10727
flex	-10728
gäng	-10729
ideo	-10730
komm	-10731
kund	-10732
mass	-10733
ness	-10734
onym	-10735
oole	-10736
ores	-10737
pern	-10738
pril	-10739
trän	-10740
ämen	-10741
äser	-10742
ören	-10743
öten	-10744
▁10.	-10745
▁Att	-10746
▁Bol	-10747
▁DVD	-10748
▁Hen	-10749
▁Kab	-10750
▁Kra	-10751
▁Law	-10752
▁Liz	-10753
▁Mur	-10754
▁Tum	-10755
▁Ven	-10756
▁bzw	-10757
▁syn	-10758
▁umk	-10759
▁Äqu	-10760
agert	-10761
arium	-10762
aters	-10763
enten	-10764
iefst	-10765
irurg	-10766
jahre	-10767
kunst	-10768
mherz	-10769
ohnen	-10770
opter	-10771
organ	-10772
otten	-10773
plant	-10774
sonst	-10775
weist	-10776
▁Adam	-10777
▁Bahn	-10778
▁Benj	-10779
▁Coca	-10780
▁Eisb	-10781
▁Euro	-10782
▁Fant	-10783
▁Hefe	-10784
▁Jazz	-10785
▁Mike	-10786
▁Mini	-10787
▁Nano	-10788
▁Penn	-10789
▁Prob	-10790
▁Rein	-10791
▁Sach	-10792
▁Sech	-10793
▁Stap	-10794
▁Vent	-10795
▁depr	-10796
▁gekl	-10797
▁lauf	-10798
▁lese	-10799
▁oper	-10800
▁quad	-10801
▁russ	-10802
ackung	-10803
dichte	-10804
eichen	-10805
iegeln	-10806
istall	-10807
letter	-10808
odelle	-10809
ragend	-10810
schuss	-10811
sektor	-10812
uchtet	-10813
weiter	-10814
▁Brian	-10815
▁Brown	-10816
▁Deine	-10817
▁Endes	-10818
▁Freit	-10819
▁Geben	-10820
▁Grand	-10821
▁Hafen	-10822
▁Inder	-10823
▁Luxus	-10824
▁Namib	-10825
▁Nukle	-10826
▁Scott	-10827
▁Tauch	-10828
▁Wolke	-10829
▁besie	-10830
▁betrü	-10831
▁flüss	-10832
▁greif	-10833
▁lehrt	-10834
▁leise	-10835
▁malen	-10836
▁sorgt	-10837
▁unber	-10838
▁wiegt	-10839
ampagne	-10840
büchern	-10841
gezogen	-10842
itution	-10843
planung	-10844
portion	-10845
streben	-10846
äufiger	-10847
▁Alltag	-10848
▁Berlin	-10849
▁Disney	-10850
▁Feucht	-10851
▁Fliege	-10852
▁Gehalt	-10853
▁Kambod	-10854
▁Kochen	-10855
▁Kuchen	-10856
▁Linsen	-10857
▁Messer	-10858
▁Myster	-10859
▁Profit	-10860
▁Raumes	-10861
▁Republ	-10862
▁Strich	-10863
▁Wright	-10864
▁bricht	-10865
▁geheim	-10866
▁gelegt	-10867
▁geschm	-10868
geworfen	-10869
ibilität	-10870
ichteten	-10871
ierender	-10872
romagnet	-10873
schnitte	-10874
ulierung	-10875
änderten	-10876
▁200.000	-10877
▁Dichter	-10878
▁Prostat	-10879
▁Studium	-10880
▁Tausend	-10881
▁Tomaten	-10882
▁Vertrag	-10883
▁Verzerr	-10884
▁agieren	-10885
▁begehen	-10886
▁bislang	-10887
▁blieben	-10888
▁gefolgt	-10889
▁hierbei	-10890
▁klingen	-10891
▁kontinu	-10892
▁korrekt	-10893
▁saubere	-10894
▁schwach	-10895
▁wodurch	-10896
▁zwanzig	-10897
eisterung	-10898
ifizieren	-10899
irdischen	-10900
schließen	-10901
sichtigen	-10902
▁Annahmen	-10903
▁Christen	-10904
▁Glaubens	-10905
▁Original	-10906
▁Spannung	-10907
▁Tansania	-10908
▁ankommen	-10909
▁betreten	-10910
▁einladen	-10911
▁erlaubte	-10912
▁umsetzen	-10913
▁verläuft	-10914
▁wörtlich	-10915
▁zutiefst	-10916
▁Alexander	-10917
▁Anpassung	-10918
▁Computers	-10919
▁Einzelnen	-10920
▁Erzählung	-10921
▁Interface	-10922
▁Kommentar	-10923
▁Landkarte	-10924
▁Paradigma	-10925
▁Parlament	-10926
▁Rezession	-10927
▁Schichten	-10928
▁Schätzung	-10929
▁Unterhalt	-10930
▁aktuellen	-10931
▁angeboten	-10932
▁begleitet	-10933
▁eingebaut	-10934
▁gewaltige	-10935
▁jederzeit	-10936
▁komplexes	-10937
▁niemandem	-10938
▁schickten	-10939
▁weibliche	-10940
▁wiederher	-10941
hltätigkeit	-10942
▁Symmetrien	-10943
▁anzufangen	-10944
▁arabischen	-10945
▁aufregende	-10946
▁beschützen	-10947
▁entfernten	-10948
▁revolution	-10949
▁verhindert	-10950
▁übersetzen	-10951
▁Antibiotika	-10952
▁Bergsteiger	-10953
▁Bürgerkrieg	-10954
▁aufgestellt	-10955
▁emotionalen	-10956
▁konstruiert	-10957
▁Älterwerden	-10958
▁Katastrophen	-10959
▁entsprechend	-10960
▁Durchschnitts	-10961
▁Sterblichkeit	-10962
▁entscheidende	-10963
▁international	-10964
▁konzentrierte	-10965
▁tatsächlichen	-10966
▁Menschenrechte	-10967
▁berücksichtigt	-10968
▁außerordentlich	-10969
CA	-10970
sw	-10971
eck	-10972
hut	-10973
neu	-10974
oin	-10975
okl	-10976
ors	-10977
uba	-10978
▁Mü	-10979
▁Sm	-10980
▁ah	-10981
▁wa	-10982
ahen	-10983
alog	-10984
ampf	-10985
flos	-10986
ftet	-10987
hirn	-10988
iode	-10989
iser	-10990
kern	-10991
mark	-10992
ockt	-10993
paar	-10994
uckt	-10995
weiß	-10996
▁50%	-10997
▁Bin	-10998
▁Hof	-10999
▁Kro	-11000
▁Mak	-11001
▁Mod	-11002
▁Pen	-11003
▁Sat	-11004
▁Sav	-11005
▁Tok	-11006
▁erl	-11007
Weißt	-11008
ansas	-11009
elson	-11010
erung	-11011
gnost	-11012
offen	-11013
ophen	-11014
packt	-11015
rateg	-11016
reckt	-11017
riebe	-11018
thalb	-11019
useel	-11020
üpfen	-11021
▁1999	-11022
▁Darm	-11023
▁Erle	-11024
▁Evan	-11025
▁Funk	-11026
▁Hell	-11027
▁Karo	-11028
▁Logo	-11029
▁Milo	-11030
▁Pitt	-11031
▁Ring	-11032
▁Spag	-11033
▁Strö	-11034
▁Wirk	-11035
▁allm	-11036
▁flex	-11037
▁gänz	-11038
▁präz	-11039
▁spaz	-11040
▁wein	-11041
achtel	-11042
andten	-11043
bricht	-11044
holung	-11045
igment	-11046
indern	-11047
inseln	-11048
legten	-11049
oppeln	-11050
raktiv	-11051
rungen	-11052
senden	-11053
ältigt	-11054
äuscht	-11055
▁Beute	-11056
▁Frühl	-11057
▁Hütte	-11058
▁Kiste	-11059
▁Magen	-11060
▁Rande	-11061
▁Recyc	-11062
▁Roten	-11063
▁Sonnt	-11064
▁Sätze	-11065
▁beruf	-11066
▁coole	-11067
▁etabl	-11068
▁eurem	-11069
▁exter	-11070
▁glaub	-11071
▁warst	-11072
▁weise	-11073
▁überl	-11074
energie	-11075
enhagen	-11076
euchten	-11077
flasche	-11078
gesucht	-11079
ildeten	-11080
iologie	-11081
mäßigen	-11082
verkehr	-11083
▁Astron	-11084
▁Flagge	-11085
▁Küsten	-11086
▁Lichts	-11087
▁Meiner	-11088
▁Sahara	-11089
▁Tunnel	-11090
▁Weisen	-11091
▁abends	-11092
▁bewerk	-11093
▁denkst	-11094
▁graben	-11095
▁großem	-11096
▁langes	-11097
▁packen	-11098
▁raffin	-11099
▁result	-11100
zutreten	-11101
▁Bestech	-11102
▁Denkens	-11103
▁Digital	-11104
▁Ethanol	-11105
▁Fremden	-11106
▁Himmels	-11107
▁Konserv	-11108
▁Konzert	-11109
▁Notfall	-11110
▁Taliban	-11111
▁Zutaten	-11112
▁aggress	-11113
▁beendet	-11114
▁benannt	-11115
▁leichte	-11116
▁massive	-11117
▁schätze	-11118
▁strateg	-11119
▁verhält	-11120
▁wechsel	-11121
▁wüssten	-11122
▁öffnete	-11123
Industrie	-11124
aufnahmen	-11125
gebrochen	-11126
ventionen	-11127
▁Benjamin	-11128
▁Friedens	-11129
▁Gewinner	-11130
▁Projekts	-11131
▁Rauschen	-11132
▁Versagen	-11133
▁aufgeben	-11134
▁entschul	-11135
▁mächtige	-11136
▁verletzt	-11137
▁vermuten	-11138
▁vorlesen	-11139
▁wahnsinn	-11140
iminalität	-11141
▁Besonders	-11142
▁Chirurgen	-11143
▁Großvater	-11144
▁Kategorie	-11145
▁Maßnahmen	-11146
▁Verbrauch	-11147
▁Vergessen	-11148
▁Veröffent	-11149
▁einführen	-11150
▁gestohlen	-11151
▁keinerlei	-11152
▁mitteilen	-11153
▁stattfand	-11154
▁zuverläss	-11155
▁zuzuhören	-11156
▁Brustkrebs	-11157
▁Diejenigen	-11158
▁Fotografie	-11159
▁Impfstoffe	-11160
▁Kopenhagen	-11161
▁Stickstoff	-11162
▁Werkzeugen	-11163
▁Zeitspanne	-11164
▁anzuwenden	-11165
▁bestimmtes	-11166
▁beteiligen	-11167
▁durchgehen	-11168
▁finanziell	-11169
▁kombiniert	-11170
▁kontinuier	-11171
▁motivieren	-11172
▁unterstütz	-11173
▁verbraucht	-11174
▁überqueren	-11175
stechnologie	-11176
▁Meeresboden	-11177
▁Psychologen	-11178
▁Sowjetunion	-11179
▁ausgedrückt	-11180
▁beherrschen	-11181
▁empfindlich	-11182
▁institution	-11183
▁mitgebracht	-11184
▁unabhängige	-11185
▁verheiratet	-11186
▁Begeisterung	-11187
▁Konversation	-11188
▁Landschaften	-11189
▁beschäftigte	-11190
organisationen	-11191
▁Artenvielfalt	-11192
▁Interessantes	-11193
▁Notwendigkeit	-11194
▁durcheinander	-11195
▁faszinierende	-11196
▁Aufzeichnungen	-11197
▁physikalischen	-11198
Sh	-11199
do	-11200
yt	-11201
⁄2	-11202
For	-11203
Ste	-11204
bem	-11205
ect	-11206
ela	-11207
häu	-11208
röh	-11209
uit	-11210
wal	-11211
öss	-11212
▁0,	-11213
▁DR	-11214
▁Mi	-11215
▁hy	-11216
▁sc	-11217
▁uh	-11218
Also	-11219
Boot	-11220
arer	-11221
arma	-11222
enix	-11223
fabr	-11224
fass	-11225
höhe	-11226
icke	-11227
idee	-11228
ikon	-11229
ollt	-11230
reen	-11231
umin	-11232
utet	-11233
werf	-11234
ähmt	-11235
▁Alz	-11236
▁Amt	-11237
▁Jay	-11238
▁Lak	-11239
▁Ram	-11240
▁Soc	-11241
▁Tut	-11242
▁ann	-11243
▁bot	-11244
▁dru	-11245
▁ele	-11246
▁med	-11247
▁ras	-11248
▁wuß	-11249
Bitte	-11250
Mails	-11251
abeth	-11252
agten	-11253
diger	-11254
figur	-11255
ickte	-11256
kampf	-11257
lauch	-11258
liebe	-11259
liste	-11260
länge	-11261
ometr	-11262
onanz	-11263
ostet	-11264
utnik	-11265
ächte	-11266
ämpfe	-11267
ärten	-11268
äumen	-11269
▁Base	-11270
▁Bert	-11271
▁Blei	-11272
▁Chor	-11273
▁Gumm	-11274
▁Hung	-11275
▁Ikon	-11276
▁Quer	-11277
▁Sich	-11278
▁Tony	-11279
▁Vieh	-11280
▁deta	-11281
▁käme	-11282
▁orig	-11283
▁proj	-11284
▁seht	-11285
ammern	-11286
apital	-11287
asiten	-11288
eidung	-11289
etings	-11290
etzung	-11291
genöss	-11292
ichern	-11293
ission	-11294
landet	-11295
terten	-11296
weiten	-11297
zettel	-11298
ättern	-11299
ördert	-11300
▁Agrar	-11301
▁Amate	-11302
▁Behör	-11303
▁Bombe	-11304
▁Busch	-11305
▁Bären	-11306
▁Dampf	-11307
▁Elend	-11308
▁Fried	-11309
▁Hören	-11310
▁Jeans	-11311
▁Kasse	-11312
▁Kevin	-11313
▁Linse	-11314
▁Mathe	-11315
▁Moder	-11316
▁Oktop	-11317
▁Pilze	-11318
▁Robot	-11319
▁Stunt	-11320
▁Weltw	-11321
▁Wohin	-11322
▁fange	-11323
▁hinab	-11324
▁nette	-11325
▁teure	-11326
▁zwölf	-11327
grenzen	-11328
lechter	-11329
legenen	-11330
osophen	-11331
zahlung	-11332
zentren	-11333
▁Akteur	-11334
▁Ersatz	-11335
▁Fertig	-11336
▁Filmen	-11337
▁Gewehr	-11338
▁Helium	-11339
▁Intens	-11340
▁Konkur	-11341
▁Kritik	-11342
▁Ladung	-11343
▁Mitlei	-11344
▁Photos	-11345
▁Sender	-11346
▁Sylvia	-11347
▁Termin	-11348
▁Tiefen	-11349
▁Tänzer	-11350
▁Winden	-11351
▁absolu	-11352
▁ausgel	-11353
▁fehler	-11354
▁flogen	-11355
▁greift	-11356
▁griech	-11357
▁halbes	-11358
▁mittel	-11359
▁nutzte	-11360
▁stimme	-11361
▁ungehe	-11362
▁weinen	-11363
▁wohnen	-11364
bewohner	-11365
breitung	-11366
computer	-11367
frequenz	-11368
gefangen	-11369
izierten	-11370
schlüsse	-11371
zweifelt	-11372
▁Dennoch	-11373
▁Fischen	-11374
▁Goldene	-11375
▁Könnten	-11376
▁Mandela	-11377
▁Premier	-11378
▁Rechten	-11379
▁Verrück	-11380
▁Zentral	-11381
▁beängst	-11382
▁detaill	-11383
▁fürchte	-11384
▁geplant	-11385
▁gerecht	-11386
▁geringe	-11387
▁italien	-11388
▁kauften	-11389
▁minimal	-11390
▁mischen	-11391
▁nutzten	-11392
▁problem	-11393
▁radikal	-11394
▁rechnen	-11395
▁schlägt	-11396
▁suchten	-11397
▁umsonst	-11398
▁vierten	-11399
aktivität	-11400
irtschaft	-11401
programme	-11402
schaffung	-11403
schmerzen	-11404
▁Atlantik	-11405
▁Aussicht	-11406
▁Barmherz	-11407
▁Beschäft	-11408
▁Errungen	-11409
▁Gewässer	-11410
▁Haushalt	-11411
▁Horizont	-11412
▁Kreation	-11413
▁Kritiker	-11414
▁Leinwand	-11415
▁Libellen	-11416
▁Robotern	-11417
▁Schlange	-11418
▁Spaghett	-11419
▁Virginia	-11420
▁drittens	-11421
▁fürchten	-11422
▁gleicher	-11423
▁hingegen	-11424
▁intuitiv	-11425
▁kleinste	-11426
▁normales	-11427
▁offenbar	-11428
▁streiten	-11429
▁verraten	-11430
▁Berührung	-11431
▁Einheiten	-11432
▁Frühstück	-11433
▁Irgendwie	-11434
▁Produkten	-11435
▁Recycling	-11436
▁Repräsent	-11437
▁Schwarzen	-11438
▁britische	-11439
▁gewachsen	-11440
▁kommenden	-11441
▁rückwärts	-11442
▁umgesetzt	-11443
▁verborgen	-11444
▁zeichnete	-11445
▁Überfluss	-11446
möglichkeit	-11447
▁Baumkronen	-11448
▁Fotografen	-11449
▁Innenstadt	-11450
▁Meerwasser	-11451
▁Nachmittag	-11452
▁Säugetiere	-11453
▁anderthalb	-11454
▁angebracht	-11455
▁einfachste	-11456
▁engagieren	-11457
▁integriert	-11458
▁verschwand	-11459
▁Auseinander	-11460
▁Hilfsmittel	-11461
▁Hindernisse	-11462
▁Transparenz	-11463
▁Trinkwasser	-11464
▁Vorhersagen	-11465
▁kostengünst	-11466
▁realisieren	-11467
▁Überzeugung	-11468
ungsfähigkeit	-11469
▁Alternativen	-11470
▁Andererseits	-11471
▁Diskussionen	-11472
▁ausprobieren	-11473
▁beschleunigt	-11474
▁Konzentration	-11475
▁Wohltätigkeit	-11476
▁ausgesprochen	-11477
▁beschleunigen	-11478
▁fotografieren	-11479
▁intelligenten	-11480
▁mathematische	-11481
▁verwirklichen	-11482
Ab	-11483
Bl	-11484
PA	-11485
kö	-11486
ta	-11487
Fil	-11488
aka	-11489
eiß	-11490
ema	-11491
ids	-11492
kar	-11493
kod	-11494
sth	-11495
usi	-11496
ypt	-11497
ürt	-11498
▁37	-11499
▁38	-11500
▁72	-11501
▁BM	-11502
▁Cy	-11503
▁Up	-11504
▁aß	-11505
▁po	-11506
▁pu	-11507
AIDS	-11508
Mann	-11509
akat	-11510
asha	-11511
auch	-11512
ical	-11513
klin	-11514
senz	-11515
ustr	-11516
▁---	-11517
▁Adr	-11518
▁Arz	-11519
▁Dok	-11520
▁Fan	-11521
▁Hab	-11522
▁Hig	-11523
▁LKW	-11524
▁Mer	-11525
▁Nav	-11526
▁anp	-11527
▁anz	-11528
▁leg	-11529
▁mod	-11530
▁pol	-11531
aisen	-11532
aller	-11533
andet	-11534
apier	-11535
bogen	-11536
klang	-11537
kugel	-11538
malen	-11539
minen	-11540
reist	-11541
riert	-11542
rugen	-11543
ummer	-11544
wechs	-11545
öscht	-11546
▁Brem	-11547
▁Diam	-11548
▁Erbe	-11549
▁Fert	-11550
▁Habe	-11551
▁Josh	-11552
▁Koff	-11553
▁Line	-11554
▁Papa	-11555
▁Pest	-11556
▁Real	-11557
▁abst	-11558
▁besp	-11559
▁dünn	-11560
▁farb	-11561
▁hebt	-11562
▁klat	-11563
▁pack	-11564
▁ruft	-11565
▁visu	-11566
▁üben	-11567
akespe	-11568
alente	-11569
altete	-11570
attung	-11571
becken	-11572
besten	-11573
binden	-11574
firmen	-11575
führte	-11576
gefügt	-11577
gelenk	-11578
ikalen	-11579
kaufen	-11580
kinder	-11581
produz	-11582
rechts	-11583
reißen	-11584
schrau	-11585
sslich	-11586
wertet	-11587
ündete	-11588
▁3.000	-11589
▁Atomb	-11590
▁Black	-11591
▁Bonob	-11592
▁Ecken	-11593
▁Ernte	-11594
▁Himal	-11595
▁Hülle	-11596
▁Korea	-11597
▁Stich	-11598
▁Stirn	-11599
▁Waffe	-11600
▁Wisst	-11601
▁befür	-11602
▁gefil	-11603
▁gehst	-11604
▁multi	-11605
▁Ärger	-11606
digungs	-11607
fahrung	-11608
gefasst	-11609
inister	-11610
ladesch	-11611
viertel	-11612
wichtig	-11613
wohnern	-11614
▁Balken	-11615
▁Briefe	-11616
▁Erklär	-11617
▁Felder	-11618
▁Garage	-11619
▁Hauses	-11620
▁Herbst	-11621
▁Histor	-11622
▁Hühner	-11623
▁Kannst	-11624
▁Knoten	-11625
▁Kosovo	-11626
▁Lippen	-11627
▁Mosche	-11628
▁Mythos	-11629
▁Nelson	-11630
▁Nutzer	-11631
▁Obdach	-11632
▁Plätze	-11633
▁Stimul	-11634
▁Teller	-11635
▁Tempel	-11636
▁Vorles	-11637
▁Zweite	-11638
▁auszut	-11639
▁gelben	-11640
▁genaue	-11641
▁geschl	-11642
▁siehst	-11643
▁sprang	-11644
▁toller	-11645
▁unverm	-11646
▁vorder	-11647
▁ältere	-11648
euchtung	-11649
faktoren	-11650
funktion	-11651
gebieten	-11652
gebildet	-11653
pliziert	-11654
schafter	-11655
schaltet	-11656
terweise	-11657
▁Atlanta	-11658
▁Bindung	-11659
▁Brücken	-11660
▁Chirurg	-11661
▁Effekte	-11662
▁Fingern	-11663
▁Haltung	-11664
▁Monster	-11665
▁Sondern	-11666
▁Steinen	-11667
▁abhängt	-11668
▁aktiven	-11669
▁anrufen	-11670
▁anschau	-11671
▁gereist	-11672
▁oftmals	-11673
▁riechen	-11674
▁sammelt	-11675
▁umfasst	-11676
▁verletz	-11677
▁versagt	-11678
▁weitaus	-11679
▁zurzeit	-11680
ilisieren	-11681
istischer	-11682
istisches	-11683
tschaften	-11684
▁Analogie	-11685
▁Einzelne	-11686
▁Gehirnen	-11687
▁Moskiton	-11688
▁Shanghai	-11689
▁Trennung	-11690
▁Vermögen	-11691
▁antreibt	-11692
▁erstaunt	-11693
▁gelandet	-11694
▁gelaufen	-11695
▁geleitet	-11696
▁geradezu	-11697
▁gespannt	-11698
▁möchtest	-11699
▁reagiert	-11700
▁schuldig	-11701
ologischer	-11702
▁Alzheimer	-11703
▁Batterien	-11704
▁Bausteine	-11705
▁Beschleun	-11706
▁Probanden	-11707
▁Spaghetti	-11708
▁Toiletten	-11709
▁beschrieb	-11710
▁kognitive	-11711
▁kurzfrist	-11712
▁markieren	-11713
▁transform	-11714
Technologie	-11715
entwicklung	-11716
formationen	-11717
▁Herzschlag	-11718
▁Kambodscha	-11719
▁Kandidaten	-11720
▁Kategorien	-11721
▁Netzwerken	-11722
▁Nährstoffe	-11723
▁Schokolade	-11724
▁Völkermord	-11725
▁Widerstand	-11726
▁beschränkt	-11727
▁diskutiert	-11728
▁eineinhalb	-11729
▁schlimmste	-11730
▁Naturschutz	-11731
▁fortschritt	-11732
▁unmittelbar	-11733
▁verbreitete	-11734
▁vorschlagen	-11735
▁wunderbares	-11736
dimensionalen	-11737
▁Experimenten	-11738
▁Hausaufgaben	-11739
▁wesentlichen	-11740
▁ökonomischen	-11741
▁Anstrengungen	-11742
▁Entwicklungen	-11743
▁Verschmutzung	-11744
▁Zeitschriften	-11745
▁Barmherzigkeit	-11746
▁Transformation	-11747
▁auszuprobieren	-11748
▁einschließlich	-11749
▁herausgestellt	-11750
▁technologische	-11751
5,	-11752
Ch	-11753
IN	-11754
Qu	-11755
Arm	-11756
eme	-11757
fuß	-11758
gei	-11759
hyd	-11760
ita	-11761
kür	-11762
obi	-11763
ray	-11764
rew	-11765
seg	-11766
yer	-11767
äug	-11768
üre	-11769
▁ID	-11770
Eine	-11771
Hier	-11772
Mart	-11773
aßen	-11774
bart	-11775
eilt	-11776
fiel	-11777
fram	-11778
gner	-11779
iler	-11780
ilzt	-11781
ives	-11782
izop	-11783
otte	-11784
ußer	-11785
west	-11786
ypen	-11787
zenz	-11788
zirk	-11789
ärer	-11790
▁193	-11791
▁2,5	-11792
▁Ego	-11793
▁Ema	-11794
▁Jet	-11795
▁Kas	-11796
▁LED	-11797
▁Leg	-11798
▁May	-11799
▁Neg	-11800
▁Sim	-11801
▁Sue	-11802
▁Vit	-11803
▁brü	-11804
▁hom	-11805
▁jun	-11806
▁urb	-11807
bauer	-11808
denke	-11809
probe	-11810
regel	-11811
risen	-11812
sters	-11813
stock	-11814
usste	-11815
zählt	-11816
ündet	-11817
▁2050	-11818
▁Dumm	-11819
▁Ethn	-11820
▁Flut	-11821
▁Harm	-11822
▁Hind	-11823
▁Jill	-11824
▁Kreb	-11825
▁Leon	-11826
▁Lith	-11827
▁Neue	-11828
▁Palm	-11829
▁Pfad	-11830
▁Pion	-11831
▁Sexu	-11832
▁Spir	-11833
▁aßen	-11834
▁isst	-11835
▁pein	-11836
▁stei	-11837
▁stol	-11838
▁vari	-11839
atives	-11840
einern	-11841
haufen	-11842
indert	-11843
legung	-11844
region	-11845
renzen	-11846
viewer	-11847
wendig	-11848
zyklus	-11849
ündung	-11850
▁Anzug	-11851
▁Brutt	-11852
▁Büros	-11853
▁Davon	-11854
▁Delhi	-11855
▁Draht	-11856
▁Falle	-11857
▁Glied	-11858
▁Lewis	-11859
▁Minen	-11860
▁Moore	-11861
▁Motto	-11862
▁Nebel	-11863
▁Netze	-11864
▁Parks	-11865
▁Power	-11866
▁Raubt	-11867
▁Sorte	-11868
▁Sturm	-11869
▁Tafel	-11870
▁Taten	-11871
▁ankam	-11872
▁drast	-11873
▁gelbe	-11874
▁gesen	-11875
▁laufe	-11876
▁lohnt	-11877
▁rasch	-11878
▁sagst	-11879
▁schäd	-11880
▁sitze	-11881
▁wette	-11882
abdruck	-11883
artikel	-11884
schulen	-11885
tzeitig	-11886
ästinen	-11887
▁Berufs	-11888
▁Bäcker	-11889
▁Essens	-11890
▁Feinde	-11891
▁Gesten	-11892
▁Geträn	-11893
▁Keller	-11894
▁Montag	-11895
▁Option	-11896
▁Prophe	-11897
▁Soldat	-11898
▁Sonder	-11899
▁Südpol	-11900
▁Tinten	-11901
▁Vermut	-11902
▁bewohn	-11903
▁elegan	-11904
▁freuen	-11905
▁geschw	-11906
▁grauen	-11907
▁halfen	-11908
▁landet	-11909
▁leidet	-11910
▁nachge	-11911
▁person	-11912
▁reiche	-11913
▁riesig	-11914
▁unterm	-11915
andelten	-11916
ferenzen	-11917
izophren	-11918
periment	-11919
produkte	-11920
sprecher	-11921
strahlen	-11922
▁Anwälte	-11923
▁Dienste	-11924
▁Eingang	-11925
▁Flächen	-11926
▁Geister	-11927
▁Hundert	-11928
▁Kreatur	-11929
▁Mitleid	-11930
▁Montana	-11931
▁Mustern	-11932
▁Neigung	-11933
▁Phoenix	-11934
▁Polymer	-11935
▁Prüfung	-11936
▁Spanien	-11937
▁Strecke	-11938
▁William	-11939
▁Wolfram	-11940
▁Zuhörer	-11941
▁Zweiten	-11942
▁daneben	-11943
▁gesucht	-11944
▁hungrig	-11945
▁sexuell	-11946
▁träumen	-11947
▁unschul	-11948
▁wuchsen	-11949
ifikation	-11950
schrecken	-11951
▁Anspruch	-11952
▁Biomasse	-11953
▁Fabriken	-11954
▁Hühnchen	-11955
▁Sammlung	-11956
▁Schaffen	-11957
▁Shakespe	-11958
▁Streifen	-11959
▁Vernunft	-11960
▁anderswo	-11961
▁anfingen	-11962
▁bereitet	-11963
▁einbauen	-11964
▁erlangen	-11965
▁gänzlich	-11966
▁häufiger	-11967
▁jegliche	-11968
▁klettern	-11969
▁liebsten	-11970
▁schweben	-11971
▁soziales	-11972
▁tauschen	-11973
▁verwandt	-11974
▁wieviele	-11975
▁woanders	-11976
▁Überwach	-11977
▁Angesicht	-11978
▁Designern	-11979
▁Einwohner	-11980
▁Glühbirne	-11981
▁Scheitern	-11982
▁Versionen	-11983
▁Zeichnung	-11984
▁ansonsten	-11985
▁charakter	-11986
▁ergreifen	-11987
▁erweitert	-11988
▁furchtbar	-11989
▁kleineren	-11990
▁künstlich	-11991
▁schnellen	-11992
▁unbegrenz	-11993
▁vornehmen	-11994
▁Grundlagen	-11995
▁Hemisphäre	-11996
▁Kommentare	-11997
▁ansprechen	-11998
▁anzunehmen	-11999
▁ausbreiten	-12000
▁bescheiden	-12001
▁konvention	-12002
▁sorgfältig	-12003
▁unvorstell	-12004
▁vergrößert	-12005
▁verknüpfen	-12006
▁verrückten	-12007
▁wachsenden	-12008
▁willkommen	-12009
▁zeitgenöss	-12010
▁Bangladesch	-12011
▁Betrachtung	-12012
▁Gleichungen	-12013
▁Kooperation	-12014
▁Philanthrop	-12015
▁Relativität	-12016
▁Vogelgrippe	-12017
▁Voraussagen	-12018
▁japanischen	-12019
▁langfristig	-12020
▁rechtzeitig	-12021
▁romantische	-12022
▁tiefgreifen	-12023
▁verschaffen	-12024
▁ökologischen	-12025
▁Gelegenheiten	-12026
▁Interpretation	-12027
▁Visualisierung	-12028
▁Zivilisationen	-12029
▁mathematischen	-12030
1,	-12031
BC	-12032
MA	-12033
aj	-12034
yo	-12035
▁́	-12036
Geh	-12037
Ihr	-12038
abb	-12039
hes	-12040
hur	-12041
irm	-12042
sex	-12043
stü	-12044
udd	-12045
uel	-12046
ury	-12047
vas	-12048
zed	-12049
öch	-12050
übt	-12051
▁34	-12052
▁42	-12053
▁Av	-12054
▁Ew	-12055
▁KA	-12056
▁SP	-12057
▁tu	-12058
Tech	-12059
arre	-12060
aste	-12061
blen	-12062
bole	-12063
code	-12064
dose	-12065
eget	-12066
eley	-12067
hlst	-12068
iant	-12069
ible	-12070
irus	-12071
iste	-12072
itor	-12073
kind	-12074
rebs	-12075
sitz	-12076
stad	-12077
team	-12078
tech	-12079
unen	-12080
öhne	-12081
▁190	-12082
▁192	-12083
▁Acc	-12084
▁Blö	-12085
▁Bor	-12086
▁Han	-12087
▁Häu	-12088
▁Sha	-12089
▁erd	-12090
▁hyp	-12091
▁jüd	-12092
▁seh	-12093
appte	-12094
arter	-12095
azine	-12096
dehnt	-12097
enezu	-12098
ieber	-12099
pfern	-12100
reter	-12101
welle	-12102
▁5000	-12103
▁Affe	-12104
▁Alas	-12105
▁Comp	-12106
▁Gebe	-12107
▁Grös	-12108
▁Jose	-12109
▁Ofen	-12110
▁Panz	-12111
▁Seil	-12112
▁Tank	-12113
▁müde	-12114
▁rauf	-12115
▁ästh	-12116
bedarf	-12117
grenze	-12118
ingert	-12119
klopäd	-12120
läufig	-12121
märkte	-12122
nitten	-12123
ochten	-12124
regung	-12125
spitze	-12126
sprodu	-12127
volles	-12128
ässern	-12129
örtern	-12130
▁April	-12131
▁Comic	-12132
▁Elite	-12133
▁Gebir	-12134
▁Hüfte	-12135
▁Jones	-12136
▁Spezi	-12137
▁Stolz	-12138
▁Union	-12139
▁Väter	-12140
▁Warte	-12141
▁dreie	-12142
▁ehren	-12143
▁euren	-12144
▁gelei	-12145
▁gewün	-12146
▁loszu	-12147
▁nahen	-12148
▁obere	-12149
▁unhei	-12150
▁übern	-12151
anische	-12152
eistern	-12153
gefühls	-12154
glicher	-12155
raktion	-12156
spruchs	-12157
uminium	-12158
wiegend	-12159
▁Eigent	-12160
▁Faszin	-12161
▁Fluktu	-12162
▁Ganzes	-12163
▁Innere	-12164
▁Künste	-12165
▁Mittag	-12166
▁Raster	-12167
▁Romant	-12168
▁Sprich	-12169
▁Stoffe	-12170
▁Umfang	-12171
▁Unsinn	-12172
▁auftau	-12173
▁düster	-12174
▁frisch	-12175
▁golden	-12176
▁legten	-12177
▁orient	-12178
▁sprich	-12179
▁teurer	-12180
▁zweier	-12181
Computer	-12182
irdische	-12183
ituation	-12184
olumines	-12185
strecken	-12186
temberau	-12187
zuhalten	-12188
▁Applaus	-12189
▁Charlie	-12190
▁Clinton	-12191
▁Geburts	-12192
▁Stephen	-12193
▁Wünsche	-12194
▁Zugriff	-12195
▁billige	-12196
▁gewohnt	-12197
▁hiervon	-12198
▁logisch	-12199
▁starkes	-12200
▁wünsche	-12201
ähnlichen	-12202
▁Anliegen	-12203
▁Dasselbe	-12204
▁Einkaufs	-12205
▁Gedichte	-12206
▁Harmonie	-12207
▁November	-12208
▁Partikel	-12209
▁Rohstoff	-12210
▁fossilen	-12211
▁globaler	-12212
▁kopieren	-12213
▁könntest	-12214
▁niedrige	-12215
▁physisch	-12216
▁riesiger	-12217
▁tägliche	-12218
▁verwirrt	-12219
bewegungen	-12220
haftigkeit	-12221
ografische	-12222
▁Endeffekt	-12223
▁Hindernis	-12224
▁Infektion	-12225
▁Künstlern	-12226
▁Rohstoffe	-12227
▁Schwellen	-12228
▁Schöpfung	-12229
▁Thunfisch	-12230
▁Wohnungen	-12231
▁antreiben	-12232
▁atemberau	-12233
▁attraktiv	-12234
▁moralisch	-12235
▁schneiden	-12236
▁seltsamen	-12237
▁Hersteller	-12238
▁Lebenslied	-12239
▁Lebensstil	-12240
▁Mitgefühls	-12241
▁Steigerung	-12242
▁Videospiel	-12243
▁Vorhersage	-12244
▁Wendepunkt	-12245
▁anzupassen	-12246
▁beliebigen	-12247
▁kognitiven	-12248
▁kritischen	-12249
▁restlichen	-12250
▁verdoppeln	-12251
▁wahrhaftig	-12252
▁Ökosysteme	-12253
▁Bestandteil	-12254
▁Hoffentlich	-12255
▁Immunsystem	-12256
▁Interviewer	-12257
▁Unglaublich	-12258
▁angegriffen	-12259
▁effizienter	-12260
▁irgendeinen	-12261
▁künstlichen	-12262
▁politischer	-12263
▁staatlichen	-12264
▁verschieben	-12265
▁Bestandteile	-12266
▁Freiwilligen	-12267
▁Nervenzellen	-12268
▁Temperaturen	-12269
▁anschließend	-12270
▁biologischer	-12271
▁respektieren	-12272
▁teilzunehmen	-12273
▁Partnerschaft	-12274
▁Schlussfolger	-12275
▁Treibhausgase	-12276
▁elektronische	-12277
▁weitergegeben	-12278
▁Überzeugungen	-12279
▁wirtschaftlich	-12280
▁zusammenfassen	-12281
▁Premierminister	-12282
▁Voraussetzungen	-12283
4,	-12284
9.	-12285
Or	-12286
bä	-12287
ky	-12288
Ent	-12289
Str	-12290
ata	-12291
esh	-12292
gur	-12293
ico	-12294
mas	-12295
not	-12296
now	-12297
ois	-12298
ror	-12299
ußt	-12300
ätt	-12301
▁'9	-12302
▁2:	-12303
▁48	-12304
▁7.	-12305
▁AI	-12306
▁BG	-12307
▁FG	-12308
▁eB	-12309
Vers	-12310
Zeit	-12311
ards	-12312
bard	-12313
esst	-12314
ials	-12315
kter	-12316
lers	-12317
lust	-12318
osis	-12319
ters	-12320
wale	-12321
äher	-12322
▁10-	-12323
▁15.	-12324
▁18.	-12325
▁Arg	-12326
▁Las	-12327
▁Mah	-12328
▁Off	-12329
▁Oma	-12330
▁Out	-12331
▁Sed	-12332
▁Squ	-12333
▁Tha	-12334
▁Ult	-12335
▁blö	-12336
▁fix	-12337
Beweg	-12338
earch	-12339
ehbar	-12340
ehler	-12341
freie	-12342
gemäß	-12343
gespr	-12344
heken	-12345
igere	-12346
ollte	-12347
rigen	-12348
samer	-12349
splan	-12350
steri	-12351
szeit	-12352
ungsf	-12353
wecke	-12354
▁Arab	-12355
▁Berk	-12356
▁Dsch	-12357
▁Fang	-12358
▁Food	-12359
▁Halt	-12360
▁Juli	-12361
▁Kino	-12362
▁Mall	-12363
▁Oran	-12364
▁Rohr	-12365
▁Slum	-12366
▁Tast	-12367
▁Tesz	-12368
▁böse	-12369
▁fröh	-12370
▁lehr	-12371
▁skal	-12372
▁Ästh	-12373
Untern	-12374
anfall	-12375
bettet	-12376
eltern	-12377
gesagt	-12378
größte	-12379
illiar	-12380
ordent	-12381
presse	-12382
ranten	-12383
setzte	-12384
städte	-12385
unklar	-12386
wäsche	-12387
▁Antik	-12388
▁Fahrt	-12389
▁Favor	-12390
▁Franz	-12391
▁Human	-12392
▁Kathe	-12393
▁Klass	-12394
▁Louis	-12395
▁Polio	-12396
▁Schlä	-12397
▁Shows	-12398
▁South	-12399
▁Stere	-12400
▁chron	-12401
▁fahre	-12402
▁leere	-12403
▁nachd	-12404
▁ständ	-12405
▁stärk	-12406
▁warte	-12407
▁weite	-12408
▁wilde	-12409
▁Äußer	-12410
aufgabe	-12411
förmige	-12412
füllung	-12413
infarkt	-12414
okraten	-12415
schenkt	-12416
spitzen	-12417
▁60.000	-12418
▁Absatz	-12419
▁Besser	-12420
▁Beteil	-12421
▁Brille	-12422
▁Bühnen	-12423
▁Canyon	-12424
▁Chinas	-12425
▁Farmer	-12426
▁Formel	-12427
▁Frustr	-12428
▁Kontro	-12429
▁Kortex	-12430
▁Küchen	-12431
▁Lehren	-12432
▁Mentor	-12433
▁Phasen	-12434
▁Später	-12435
▁Vulkan	-12436
▁Waisen	-12437
▁allmäh	-12438
▁bedarf	-12439
▁befand	-12440
▁befrie	-12441
▁klappt	-12442
▁kollab	-12443
▁korrig	-12444
▁kriegt	-12445
▁merkte	-12446
▁rannte	-12447
▁sendet	-12448
▁stimul	-12449
Institut	-12450
forscher	-12451
regionen	-12452
sprojekt	-12453
stritten	-12454
zutragen	-12455
▁Einzige	-12456
▁Kondome	-12457
▁Lithium	-12458
▁Neuseel	-12459
▁Pinguin	-12460
▁Schweiz	-12461
▁Spenden	-12462
▁Sputnik	-12463
▁Stipend	-12464
▁Trommel	-12465
▁Truppen	-12466
▁Träumen	-12467
▁Worüber	-12468
▁durften	-12469
▁erholen	-12470
▁füttern	-12471
▁gefühlt	-12472
▁geprägt	-12473
▁gewaltt	-12474
▁illegal	-12475
▁konzept	-12476
▁springt	-12477
▁verfolg	-12478
▁zweiter	-12479
Regierung	-12480
achtungen	-12481
gewandelt	-12482
hältnisse	-12483
schichten	-12484
▁Begriffe	-12485
▁Entweder	-12486
▁Frühling	-12487
▁Gesetzen	-12488
▁Moskitos	-12489
▁Plankton	-12490
▁Research	-12491
▁Visionen	-12492
▁anziehen	-12493
▁auftritt	-12494
▁aufwuchs	-12495
▁begraben	-12496
▁beliebte	-12497
▁gelungen	-12498
▁gewaltig	-12499
▁jüngeren	-12500
▁markiert	-12501
▁phänomen	-12502
▁Ästhetik	-12503
derwärmung	-12504
ikanischen	-12505
▁Aluminium	-12506
▁Bewegungs	-12507
▁Bruchteil	-12508
▁Jefferson	-12509
▁Kilogramm	-12510
▁Schildkrö	-12511
▁Schweizer	-12512
▁Wichtiges	-12513
▁benötigte	-12514
▁einzelnes	-12515
▁erschwing	-12516
▁kollektiv	-12517
▁kreativer	-12518
▁philosoph	-12519
▁schwanger	-12520
▁speichern	-12521
▁studierte	-12522
▁tendieren	-12523
▁versetzen	-12524
gehörigkeit	-12525
herstellung	-12526
▁Ingenieurs	-12527
▁Wochenende	-12528
▁Zigaretten	-12529
▁anerkennen	-12530
▁aufgegeben	-12531
▁bestätigen	-12532
▁freiwillig	-12533
▁generieren	-12534
▁merkwürdig	-12535
▁praktische	-12536
▁unheimlich	-12537
▁weiblichen	-12538
▁Beleuchtung	-12539
▁Einrichtung	-12540
▁Grundschule	-12541
▁Versprechen	-12542
▁ermöglichte	-12543
▁gespeichert	-12544
▁verzweifelt	-12545
▁Übertragung	-12546
▁ökonomische	-12547
▁Bewusstseins	-12548
▁Mobiltelefon	-12549
▁einzigartige	-12550
▁herausstellt	-12551
▁historischen	-12552
▁inspirierend	-12553
▁langfristige	-12554
▁unterbrochen	-12555
▁Geschäftswelt	-12556
▁Zusammenbruch	-12557
▁eingeschränkt	-12558
▁einzigartigen	-12559
▁identifiziert	-12560
▁individuellen	-12561
▁stattgefunden	-12562
▁unglaubliches	-12563
▁untereinander	-12564
▁Verbesserungen	-12565
▁bewerkstelligen	-12566
▁experimentieren	-12567
▁veröffentlichte	-12568
9,	-12569
Ne	-12570
Su	-12571
▁&	-12572
Aus	-12573
Met	-12574
Rob	-12575
bab	-12576
old	-12577
rip	-12578
sal	-12579
tef	-12580
ula	-12581
▁4,	-12582
▁4.	-12583
▁8.	-12584
▁Hä	-12585
▁RS	-12586
▁Ze	-12587
'000	-12588
arin	-12589
besp	-12590
empf	-12591
empl	-12592
erkt	-12593
ftig	-12594
glas	-12595
hent	-12596
ikum	-12597
illa	-12598
luft	-12599
meer	-12600
odie	-12601
orea	-12602
over	-12603
play	-12604
plik	-12605
rief	-12606
rige	-12607
urce	-12608
wege	-12609
ziel	-12610
ähle	-12611
äule	-12612
öpft	-12613
ückt	-12614
▁16.	-12615
▁Dro	-12616
▁Gir	-12617
▁Jup	-12618
▁Max	-12619
▁McC	-12620
▁Non	-12621
▁Set	-12622
▁Sin	-12623
▁Wes	-12624
▁ert	-12625
▁här	-12626
▁inn	-12627
▁muß	-12628
▁wow	-12629
▁ziv	-12630
atsch	-12631
azier	-12632
decke	-12633
eiert	-12634
eihen	-12635
flüge	-12636
flüss	-12637
geist	-12638
holte	-12639
ialen	-12640
iften	-12641
itels	-12642
kanal	-12643
klass	-12644
ließt	-12645
nicht	-12646
okoll	-12647
ology	-12648
orene	-12649
rüger	-12650
sburg	-12651
spart	-12652
unker	-12653
ziger	-12654
äusen	-12655
▁2010	-12656
▁Bach	-12657
▁Bern	-12658
▁Cher	-12659
▁Clip	-12660
▁Doug	-12661
▁Fass	-12662
▁Geck	-12663
▁Haup	-12664
▁Mang	-12665
▁Note	-12666
▁Pilz	-12667
▁Sied	-12668
▁Time	-12669
▁Zone	-12670
▁anti	-12671
▁brut	-12672
▁eBay	-12673
▁kart	-12674
▁mess	-12675
▁post	-12676
▁warf	-12677
Gruppe	-12678
Modell	-12679
akrise	-12680
ammten	-12681
bergen	-12682
cherch	-12683
esseln	-12684
gentin	-12685
gewinn	-12686
himmel	-12687
iegelt	-12688
ithmus	-12689
locken	-12690
porter	-12691
warten	-12692
ätigen	-12693
▁Anten	-12694
▁Blutz	-12695
▁Brett	-12696
▁Bucht	-12697
▁Einfl	-12698
▁Feier	-12699
▁Fäden	-12700
▁Herrn	-12701
▁Honig	-12702
▁Kurse	-12703
▁Käfer	-12704
▁Lange	-12705
▁Leder	-12706
▁Lunge	-12707
▁Lücke	-12708
▁Model	-12709
▁Orgas	-12710
▁Rasse	-12711
▁Raums	-12712
▁Schuh	-12713
▁Still	-12714
▁Söhne	-12715
▁Zehnt	-12716
▁Zunge	-12717
▁absor	-12718
▁angel	-12719
▁ansah	-12720
▁dumme	-12721
▁ereig	-12722
▁formt	-12723
▁fortz	-12724
▁islam	-12725
▁merkt	-12726
▁metap	-12727
▁natur	-12728
▁raten	-12729
▁schuf	-12730
▁skept	-12731
▁suche	-12732
▁toten	-12733
▁volle	-12734
euerung	-12735
ichtung	-12736
ingenie	-12737
oppelte	-12738
rechnen	-12739
troffen	-12740
wickelt	-12741
▁Allein	-12742
▁Anwalt	-12743
▁Arktis	-12744
▁Bergen	-12745
▁Bildes	-12746
▁Brookl	-12747
▁Daraus	-12748
▁Falsch	-12749
▁Furcht	-12750
▁Geduld	-12751
▁Götter	-12752
▁Macher	-12753
▁Maßstä	-12754
▁Russen	-12755
▁Schaff	-12756
▁Vaters	-12757
▁Venezu	-12758
▁Würfel	-12759
▁auszur	-12760
▁bewahr	-12761
▁endete	-12762
▁festen	-12763
▁junges	-12764
▁netter	-12765
▁regist	-12766
▁teilte	-12767
allappen	-12768
fertigen	-12769
freiheit	-12770
ianische	-12771
jähriges	-12772
stellige	-12773
▁Behaupt	-12774
▁Blogger	-12775
▁Dirigen	-12776
▁Experte	-12777
▁Fiktion	-12778
▁Freitag	-12779
▁Heilung	-12780
▁Häusern	-12781
▁Jupiter	-12782
▁Kennedy	-12783
▁Koralle	-12784
▁Namibia	-12785
▁Natasha	-12786
▁Nämlich	-12787
▁Schlimm	-12788
▁Schwimm	-12789
▁Trocken	-12790
▁aufhört	-12791
▁beraten	-12792
▁endgült	-12793
▁erkläre	-12794
▁kopiert	-12795
▁lautete	-12796
▁lächeln	-12797
▁mysteri	-12798
▁optimal	-12799
▁redeten	-12800
▁richtet	-12801
▁schwamm	-12802
▁äußeren	-12803
Maschinen	-12804
kontrolle	-12805
schritten	-12806
sminister	-12807
spersonen	-12808
zeichnete	-12809
▁Abkommen	-12810
▁Aussehen	-12811
▁Baseball	-12812
▁Berichte	-12813
▁Berkeley	-12814
▁Chemiker	-12815
▁Einsicht	-12816
▁Fantasie	-12817
▁Freundes	-12818
▁Gefühlen	-12819
▁Hochzeit	-12820
▁Mahlzeit	-12821
▁Mögliche	-12822
▁Parteien	-12823
▁Toleranz	-12824
▁Wieviele	-12825
▁befolgen	-12826
▁betrügen	-12827
▁forschen	-12828
▁gedauert	-12829
▁jedesmal	-12830
▁komische	-12831
▁mithilfe	-12832
▁negative	-12833
▁schwimmt	-12834
▁typische	-12835
▁versehen	-12836
▁versorgt	-12837
▁vorkommt	-12838
▁zulassen	-12839
▁zutrifft	-12840
Emissionen	-12841
▁Einladung	-12842
▁Einnahmen	-12843
▁Gemeinsam	-12844
▁Hypothese	-12845
▁Kapazität	-12846
▁Messungen	-12847
▁Raumfahrt	-12848
▁Techniker	-12849
▁Trainings	-12850
▁Umsetzung	-12851
▁Vergewalt	-12852
▁Wohnwagen	-12853
▁abstrakte	-12854
▁bestanden	-12855
▁empfangen	-12856
▁geleistet	-12857
▁genannten	-12858
▁katastrop	-12859
▁klinische	-12860
▁vertreten	-12861
▁wohlhaben	-12862
▁zustimmen	-12863
▁Aussterben	-12864
▁Beispielen	-12865
▁Einkommens	-12866
▁Hierarchie	-12867
▁Neuseeland	-12868
▁Thunfische	-12869
▁analysiert	-12870
▁aufstellen	-12871
▁bearbeiten	-12872
▁beunruhigt	-12873
▁gewaltigen	-12874
▁herzlichen	-12875
▁ordentlich	-12876
▁vergleicht	-12877
▁verkauften	-12878
▁vernünftig	-12879
▁verringert	-12880
▁übernommen	-12881
ungsvermögen	-12882
▁Flüchtlings	-12883
▁Frustration	-12884
▁Gesichtsaus	-12885
▁Ingenieuren	-12886
▁Richtlinien	-12887
▁Terroristen	-12888
▁Variationen	-12889
▁beobachtete	-12890
▁finanzielle	-12891
▁kollektiven	-12892
▁präsentiert	-12893
▁schmerzhaft	-12894
▁umgewandelt	-12895
▁überwältigt	-12896
▁Erderwärmung	-12897
▁Kriminalität	-12898
▁andererseits	-12899
▁angesprochen	-12900
▁herauskommen	-12901
▁katastrophal	-12902
▁spezifischen	-12903
▁unsichtbaren	-12904
▁öffentlicher	-12905
▁Beschäftigung	-12906
▁elektromagnet	-12907
▁existierenden	-12908
▁fundamentalen	-12909
▁industriellen	-12910
▁vorgeschlagen	-12911
▁Amerikanischen	-12912
▁diagnostiziert	-12913
▁Angelegenheiten	-12914
!“	-12915
Ah	-12916
BM	-12917
Ie	-12918
LA	-12919
Mo	-12920
OL	-12921
Po	-12922
da	-12923
dy	-12924
200	-12925
Gut	-12926
Mit	-12927
anl	-12928
bor	-12929
cer	-12930
dis	-12931
job	-12932
lab	-12933
rib	-12934
set	-12935
top	-12936
ufe	-12937
ump	-12938
ßig	-12939
äck	-12940
ümm	-12941
▁5.	-12942
▁MB	-12943
▁MS	-12944
▁SJ	-12945
....	-12946
Groß	-12947
Hall	-12948
Show	-12949
Star	-12950
alem	-12951
angt	-12952
apur	-12953
blog	-12954
gnes	-12955
hall	-12956
hema	-12957
herr	-12958
ican	-12959
iedr	-12960
llte	-12961
räte	-12962
sage	-12963
then	-12964
vort	-12965
wann	-12966
zugs	-12967
Über	-12968
öden	-12969
▁12.	-12970
▁Bew	-12971
▁Bra	-12972
▁Cel	-12973
▁DAR	-12974
▁Emp	-12975
▁Frö	-12976
▁Hot	-12977
▁Lex	-12978
▁Nic	-12979
▁Sun	-12980
▁abt	-12981
▁bös	-12982
▁ehe	-12983
▁eis	-12984
▁hob	-12985
▁klü	-12986
▁unn	-12987
▁zit	-12988
▁Öls	-12989
0.000	-12990
Achse	-12991
Dimen	-12992
Schau	-12993
atmen	-12994
bende	-12995
blase	-12996
brett	-12997
echte	-12998
ennte	-12999
halle	-13000
idmet	-13001
ineer	-13002
itzer	-13003
kühlt	-13004
löser	-13005
onach	-13006
rittw	-13007
ttert	-13008
weren	-13009
äuber	-13010
▁AIMS	-13011
▁Bamb	-13012
▁Bart	-13013
▁Brut	-13014
▁Chop	-13015
▁Diät	-13016
▁Flex	-13017
▁Gefä	-13018
▁Geht	-13019
▁Jagd	-13020
▁Lähm	-13021
▁Mumb	-13022
▁Osta	-13023
▁Prog	-13024
▁Sant	-13025
▁Taxi	-13026
▁Turm	-13027
▁Töne	-13028
▁Ufer	-13029
▁bege	-13030
▁jetz	-13031
▁jüng	-13032
▁null	-13033
▁strö	-13034
▁subt	-13035
▁witz	-13036
▁zert	-13037
Effekt	-13038
echten	-13039
felder	-13040
itness	-13041
kreise	-13042
kriege	-13043
leiden	-13044
massen	-13045
otechn	-13046
sender	-13047
skrise	-13048
strate	-13049
westen	-13050
ächtig	-13051
▁Ausge	-13052
▁Blitz	-13053
▁Buddh	-13054
▁Chile	-13055
▁Ehren	-13056
▁Eröff	-13057
▁Flick	-13058
▁Fülle	-13059
▁Henry	-13060
▁Hirns	-13061
▁Ideal	-13062
▁Regal	-13063
▁Scham	-13064
▁Schoß	-13065
▁Seatt	-13066
▁Skala	-13067
▁Sonde	-13068
▁Synap	-13069
▁Tibet	-13070
▁Türen	-13071
▁Witze	-13072
▁beher	-13073
▁brand	-13074
▁enthü	-13075
▁eurer	-13076
▁illeg	-13077
▁nutze	-13078
▁weich	-13079
▁zahlt	-13080
▁zerst	-13081
▁ziehe	-13082
achläss	-13083
bewegen	-13084
gesehen	-13085
ikopter	-13086
issheit	-13087
istoren	-13088
liessen	-13089
lsystem	-13090
ocortex	-13091
oparden	-13092
skosten	-13093
sprüche	-13094
stattet	-13095
stücken	-13096
teilten	-13097
▁40.000	-13098
▁Ablauf	-13099
▁Alaska	-13100
▁Analys	-13101
▁Bestes	-13102
▁Betrag	-13103
▁Buddha	-13104
▁Choler	-13105
▁Daniel	-13106
▁Denker	-13107
▁Exempl	-13108
▁Flüsse	-13109
▁Friede	-13110
▁Genome	-13111
▁Grunds	-13112
▁Größer	-13113
▁Kasten	-13114
▁Koffer	-13115
▁Letzte	-13116
▁Linken	-13117
▁Monsun	-13118
▁Nachts	-13119
▁Pestiz	-13120
▁Puppen	-13121
▁Rakete	-13122
▁Recher	-13123
▁Regime	-13124
▁Schöne	-13125
▁Sollte	-13126
▁Steven	-13127
▁Stimmt	-13128
▁Strahl	-13129
▁Säulen	-13130
▁Tricks	-13131
▁Umwand	-13132
▁Urlaub	-13133
▁Versch	-13134
▁beauft	-13135
▁drückt	-13136
▁formal	-13137
▁fünfte	-13138
▁jahrel	-13139
▁kalten	-13140
▁liefen	-13141
▁netten	-13142
▁rollen	-13143
▁unterr	-13144
▁wander	-13145
▁zwangs	-13146
Maschine	-13147
behalten	-13148
gebnisse	-13149
geleitet	-13150
hingegen	-13151
klopädie	-13152
ommunity	-13153
spolitik	-13154
ungsvoll	-13155
versicht	-13156
▁Dollars	-13157
▁Dörfern	-13158
▁Französ	-13159
▁Galerie	-13160
▁Hungers	-13161
▁Kollege	-13162
▁Komprom	-13163
▁Mitteln	-13164
▁Oktopus	-13165
▁Project	-13166
▁Rituale	-13167
▁Sammler	-13168
▁Sendung	-13169
▁Service	-13170
▁Stämmen	-13171
▁Umfrage	-13172
▁Wildnis	-13173
▁Zentren	-13174
▁abläuft	-13175
▁anhören	-13176
▁befasst	-13177
▁belohnt	-13178
▁besaßen	-13179
▁chirurg	-13180
▁fühlten	-13181
▁leistet	-13182
▁löschen	-13183
▁pflegen	-13184
▁süchtig	-13185
▁südlich	-13186
▁typisch	-13187
▁vorherr	-13188
▁vorüber	-13189
▁willkür	-13190
ipulation	-13191
legenheit	-13192
▁Angriffe	-13193
▁Eigentum	-13194
▁Jungfrau	-13195
▁Norwegen	-13196
▁Nächsten	-13197
▁Personal	-13198
▁Schwelle	-13199
▁Substanz	-13200
▁Szenario	-13201
▁Thailand	-13202
▁annähern	-13203
▁befanden	-13204
▁bereiten	-13205
▁designen	-13206
▁erwischt	-13207
▁gekostet	-13208
▁heiligen	-13209
▁national	-13210
▁normaler	-13211
▁probiert	-13212
▁recherch	-13213
▁schieben	-13214
▁schlimme	-13215
▁schrittw	-13216
▁schweren	-13217
▁versagen	-13218
▁versetzt	-13219
▁überlegt	-13220
▁üblichen	-13221
orientiert	-13222
▁Intellekt	-13223
▁Kernkraft	-13224
▁Netzwerks	-13225
▁Offenheit	-13226
▁Ostafrika	-13227
▁Schachtel	-13228
▁Therapien	-13229
▁Täuschung	-13230
▁aktiviert	-13231
▁bestätigt	-13232
▁dynamisch	-13233
▁englische	-13234
▁entwarfen	-13235
▁erheblich	-13236
▁erreichte	-13237
▁ethnische	-13238
▁gestiegen	-13239
▁hinweisen	-13240
▁kulturell	-13241
▁loswerden	-13242
▁magischen	-13243
▁mikroskop	-13244
▁nirgendwo	-13245
▁verließen	-13246
▁wachsende	-13247
▁wenigsten	-13248
▁örtlichen	-13249
▁übersehen	-13250
geschichten	-13251
ministerium	-13252
verständnis	-13253
▁Gleichheit	-13254
▁Liebeslied	-13255
▁Optimismus	-13256
▁Raumschiff	-13257
▁allmählich	-13258
▁aussterben	-13259
▁effektiver	-13260
▁erwachsene	-13261
▁existierte	-13262
▁kostenlose	-13263
▁mitbringen	-13264
▁realisiert	-13265
▁verbleiben	-13266
▁überdenken	-13267
ommunikation	-13268
▁Chromosomen	-13269
▁Erklärungen	-13270
▁Erscheinung	-13271
▁Heimatstadt	-13272
▁Herzinfarkt	-13273
▁Karikaturen	-13274
▁Lebensweise	-13275
▁Milchstraße	-13276
▁Weihnachtsm	-13277
▁Windenergie	-13278
▁Zeitschrift	-13279
▁eingebettet	-13280
▁klassischen	-13281
▁unternehmer	-13282
▁unternommen	-13283
▁verarbeitet	-13284
▁verbrachten	-13285
▁vernachläss	-13286
▁verursachte	-13287
▁Freundschaft	-13288
▁Letztendlich	-13289
▁Medikamenten	-13290
▁Transistoren	-13291
▁Vereinbarung	-13292
▁ausgestorben	-13293
▁herausfanden	-13294
▁muslimischen	-13295
▁persönlicher	-13296
▁spirituellen	-13297
▁verschmelzen	-13298
▁Demonstration	-13299
▁Nahrungskette	-13300
▁Philanthropie	-13301
▁Veranstaltung	-13302
▁angeschlossen	-13303
▁erfolgreichen	-13304
▁evolutionären	-13305
▁hervorbringen	-13306
▁intelligenter	-13307
▁nebeneinander	-13308
▁Nebenwirkungen	-13309
▁Vorgehensweise	-13310
▁amerikanischer	-13311
▁beeindruckende	-13312
▁folgendermaßen	-13313
▁intellektuelle	-13314
▁psychologische	-13315
▁berücksichtigen	-13316
▁offensichtliche	-13317
.”	-13318
Ad	-13319
Al	-13320
Fi	-13321
PC	-13322
RT	-13323
aa	-13324
jo	-13325
ny	-13326
vö	-13327
Aut	-13328
Fre	-13329
any	-13330
cus	-13331
dio	-13332
pra	-13333
sbe	-13334
sor	-13335
▁43	-13336
▁Ag	-13337
▁OP	-13338
▁PS	-13339
▁sk	-13340
▁öl	-13341
Cola	-13342
Komm	-13343
Orig	-13344
Plan	-13345
Team	-13346
agel	-13347
alai	-13348
ares	-13349
arta	-13350
arzt	-13351
chem	-13352
dels	-13353
eide	-13354
frar	-13355
grat	-13356
iche	-13357
ipel	-13358
klet	-13359
lass	-13360
mach	-13361
nest	-13362
prüf	-13363
sius	-13364
zung	-13365
äure	-13366
▁1,3	-13367
▁130	-13368
▁185	-13369
▁30-	-13370
▁450	-13371
▁900	-13372
▁Alb	-13373
▁Amb	-13374
▁Bad	-13375
▁Cre	-13376
▁Dän	-13377
▁För	-13378
▁GPS	-13379
▁Gru	-13380
▁Had	-13381
▁Mis	-13382
▁Net	-13383
▁Pep	-13384
▁Sho	-13385
▁Wur	-13386
▁hor	-13387
▁leb	-13388
▁öst	-13389
Meine	-13390
Nicht	-13391
aktor	-13392
akult	-13393
apfen	-13394
ehrte	-13395
herum	-13396
hänge	-13397
ibati	-13398
liber	-13399
ordet	-13400
reden	-13401
räder	-13402
verse	-13403
ßchen	-13404
ühren	-13405
▁3000	-13406
▁Beat	-13407
▁Beck	-13408
▁Cass	-13409
▁Erdn	-13410
▁Eric	-13411
▁Full	-13412
▁Hans	-13413
▁Hast	-13414
▁Holo	-13415
▁Korn	-13416
▁Leit	-13417
▁Mühe	-13418
▁Pack	-13419
▁Pent	-13420
▁Prov	-13421
▁Ross	-13422
▁Send	-13423
▁Senf	-13424
▁Sier	-13425
▁Skiz	-13426
▁Takt	-13427
▁Wall	-13428
▁bild	-13429
▁iron	-13430
▁nimm	-13431
▁nord	-13432
▁tote	-13433
Design	-13434
ameter	-13435
banken	-13436
bereit	-13437
drucks	-13438
eglich	-13439
ehrten	-13440
emente	-13441
erisch	-13442
frauen	-13443
gingen	-13444
iction	-13445
itären	-13446
mäßige	-13447
ologin	-13448
rahmen	-13449
regend	-13450
rocken	-13451
rollen	-13452
stream	-13453
ummeln	-13454
üsseln	-13455
▁Agnes	-13456
▁Allen	-13457
▁Bauer	-13458
▁Blind	-13459
▁Bogen	-13460
▁Bronx	-13461
▁Chips	-13462
▁Dalai	-13463
▁Engel	-13464
▁Ferne	-13465
▁Fleck	-13466
▁Georg	-13467
▁Geste	-13468
▁Harry	-13469
▁Kälte	-13470
▁Prakt	-13471
▁Ringe	-13472
▁Sarah	-13473
▁Sieht	-13474
▁Spass	-13475
▁Veter	-13476
▁Wille	-13477
▁erhöh	-13478
▁fügen	-13479
▁führe	-13480
▁hyper	-13481
▁lasen	-13482
▁minus	-13483
▁missb	-13484
▁preis	-13485
▁quant	-13486
▁solle	-13487
▁trock	-13488
▁verär	-13489
alender	-13490
fresser	-13491
kennung	-13492
spunkte	-13493
usionen	-13494
wertung	-13495
▁Action	-13496
▁Bedien	-13497
▁Briten	-13498
▁Börsen	-13499
▁Columb	-13500
▁Fasern	-13501
▁Filmem	-13502
▁Folien	-13503
▁Frosch	-13504
▁Frucht	-13505
▁Globus	-13506
▁Hammer	-13507
▁Ironie	-13508
▁Kisten	-13509
▁Kokain	-13510
▁Kosmos	-13511
▁Minder	-13512
▁Plakat	-13513
▁Schach	-13514
▁Schirm	-13515
▁Strafe	-13516
▁Umsatz	-13517
▁beruht	-13518
▁deines	-13519
▁design	-13520
▁dichte	-13521
▁folgte	-13522
▁ganzer	-13523
▁improv	-13524
▁jeweil	-13525
▁rettet	-13526
▁schrum	-13527
▁selekt	-13528
▁trinkt	-13529
▁tötete	-13530
▁vorant	-13531
▁woraus	-13532
▁Ärzten	-13533
gerissen	-13534
gesteuer	-13535
grenzung	-13536
ineering	-13537
mechanik	-13538
▁Celsius	-13539
▁Dilemma	-13540
▁Drachen	-13541
▁Figuren	-13542
▁Gebilde	-13543
▁Highway	-13544
▁Koordin	-13545
▁Märkten	-13546
▁Ozeanen	-13547
▁Perfekt	-13548
▁Piloten	-13549
▁Spender	-13550
▁Stärken	-13551
▁Symbole	-13552
▁Zufälle	-13553
▁anstren	-13554
▁dunkler	-13555
▁ernährt	-13556
▁erstmal	-13557
▁geschei	-13558
▁günstig	-13559
▁hiermit	-13560
▁meinten	-13561
▁protest	-13562
▁sichere	-13563
▁solches	-13564
▁sowieso	-13565
▁stehlen	-13566
▁verwirr	-13567
schreiten	-13568
▁Abwasser	-13569
▁Anstelle	-13570
▁Ausbruch	-13571
▁Behälter	-13572
▁Detektor	-13573
▁Dienstag	-13574
▁Hardware	-13575
▁Himalaya	-13576
▁Kiribati	-13577
▁Klienten	-13578
▁Langzeit	-13579
▁Magazine	-13580
▁Manifest	-13581
▁Meetings	-13582
▁Rückgang	-13583
▁Sandwich	-13584
▁Schienen	-13585
▁Singapur	-13586
▁Standort	-13587
▁Ursachen	-13588
▁Vollzeit	-13589
▁Ziemlich	-13590
▁Zustände	-13591
▁besorgen	-13592
▁bewerten	-13593
▁bewiesen	-13594
▁geringen	-13595
▁gesundes	-13596
▁gesunken	-13597
▁gewidmet	-13598
▁globales	-13599
▁isoliert	-13600
▁parallel	-13601
▁religiös	-13602
▁reproduz	-13603
▁schenken	-13604
▁sicheren	-13605
▁verlässt	-13606
▁verpasst	-13607
▁virtuell	-13608
▁weswegen	-13609
▁zustande	-13610
aterialien	-13611
▁Abschnitt	-13612
▁Atheisten	-13613
▁Bezahlung	-13614
▁Durchfall	-13615
▁Erfüllung	-13616
▁Fossilien	-13617
▁Neocortex	-13618
▁Phänomene	-13619
▁Pittsburg	-13620
▁Schaffung	-13621
▁Schwanger	-13622
▁abspielen	-13623
▁angezogen	-13624
▁ausgehend	-13625
▁ausgelöst	-13626
▁empfehlen	-13627
▁errichtet	-13628
▁gerichtet	-13629
▁geschenkt	-13630
▁gesteuert	-13631
▁grundsätz	-13632
▁gründeten	-13633
▁herkommen	-13634
▁hinterher	-13635
▁männliche	-13636
▁negativen	-13637
▁scheitern	-13638
▁skeptisch	-13639
▁verlaufen	-13640
▁verleihen	-13641
▁Überblick	-13642
geschrieben	-13643
▁Antikörper	-13644
▁Bestechung	-13645
▁Irgendwann	-13646
▁Journalist	-13647
▁Kontinente	-13648
▁Mahlzeiten	-13649
▁Musikstück	-13650
▁Mythologie	-13651
▁Nachdenken	-13652
▁Polizisten	-13653
▁Verletzung	-13654
▁angewendet	-13655
▁angewiesen	-13656
▁aufsteigen	-13657
▁bedeutende	-13658
▁begeistern	-13659
▁bevorzugen	-13660
▁gezeichnet	-13661
▁informiert	-13662
▁männlichen	-13663
▁ultimative	-13664
▁unausweich	-13665
▁versteckte	-13666
▁wahnsinnig	-13667
▁Angestellte	-13668
▁Anstrengung	-13669
▁Anwesenheit	-13670
▁Erschaffung	-13671
▁Infektionen	-13672
▁Prioritäten	-13673
▁Shakespeare	-13674
▁Solarzellen	-13675
▁Weihnachten	-13676
▁angefertigt	-13677
▁aufzunehmen	-13678
▁beigetragen	-13679
▁hervorragen	-13680
▁hinzugefügt	-13681
▁integrieren	-13682
▁praktischen	-13683
▁schnellsten	-13684
▁unglücklich	-13685
▁unsichtbare	-13686
▁verlangsamt	-13687
▁Übersetzung	-13688
▁Finanzierung	-13689
▁Kindergarten	-13690
▁Republikaner	-13691
▁alltäglichen	-13692
▁ausgestattet	-13693
▁chinesisches	-13694
▁erfolgreiche	-13695
▁französische	-13696
▁systematisch	-13697
▁umweltfreund	-13698
▁vergleichbar	-13699
▁verständlich	-13700
▁zehntausende	-13701
▁Krankenhäuser	-13702
▁Verhandlungen	-13703
▁Verpflichtung	-13704
▁Waschmaschine	-13705
▁argumentieren	-13706
▁gegenwärtigen	-13707
▁üblicherweise	-13708
▁Kommunikations	-13709
▁Krankenhäusern	-13710
▁allgegenwärtig	-13711
▁zusammenkommen	-13712
6.	-13713
Ep	-13714
We	-13715
oy	-13716
uv	-13717
400	-13718
Gem	-13719
Per	-13720
Wel	-13721
act	-13722
ado	-13723
afé	-13724
bot	-13725
bra	-13726
fle	-13727
syl	-13728
uen	-13729
vig	-13730
zog	-13731
öre	-13732
üpf	-13733
▁6.	-13734
▁98	-13735
▁IQ	-13736
▁PH	-13737
▁SS	-13738
▁ep	-13739
▁ju	-13740
Dies	-13741
allt	-13742
alys	-13743
bera	-13744
brem	-13745
ganz	-13746
heil	-13747
imik	-13748
kade	-13749
korn	-13750
oger	-13751
onto	-13752
rist	-13753
yota	-13754
zell	-13755
äres	-13756
öger	-13757
ührt	-13758
▁Cro	-13759
▁Cur	-13760
▁Ham	-13761
▁Hol	-13762
▁Joe	-13763
▁Leb	-13764
▁Len	-13765
▁Pir	-13766
▁Rio	-13767
▁Rut	-13768
▁Sky	-13769
▁Veg	-13770
▁ach	-13771
▁app	-13772
▁hel	-13773
▁kan	-13774
▁kün	-13775
▁str	-13776
Hallo	-13777
Lasst	-13778
abend	-13779
anzug	-13780
apper	-13781
atzen	-13782
awatt	-13783
diges	-13784
dring	-13785
ehrer	-13786
emark	-13787
ester	-13788
etenz	-13789
folgt	-13790
igste	-13791
neter	-13792
orgte	-13793
ungel	-13794
wolle	-13795
ücken	-13796
▁100-	-13797
▁1998	-13798
▁Bade	-13799
▁Bald	-13800
▁Coll	-13801
▁Dick	-13802
▁Dikt	-13803
▁Flow	-13804
▁Foot	-13805
▁Fuss	-13806
▁Gelb	-13807
▁Grau	-13808
▁Haft	-13809
▁Just	-13810
▁März	-13811
▁Nike	-13812
▁Play	-13813
▁Rose	-13814
▁blut	-13815
▁gefü	-13816
▁grob	-13817
▁harm	-13818
▁inne	-13819
▁lege	-13820
▁sexy	-13821
amente	-13822
ameras	-13823
anntes	-13824
effekt	-13825
farben	-13826
gender	-13827
haftet	-13828
imität	-13829
ingabe	-13830
ischte	-13831
ketten	-13832
kuchen	-13833
perten	-13834
regeln	-13835
rekord	-13836
swerte	-13837
ächern	-13838
▁Bemüh	-13839
▁Blüte	-13840
▁Bösen	-13841
▁Darin	-13842
▁Domin	-13843
▁Dreck	-13844
▁Force	-13845
▁Frakt	-13846
▁Gross	-13847
▁Gänse	-13848
▁Hausm	-13849
▁Häupt	-13850
▁Imper	-13851
▁Impro	-13852
▁Input	-13853
▁Jamie	-13854
▁Julia	-13855
▁Klebe	-13856
▁Kunde	-13857
▁Rechn	-13858
▁Risik	-13859
▁Route	-13860
▁Sudan	-13861
▁Veget	-13862
▁White	-13863
▁anger	-13864
▁betäu	-13865
▁bösen	-13866
▁dreck	-13867
▁dünne	-13868
▁einig	-13869
▁hohem	-13870
▁kämpf	-13871
▁laden	-13872
▁mitzu	-13873
▁niger	-13874
▁stört	-13875
▁toler	-13876
▁wollt	-13877
▁worin	-13878
▁wußte	-13879
▁zehnt	-13880
▁zudem	-13881
Origami	-13882
alteten	-13883
altungs	-13884
bewusst	-13885
dlicher	-13886
iologen	-13887
ivalent	-13888
iversen	-13889
otische	-13890
pflanzt	-13891
schwung	-13892
smodell	-13893
stunden	-13894
trinken	-13895
uchtung	-13896
▁Arthur	-13897
▁Banker	-13898
▁Bertie	-13899
▁Cheryl	-13900
▁Comedy	-13901
▁Dritte	-13902
▁Dörfer	-13903
▁Ersten	-13904
▁Erzeug	-13905
▁Flucht	-13906
▁Fusion	-13907
▁Gegner	-13908
▁Gelder	-13909
▁Hotels	-13910
▁Kleine	-13911
▁Klänge	-13912
▁Kurven	-13913
▁Lakota	-13914
▁Mumbai	-13915
▁Nieren	-13916
▁Oliver	-13917
▁Panzer	-13918
▁Patent	-13919
▁Philip	-13920
▁Platte	-13921
▁Prozed	-13922
▁Replik	-13923
▁Sierra	-13924
▁Silber	-13925
▁Sinnes	-13926
▁Spreng	-13927
▁Square	-13928
▁Stapel	-13929
▁Titels	-13930
▁Verfüg	-13931
▁Wäsche	-13932
▁Zehnte	-13933
▁bewaff	-13934
▁decken	-13935
▁erober	-13936
▁erzeug	-13937
▁extrah	-13938
▁fehlen	-13939
▁hierzu	-13940
▁leihen	-13941
▁nähern	-13942
▁perman	-13943
▁pflanz	-13944
▁planet	-13945
▁unvoll	-13946
▁verkab	-13947
▁ähneln	-13948
▁ähnelt	-13949
Bewegung	-13950
derweise	-13951
ilometer	-13952
isierten	-13953
leuchten	-13954
personen	-13955
rohungen	-13956
ähnliche	-13957
▁Akteure	-13958
▁Berater	-13959
▁Einzelt	-13960
▁Erfolge	-13961
▁Gründer	-13962
▁Konsens	-13963
▁Landung	-13964
▁Meisten	-13965
▁Migräne	-13966
▁Periode	-13967
▁Spazier	-13968
▁Teszler	-13969
▁Wassers	-13970
▁Wieviel	-13971
▁Wohnung	-13972
▁anfühlt	-13973
▁ausgeht	-13974
▁bezogen	-13975
▁bißchen	-13976
▁breiten	-13977
▁dezentr	-13978
▁entwarf	-13979
▁erreich	-13980
▁gelähmt	-13981
▁herumzu	-13982
▁immater	-13983
▁koordin	-13984
▁maximal	-13985
▁mochten	-13986
▁präzise	-13987
▁schläft	-13988
▁tödlich	-13989
▁vorange	-13990
▁älteste	-13991
▁überaus	-13992
betrieben	-13993
fahrzeuge	-13994
flossenth	-13995
liegenden	-13996
möglichen	-13997
schiebung	-13998
zügigkeit	-13999
▁Amazonas	-14000
▁Analysis	-14001
▁Beginnen	-14002
▁Besucher	-14003
▁Brooklyn	-14004
▁Gewissen	-14005
▁Meinungs	-14006
▁Orgasmus	-14007
▁Referenz	-14008
▁Resonanz	-14009
▁Rückkehr	-14010
▁Schulden	-14011
▁Schöpfer	-14012
▁Stimmung	-14013
▁Telefone	-14014
▁abnehmen	-14015
▁begegnet	-14016
▁benennen	-14017
▁ermordet	-14018
▁ermutigt	-14019
▁erwecken	-14020
▁fettleib	-14021
▁gestoßen	-14022
▁massiven	-14023
▁optische	-14024
▁radikale	-14025
▁sauberer	-14026
▁schienen	-14027
▁schließe	-14028
▁zeichnet	-14029
▁Ökonomie	-14030
vollziehen	-14031
▁Belastung	-14032
▁Datensatz	-14033
▁Disziplin	-14034
▁Forschern	-14035
▁Kalkstein	-14036
▁Kollision	-14037
▁Parasiten	-14038
▁Parkinson	-14039
▁Patientin	-14040
▁Schultern	-14041
▁Venezuela	-14042
▁Verlierer	-14043
▁Versicher	-14044
▁angeblich	-14045
▁angenehme	-14046
▁anspruchs	-14047
▁bekannter	-14048
▁berechnet	-14049
▁bewundern	-14050
▁identisch	-14051
▁mitmachen	-14052
▁offiziell	-14053
▁platziert	-14054
▁schmelzen	-14055
▁schwachen	-14056
▁schütteln	-14057
▁spazieren	-14058
▁typischen	-14059
▁umgekehrt	-14060
▁verhaftet	-14061
▁wertvolle	-14062
Dimensionen	-14063
sgeschichte	-14064
▁Astronomie	-14065
▁Einführung	-14066
▁Fortpflanz	-14067
▁Helikopter	-14068
▁Hoffnungen	-14069
▁Industrien	-14070
▁Konsequenz	-14071
▁Mineralien	-14072
▁Nobelpreis	-14073
▁Pittsburgh	-14074
▁Verwandten	-14075
▁Zusätzlich	-14076
▁aufgeteilt	-14077
▁aufwachsen	-14078
▁ausreichen	-14079
▁ausrichten	-14080
▁auszusehen	-14081
▁besprechen	-14082
▁beurteilen	-14083
▁denjenigen	-14084
▁entschloss	-14085
▁enttäuscht	-14086
▁ernsthafte	-14087
▁freundlich	-14088
▁herausfand	-14089
▁interaktiv	-14090
▁kollektive	-14091
▁staatliche	-14092
▁unbekannte	-14093
▁unerwartet	-14094
▁versichern	-14095
▁vorherigen	-14096
▁weitgehend	-14097
▁Überlebens	-14098
▁Belohnungen	-14099
▁Ergebnissen	-14100
▁Philosophen	-14101
▁Schizophren	-14102
▁absichtlich	-14103
▁alternative	-14104
▁anschließen	-14105
▁authentisch	-14106
▁derzeitigen	-14107
▁einbeziehen	-14108
▁entscheidet	-14109
▁reflektiert	-14110
▁ökologische	-14111
amerikanische	-14112
▁Enzyklopädie	-14113
▁Gravitations	-14114
▁Jahrhunderte	-14115
▁Meeresschutz	-14116
▁Verteidigung	-14117
▁größtenteils	-14118
▁programmiert	-14119
▁reflektieren	-14120
▁zwangsläufig	-14121
▁Verschwendung	-14122
▁Verteidigungs	-14123
▁Wissenschafts	-14124
▁abgeschnitten	-14125
▁demonstrieren	-14126
▁dokumentieren	-14127
▁entsprechende	-14128
▁erstaunliches	-14129
▁fantastisches	-14130
▁herausfordern	-14131
▁programmieren	-14132
▁Rechenleistung	-14133
▁Skelettmuskeln	-14134
▁Herzkrankheiten	-14135
▁Transplantation	-14136
He	-14137
IA	-14138
OK	-14139
Um	-14140
ae	-14141
ee	-14142
fu	-14143
po	-14144
äs	-14145
▁ä	-14146
100	-14147
ARS	-14148
Lie	-14149
Mar	-14150
Tag	-14151
Wür	-14152
aks	-14153
ano	-14154
bon	-14155
bus	-14156
cet	-14157
dep	-14158
esc	-14159
ila	-14160
ket	-14161
kör	-14162
orm	-14163
rif	-14164
usp	-14165
ölz	-14166
üht	-14167
▁3-	-14168
▁II	-14169
▁IT	-14170
▁KT	-14171
▁LI	-14172
▁PR	-14173
bett	-14174
derm	-14175
egel	-14176
eith	-14177
elos	-14178
erie	-14179
gers	-14180
iegt	-14181
ikus	-14182
imum	-14183
isha	-14184
itis	-14185
konz	-14186
kreu	-14187
kömm	-14188
lief	-14189
neur	-14190
omal	-14191
onte	-14192
phin	-14193
rina	-14194
ring	-14195
rott	-14196
uddh	-14197
uert	-14198
ulin	-14199
uppe	-14200
üten	-14201
▁80%	-14202
▁90%	-14203
▁Ess	-14204
▁Gor	-14205
▁Hit	-14206
▁Käf	-14207
▁Lev	-14208
▁Nah	-14209
▁Nar	-14210
▁Pik	-14211
▁Pix	-14212
▁Que	-14213
▁UNO	-14214
▁Wil	-14215
▁Zip	-14216
▁abw	-14217
▁gra	-14218
▁hyd	-14219
▁kar	-14220
▁lud	-14221
▁ran	-14222
▁tox	-14223
ahnen	-14224
autos	-14225
beine	-14226
essel	-14227
fonen	-14228
forme	-14229
genda	-14230
glied	-14231
gläub	-14232
hauer	-14233
ideos	-14234
idsch	-14235
ioden	-14236
iving	-14237
komme	-14238
level	-14239
loser	-14240
mitte	-14241
onien	-14242
oomen	-14243
opfen	-14244
oskop	-14245
ottet	-14246
schle	-14247
spann	-14248
sucht	-14249
träge	-14250
ugger	-14251
ultiv	-14252
vania	-14253
▁..."	-14254
▁1900	-14255
▁2002	-14256
▁Alan	-14257
▁Bhut	-14258
▁Biok	-14259
▁Club	-14260
▁Comm	-14261
▁East	-14262
▁Impl	-14263
▁Isol	-14264
▁Lama	-14265
▁Link	-14266
▁Mand	-14267
▁Mord	-14268
▁Nimm	-14269
▁Oben	-14270
▁Pier	-14271
▁Rena	-14272
▁Rund	-14273
▁Saat	-14274
▁Seen	-14275
▁Sehn	-14276
▁Sony	-14277
▁Tran	-14278
▁Tsch	-14279
▁Ware	-14280
▁Zaun	-14281
▁Zorn	-14282
▁arkt	-14283
▁bahn	-14284
▁baue	-14285
▁gelb	-14286
▁impl	-14287
▁ruin	-14288
Gemein	-14289
aurant	-14290
blühen	-14291
ediven	-14292
ennten	-14293
entrum	-14294
fertig	-14295
frarot	-14296
händer	-14297
immung	-14298
itives	-14299
kehrte	-14300
lieben	-14301
packen	-14302
reuung	-14303
schütz	-14304
skrank	-14305
spezif	-14306
uspend	-14307
zigern	-14308
▁Anbau	-14309
▁Apoll	-14310
▁Danny	-14311
▁Erdöl	-14312
▁Ersch	-14313
▁Faden	-14314
▁Grüne	-14315
▁Higgs	-14316
▁Jerry	-14317
▁Juden	-14318
▁Keith	-14319
▁Klick	-14320
▁Lachs	-14321
▁Rasen	-14322
▁Runde	-14323
▁Strat	-14324
▁Teils	-14325
▁These	-14326
▁Urban	-14327
▁augen	-14328
▁baten	-14329
▁damal	-14330
▁gemäß	-14331
▁gestr	-14332
▁holte	-14333
▁kluge	-14334
▁neutr	-14335
▁recyc	-14336
▁reine	-14337
▁teilt	-14338
▁verge	-14339
Entwick	-14340
achtens	-14341
anschau	-14342
artiger	-14343
bildern	-14344
bindung	-14345
deutend	-14346
eisters	-14347
essoren	-14348
flaster	-14349
fühlend	-14350
issance	-14351
orgungs	-14352
platten	-14353
prinzip	-14354
reckend	-14355
stiegen	-14356
version	-14357
zurufen	-14358
ämpfung	-14359
▁Ablenk	-14360
▁Aktien	-14361
▁Archiv	-14362
▁Butter	-14363
▁Campus	-14364
▁Differ	-14365
▁Donner	-14366
▁Ebenso	-14367
▁Enthus	-14368
▁Fakult	-14369
▁Falken	-14370
▁Falten	-14371
▁Fangen	-14372
▁Flöten	-14373
▁Ganges	-14374
▁Grösse	-14375
▁Insekt	-14376
▁Joseph	-14377
▁Joshua	-14378
▁Kibera	-14379
▁Marath	-14380
▁Margar	-14381
▁Mythen	-14382
▁Neuron	-14383
▁Reifen	-14384
▁Schätz	-14385
▁Seifen	-14386
▁Solche	-14387
▁Source	-14388
▁Sporen	-14389
▁Spring	-14390
▁Strang	-14391
▁Stunts	-14392
▁Trauer	-14393
▁Untert	-14394
▁Worauf	-14395
▁Zeitra	-14396
▁absurd	-14397
▁aktive	-14398
▁beacht	-14399
▁bekomm	-14400
▁differ	-14401
▁einger	-14402
▁einzur	-14403
▁fehlte	-14404
▁fällen	-14405
▁harten	-14406
▁herauf	-14407
▁hüpfen	-14408
▁kleben	-14409
▁klüger	-14410
▁kriege	-14411
▁leitet	-14412
▁liefer	-14413
▁melden	-14414
▁profit	-14415
▁regnet	-14416
▁scharf	-14417
▁signif	-14418
▁treffe	-14419
▁veranl	-14420
▁Ängste	-14421
basierte	-14422
flaschen	-14423
istenten	-14424
kulieren	-14425
streifen	-14426
sylvania	-14427
tzündung	-14428
▁Abgrund	-14429
▁Authent	-14430
▁Cassini	-14431
▁Cholera	-14432
▁Händler	-14433
▁Krabben	-14434
▁Kräften	-14435
▁Lähmung	-14436
▁Löchern	-14437
▁Marktes	-14438
▁Nummern	-14439
▁Pflicht	-14440
▁Quallen	-14441
▁Robotik	-14442
▁Schlamm	-14443
▁Schmuck	-14444
▁Seattle	-14445
▁Seitdem	-14446
▁Silikon	-14447
▁Sonntag	-14448
▁Sterben	-14449
▁Störung	-14450
▁Trainer	-14451
▁Unrecht	-14452
▁Vermitt	-14453
▁Währung	-14454
▁Zuhören	-14455
▁abgeben	-14456
▁allerer	-14457
▁anlegen	-14458
▁ausüben	-14459
▁befreit	-14460
▁bemühen	-14461
▁drucken	-14462
▁eingesp	-14463
▁einheit	-14464
▁entschl	-14465
▁erwarte	-14466
▁extreme	-14467
▁flachen	-14468
▁gefilmt	-14469
▁gehörte	-14470
▁geniale	-14471
▁grösste	-14472
▁idealen	-14473
▁längere	-14474
▁mancher	-14475
▁rettete	-14476
▁schufen	-14477
▁starker	-14478
▁töteten	-14479
▁waschen	-14480
▁Überein	-14481
allererst	-14482
arbeitern	-14483
artigkeit	-14484
kreislauf	-14485
sprobleme	-14486
stellungs	-14487
ständigen	-14488
twörtlich	-14489
▁Autobahn	-14490
▁Beachten	-14491
▁Behinder	-14492
▁Erweiter	-14493
▁Kliniken	-14494
▁Ladungen	-14495
▁Lehrplan	-14496
▁Modellen	-14497
▁Motorrad	-14498
▁Optionen	-14499
▁Primaten	-14500
▁Raubtier	-14501
▁Strahlen	-14502
▁Synthese	-14503
▁Südasien	-14504
▁Zeitungs	-14505
▁abhängen	-14506
▁brillian	-14507
▁erforder	-14508
▁erstmals	-14509
▁gefeiert	-14510
▁geistige	-14511
▁herausge	-14512
▁kollabor	-14513
▁moderner	-14514
▁peinlich	-14515
▁sauberes	-14516
▁schwache	-14517
▁serviert	-14518
▁synchron	-14519
▁vereinen	-14520
▁zukommen	-14521
krankungen	-14522
ologisches	-14523
stimmungen	-14524
änderungen	-14525
▁Empfänger	-14526
▁Förderung	-14527
▁Gegenüber	-14528
▁Hubschrau	-14529
▁Laborator	-14530
▁Lektionen	-14531
▁Malediven	-14532
▁Nanotechn	-14533
▁Osteuropa	-14534
▁Reduktion	-14535
▁Varianten	-14536
▁absoluten	-14537
▁angreifen	-14538
▁annähernd	-14539
▁aufwachen	-14540
▁aussuchen	-14541
▁begründet	-14542
▁beruhigen	-14543
▁depressiv	-14544
▁emotional	-14545
▁entkommen	-14546
▁entnehmen	-14547
▁möglichst	-14548
▁nachdenke	-14549
▁niedrigen	-14550
▁reichhalt	-14551
▁starteten	-14552
▁teilhaben	-14553
▁verbringt	-14554
▁vermehren	-14555
▁visueller	-14556
▁übergeben	-14557
[...]
