<pad>	0
<unk>	0
<s>	0
</s>	0
▁t	-0
▁th	-1
▁a	-2
in	-3
▁the	-4
▁w	-5
re	-6
▁o	-7
▁s	-8
at	-9
nd	-10
er	-11
ou	-12
is	-13
▁c	-14
it	-15
▁b	-16
ing	-17
▁h	-18
▁m	-19
en	-20
▁to	-21
on	-22
▁p	-23
▁f	-24
an	-25
es	-26
▁of	-27
ll	-28
▁d	-29
or	-30
▁I	-31
▁in	-32
▁l	-33
▁and	-34
ed	-35
ar	-36
▁y	-37
▁that	-38
▁g	-39
om	-40
as	-41
ic	-42
▁you	-43
le	-44
ve	-45
▁A	-46
▁n	-47
▁wh	-48
al	-49
▁we	-50
▁is	-51
ow	-52
▁it	-53
ut	-54
us	-55
▁be	-56
▁e	-57
ion	-58
ot	-59
et	-60
▁T	-61
▁And	-62
▁ha	-63
▁on	-64
▁re	-65
ct	-66
ent	-67
ld	-68
ver	-69
▁Th	-70
ay	-71
id	-72
all	-73
▁this	-74
se	-75
im	-76
ig	-77
▁S	-78
ere	-79
st	-80
ro	-81
▁st	-82
ch	-83
ly	-84
ur	-85
ke	-86
▁-	-87
▁--	-88
ce	-89
if	-90
▁for	-91
▁was	-92
▁do	-93
▁W	-94
▁an	-95
ir	-96
ra	-97
oo	-98
▁are	-99
ally	-100
ith	-101
th	-102
▁k	-103
op	-104
▁have	-105
▁ab	-106
am	-107
▁u	-108
▁they	-109
▁with	-110
▁se	-111
▁can	-112
▁B	-113
out	-114
▁go	-115
▁as	-116
▁what	-117
ht	-118
very	-119
▁mo	-120
ation	-121
▁li	-122
▁so	-123
▁So	-124
▁com	-125
▁wor	-126
▁he	-127
ad	-128
▁about	-129
ill	-130
▁at	-131
ould	-132
▁sh	-133
ant	-134
▁not	-135
▁me	-136
▁ne	-137
▁all	-138
il	-139
ust	-140
ul	-141
ge	-142
▁The	-143
ol	-144
ter	-145
▁j	-146
▁"	-147
▁there	-148
▁fr	-149
use	-150
▁r	-151
▁som	-152
▁ex	-153
▁ch	-154
ers	-155
ight	-156
▁pro	-157
▁or	-158
▁pe	-159
▁It	-160
ear	-161
um	-162
ure	-163
art	-164
▁kn	-165
▁one	-166
pp	-167
ck	-168
▁de	-169
▁my	-170
ople	-171
▁We	-172
▁like	-173
▁con	-174
ca	-175
▁people	-176
▁ma	-177
ate	-178
▁from	-179
ess	-180
▁know	-181
est	-182
▁N	-183
ity	-184
ind	-185
ive	-186
nt	-187
ble	-188
ect	-189
ink	-190
ies	-191
▁thing	-192
▁out	-193
ist	-194
▁int	-195
qu	-196
▁just	-197
▁H	-198
ook	-199
rou	-200
▁al	-201
▁but	-202
▁C	-203
▁M	-204
▁very	-205
▁te	-206
un	-207
cause	-208
▁v	-209
▁up	-210
ide	-211
▁us	-212
▁sp	-213
▁see	-214
▁get	-215
▁them	-216
▁our	-217
▁But	-218
▁think	-219
ie	-220
and	-221
ich	-222
▁these	-223
ort	-224
▁if	-225
os	-226
▁pl	-227
▁going	-228
her	-229
▁who	-230
▁Y	-231
▁tr	-232
▁1	-233
el	-234
▁act	-235
▁by	-236
og	-237
▁some	-238
▁year	-239
ain	-240
one	-241
▁because	-242
▁which	-243
▁had	-244
▁sa	-245
00	-246
ci	-247
."	-248
▁your	-249
▁tim	-250
our	-251
▁when	-252
od	-253
▁would	-254
iv	-255
▁want	-256
▁really	-257
ine	-258
▁im	-259
ually	-260
▁look	-261
▁more	-262
em	-263
▁here	-264
ast	-265
▁O	-266
▁comp	-267
▁ta	-268
ood	-269
▁were	-270
ame	-271
ack	-272
▁This	-273
ard	-274
▁how	-275
▁work	-276
▁Wh	-277
ap	-278
reat	-279
ous	-280
▁su	-281
hing	-282
▁E	-283
▁way	-284
▁en	-285
▁world	-286
ment	-287
gh	-288
▁their	-289
▁then	-290
iz	-291
act	-292
▁You	-293
▁time	-294
▁say	-295
▁has	-296
ose	-297
▁don	-298
▁le	-299
▁things	-300
ther	-301
ore	-302
▁actually	-303
ong	-304
▁every	-305
▁into	-306
▁qu	-307
▁P	-308
ace	-309
▁will	-310
ag	-311
itt	-312
▁per	-313
▁D	-314
ild	-315
ab	-316
▁exp	-317
▁G	-318
▁now	-319
▁fe	-320
▁years	-321
ans	-322
alk	-323
are	-324
▁where	-325
▁could	-326
▁♫	-327
▁man	-328
▁did	-329
res	-330
▁L	-331
▁ev	-332
▁ag	-333
▁other	-334
ions	-335
▁co	-336
age	-337
▁somet	-338
▁any	-339
▁They	-340
ach	-341
ff	-342
ence	-343
ud	-344
▁happ	-345
nder	-346
▁make	-347
▁said	-348
▁been	-349
▁kind	-350
▁F	-351
▁no	-352
▁tw	-353
ice	-354
▁Now	-355
iff	-356
▁right	-357
▁R	-358
▁got	-359
own	-360
▁start	-361
▁cl	-362
ree	-363
ia	-364
▁un	-365
▁bu	-366
ical	-367
irst	-368
▁than	-369
red	-370
▁back	-371
ip	-372
▁diff	-373
▁need	-374
▁something	-375
so	-376
▁In	-377
ry	-378
ign	-379
▁part	-380
▁2	-381
ittle	-382
▁over	-383
▁little	-384
▁po	-385
▁mu	-386
ite	-387
▁two	-388
round	-389
olog	-390
ell	-391
▁imp	-392
▁much	-393
ife	-394
▁pr	-395
ib	-396
▁call	-397
ory	-398
▁lot	-399
ount	-400
pt	-401
▁first	-402
ass	-403
ater	-404
ome	-405
▁ar	-406
▁new	-407
ang	-408
▁dis	-409
▁That	-410
▁talk	-411
ens	-412
ep	-413
▁those	-414
ac	-415
sel	-416
ght	-417
way	-418
▁differe	-419
▁lo	-420
▁also	-421
▁des	-422
ound	-423
orm	-424
ue	-425
ody	-426
▁cont	-427
ple	-428
▁spe	-429
cent	-430
▁ro	-431
▁she	-432
ving	-433
▁ph	-434
▁life	-435
king	-436
▁under	-437
ult	-438
▁only	-439
co	-440
other	-441
vel	-442
ves	-443
ber	-444
▁most	-445
▁good	-446
▁J	-447
▁his	-448
▁put	-449
▁down	-450
▁There	-451
▁ac	-452
▁bet	-453
▁sy	-454
▁hum	-455
ms	-456
able	-457
ish	-458
int	-459
ric	-460
▁ide	-461
ated	-462
▁take	-463
▁res	-464
▁ad	-465
▁bl	-466
▁am	-467
▁does	-468
ph	-469
▁day	-470
▁around	-471
uct	-472
ations	-473
rough	-474
▁real	-475
ial	-476
▁different	-477
rain	-478
pl	-479
▁show	-480
▁What	-481
▁even	-482
ick	-483
▁many	-484
▁being	-485
mer	-486
▁her	-487
pe	-488
ance	-489
▁through	-490
ob	-491
ars	-492
ning	-493
ict	-494
▁pre	-495
ire	-496
ase	-497
ade	-498
ark	-499
▁U	-500
▁off	-501
▁happen	-502
ange	-503
ible	-504
▁He	-505
▁doing	-506
▁too	-507
▁come	-508
▁thou	-509
ank	-510
ary	-511
▁try	-512
ak	-513
cess	-514
▁tell	-515
▁proble	-516
ents	-517
▁big	-518
▁br	-519
▁great	-520
▁use	-521
▁same	-522
he	-523
chn	-524
ject	-525
▁three	-526
ne	-527
iver	-528
▁fl	-529
ors	-530
▁comm	-531
illion	-532
▁sm	-533
ether	-534
uc	-535
▁If	-536
▁inc	-537
ress	-538
ys	-539
▁fact	-540
ual	-541
xt	-542
▁gen	-543
body	-544
thing	-545
▁Ch	-546
urn	-547
wn	-548
ful	-549
ting	-550
▁may	-551
ically	-552
▁techn	-553
ved	-554
form	-555
ool	-556
per	-557
ath	-558
ology	-559
tern	-560
▁count	-561
day	-562
stem	-563
▁human	-564
▁str	-565
▁wr	-566
row	-567
▁build	-568
▁ra	-569
▁K	-570
▁well	-571
▁gu	-572
▁called	-573
ile	-574
ied	-575
▁made	-576
▁pers	-577
▁child	-578
▁sur	-579
▁long	-580
▁af	-581
ces	-582
▁find	-583
ower	-584
ons	-585
fore	-586
▁sim	-587
be	-588
te	-589
self	-590
▁percent	-591
igh	-592
▁dec	-593
▁tra	-594
▁design	-595
ious	-596
▁inv	-597
▁system	-598
ics	-599
▁again	-600
▁bel	-601
erest	-602
nds	-603
▁ind	-604
▁let	-605
ating	-606
▁bec	-607
▁app	-608
▁em	-609
ord	-610
▁mean	-611
▁Well	-612
les	-613
▁fo	-614
ize	-615
▁Af	-616
we	-617
oss	-618
▁last	-619
?"	-620
▁quest	-621
ert	-622
ft	-623
000	-624
▁why	-625
ty	-626
▁Be	-627
ren	-628
▁should	-629
▁underst	-630
▁cour	-631
▁import	-632
▁thought	-633
▁interest	-634
ition	-635
▁car	-636
▁idea	-637
ew	-638
ian	-639
▁sort	-640
▁own	-641
▁feel	-642
av	-643
▁bas	-644
▁rem	-645
▁end	-646
▁ob	-647
▁creat	-648
▁play	-649
▁went	-650
▁after	-651
▁stud	-652
▁change	-653
,000	-654
cial	-655
▁didn	-656
ough	-657
ates	-658
▁sc	-659
▁him	-660
▁rel	-661
ull	-662
▁course	-663
ese	-664
ub	-665
▁dr	-666
▁started	-667
▁important	-668
ities	-669
▁gl	-670
▁another	-671
▁person	-672
▁lear	-673
▁point	-674
ution	-675
ail	-676
▁bit	-677
▁plan	-678
con	-679
▁hel	-680
▁understand	-681
▁3	-682
▁give	-683
▁today	-684
gan	-685
▁wom	-686
▁its	-687
▁exper	-688
ise	-689
▁ask	-690
▁sch	-691
▁problem	-692
▁St	-693
ven	-694
ility	-695
▁prod	-696
▁story	-697
▁turn	-698
▁belie	-699
..	-700
ix	-701
ular	-702
ense	-703
▁sl	-704
▁kid	-705
▁before	-706
▁ent	-707
▁sci	-708
▁water	-709
▁never	-710
als	-711
▁inst	-712
▁ago	-713
▁ins	-714
▁gra	-715
old	-716
▁able	-717
▁brain	-718
kes	-719
ost	-720
▁Thank	-721
ave	-722
▁exam	-723
▁cons	-724
ily	-725
▁mon	-726
oth	-727
▁few	-728
lect	-729
▁better	-730
▁ke	-731
▁place	-732
▁10	-733
▁cr	-734
▁19	-735
▁Afric	-736
▁came	-737
▁help	-738
ists	-739
▁trans	-740
▁next	-741
▁bo	-742
▁sol	-743
und	-744
▁mod	-745
ward	-746
read	-747
▁stu	-748
▁inter	-749
▁tog	-750
▁together	-751
▁still	-752
▁might	-753
▁whole	-754
▁Because	-755
ros	-756
▁love	-757
ited	-758
ature	-759
▁power	-760
▁school	-761
▁high	-762
▁comple	-763
▁V	-764
▁fam	-765
meric	-766
ather	-767
,"	-768
ng	-769
atch	-770
▁imag	-771
▁technology	-772
▁art	-773
ute	-774
▁each	-775
▁ser	-776
▁done	-777
▁four	-778
▁small	-779
▁found	-780
velop	-781
▁num	-782
lic	-783
▁coll	-784
▁ter	-785
ience	-786
▁When	-787
cond	-788
▁min	-789
ween	-790
ah	-791
▁cre	-792
▁Americ	-793
ific	-794
▁commun	-795
▁used	-796
ways	-797
iness	-798
▁comput	-799
▁looking	-800
▁million	-801
ably	-802
gy	-803
▁ext	-804
▁old	-805
▁question	-806
▁pat	-807
▁fin	-808
ram	-809
iss	-810
ized	-811
▁pol	-812
alth	-813
▁cent	-814
▁doesn	-815
▁between	-816
▁light	-817
▁rec	-818
▁partic	-819
▁20	-820
ures	-821
here	-822
▁la	-823
ork	-824
cept	-825
arth	-826
▁develop	-827
az	-828
ope	-829
▁building	-830
▁move	-831
▁How	-832
▁read	-833
▁lar	-834
▁learn	-835
ets	-836
ered	-837
▁wanted	-838
▁away	-839
▁expl	-840
▁met	-841
▁pict	-842
ural	-843
ness	-844
▁far	-845
▁poss	-846
▁always	-847
oney	-848
▁5	-849
ird	-850
ational	-851
▁bi	-852
▁trying	-853
▁grow	-854
▁el	-855
ative	-856
▁believe	-857
▁sk	-858
▁cell	-859
▁working	-860
▁op	-861
▁space	-862
▁mom	-863
gin	-864
▁att	-865
▁book	-866
▁gener	-867
▁reas	-868
ract	-869
▁doll	-870
▁live	-871
▁children	-872
▁example	-873
▁dat	-874
conom	-875
ote	-876
▁kids	-877
▁Un	-878
▁word	-879
▁eff	-880
ands	-881
▁supp	-882
selves	-883
▁cap	-884
▁giv	-885
▁took	-886
▁ever	-887
ug	-888
ont	-889
▁ed	-890
▁med	-891
▁hard	-892
▁bus	-893
formation	-894
▁everything	-895
aut	-896
ross	-897
▁Ind	-898
cy	-899
ger	-900
▁beh	-901
▁stuff	-902
▁Africa	-903
▁run	-904
▁prob	-905
▁econom	-906
▁univer	-907
▁4	-908
aces	-909
▁war	-910
▁chang	-911
oc	-912
▁five	-913
▁money	-914
▁anim	-915
▁country	-916
▁project	-917
nce	-918
nect	-919
alf	-920
arch	-921
ock	-922
▁cor	-923
▁mus	-924
ments	-925
ps	-926
▁sub	-927
▁care	-928
▁One	-929
▁less	-930
▁data	-931
▁organ	-932
▁sense	-933
ergy	-934
▁teach	-935
▁enough	-936
atter	-937
▁second	-938
▁vis	-939
▁interesting	-940
▁getting	-941
ism	-942
▁rep	-943
▁thinking	-944
ogra	-945
▁spec	-946
vers	-947
▁women	-948
▁food	-949
▁wo	-950
▁create	-951
ries	-952
ks	-953
▁Here	-954
▁left	-955
▁quite	-956
ouse	-957
▁resp	-958
▁These	-959
ertain	-960
▁happened	-961
iew	-962
▁As	-963
▁inf	-964
iron	-965
▁comes	-966
▁maybe	-967
▁process	-968
oy	-969
▁lead	-970
▁beaut	-971
ever	-972
ines	-973
▁cou	-974
▁energy	-975
rib	-976
▁dollars	-977
▁fun	-978
▁pie	-979
▁walk	-980
▁health	-981
▁bring	-982
▁compan	-983
▁probably	-984
lear	-985
▁head	-986
tty	-987
hip	-988
▁form	-989
▁mark	-990
led	-991
ital	-992
▁hand	-993
ten	-994
▁fut	-995
air	-996
its	-997
▁eng	-998
▁using	-999
▁information	-1000
▁mind	-1001
▁number	-1002
▁OK	-1003
▁says	-1004
▁means	-1005
▁reg	-1006
▁prog	-1007
▁frie	-1008
▁elect	-1009
▁She	-1010
▁talking	-1011
▁pres	-1012
▁sing	-1013
▁begin	-1014
▁month	-1015
▁grou	-1016
▁My	-1017
▁open	-1018
▁making	-1019
▁pretty	-1020
cer	-1021
▁future	-1022
▁coming	-1023
▁acc	-1024
▁home	-1025
▁planet	-1026
▁anything	-1027
▁best	-1028
sw	-1029
▁connect	-1030
▁times	-1031
▁else	-1032
▁side	-1033
▁room	-1034
reen	-1035
vern	-1036
ues	-1037
▁cur	-1038
▁set	-1039
▁An	-1040
▁conf	-1041
▁become	-1042
ories	-1043
▁half	-1044
▁hist	-1045
ograph	-1046
ier	-1047
▁air	-1048
▁dist	-1049
▁Earth	-1050
iting	-1051
▁ca	-1052
▁model	-1053
▁answ	-1054
cus	-1055
▁ear	-1056
▁phot	-1057
▁picture	-1058
ond	-1059
▁gr	-1060
▁pop	-1061
▁env	-1062
ident	-1063
▁goes	-1064
olution	-1065
me	-1066
▁hope	-1067
▁keep	-1068
ention	-1069
▁bad	-1070
▁seen	-1071
ash	-1072
▁without	-1073
ient	-1074
▁wee	-1075
▁wonder	-1076
ately	-1077
▁product	-1078
▁pub	-1079
▁simple	-1080
▁fig	-1081
pr	-1082
▁business	-1083
▁add	-1084
▁char	-1085
ced	-1086
idd	-1087
ner	-1088
▁All	-1089
ortun	-1090
▁sign	-1091
▁red	-1092
▁reason	-1093
▁Is	-1094
▁glob	-1095
▁govern	-1096
▁ideas	-1097
▁top	-1098
ety	-1099
ings	-1100
▁opp	-1101
ake	-1102
▁such	-1103
ott	-1104
▁six	-1105
▁stand	-1106
▁job	-1107
▁saw	-1108
▁moment	-1109
ken	-1110
gest	-1111
▁No	-1112
▁ord	-1113
▁200	-1114
▁allow	-1115
▁environ	-1116
irl	-1117
▁cam	-1118
▁For	-1119
▁Chin	-1120
▁having	-1121
▁def	-1122
▁hour	-1123
▁particular	-1124
▁col	-1125
▁cult	-1126
imes	-1127
ince	-1128
▁New	-1129
ED	-1130
▁basically	-1131
▁Se	-1132
ike	-1133
where	-1134
ided	-1135
▁body	-1136
▁pass	-1137
▁matter	-1138
▁dem	-1139
▁makes	-1140
iter	-1141
ember	-1142
▁certain	-1143
▁ey	-1144
▁sound	-1145
▁happens	-1146
▁across	-1147
▁billion	-1148
▁universe	-1149
▁told	-1150
str	-1151
▁computer	-1152
▁phys	-1153
▁problems	-1154
▁living	-1155
most	-1156
▁educ	-1157
▁contro	-1158
▁countries	-1159
▁ways	-1160
▁eas	-1161
▁beautif	-1162
▁saying	-1163
ilt	-1164
▁guy	-1165
▁mor	-1166
▁val	-1167
▁days	-1168
ization	-1169
llow	-1170
ior	-1171
uring	-1172
▁Al	-1173
▁contin	-1174
▁stop	-1175
aps	-1176
▁experience	-1177
▁det	-1178
▁young	-1179
ices	-1180
▁social	-1181
▁science	-1182
...	-1183
Wh	-1184
ots	-1185
ught	-1186
▁bre	-1187
▁sit	-1188
▁complete	-1189
▁par	-1190
▁rest	-1191
▁Let	-1192
▁both	-1193
▁scient	-1194
lf	-1195
▁mach	-1196
▁lives	-1197
man	-1198
▁case	-1199
▁later	-1200
ulation	-1201
▁ty	-1202
▁aut	-1203
ream	-1204
▁asked	-1205
▁TED	-1206
▁ref	-1207
▁incred	-1208
ead	-1209
▁list	-1210
io	-1211
▁prot	-1212
▁equ	-1213
ready	-1214
▁music	-1215
▁'	-1216
▁history	-1217
ime	-1218
ction	-1219
▁disco	-1220
▁family	-1221
▁looks	-1222
▁beautiful	-1223
▁God	-1224
▁sure	-1225
▁sw	-1226
▁level	-1227
▁environment	-1228
ts	-1229
ying	-1230
▁news	-1231
▁heard	-1232
uce	-1233
▁thous	-1234
▁global	-1235
ene	-1236
▁soci	-1237
▁possible	-1238
ins	-1239
eah	-1240
▁yet	-1241
▁wrong	-1242
utes	-1243
▁che	-1244
▁mag	-1245
aterial	-1246
unch	-1247
ality	-1248
▁heart	-1249
▁almost	-1250
▁mil	-1251
▁fore	-1252
side	-1253
▁hear	-1254
▁figure	-1255
▁already	-1256
uge	-1257
▁100	-1258
▁unt	-1259
ants	-1260
angu	-1261
osed	-1262
▁suc	-1263
▁oce	-1264
▁vide	-1265
▁while	-1266
▁nothing	-1267
uck	-1268
▁inside	-1269
▁...	-1270
▁amaz	-1271
▁nature	-1272
ury	-1273
▁tre	-1274
▁large	-1275
arr	-1276
▁kill	-1277
▁single	-1278
br	-1279
ective	-1280
▁piece	-1281
▁[	-1282
▁places	-1283
▁everybody	-1284
ov	-1285
▁answer	-1286
▁market	-1287
▁once	-1288
▁langu	-1289
▁15	-1290
▁cost	-1291
▁must	-1292
▁true	-1293
▁India	-1294
▁vir	-1295
▁whether	-1296
itive	-1297
▁couple	-1298
orn	-1299
ages	-1300
▁species	-1301
less	-1302
iddle	-1303
▁watch	-1304
▁age	-1305
med	-1306
▁50	-1307
▁exc	-1308
acter	-1309
▁dire	-1310
▁test	-1311
▁looked	-1312
▁30	-1313
▁within	-1314
▁material	-1315
allen	-1316
▁Or	-1317
▁United	-1318
▁land	-1319
imate	-1320
▁group	-1321
▁fil	-1322
▁loc	-1323
▁girl	-1324
▁rese	-1325
▁works	-1326
outh	-1327
▁prof	-1328
▁months	-1329
kay	-1330
ivid	-1331
ling	-1332
▁ass	-1333
▁share	-1334
▁wa	-1335
lish	-1336
▁Then	-1337
ering	-1338
▁line	-1339
▁exact	-1340
▁quick	-1341
ush	-1342
▁amazing	-1343
▁community	-1344
▁z	-1345
vious	-1346
land	-1347
oice	-1348
arent	-1349
▁city	-1350
ator	-1351
▁Why	-1352
ivity	-1353
rop	-1354
▁men	-1355
▁deep	-1356
▁leg	-1357
▁built	-1358
work	-1359
▁often	-1360
▁polit	-1361
gen	-1362
ield	-1363
▁view	-1364
▁abs	-1365
▁imagine	-1366
aw	-1367
▁cells	-1368
ases	-1369
▁remember	-1370
▁Br	-1371
▁until	-1372
face	-1373
▁cra	-1374
▁deal	-1375
▁nat	-1376
▁front	-1377
▁6	-1378
ully	-1379
▁night	-1380
▁object	-1381
de	-1382
to	-1383
▁iss	-1384
▁kinds	-1385
▁States	-1386
▁dise	-1387
▁public	-1388
▁challen	-1389
up	-1390
ians	-1391
▁entire	-1392
▁itself	-1393
▁face	-1394
undred	-1395
▁decided	-1396
▁aff	-1397
▁order	-1398
▁treat	-1399
▁Fr	-1400
▁mem	-1401
▁myself	-1402
ium	-1403
ired	-1404
ision	-1405
▁follow	-1406
▁struct	-1407
▁somebody	-1408
▁isn	-1409
▁adv	-1410
▁house	-1411
▁research	-1412
▁oil	-1413
▁pain	-1414
▁9	-1415
▁Every	-1416
▁engine	-1417
▁mother	-1418
▁self	-1419
▁minutes	-1420
ware	-1421
▁taking	-1422
▁incre	-1423
▁though	-1424
▁company	-1425
▁dra	-1426
ane	-1427
▁arch	-1428
▁America	-1429
omet	-1430
▁free	-1431
▁name	-1432
ivers	-1433
▁hundred	-1434
get	-1435
▁lab	-1436
▁happening	-1437
cle	-1438
▁net	-1439
▁individ	-1440
▁completely	-1441
▁video	-1442
▁animals	-1443
bs	-1444
urs	-1445
▁pay	-1446
▁huge	-1447
▁gets	-1448
▁past	-1449
▁indust	-1450
▁education	-1451
▁wind	-1452
▁state	-1453
▁along	-1454
▁stories	-1455
aster	-1456
ined	-1457
▁experim	-1458
atic	-1459
ected	-1460
▁rather	-1461
▁cond	-1462
▁ones	-1463
▁appro	-1464
ives	-1465
▁meet	-1466
▁woman	-1467
▁complex	-1468
dd	-1469
▁di	-1470
aper	-1471
▁control	-1472
▁someone	-1473
▁mass	-1474
▁since	-1475
▁words	-1476
▁individual	-1477
▁exactly	-1478
▁shap	-1479
▁ocean	-1480
ee	-1481
▁success	-1482
▁At	-1483
ming	-1484
▁sca	-1485
▁game	-1486
▁bott	-1487
▁Do	-1488
▁lots	-1489
▁guys	-1490
▁tool	-1491
▁pattern	-1492
▁government	-1493
bers	-1494
▁Can	-1495
▁sec	-1496
▁won	-1497
▁language	-1498
▁opportun	-1499
ex	-1500
ional	-1501
▁hours	-1502
▁third	-1503
uro	-1504
ging	-1505
▁fund	-1506
▁wasn	-1507
▁taken	-1508
▁spend	-1509
▁class	-1510
▁ourselves	-1511
▁result	-1512
▁wonderful	-1513
etic	-1514
olved	-1515
▁close	-1516
ibly	-1517
▁ret	-1518
▁liter	-1519
ames	-1520
▁dev	-1521
ged	-1522
▁fly	-1523
▁knew	-1524
▁focus	-1525
ability	-1526
▁hy	-1527
▁area	-1528
itting	-1529
▁Intern	-1530
wards	-1531
cl	-1532
▁inn	-1533
▁amount	-1534
end	-1535
itect	-1536
▁couldn	-1537
▁friends	-1538
ules	-1539
▁pos	-1540
▁seven	-1541
omes	-1542
▁happy	-1543
▁7	-1544
▁least	-1545
haps	-1546
▁themselves	-1547
▁8	-1548
ret	-1549
▁math	-1550
ological	-1551
▁created	-1552
▁ele	-1553
▁meas	-1554
▁clear	-1555
▁rob	-1556
The	-1557
not	-1558
▁mess	-1559
cc	-1560
ats	-1561
ien	-1562
▁pred	-1563
▁learned	-1564
▁questions	-1565
line	-1566
▁Chr	-1567
app	-1568
ogn	-1569
▁natural	-1570
ax	-1571
▁hold	-1572
▁behav	-1573
▁outside	-1574
icult	-1575
istic	-1576
▁black	-1577
▁became	-1578
▁invest	-1579
erv	-1580
▁Ar	-1581
▁ris	-1582
▁train	-1583
▁Some	-1584
▁rad	-1585
▁turns	-1586
▁present	-1587
▁beginning	-1588
▁China	-1589
▁speak	-1590
▁av	-1591
Well	-1592
▁cut	-1593
▁feet	-1594
▁society	-1595
ump	-1596
▁terr	-1597
▁terms	-1598
▁everyone	-1599
ery	-1600
▁moving	-1601
▁architect	-1602
▁18	-1603
olute	-1604
▁extra	-1605
▁whatever	-1606
gle	-1607
▁cir	-1608
▁var	-1609
sy	-1610
ero	-1611
▁mot	-1612
▁program	-1613
▁students	-1614
▁Pe	-1615
▁Eng	-1616
inary	-1617
▁eight	-1618
ental	-1619
illions	-1620
▁listen	-1621
▁relations	-1622
▁buy	-1623
▁aud	-1624
▁middle	-1625
▁law	-1626
ither	-1627
▁early	-1628
▁short	-1629
▁American	-1630
▁difficult	-1631
▁difference	-1632
▁worked	-1633
▁sym	-1634
▁gave	-1635
▁intell	-1636
▁Sh	-1637
ift	-1638
ters	-1639
▁Not	-1640
astic	-1641
▁fall	-1642
▁fish	-1643
▁green	-1644
▁takes	-1645
▁Internet	-1646
fect	-1647
▁ant	-1648
▁evolution	-1649
thers	-1650
▁team	-1651
▁seeing	-1652
ey	-1653
▁bro	-1654
ctor	-1655
ples	-1656
▁ple	-1657
▁full	-1658
▁step	-1659
vered	-1660
▁prov	-1661
▁against	-1662
▁photograph	-1663
▁da	-1664
aking	-1665
▁cancer	-1666
ral	-1667
▁eat	-1668
▁thousands	-1669
att	-1670
ared	-1671
▁Man	-1672
▁sun	-1673
assion	-1674
els	-1675
▁York	-1676
▁century	-1677
▁perhaps	-1678
ones	-1679
▁others	-1680
▁machine	-1681
▁interact	-1682
▁lim	-1683
▁absolute	-1684
▁sometimes	-1685
ially	-1686
ients	-1687
▁innov	-1688
▁leave	-1689
▁study	-1690
▁surface	-1691
▁relationship	-1692
▁eyes	-1693
▁needs	-1694
▁consum	-1695
▁recent	-1696
▁tem	-1697
▁tot	-1698
▁exist	-1699
▁explain	-1700
ern	-1701
aring	-1702
▁size	-1703
▁break	-1704
▁effect	-1705
▁disease	-1706
▁finally	-1707
▁parent	-1708
▁instead	-1709
ove	-1710
▁low	-1711
▁pot	-1712
▁squ	-1713
▁oper	-1714
▁field	-1715
▁reach	-1716
▁culture	-1717
▁population	-1718
verage	-1719
rod	-1720
▁fail	-1721
▁hands	-1722
▁12	-1723
▁jo	-1724
▁death	-1725
▁cannot	-1726
▁obvious	-1727
▁systems	-1728
ges	-1729
year	-1730
▁gone	-1731
iqu	-1732
ton	-1733
orth	-1734
itch	-1735
▁occ	-1736
▁dig	-1737
▁miss	-1738
ential	-1739
▁common	-1740
▁turned	-1741
▁40	-1742
▁bab	-1743
▁dark	-1744
▁network	-1745
oh	-1746
ole	-1747
▁es	-1748
▁Euro	-1749
ule	-1750
▁ice	-1751
▁norm	-1752
▁sens	-1753
itions	-1754
What	-1755
ides	-1756
ination	-1757
ipp	-1758
ude	-1759
▁parts	-1760
▁learning	-1761
▁interested	-1762
▁sug	-1763
▁yes	-1764
▁easy	-1765
▁orig	-1766
▁vers	-1767
▁cal	-1768
▁quickly	-1769
▁yourself	-1770
▁image	-1771
▁ve	-1772
▁behavior	-1773
▁non	-1774
▁longer	-1775
▁perfect	-1776
jor	-1777
▁To	-1778
uction	-1779
rought	-1780
▁tried	-1781
ler	-1782
rew	-1783
▁ge	-1784
▁poor	-1785
▁cle	-1786
▁event	-1787
ale	-1788
▁support	-1789
eg	-1790
▁Z	-1791
▁er	-1792
ented	-1793
fully	-1794
▁trad	-1795
▁expect	-1796
phere	-1797
elt	-1798
urb	-1799
▁chem	-1800
▁structure	-1801
orld	-1802
▁Just	-1803
▁emot	-1804
▁major	-1805
▁record	-1806
▁compassion	-1807
▁dep	-1808
▁pick	-1809
▁surv	-1810
▁typ	-1811
ibility	-1812
▁changed	-1813
▁25	-1814
▁mic	-1815
▁Europe	-1816
▁People	-1817
▁friend	-1818
▁communic	-1819
iving	-1820
▁jour	-1821
▁stay	-1822
utions	-1823
▁shows	-1824
ider	-1825
▁cool	-1826
▁insp	-1827
▁given	-1828
▁press	-1829
iversity	-1830
▁ability	-1831
sych	-1832
▁emb	-1833
▁mov	-1834
▁rev	-1835
▁sum	-1836
▁began	-1837
▁miles	-1838
▁repres	-1839
▁resour	-1840
▁pull	-1841
▁weeks	-1842
▁produc	-1843
▁incredible	-1844
▁opportunity	-1845
▁phone	-1846
avor	-1847
▁civ	-1848
▁needed	-1849
ased	-1850
▁conv	-1851
▁nice	-1852
▁stre	-1853
oll	-1854
▁On	-1855
ison	-1856
▁week	-1857
ills	-1858
▁serv	-1859
▁pract	-1860
sh	-1861
ron	-1862
▁sent	-1863
▁slow	-1864
▁behind	-1865
▁brought	-1866
lec	-1867
▁opt	-1868
▁situ	-1869
▁relig	-1870
▁father	-1871
NA	-1872
apt	-1873
▁dest	-1874
▁impro	-1875
▁recogn	-1876
▁desc	-1877
▁dream	-1878
▁force	-1879
▁during	-1880
▁ess	-1881
izing	-1882
▁wall	-1883
▁media	-1884
▁economy	-1885
reme	-1886
▁measure	-1887
▁morning	-1888
You	-1889
ards	-1890
▁del	-1891
ply	-1892
▁either	-1893
▁special	-1894
cious	-1895
▁blue	-1896
▁film	-1897
▁Right	-1898
▁perform	-1899
▁protect	-1900
▁respons	-1901
▁realized	-1902
bo	-1903
unt	-1904
▁May	-1905
▁fre	-1906
▁sea	-1907
▁Okay	-1908
▁feed	-1909
▁spent	-1910
▁direct	-1911
ledge	-1912
▁incl	-1913
▁local	-1914
▁super	-1915
▁starting	-1916
▁famil	-1917
▁paper	-1918
ru	-1919
rent	-1920
▁Yeah	-1921
▁scale	-1922
▁changes	-1923
ouch	-1924
▁mar	-1925
▁prop	-1926
▁literally	-1927
▁known	-1928
▁ground	-1929
▁simply	-1930
▁sitting	-1931
ann	-1932
oms	-1933
▁colle	-1934
hor	-1935
iod	-1936
ains	-1937
▁die	-1938
▁felt	-1939
▁concept	-1940
▁powerful	-1941
eng	-1942
oph	-1943
▁pur	-1944
▁saf	-1945
▁foot	-1946
▁psych	-1947
ologies	-1948
▁strong	-1949
▁approach	-1950
ney	-1951
▁draw	-1952
▁companies	-1953
ai	-1954
▁sex	-1955
ances	-1956
▁ball	-1957
idence	-1958
ustain	-1959
▁white	-1960
▁predict	-1961
▁reality	-1962
▁running	-1963
▁ill	-1964
▁grand	-1965
▁value	-1966
▁economic	-1967
▁deg	-1968
▁obs	-1969
imens	-1970
ony	-1971
▁CA	-1972
vent	-1973
▁har	-1974
▁vol	-1975
cially	-1976
▁wrote	-1977
▁parents	-1978
▁serious	-1979
min	-1980
▁crit	-1981
▁fast	-1982
▁rock	-1983
▁song	-1984
▁shape	-1985
▁theory	-1986
iny	-1987
dden	-1988
▁color	-1989
▁bottom	-1990
▁wouldn	-1991
▁forward	-1992
ales	-1993
▁ste	-1994
▁win	-1995
▁circ	-1996
▁emer	-1997
▁based	-1998
▁civil	-1999
▁sudden	-2000
bon	-2001
bor	-2002
uth	-2003
▁flo	-2004
▁gives	-2005
▁travel	-2006
yn	-2007
▁hot	-2008
▁sell	-2009
▁period	-2010
▁talked	-2011
▁climate	-2012
oon	-2013
▁stra	-2014
▁World	-2015
▁molec	-2016
▁thank	-2017
ik	-2018
zy	-2019
iet	-2020
▁English	-2021
▁feeling	-2022
▁experiment	-2023
gs	-2024
▁gal	-2025
ators	-2026
ising	-2027
▁soft	-2028
▁center	-2029
▁personal	-2030
lev	-2031
▁hor	-2032
▁prin	-2033
▁average	-2034
ilar	-2035
▁caus	-2036
▁worth	-2037
▁impact	-2038
▁ap	-2039
▁arg	-2040
ument	-2041
▁lost	-2042
▁camer	-2043
▁write	-2044
▁visual	-2045
▁electric	-2046
of	-2047
iol	-2048
osp	-2049
hood	-2050
▁cop	-2051
anger	-2052
▁blood	-2053
ows	-2054
vert	-2055
▁bene	-2056
▁South	-2057
▁areas	-2058
▁images	-2059
▁leaders	-2060
▁intellig	-2061
ext	-2062
chie	-2063
▁neigh	-2064
▁spread	-2065
lt	-2066
com	-2067
▁DNA	-2068
▁map	-2069
▁post	-2070
▁knows	-2071
▁anybody	-2072
▁technologies	-2073
icy	-2074
▁animal	-2075
▁meaning	-2076
par	-2077
ised	-2078
▁sour	-2079
▁books	-2080
▁ident	-2081
▁nuc	-2082
▁guess	-2083
▁stage	-2084
▁cities	-2085
▁humans	-2086
▁sn	-2087
▁depe	-2088
▁near	-2089
▁rules	-2090
▁absolutely	-2091
oes	-2092
cing	-2093
▁access	-2094
▁giving	-2095
▁realize	-2096
▁challenge	-2097
▁understanding	-2098
ev	-2099
por	-2100
▁Tw	-2101
amed	-2102
ived	-2103
ored	-2104
▁repl	-2105
▁stat	-2106
▁compet	-2107
▁main	-2108
▁vill	-2109
▁extreme	-2110
▁growing	-2111
▁enc	-2112
▁drug	-2113
▁achie	-2114
osphere	-2115
▁industry	-2116
eed	-2117
uel	-2118
ption	-2119
▁sold	-2120
Th	-2121
head	-2122
▁fac	-2123
▁born	-2124
▁rich	-2125
ensive	-2126
erence	-2127
lu	-2128
cul	-2129
mers	-2130
▁surpr	-2131
▁playing	-2132
▁anal	-2133
▁dead	-2134
▁seems	-2135
▁except	-2136
▁intern	-2137
ped	-2138
▁comb	-2139
▁breat	-2140
▁mount	-2141
▁touch	-2142
entially	-2143
▁describ	-2144
▁audience	-2145
▁recently	-2146
▁discovered	-2147
aged	-2148
like	-2149
ode	-2150
▁clos	-2151
▁requ	-2152
▁road	-2153
bit	-2154
▁favor	-2155
▁sustain	-2156
▁knowledge	-2157
▁incredibly	-2158
ma	-2159
▁key	-2160
▁sle	-2161
▁mathem	-2162
▁telling	-2163
▁millions	-2164
▁scientists	-2165
Oh	-2166
▁soon	-2167
▁viol	-2168
▁const	-2169
▁anyone	-2170
▁choice	-2171
▁character	-2172
▁political	-2173
▁Yes	-2174
▁box	-2175
▁link	-2176
▁seem	-2177
▁galax	-2178
▁pictures	-2179
ief	-2180
▁Our	-2181
▁avail	-2182
ression	-2183
▁growth	-2184
▁cy	-2185
▁fundam	-2186
▁happiness	-2187
ites	-2188
pre	-2189
▁Sp	-2190
▁risk	-2191
▁bacter	-2192
▁putting	-2193
▁computers	-2194
ival	-2195
▁haven	-2196
▁origin	-2197
▁showed	-2198
pecially	-2199
▁current	-2200
▁involved	-2201
ned	-2202
omen	-2203
▁developing	-2204
▁syn	-2205
▁aren	-2206
▁send	-2207
▁produce	-2208
▁tools	-2209
ilities	-2210
▁modern	-2211
▁hundreds	-2212
▁developed	-2213
light	-2214
▁numbers	-2215
▁patient	-2216
rad	-2217
▁Oh	-2218
▁died	-2219
▁alone	-2220
▁carbon	-2221
▁proper	-2222
▁becomes	-2223
▁Any	-2224
ished	-2225
▁mult	-2226
▁priv	-2227
▁prom	-2228
▁plants	-2229
▁materials	-2230
▁generation	-2231
IV	-2232
▁fur	-2233
▁issue	-2234
▁instit	-2235
▁reasons	-2236
▁physical	-2237
wh	-2238
▁arr	-2239
ified	-2240
▁camp	-2241
▁spir	-2242
ishing	-2243
▁table	-2244
▁truth	-2245
▁profess	-2246
▁movement	-2247
▁Ph	-2248
iant	-2249
▁199	-2250
ister	-2251
▁fight	-2252
▁schools	-2253
▁univers	-2254
▁creating	-2255
50	-2256
▁ec	-2257
▁HIV	-2258
▁bur	-2259
▁With	-2260
▁cars	-2261
▁fire	-2262
▁type	-2263
▁asking	-2264
▁bigger	-2265
▁chance	-2266
met	-2267
▁Goo	-2268
▁eye	-2269
▁save	-2270
pid	-2271
▁est	-2272
▁situation	-2273
amp	-2274
ploy	-2275
asing	-2276
▁bird	-2277
▁door	-2278
▁nuclear	-2279
▁ep	-2280
▁democ	-2281
▁similar	-2282
▁designed	-2283
oke	-2284
▁lived	-2285
▁available	-2286
▁tradition	-2287
rand	-2288
▁lay	-2289
ously	-2290
▁poll	-2291
acy	-2292
▁ce	-2293
yond	-2294
oring	-2295
▁benef	-2296
▁speed	-2297
▁Chinese	-2298
▁hon	-2299
▁sever	-2300
▁princi	-2301
▁suggest	-2302
▁extraord	-2303
ef	-2304
arily	-2305
usion	-2306
▁hosp	-2307
ration	-2308
▁towards	-2309
▁solution	-2310
▁especially	-2311
oun	-2312
▁By	-2313
ades	-2314
oose	-2315
▁arm	-2316
▁fear	-2317
▁flow	-2318
▁nine	-2319
▁defin	-2320
▁changing	-2321
▁Pr	-2322
▁dom	-2323
▁lea	-2324
urity	-2325
▁tiny	-2326
▁virt	-2327
▁drive	-2328
▁several	-2329
by	-2330
umb	-2331
▁flu	-2332
▁earth	-2333
▁capital	-2334
asc	-2335
how	-2336
ips	-2337
apan	-2338
port	-2339
▁dou	-2340
▁track	-2341
▁virus	-2342
▁beyond	-2343
▁groups	-2344
▁attention	-2345
ung	-2346
ster	-2347
view	-2348
▁Com	-2349
▁baby	-2350
▁Where	-2351
▁girls	-2352
▁moved	-2353
▁certainly	-2354
▁fa	-2355
idge	-2356
▁Google	-2357
▁office	-2358
▁Of	-2359
▁log	-2360
▁neg	-2361
▁rate	-2362
▁suff	-2363
▁African	-2364
▁resources	-2365
pect	-2366
▁bed	-2367
▁fair	-2368
▁carry	-2369
▁issues	-2370
▁development	-2371
▁prim	-2372
ground	-2373
▁Japan	-2374
▁normal	-2375
▁subject	-2376
▁totally	-2377
▁60	-2378
lict	-2379
▁din	-2380
▁lif	-2381
ences	-2382
▁path	-2383
▁tree	-2384
▁clean	-2385
▁robot	-2386
▁solar	-2387
▁trees	-2388
▁particularly	-2389
▁Mars	-2390
▁movie	-2391
▁wants	-2392
ina	-2393
medi	-2394
▁includ	-2395
▁necess	-2396
▁nobody	-2397
▁general	-2398
▁writing	-2399
▁examples	-2400
▁teachers	-2401
ique	-2402
▁fing	-2403
ressed	-2404
▁showing	-2405
ruct	-2406
▁vac	-2407
▁tend	-2408
▁wish	-2409
▁danger	-2410
▁convers	-2411
▁discover	-2412
▁projects	-2413
oud	-2414
▁among	-2415
▁games	-2416
▁price	-2417
▁sleep	-2418
▁stars	-2419
▁attack	-2420
▁vision	-2421
▁context	-2422
▁walking	-2423
put	-2424
▁gas	-2425
▁goal	-2426
▁named	-2427
▁device	-2428
▁forest	-2429
▁pieces	-2430
po	-2431
the	-2432
▁Am	-2433
iger	-2434
mend	-2435
▁Inst	-2436
▁First	-2437
▁basic	-2438
▁solve	-2439
▁collect	-2440
ny	-2441
ulf	-2442
▁sat	-2443
▁unf	-2444
igher	-2445
▁starts	-2446
ns	-2447
xy	-2448
room	-2449
▁Cal	-2450
iction	-2451
▁bar	-2452
ought	-2453
▁Chris	-2454
▁higher	-2455
▁street	-2456
▁innovation	-2457
!"	-2458
ify	-2459
une	-2460
pped	-2461
▁emp	-2462
▁son	-2463
▁aware	-2464
▁medic	-2465
▁action	-2466
▁software	-2467
▁supposed	-2468
oot	-2469
▁pa	-2470
▁Most	-2471
▁mine	-2472
▁block	-2473
▁stick	-2474
▁exciting	-2475
▁experien	-2476
▁everywhere	-2477
ted	-2478
irth	-2479
▁dro	-2480
▁ult	-2481
oices	-2482
verty	-2483
▁grad	-2484
▁skin	-2485
▁constr	-2486
▁minute	-2487
▁further	-2488
aur	-2489
erm	-2490
eth	-2491
cape	-2492
chan	-2493
▁bal	-2494
▁div	-2495
▁clim	-2496
▁cook	-2497
▁separ	-2498
▁neighbor	-2499
▁architecture	-2500
iar	-2501
▁16	-2502
▁80	-2503
ires	-2504
▁Maybe	-2505
▁plant	-2506
▁voice	-2507
▁patients	-2508
▁obviously	-2509
▁transform	-2510
▁scientific	-2511
▁11	-2512
▁Im	-2513
▁boy	-2514
▁onto	-2515
▁notice	-2516
▁sounds	-2517
▁imm	-2518
▁fant	-2519
▁pack	-2520
▁site	-2521
▁smart	-2522
▁message	-2523
▁passion	-2524
▁potential	-2525
isms	-2526
rest	-2527
▁fix	-2528
▁magn	-2529
▁sequ	-2530
▁enorm	-2531
▁meant	-2532
▁beings	-2533
▁detail	-2534
▁complic	-2535
▁digital	-2536
▁function	-2537
▁extraordinary	-2538
▁Re	-2539
▁ann	-2540
▁lose	-2541
▁rain	-2542
▁trou	-2543
▁micro	-2544
▁peace	-2545
▁account	-2546
▁biggest	-2547
▁poverty	-2548
ana	-2549
akes	-2550
▁dog	-2551
▁sky	-2552
istan	-2553
▁text	-2554
▁lands	-2555
▁store	-2556
▁larger	-2557
▁search	-2558
▁quality	-2559
▁decision	-2560
▁Cl	-2561
ulate	-2562
▁cart	-2563
others	-2564
▁depend	-2565
▁series	-2566
▁represent	-2567
▁Look	-2568
ossible	-2569
▁disapp	-2570
▁largest	-2571
▁creative	-2572
▁eventually	-2573
uly	-2574
abor	-2575
ches	-2576
come	-2577
cient	-2578
urban	-2579
▁webs	-2580
▁appear	-2581
▁journey	-2582
▁version	-2583
▁bacteria	-2584
▁positive	-2585
▁thousand	-2586
▁De	-2587
▁Ge	-2588
cuss	-2589
▁Don	-2590
▁Joh	-2591
▁hit	-2592
▁Brit	-2593
▁cris	-2594
▁North	-2595
▁moral	-2596
▁concer	-2597
▁introd	-2598
▁models	-2599
▁screen	-2600
▁somehow	-2601
▁village	-2602
▁evidence	-2603
ids	-2604
uit	-2605
rast	-2606
▁Pro	-2607
▁ast	-2608
▁eth	-2609
▁sil	-2610
▁fine	-2611
▁immedi	-2612
▁remark	-2613
▁connected	-2614
▁Ag	-2615
icle	-2616
▁hyd	-2617
ctors	-2618
▁Like	-2619
▁fill	-2620
▁above	-2621
▁bunch	-2622
▁effic	-2623
▁sorts	-2624
▁Christ	-2625
▁report	-2626
▁spirit	-2627
▁pu	-2628
ners	-2629
▁Car	-2630
▁page	-2631
▁push	-2632
though	-2633
▁graph	-2634
▁achieve	-2635
▁continue	-2636
▁mathemat	-2637
▁national	-2638
No	-2639
▁aw	-2640
▁Those	-2641
▁birth	-2642
▁lower	-2643
pective	-2644
▁teacher	-2645
▁chemical	-2646
ID	-2647
urt	-2648
iers	-2649
▁kil	-2650
▁led	-2651
▁jump	-2652
▁safe	-2653
▁points	-2654
▁progress	-2655
▁somewhere	-2656
▁essentially	-2657
▁fundamental	-2658
ama	-2659
irr	-2660
▁Ex	-2661
▁West	-2662
▁wife	-2663
▁assum	-2664
▁killed	-2665
▁allowed	-2666
▁objects	-2667
▁student	-2668
▁TV	-2669
▁swe	-2670
▁grew	-2671
▁neur	-2672
▁check	-2673
▁launch	-2674
▁continu	-2675
We	-2676
ky	-2677
ask	-2678
lim	-2679
▁17	-2680
more	-2681
rial	-2682
▁Even	-2683
▁sand	-2684
▁yeah	-2685
▁Which	-2686
▁cross	-2687
▁waste	-2688
▁camera	-2689
▁mechan	-2690
▁please	-2691
▁policy	-2692
▁source	-2693
▁signific	-2694
lex	-2695
mit	-2696
▁Bl	-2697
onse	-2698
▁cat	-2699
▁rid	-2700
iation	-2701
ission	-2702
▁ended	-2703
▁square	-2704
▁temper	-2705
▁impossible	-2706
tend	-2707
▁atm	-2708
▁dam	-2709
▁heav	-2710
▁legs	-2711
▁After	-2712
▁alive	-2713
▁apart	-2714
▁trust	-2715
▁calcul	-2716
▁likely	-2717
▁content	-2718
▁critical	-2719
▁suddenly	-2720
▁extremely	-2721
ze	-2722
ube	-2723
▁Sw	-2724
ency	-2725
ynam	-2726
▁individuals	-2727
uss	-2728
racy	-2729
antly	-2730
▁star	-2731
▁affect	-2732
▁greater	-2733
▁activity	-2734
wood	-2735
▁blog	-2736
▁cold	-2737
▁phil	-2738
isions	-2739
▁excited	-2740
▁security	-2741
ortunately	-2742
anc	-2743
right	-2744
▁earl	-2745
▁meth	-2746
▁town	-2747
▁wait	-2748
▁wild	-2749
▁influ	-2750
▁usually	-2751
▁conscious	-2752
▁revolution	-2753
joy	-2754
cise	-2755
eter	-2756
epend	-2757
▁bank	-2758
▁purp	-2759
▁ready	-2760
▁taught	-2761
▁X	-2762
pan	-2763
▁phen	-2764
▁detect	-2765
▁hospital	-2766
▁machines	-2767
▁standing	-2768
▁complicated	-2769
let	-2770
ateg	-2771
inct	-2772
▁War	-2773
▁sal	-2774
estern	-2775
▁adult	-2776
▁glass	-2777
▁reading	-2778
▁watching	-2779
▁buildings	-2780
rom	-2781
▁role	-2782
▁dynam	-2783
▁forth	-2784
▁throw	-2785
▁beauty	-2786
ologists	-2787
▁himself	-2788
▁physics	-2789
▁strange	-2790
▁conflict	-2791
▁successful	-2792
▁temperature	-2793
rip	-2794
▁Le	-2795
ring	-2796
itten	-2797
▁Somet	-2798
▁tells	-2799
▁crisis	-2800
▁atmosphere	-2801
lo	-2802
for	-2803
▁14	-2804
▁oh	-2805
▁mis	-2806
▁oxy	-2807
▁East	-2808
▁late	-2809
▁upon	-2810
▁zero	-2811
▁worse	-2812
▁expert	-2813
▁biology	-2814
▁results	-2815
▁favorite	-2816
▁response	-2817
▁Americans	-2818
.,	-2819
erve	-2820
erson	-2821
prene	-2822
▁crazy	-2823
reprene	-2824
▁Another	-2825
▁discuss	-2826
▁smaller	-2827
▁phenomen	-2828
▁straight	-2829
▁electricity	-2830
mic	-2831
iven	-2832
lebr	-2833
▁fem	-2834
oming	-2835
▁jobs	-2836
▁enjoy	-2837
▁lines	-2838
▁simpl	-2839
▁distrib	-2840
omb	-2841
rel	-2842
thern	-2843
▁capt	-2844
▁anyway	-2845
▁commer	-2846
▁service	-2847
▁effective	-2848
▁therefore	-2849
IDS	-2850
enn	-2851
ops	-2852
▁hole	-2853
▁autom	-2854
▁minds	-2855
▁urban	-2856
▁online	-2857
▁perspective	-2858
oles	-2859
▁Who	-2860
antic	-2861
itary	-2862
▁react	-2863
▁accept	-2864
▁dimens	-2865
▁contrib	-2866
▁medical	-2867
▁plastic	-2868
▁conditions	-2869
▁communities	-2870
go	-2871
agn	-2872
dom	-2873
fort	-2874
▁port	-2875
▁final	-2876
▁instr	-2877
▁labor	-2878
▁spect	-2879
▁patterns	-2880
men	-2881
iles	-2882
sect	-2883
ounds	-2884
▁kept	-2885
▁marr	-2886
▁genes	-2887
▁occur	-2888
▁truly	-2889
▁doctor	-2890
▁indeed	-2891
▁website	-2892
▁fantastic	-2893
ste	-2894
▁13	-2895
orry	-2896
▁deb	-2897
▁exh	-2898
atory	-2899
conds	-2900
▁swim	-2901
istics	-2902
▁catch	-2903
▁afford	-2904
▁celebr	-2905
▁transl	-2906
▁consider	-2907
▁enormous	-2908
▁position	-2909
▁designers	-2910
bb	-2911
iti	-2912
nal	-2913
iber	-2914
rage	-2915
▁196	-2916
▁Act	-2917
▁Ken	-2918
▁Mar	-2919
▁older	-2920
▁slide	-2921
▁telev	-2922
▁oxygen	-2923
▁walked	-2924
▁healthy	-2925
▁mention	-2926
▁et	-2927
fact	-2928
iest	-2929
ping	-2930
▁Are	-2931
▁luck	-2932
▁rise	-2933
▁cover	-2934
▁famous	-2935
▁invented	-2936
▁products	-2937
▁solutions	-2938
▁entreprene	-2939
▁Q	-2940
onom	-2941
rate	-2942
ured	-2943
▁aid	-2944
▁sou	-2945
itude	-2946
▁activ	-2947
▁finan	-2948
▁hydro	-2949
▁effort	-2950
▁improve	-2951
▁National	-2952
▁dangerous	-2953
▁recognize	-2954
▁increasing	-2955
▁organization	-2956
add	-2957
ray	-2958
rect	-2959
▁fasc	-2960
▁hair	-2961
▁forms	-2962
▁print	-2963
▁actual	-2964
▁allows	-2965
▁choose	-2966
▁anywhere	-2967
▁increase	-2968
▁21	-2969
time	-2970
▁pig	-2971
▁mist	-2972
ricult	-2973
▁floor	-2974
▁Second	-2975
▁flying	-2976
▁reflect	-2977
▁trouble	-2978
cks	-2979
ils	-2980
▁Was	-2981
▁hop	-2982
▁Char	-2983
ughter	-2984
▁values	-2985
▁weight	-2986
▁although	-2987
▁mountain	-2988
▁immediately	-2989
▁environmental	-2990
mb	-2991
iced	-2992
▁tun	-2993
▁various	-2994
rees	-2995
▁sus	-2996
▁rele	-2997
▁cause	-2998
▁shown	-2999
▁faster	-3000
▁prison	-3001
▁democracy	-3002
▁television	-3003
bol	-3004
raq	-3005
udd	-3006
▁Ab	-3007
▁198	-3008
rated	-3009
▁okay	-3010
▁bread	-3011
▁drink	-3012
▁weren	-3013
▁author	-3014
▁region	-3015
▁select	-3016
▁explore	-3017
▁meeting	-3018
▁expensive	-3019
▁conversation	-3020
How	-3021
amm	-3022
▁Ro	-3023
edia	-3024
▁Mus	-3025
aries	-3026
▁roll	-3027
▁employ	-3028
▁engage	-3029
▁clearly	-3030
▁seconds	-3031
▁survive	-3032
▁familiar	-3033
▁production	-3034
▁remarkable	-3035
resh	-3036
▁doc	-3037
▁mal	-3038
▁bought	-3039
▁invent	-3040
▁slight	-3041
▁summer	-3042
▁supply	-3043
▁finding	-3044
▁collabor	-3045
▁direction	-3046
▁intelligence	-3047
▁24	-3048
back	-3049
▁Har	-3050
aging	-3051
▁Iraq	-3052
▁Your	-3053
▁coff	-3054
▁fuel	-3055
▁rece	-3056
▁magic	-3057
▁brains	-3058
▁anymore	-3059
ried	-3060
sequ	-3061
▁etc	-3062
▁pen	-3063
orrow	-3064
▁airpl	-3065
▁manage	-3066
▁threat	-3067
▁families	-3068
▁commercial	-3069
▁conference	-3070
▁traditional	-3071
book	-3072
itor	-3073
play	-3074
ables	-3075
▁fram	-3076
▁board	-3077
▁capac	-3078
▁costs	-3079
▁closer	-3080
▁notion	-3081
▁rights	-3082
ervation	-3083
▁specific	-3084
amb	-3085
rag	-3086
anda	-3087
uced	-3088
▁500	-3089
▁Two	-3090
▁nut	-3091
ining	-3092
ystem	-3093
ashion	-3094
▁cases	-3095
▁concl	-3096
▁remind	-3097
izations	-3098
▁college	-3099
▁earlier	-3100
▁respect	-3101
▁tremend	-3102
▁written	-3103
▁agricult	-3104
▁produced	-3105
zz	-3106
rap	-3107
▁Dr	-3108
cope	-3109
▁Dar	-3110
odies	-3111
▁card	-3112
▁rule	-3113
▁broad	-3114
▁freed	-3115
▁trade	-3116
▁skills	-3117
atically	-3118
▁instance	-3119
▁treatment	-3120
▁biological	-3121
▁Go	-3122
▁300	-3123
▁web	-3124
▁code	-3125
▁crow	-3126
inated	-3127
▁Indian	-3128
▁driving	-3129
▁teaching	-3130
▁terrible	-3131
▁decisions	-3132
▁following	-3133
▁including	-3134
▁complexity	-3135
ius	-3136
ener	-3137
rams	-3138
▁fit	-3139
stein	-3140
▁symmet	-3141
▁useful	-3142
▁medicine	-3143
▁possibly	-3144
aul	-3145
win	-3146
▁Ad	-3147
ened	-3148
wise	-3149
▁cry	-3150
iding	-3151
iling	-3152
ively	-3153
▁boys	-3154
▁paid	-3155
▁ahead	-3156
▁below	-3157
▁dance	-3158
▁encou	-3159
▁worry	-3160
▁address	-3161
▁evolved	-3162
▁relative	-3163
aly	-3164
bert	-3165
itiz	-3166
nces	-3167
▁Dav	-3168
▁Isl	-3169
▁thr	-3170
iforn	-3171
useum	-3172
▁prep	-3173
▁rand	-3174
▁drugs	-3175
▁return	-3176
▁surger	-3177
▁waiting	-3178
▁Californ	-3179
▁particip	-3180
▁listening	-3181
▁international	-3182
key	-3183
off	-3184
▁mob	-3185
▁yell	-3186
▁climb	-3187
▁trick	-3188
itation	-3189
▁coffee	-3190
▁publish	-3191
▁University	-3192
Why	-3193
▁90	-3194
used	-3195
▁197	-3196
board	-3197
onstr	-3198
▁copy	-3199
▁hall	-3200
▁shot	-3201
▁trib	-3202
▁match	-3203
imately	-3204
▁secret	-3205
▁genetic	-3206
▁planets	-3207
▁provide	-3208
▁purpose	-3209
▁pressure	-3210
▁interview	-3211
▁particles	-3212
▁understood	-3213
▁engineering	-3214
SA	-3215
ri	-3216
pes	-3217
uted	-3218
▁Ste	-3219
osing	-3220
▁clin	-3221
▁gent	-3222
▁range	-3223
inating	-3224
ologist	-3225
▁decade	-3226
▁decide	-3227
▁random	-3228
▁willing	-3229
▁humanity	-3230
▁military	-3231
▁religion	-3232
▁surround	-3233
▁California	-3234
▁industrial	-3235
ran	-3236
soci	-3237
▁Rich	-3238
▁appl	-3239
▁uses	-3240
▁chair	-3241
▁played	-3242
▁colleag	-3243
▁private	-3244
▁violence	-3245
▁connection	-3246
▁responsibility	-3247
ami	-3248
fer	-3249
unk	-3250
ffic	-3251
izes	-3252
▁ang	-3253
▁tar	-3254
ained	-3255
anced	-3256
▁heat	-3257
▁cheap	-3258
▁metap	-3259
▁unique	-3260
▁choices	-3261
▁creates	-3262
▁express	-3263
▁original	-3264
▁training	-3265
▁throughout	-3266
pro	-3267
▁Mc	-3268
▁pan	-3269
▁ran	-3270
▁coun	-3271
▁park	-3272
urning	-3273
▁eating	-3274
▁income	-3275
rastruct	-3276
▁central	-3277
▁farmers	-3278
▁popular	-3279
▁greatest	-3280
0,	-3281
It	-3282
ceed	-3283
▁Sch	-3284
▁desp	-3285
▁drop	-3286
▁grav	-3287
▁seed	-3288
▁wood	-3289
▁citiz	-3290
▁prote	-3291
▁total	-3292
▁types	-3293
▁10,000	-3294
▁destro	-3295
▁becoming	-3296
▁creativity	-3297
icon	-3298
vest	-3299
▁fat	-3300
▁jud	-3301
▁blind	-3302
▁motiv	-3303
▁parad	-3304
▁pleas	-3305
▁insect	-3306
▁wealth	-3307
▁ancient	-3308
▁studies	-3309
▁directly	-3310
▁diversity	-3311
▁organisms	-3312
▁neighborhood	-3313
hy	-3314
ancy	-3315
rench	-3316
▁dram	-3317
▁Niger	-3318
▁adapt	-3319
▁levels	-3320
▁terror	-3321
▁Western	-3322
▁doctors	-3323
▁restaur	-3324
▁practice	-3325
▁creatures	-3326
▁landscape	-3327
5,	-3328
ya	-3329
▁Web	-3330
▁mid	-3331
▁reb	-3332
▁whe	-3333
▁Bang	-3334
▁Imag	-3335
▁Russ	-3336
▁vari	-3337
▁wire	-3338
▁compon	-3339
▁forces	-3340
▁financial	-3341
▁infrastruct	-3342
oty	-3343
▁Sun	-3344
▁ign	-3345
▁lad	-3346
eless	-3347
ondon	-3348
▁Cent	-3349
▁From	-3350
▁moon	-3351
▁mort	-3352
▁trip	-3353
▁brill	-3354
▁integ	-3355
▁raise	-3356
▁London	-3357
▁concent	-3358
▁consequ	-3359
▁fashion	-3360
▁feature	-3361
▁cultural	-3362
▁speaking	-3363
▁standard	-3364
▁En	-3365
▁Mr	-3366
reci	-3367
ript	-3368
▁mut	-3369
arian	-3370
house	-3371
▁John	-3372
▁Life	-3373
▁fold	-3374
▁hous	-3375
▁none	-3376
▁seas	-3377
atives	-3378
uments	-3379
▁Again	-3380
▁magaz	-3381
▁shift	-3382
▁causes	-3383
▁gotten	-3384
▁freedom	-3385
▁sustainable	-3386
aim	-3387
ica	-3388
oid	-3389
reg	-3390
▁70	-3391
▁CO	-3392
iate	-3393
▁His	-3394
arter	-3395
attle	-3396
ening	-3397
icity	-3398
▁David	-3399
▁basis	-3400
▁optim	-3401
ography	-3402
▁desert	-3403
▁switch	-3404
▁attract	-3405
▁contact	-3406
▁figured	-3407
▁capacity	-3408
▁collective	-3409
▁performance	-3410
mon	-3411
aign	-3412
▁tit	-3413
▁veh	-3414
▁gold	-3415
▁vacc	-3416
▁newsp	-3417
▁smell	-3418
▁whose	-3419
▁determ	-3420
▁galaxy	-3421
▁method	-3422
▁stream	-3423
▁degrees	-3424
▁prevent	-3425
fl	-3426
na	-3427
urd	-3428
▁Ein	-3429
▁Red	-3430
iring	-3431
▁AIDS	-3432
▁Good	-3433
▁burn	-3434
▁hang	-3435
▁lapt	-3436
▁quant	-3437
▁strug	-3438
▁altern	-3439
▁expand	-3440
▁mostly	-3441
▁nation	-3442
▁Imagine	-3443
▁tremendous	-3444
ios	-3445
ears	-3446
empt	-3447
rical	-3448
▁Asia	-3449
▁disp	-3450
icians	-3451
▁twice	-3452
ographic	-3453
▁Einstein	-3454
▁programs	-3455
▁infrastructure	-3456
yle	-3457
aria	-3458
▁Big	-3459
▁Paul	-3460
▁fort	-3461
▁laws	-3462
▁term	-3463
▁loved	-3464
▁philos	-3465
▁symbol	-3466
▁moments	-3467
▁electron	-3468
▁galaxies	-3469
▁inspired	-3470
▁slightly	-3471
▁emotional	-3472
▁challenges	-3473
inc	-3474
▁eg	-3475
isco	-3476
ores	-3477
uate	-3478
▁San	-3479
ently	-3480
▁race	-3481
▁Think	-3482
▁apply	-3483
▁rapid	-3484
▁rough	-3485
▁forget	-3486
▁robots	-3487
▁noticed	-3488
▁independ	-3489
▁religious	-3490
▁background	-3491
thes	-3492
▁mix	-3493
aling	-3494
istry	-3495
phone	-3496
ufact	-3497
▁base	-3498
▁coal	-3499
terday	-3500
▁1,000	-3501
▁funny	-3502
▁worst	-3503
▁corner	-3504
▁multip	-3505
▁sphere	-3506
▁massive	-3507
▁respond	-3508
ibr	-3509
ulpt	-3510
▁ske	-3511
▁City	-3512
▁Many	-3513
▁cust	-3514
▁mamm	-3515
▁tiss	-3516
▁Middle	-3517
▁easily	-3518
▁sculpt	-3519
▁Richard	-3520
▁demonstr	-3521
▁governments	-3522
kn	-3523
▁Ob	-3524
▁Su	-3525
ball	-3526
cles	-3527
raid	-3528
ysis	-3529
▁doub	-3530
▁tens	-3531
▁weap	-3532
▁birds	-3533
▁calls	-3534
▁radio	-3535
▁active	-3536
▁fairly	-3537
▁kilomet	-3538
▁politics	-3539
▁significant	-3540
mp	-3541
ald	-3542
term	-3543
▁alg	-3544
▁fro	-3545
erman	-3546
throp	-3547
▁Very	-3548
▁sick	-3549
▁email	-3550
▁Muslim	-3551
▁afraid	-3552
▁associ	-3553
▁belief	-3554
▁answers	-3555
▁services	-3556
af	-3557
ked	-3558
aced	-3559
cest	-3560
cies	-3561
ford	-3562
olve	-3563
▁Tod	-3564
▁bud	-3565
▁tum	-3566
ement	-3567
itted	-3568
verse	-3569
▁meat	-3570
▁north	-3571
▁breath	-3572
▁reduce	-3573
▁mission	-3574
▁neurons	-3575
▁Actually	-3576
▁diseases	-3577
▁profound	-3578
▁competition	-3579
▁experiments	-3580
ays	-3581
ech	-3582
ued	-3583
ghan	-3584
▁sam	-3585
apers	-3586
icles	-3587
▁hell	-3588
▁sorry	-3589
▁finger	-3590
▁flight	-3591
▁memory	-3592
▁appreci	-3593
▁stopped	-3594
▁surgery	-3595
▁bringing	-3596
▁creation	-3597
▁daughter	-3598
▁painting	-3599
▁civilization	-3600
▁institutions	-3601
0.	-3602
ett	-3603
irt	-3604
rim	-3605
▁Ha	-3606
▁Pl	-3607
▁Sc	-3608
▁hom	-3609
▁wis	-3610
itely	-3611
▁seat	-3612
cience	-3613
▁Thanks	-3614
▁ancest	-3615
▁bodies	-3616
▁charge	-3617
▁highly	-3618
▁honest	-3619
▁Instead	-3620
▁effects	-3621
▁transport	-3622
▁communicate	-3623
▁necessarily	-3624
▁i	-3625
zen	-3626
load	-3627
▁Bra	-3628
▁tax	-3629
▁tom	-3630
▁frag	-3631
▁prev	-3632
▁liber	-3633
▁mouth	-3634
▁quote	-3635
▁shared	-3636
▁balance	-3637
▁helping	-3638
▁knowing	-3639
▁virtual	-3640
▁addition	-3641
▁campaign	-3642
▁elements	-3643
▁manufact	-3644
▁partners	-3645
▁spending	-3646
▁molecules	-3647
▁Aud	-3648
▁org	-3649
▁rot	-3650
water	-3651
▁More	-3652
▁tast	-3653
▁enter	-3654
▁visit	-3655
▁French	-3656
▁bright	-3657
▁career	-3658
▁gentle	-3659
▁sharing	-3660
▁brilliant	-3661
▁concerned	-3662
▁scientist	-3663
ley	-3664
▁Ed	-3665
▁400	-3666
▁Par	-3667
▁den	-3668
▁ing	-3669
▁beat	-3670
▁hero	-3671
▁tail	-3672
▁Afghan	-3673
▁histor	-3674
▁billions	-3675
▁controll	-3676
▁possibility	-3677
yl	-3678
cop	-3679
rupt	-3680
urch	-3681
▁Gal	-3682
▁Nob	-3683
▁cos	-3684
▁ants	-3685
▁bomb	-3686
▁forg	-3687
▁glam	-3688
▁iron	-3689
▁task	-3690
dimens	-3691
▁habit	-3692
▁artist	-3693
▁spaces	-3694
▁states	-3695
▁artists	-3696
▁markets	-3697
▁opportunities	-3698
IT	-3699
fr	-3700
cra	-3701
adem	-3702
▁Per	-3703
▁Aust	-3704
▁lack	-3705
▁Great	-3706
▁bound	-3707
▁maint	-3708
▁pages	-3709
▁shark	-3710
hington	-3711
▁Darwin	-3712
▁saving	-3713
▁yellow	-3714
▁comfort	-3715
▁equival	-3716
▁holding	-3717
▁organic	-3718
▁related	-3719
▁warming	-3720
ibilities	-3721
▁hydrogen	-3722
▁metaphor	-3723
▁networks	-3724
▁Washington	-3725
▁imagination	-3726
oe	-3727
▁1,	-3728
▁ut	-3729
band	-3730
▁Fin	-3731
▁See	-3732
▁dad	-3733
▁hus	-3734
▁host	-3735
▁wide	-3736
urally	-3737
▁accom	-3738
▁brand	-3739
▁brief	-3740
▁cloud	-3741
▁dying	-3742
▁oppos	-3743
▁photo	-3744
▁shock	-3745
▁babies	-3746
▁batter	-3747
▁custom	-3748
▁seemed	-3749
▁slowly	-3750
▁societ	-3751
▁attempt	-3752
▁brother	-3753
▁element	-3754
▁believed	-3755
7,	-3756
aff	-3757
oom	-3758
This	-3759
▁ble	-3760
▁joy	-3761
▁mer	-3762
eared	-3763
iable	-3764
▁flat	-3765
▁horr	-3766
▁stem	-3767
icking	-3768
▁Today	-3769
▁faith	-3770
mission	-3771
osystem	-3772
▁helped	-3773
▁workers	-3774
ification	-3775
▁Everybody	-3776
▁engineers	-3777
▁yesterday	-3778
▁structures	-3779
▁intelligent	-3780
ada	-3781
arm	-3782
hand	-3783
ogen	-3784
▁150	-3785
atell	-3786
▁Will	-3787
▁loss	-3788
▁reco	-3789
▁shop	-3790
thetic	-3791
▁Green	-3792
▁exhib	-3793
▁fresh	-3794
▁bridge	-3795
▁dollar	-3796
▁genome	-3797
▁meters	-3798
▁opened	-3799
▁photos	-3800
▁focused	-3801
▁hearing	-3802
▁journal	-3803
▁citizens	-3804
▁sequence	-3805
▁continent	-3806
▁principle	-3807
▁consciousness	-3808
8,	-3809
edd	-3810
gth	-3811
xic	-3812
▁Fl	-3813
apse	-3814
edic	-3815
olds	-3816
▁nor	-3817
▁unc	-3818
celer	-3819
essel	-3820
▁vast	-3821
rength	-3822
ulated	-3823
▁cycle	-3824
▁epide	-3825
▁holes	-3826
▁reward	-3827
▁satell	-3828
▁forever	-3829
▁missing	-3830
▁turning	-3831
▁studying	-3832
▁construct	-3833
▁ecosystem	-3834
▁definition	-3835
▁investment	-3836
▁responsible	-3837
pet	-3838
▁Me	-3839
rick	-3840
uary	-3841
▁Nor	-3842
itute	-3843
ulous	-3844
▁Mich	-3845
▁blow	-3846
▁intu	-3847
▁load	-3848
▁scan	-3849
aining	-3850
▁helps	-3851
▁south	-3852
▁caught	-3853
▁degree	-3854
▁demand	-3855
▁easier	-3856
▁window	-3857
▁insects	-3858
▁describe	-3859
dimensional	-3860
▁equivalent	-3861
▁mathematics	-3862
▁communication	-3863
sc	-3864
ss	-3865
ees	-3866
▁fu	-3867
pper	-3868
▁Des	-3869
▁ban	-3870
▁ver	-3871
▁Geor	-3872
▁conc	-3873
▁disc	-3874
▁mirr	-3875
▁agree	-3876
▁fully	-3877
▁weird	-3878
▁aspect	-3879
▁breast	-3880
▁broken	-3881
▁consid	-3882
▁passed	-3883
▁vessel	-3884
▁emotion	-3885
▁regular	-3886
lications	-3887
▁magazine	-3888
▁strength	-3889
▁intellect	-3890
▁suffering	-3891
▁differently	-3892
ha	-3893
arb	-3894
eal	-3895
set	-3896
▁1.	-3897
mark	-3898
otic	-3899
reet	-3900
▁Did	-3901
▁amb	-3902
▁cro	-3903
▁err	-3904
▁fol	-3905
based	-3906
▁Bill	-3907
▁Take	-3908
▁join	-3909
▁myth	-3910
▁poet	-3911
▁Franc	-3912
▁crowd	-3913
▁feels	-3914
▁leads	-3915
▁trial	-3916
▁German	-3917
▁lights	-3918
▁volunt	-3919
▁display	-3920
▁distance	-3921
▁finished	-3922
▁$	-3923
▁NA	-3924
roud	-3925
uing	-3926
vere	-3927
▁Min	-3928
▁odd	-3929
▁sad	-3930
▁spl	-3931
alley	-3932
▁Cong	-3933
▁cand	-3934
▁puzz	-3935
▁rare	-3936
▁shel	-3937
▁wave	-3938
▁coast	-3939
▁coral	-3940
▁indic	-3941
▁lunch	-3942
▁plane	-3943
▁shoot	-3944
▁incent	-3945
▁master	-3946
▁decades	-3947
▁members	-3948
▁influence	-3949
▁dimensions	-3950
▁statistics	-3951
aker	-3952
▁Dan	-3953
▁Her	-3954
▁gun	-3955
craft	-3956
inate	-3957
ipped	-3958
night	-3959
pping	-3960
umber	-3961
▁empt	-3962
▁gang	-3963
▁note	-3964
▁ship	-3965
▁tele	-3966
ording	-3967
owered	-3968
▁stuck	-3969
▁talks	-3970
▁brings	-3971
▁double	-3972
▁letter	-3973
▁muscle	-3974
▁airplane	-3975
▁efficient	-3976
▁published	-3977
▁kilometers	-3978
Yes	-3979
oted	-3980
uild	-3981
▁alt	-3982
▁fab	-3983
▁fle	-3984
▁inj	-3985
▁smo	-3986
place	-3987
▁purs	-3988
▁reef	-3989
ipping	-3990
▁horse	-3991
▁moves	-3992
▁offic	-3993
▁tough	-3994
▁oceans	-3995
▁wisdom	-3996
ulations	-3997
▁benefit	-3998
▁percept	-3999
▁streets	-4000
▁hopefully	-4001
▁philosoph	-4002
▁phenomenon	-4003
▁relationships	-4004
▁El	-4005
▁Gl	-4006
ises	-4007
▁bag	-4008
▁bra	-4009
ength	-4010
▁gard	-4011
▁harm	-4012
▁pray	-4013
▁spin	-4014
▁tour	-4015
idents	-4016
▁grass	-4017
▁proud	-4018
▁skill	-4019
▁stupid	-4020
▁versus	-4021
ifically	-4022
▁artific	-4023
▁destroy	-4024
▁entirely	-4025
▁ordinary	-4026
▁resource	-4027
▁Sometimes	-4028
▁president	-4029
▁colleagues	-4030
▁organizations	-4031
ec	-4032
bel	-4033
cil	-4034
anes	-4035
oman	-4036
ties	-4037
▁pet	-4038
idden	-4039
▁Over	-4040
▁cred	-4041
▁opin	-4042
▁peak	-4043
▁roof	-4044
▁crash	-4045
▁grain	-4046
▁shall	-4047
▁advant	-4048
▁deeply	-4049
▁dinner	-4050
▁failed	-4051
▁infect	-4052
▁island	-4053
▁tissue	-4054
▁unlike	-4055
▁correct	-4056
▁dynamic	-4057
▁shouldn	-4058
▁Audience	-4059
▁separate	-4060
▁described	-4061
▁perfectly	-4062
▁seriously	-4063
▁societies	-4064
▁differences	-4065
ume	-4066
▁ax	-4067
cale	-4068
cell	-4069
reed	-4070
▁Con	-4071
▁vul	-4072
▁anti	-4073
▁drag	-4074
▁gall	-4075
ifying	-4076
itable	-4077
▁Kenya	-4078
▁lucky	-4079
▁novel	-4080
▁sugar	-4081
connect	-4082
▁Anyway	-4083
▁colors	-4084
▁dreams	-4085
▁events	-4086
▁grandm	-4087
▁movies	-4088
▁physic	-4089
▁foreign	-4090
▁highest	-4091
▁studied	-4092
▁surprising	-4093
▁experiences	-4094
▁unfortunately	-4095
hi	-4096
iam	-4097
ugh	-4098
▁ur	-4099
engu	-4100
exic	-4101
oint	-4102
▁Ara	-4103
▁Mil	-4104
▁Res	-4105
▁mig	-4106
▁Mont	-4107
▁exch	-4108
▁male	-4109
ensity	-4110
isible	-4111
▁chick	-4112
▁fract	-4113
▁solid	-4114
▁subst	-4115
artment	-4116
▁fellow	-4117
▁mental	-4118
▁capable	-4119
▁managed	-4120
▁mothers	-4121
▁wearing	-4122
▁argument	-4123
▁planning	-4124
▁principles	-4125
▁fascinating	-4126
▁entrepreneurs	-4127
1,	-4128
Don	-4129
mar	-4130
ager	-4131
▁sla	-4132
▁tag	-4133
▁Each	-4134
▁bear	-4135
▁boat	-4136
▁infin	-4137
▁offer	-4138
▁river	-4139
oration	-4140
▁circle	-4141
▁closed	-4142
▁commit	-4143
▁leader	-4144
▁acceler	-4145
▁article	-4146
▁Japanese	-4147
▁emotions	-4148
▁mortality	-4149
▁MIT	-4150
▁agg	-4151
▁dry	-4152
othes	-4153
▁chim	-4154
▁exer	-4155
▁foss	-4156
▁king	-4157
lement	-4158
▁Islam	-4159
▁mouse	-4160
▁names	-4161
▁party	-4162
▁attach	-4163
▁explan	-4164
▁extend	-4165
▁motion	-4166
▁museum	-4167
▁pounds	-4168
▁sister	-4169
▁toward	-4170
▁vulner	-4171
▁British	-4172
▁malaria	-4173
▁document	-4174
▁molecule	-4175
▁previous	-4176
▁soldiers	-4177
▁agriculture	-4178
▁institution	-4179
If	-4180
now	-4181
vey	-4182
fish	-4183
oses	-4184
uman	-4185
▁Ben	-4186
▁Sat	-4187
▁god	-4188
▁sac	-4189
ander	-4190
▁Does	-4191
▁edge	-4192
▁mill	-4193
▁whom	-4194
▁2,000	-4195
▁Their	-4196
▁analy	-4197
▁argue	-4198
▁faces	-4199
▁frequ	-4200
▁negot	-4201
▁advert	-4202
▁corpor	-4203
▁raised	-4204
▁remote	-4205
▁counter	-4206
▁curious	-4207
▁leaving	-4208
▁replace	-4209
▁accident	-4210
▁languages	-4211
▁Everything	-4212
▁constantly	-4213
▁generations	-4214
9,	-4215
atr	-4216
oop	-4217
zil	-4218
▁Gu	-4219
airs	-4220
cend	-4221
cked	-4222
▁Wik	-4223
ooper	-4224
▁Pres	-4225
▁band	-4226
▁libr	-4227
▁plat	-4228
acific	-4229
▁Mexic	-4230
▁chain	-4231
▁claim	-4232
▁diagn	-4233
▁inner	-4234
▁limit	-4235
▁shoes	-4236
▁fields	-4237
▁mobile	-4238
▁phones	-4239
▁succeed	-4240
▁typical	-4241
▁consumer	-4242
▁condition	-4243
▁discovery	-4244
▁entertain	-4245
▁otherwise	-4246
my	-4247
uls	-4248
▁Je	-4249
▁Tr	-4250
▁iP	-4251
▁ten	-4252
▁tor	-4253
agers	-4254
essed	-4255
itter	-4256
▁NASA	-4257
▁hate	-4258
▁init	-4259
▁nest	-4260
▁soil	-4261
elling	-4262
▁motor	-4263
▁truck	-4264
▁walls	-4265
▁Brazil	-4266
▁bottle	-4267
▁speech	-4268
▁100,000	-4269
▁justice	-4270
▁prototy	-4271
▁feelings	-4272
▁normally	-4273
▁ultimately	-4274
do	-4275
▁Co	-4276
athy	-4277
care	-4278
itan	-4279
roph	-4280
▁App	-4281
icing	-4282
lands	-4283
state	-4284
▁hadn	-4285
▁chann	-4286
▁pengu	-4287
▁quiet	-4288
▁saved	-4289
▁police	-4290
▁sector	-4291
▁thinks	-4292
▁Nigeria	-4293
▁trained	-4294
▁restaurant	-4295
▁Afghanistan	-4296
Hey	-4297
ara	-4298
exp	-4299
▁35	-4300
▁Te	-4301
eral	-4302
▁Col	-4303
▁poo	-4304
gency	-4305
lease	-4306
▁abst	-4307
ession	-4308
▁Three	-4309
▁Times	-4310
▁dinos	-4311
▁giant	-4312
▁rural	-4313
▁scene	-4314
issions	-4315
▁convin	-4316
▁fourth	-4317
▁nearly	-4318
▁paying	-4319
▁shapes	-4320
▁signal	-4321
▁failure	-4322
▁precise	-4323
▁Anderson	-4324
▁benefits	-4325
▁cultures	-4326
▁designer	-4327
▁negative	-4328
▁necessary	-4329
▁artificial	-4330
▁consumption	-4331
▁evolutionary	-4332
ae	-4333
gl	-4334
ago	-4335
That	-4336
rael	-4337
▁Once	-4338
▁auth	-4339
▁bone	-4340
▁bran	-4341
▁cogn	-4342
▁diet	-4343
▁fell	-4344
▁nerv	-4345
▁repe	-4346
▁surf	-4347
▁categ	-4348
▁grown	-4349
▁relev	-4350
▁steps	-4351
▁exists	-4352
▁female	-4353
▁lesson	-4354
▁therap	-4355
▁England	-4356
▁leading	-4357
▁matters	-4358
▁analysis	-4359
▁survival	-4360
▁invisible	-4361
▁university	-4362
▁possibilities	-4363
au	-4364
eer	-4365
igm	-4366
ino	-4367
irm	-4368
▁'9	-4369
rade	-4370
▁Bas	-4371
▁Cam	-4372
asion	-4373
known	-4374
print	-4375
ratic	-4376
▁Have	-4377
▁adop	-4378
▁soul	-4379
▁teen	-4380
ctions	-4381
▁Child	-4382
▁legal	-4383
▁veget	-4384
▁circum	-4385
▁unless	-4386
▁arrived	-4387
▁conduct	-4388
▁dealing	-4389
▁drawing	-4390
▁theater	-4391
▁traffic	-4392
▁abstract	-4393
▁launched	-4394
▁opposite	-4395
▁childhood	-4396
▁designing	-4397
▁marketing	-4398
▁newspaper	-4399
▁alternative	-4400
▁grandmother	-4401
▁importantly	-4402
▁construction	-4403
2,	-4404
van	-4405
▁Ne	-4406
▁lat	-4407
▁hasn	-4408
▁spot	-4409
acters	-4410
ipment	-4411
▁awful	-4412
▁embra	-4413
▁empty	-4414
▁heads	-4415
▁spoke	-4416
▁stood	-4417
▁teles	-4418
▁factor	-4419
▁finish	-4420
▁laptop	-4421
▁picked	-4422
▁Charles	-4423
▁Pacific	-4424
▁cameras	-4425
▁deliver	-4426
▁nervous	-4427
▁primary	-4428
▁worried	-4429
▁fighting	-4430
▁mentioned	-4431
▁characters	-4432
▁leadership	-4433
▁99	-4434
enty	-4435
iage	-4436
olly	-4437
▁Atl	-4438
▁cow	-4439
▁hun	-4440
▁pil	-4441
▁rhy	-4442
▁rom	-4443
ategy	-4444
orous	-4445
▁arts	-4446
▁bits	-4447
▁farm	-4448
▁gift	-4449
▁held	-4450
▁loud	-4451
▁poem	-4452
▁vict	-4453
▁weak	-4454
minist	-4455
▁Would	-4456
▁heavy	-4457
▁laugh	-4458
▁noise	-4459
▁round	-4460
akistan	-4461
▁Israel	-4462
▁adults	-4463
▁interp	-4464
▁leaves	-4465
▁married	-4466
▁equipment	-4467
▁photographs	-4468
iev	-4469
nam	-4470
rum	-4471
▁Sm	-4472
cket	-4473
rict	-4474
wide	-4475
▁pal	-4476
order	-4477
plant	-4478
▁Swed	-4479
▁arms	-4480
▁dial	-4481
▁diss	-4482
▁ment	-4483
▁reve	-4484
▁ride	-4485
▁vote	-4486
▁warm	-4487
▁wine	-4488
ancing	-4489
▁crime	-4490
▁equal	-4491
▁folks	-4492
▁lifet	-4493
▁begins	-4494
▁buying	-4495
▁desire	-4496
▁organs	-4497
▁replic	-4498
▁winter	-4499
▁despite	-4500
▁gravity	-4501
▁husband	-4502
▁weather	-4503
▁Pakistan	-4504
▁compared	-4505
▁contract	-4506
▁creature	-4507
▁epidemic	-4508
▁everyday	-4509
▁identity	-4510
▁majority	-4511
▁strategy	-4512
▁advantage	-4513
▁intellectual	-4514
6,	-4515
ok	-4516
erg	-4517
mas	-4518
top	-4519
▁Ant	-4520
▁Pal	-4521
▁fed	-4522
▁nan	-4523
organ	-4524
orith	-4525
▁Park	-4526
▁biom	-4527
▁core	-4528
▁puts	-4529
itchen	-4530
▁Wikip	-4531
▁diver	-4532
▁serve	-4533
▁medium	-4534
▁mirror	-4535
▁regard	-4536
▁suppose	-4537
▁treated	-4538
▁algorith	-4539
▁engineer	-4540
▁platform	-4541
▁rational	-4542
▁surprise	-4543
▁currently	-4544
▁economics	-4545
▁distribution	-4546
▁professional	-4547
4,	-4548
que	-4549
gets	-4550
▁Mic	-4551
▁Rem	-4552
▁und	-4553
estic	-4554
etics	-4555
▁astr	-4556
▁date	-4557
▁lady	-4558
▁narr	-4559
▁reci	-4560
▁recy	-4561
▁tank	-4562
▁tick	-4563
▁accur	-4564
▁avoid	-4565
▁click	-4566
▁paint	-4567
iration	-4568
▁belong	-4569
▁budget	-4570
▁damage	-4571
▁resist	-4572
▁invited	-4573
▁killing	-4574
▁limited	-4575
▁players	-4576
▁rapidly	-4577
▁Institute	-4578
▁operating	-4579
ij	-4580
lin	-4581
nes	-4582
ota	-4583
cast	-4584
iors	-4585
▁Sim	-4586
▁que	-4587
iency	-4588
isher	-4589
▁desk	-4590
▁nutr	-4591
▁snow	-4592
▁vent	-4593
▁wear	-4594
▁wond	-4595
▁beach	-4596
▁broke	-4597
▁manip	-4598
▁reven	-4599
ruption	-4600
▁debate	-4601
▁filled	-4602
▁cartoon	-4603
▁install	-4604
▁strateg	-4605
▁Francisco	-4606
▁President	-4607
▁practical	-4608
▁independent	-4609
ait	-4610
can	-4611
tail	-4612
▁Int	-4613
ograp	-4614
scale	-4615
▁diam	-4616
▁mile	-4617
▁qual	-4618
▁scen	-4619
ushing	-4620
▁frust	-4621
▁ought	-4622
▁steel	-4623
▁sweet	-4624
ulating	-4625
▁assign	-4626
▁caused	-4627
▁define	-4628
▁forgot	-4629
▁gather	-4630
▁target	-4631
chnology	-4632
▁Austral	-4633
▁However	-4634
▁appropr	-4635
▁centers	-4636
▁reached	-4637
▁weapons	-4638
▁emerging	-4639
▁property	-4640
▁Wikipedia	-4641
▁classroom	-4642
▁cognitive	-4643
▁interests	-4644
▁pollution	-4645
▁processes	-4646
▁components	-4647
▁protection	-4648
▁represents	-4649
▁transformation	-4650
bl	-4651
ox	-4652
ham	-4653
iot	-4654
▁DH	-4655
acle	-4656
ideo	-4657
life	-4658
▁201	-4659
▁tow	-4660
ortex	-4661
▁Arab	-4662
▁King	-4663
▁enem	-4664
▁gras	-4665
▁stim	-4666
▁wake	-4667
itness	-4668
▁clock	-4669
▁colon	-4670
▁ideal	-4671
ressive	-4672
▁contem	-4673
▁spring	-4674
▁cooking	-4675
▁quarter	-4676
▁roughly	-4677
▁convince	-4678
▁exercise	-4679
▁chemistry	-4680
▁existence	-4681
▁organized	-4682
▁producing	-4683
▁definitely	-4684
▁importance	-4685
rs	-4686
ola	-4687
irty	-4688
over	-4689
vard	-4690
▁Haw	-4691
clear	-4692
owers	-4693
▁Alex	-4694
▁Phil	-4695
▁evil	-4696
▁golf	-4697
▁soph	-4698
▁tall	-4699
▁5,000	-4700
▁curve	-4701
▁invol	-4702
▁stone	-4703
▁teeth	-4704
▁toxic	-4705
▁waves	-4706
igation	-4707
ruction	-4708
▁academ	-4709
▁cooper	-4710
▁driven	-4711
▁height	-4712
▁player	-4713
▁reprod	-4714
▁calling	-4715
▁extract	-4716
▁factory	-4717
▁fishing	-4718
▁keeping	-4719
▁require	-4720
▁disaster	-4721
▁tomorrow	-4722
▁interface	-4723
▁satellite	-4724
▁connections	-4725
▁presentation	-4726
▁specifically	-4727
2.	-4728
ux	-4729
ael	-4730
lom	-4731
new	-4732
▁BF	-4733
Look	-4734
adow	-4735
keys	-4736
ocol	-4737
odes	-4738
▁194	-4739
▁Rob	-4740
▁fal	-4741
▁spo	-4742
iture	-4743
lines	-4744
▁Gulf	-4745
▁clip	-4746
▁ring	-4747
▁tons	-4748
▁goods	-4749
▁prior	-4750
▁surge	-4751
▁theme	-4752
osition	-4753
▁Mexico	-4754
▁facing	-4755
▁genius	-4756
▁inform	-4757
▁losing	-4758
▁status	-4759
▁Harvard	-4760
▁balloon	-4761
▁devices	-4762
▁dropped	-4763
▁insight	-4764
▁kitchen	-4765
▁advanced	-4766
▁location	-4767
▁pleasure	-4768
▁encourage	-4769
▁essential	-4770
▁mountains	-4771
▁technical	-4772
▁businesses	-4773
▁considered	-4774
▁discussion	-4775
▁foundation	-4776
▁psychology	-4777
▁interaction	-4778
500	-4779
hes	-4780
sum	-4781
▁45	-4782
▁Mo	-4783
ctic	-4784
gypt	-4785
roll	-4786
umps	-4787
▁mak	-4788
erves	-4789
lying	-4790
▁dots	-4791
▁gene	-4792
▁joke	-4793
▁lens	-4794
▁rout	-4795
▁Video	-4796
▁dedic	-4797
▁layer	-4798
▁sport	-4799
▁stock	-4800
▁harder	-4801
▁safety	-4802
▁Britain	-4803
▁compare	-4804
▁details	-4805
▁harvest	-4806
▁nations	-4807
▁options	-4808
▁radical	-4809
▁selling	-4810
▁European	-4811
▁administ	-4812
▁followed	-4813
▁according	-4814
▁chemicals	-4815
▁emissions	-4816
▁invention	-4817
▁introduced	-4818
▁combination	-4819
▁destruction	-4820
3,	-4821
Do	-4822
uh	-4823
tle	-4824
anta	-4825
bors	-4826
▁Eth	-4827
▁nar	-4828
▁rub	-4829
illed	-4830
point	-4831
sters	-4832
ublic	-4833
▁Bush	-4834
▁Gold	-4835
▁Kore	-4836
▁gest	-4837
▁liqu	-4838
▁pian	-4839
▁shut	-4840
▁shell	-4841
▁fortun	-4842
▁length	-4843
▁micros	-4844
▁transp	-4845
▁whales	-4846
▁Twitter	-4847
▁depends	-4848
▁experts	-4849
▁sources	-4850
▁vehicle	-4851
▁carrying	-4852
▁circumst	-4853
▁exchange	-4854
▁expected	-4855
▁lifetime	-4856
▁prepared	-4857
▁swimming	-4858
.'	-4859
anz	-4860
▁Hy	-4861
aked	-4862
▁Bar	-4863
▁Ber	-4864
▁Cop	-4865
▁Mal	-4866
▁Rep	-4867
▁row	-4868
▁tal	-4869
gling	-4870
▁Four	-4871
▁intr	-4872
▁nurs	-4873
▁resc	-4874
▁wars	-4875
anging	-4876
porary	-4877
▁Egypt	-4878
▁compl	-4879
▁depth	-4880
▁honor	-4881
▁input	-4882
▁metal	-4883
▁rates	-4884
▁sites	-4885
▁tumor	-4886
▁compar	-4887
▁corres	-4888
▁solved	-4889
▁Michael	-4890
▁battery	-4891
▁covered	-4892
▁cutting	-4893
▁privile	-4894
▁setting	-4895
▁multiple	-4896
▁sunlight	-4897
▁thoughts	-4898
▁naturally	-4899
▁universal	-4900
▁electrical	-4901
▁personally	-4902
▁environments	-4903
60	-4904
ym	-4905
oly	-4906
zed	-4907
▁ir	-4908
▁bul	-4909
▁era	-4910
neath	-4911
▁Five	-4912
▁Iran	-4913
▁atom	-4914
▁corn	-4915
▁fert	-4916
▁furn	-4917
▁hits	-4918
▁lect	-4919
▁myst	-4920
▁remo	-4921
▁atoms	-4922
▁rhyth	-4923
▁signs	-4924
▁trend	-4925
▁deeper	-4926
▁ingred	-4927
▁sexual	-4928
▁worlds	-4929
▁contain	-4930
▁fingers	-4931
▁letters	-4932
▁opening	-4933
▁opinion	-4934
▁occurred	-4935
▁reaction	-4936
▁ancestors	-4937
▁carefully	-4938
▁employees	-4939
▁molecular	-4940
▁neighbors	-4941
▁sophistic	-4942
▁spiritual	-4943
▁associated	-4944
▁instrument	-4945
▁underneath	-4946
▁explanation	-4947
▁consequences	-4948
1.	-4949
GO	-4950
ato	-4951
iop	-4952
lph	-4953
abet	-4954
▁Tom	-4955
▁hem	-4956
▁lic	-4957
child	-4958
icago	-4959
oting	-4960
romos	-4961
▁Bank	-4962
▁Come	-4963
▁Gree	-4964
▁pump	-4965
▁pure	-4966
▁James	-4967
▁homes	-4968
▁liked	-4969
▁risks	-4970
▁upper	-4971
▁battle	-4972
▁forced	-4973
▁formed	-4974
▁fossil	-4975
▁prices	-4976
▁videos	-4977
▁Chicago	-4978
▁monkeys	-4979
▁signals	-4980
▁singing	-4981
▁variety	-4982
▁spectrum	-4983
▁generally	-4984
▁interpret	-4985
▁introduce	-4986
▁wondering	-4987
▁relatively	-4988
▁experienced	-4989
30	-4990
5.	-4991
80	-4992
▁py	-4993
Tube	-4994
east	-4995
elly	-4996
icip	-4997
ingu	-4998
▁600	-4999
▁Law	-5000
▁Nat	-5001
▁mel	-5002
▁scr	-5003
▁vag	-5004
being	-5005
gment	-5006
uries	-5007
▁Also	-5008
▁Budd	-5009
▁Last	-5010
▁dogs	-5011
▁lawy	-5012
▁suit	-5013
▁tape	-5014
▁valu	-5015
ablish	-5016
astern	-5017
ension	-5018
ternal	-5019
▁Bible	-5020
▁daily	-5021
▁hyper	-5022
▁minim	-5023
▁split	-5024
▁Canada	-5025
▁Center	-5026
▁hidden	-5027
▁marine	-5028
▁papers	-5029
▁prefer	-5030
▁YouTube	-5031
▁evening	-5032
▁however	-5033
▁intense	-5034
▁partner	-5035
▁promise	-5036
▁equation	-5037
▁sentence	-5038
▁symmetry	-5039
▁radiation	-5040
▁effectively	-5041
▁politicians	-5042
▁technological	-5043
gn	-5044
spe	-5045
▁Em	-5046
foot	-5047
olic	-5048
roso	-5049
what	-5050
xide	-5051
▁Che	-5052
▁Dep	-5053
▁Lar	-5054
▁hyp	-5055
▁irr	-5056
▁Amaz	-5057
▁poly	-5058
▁sees	-5059
ortion	-5060
▁occup	-5061
▁orbit	-5062
▁taste	-5063
itarian	-5064
▁School	-5065
▁hoping	-5066
▁houses	-5067
▁review	-5068
▁season	-5069
▁victim	-5070
▁chromos	-5071
▁station	-5072
▁watched	-5073
▁identify	-5074
▁paradigm	-5075
▁ultimate	-5076
▁protected	-5077
▁surprised	-5078
▁convention	-5079
▁efficiency	-5080
▁simplicity	-5081
▁transition	-5082
esh	-5083
fit	-5084
hab	-5085
ula	-5086
ums	-5087
▁Ac	-5088
▁CE	-5089
▁Qu	-5090
cipl	-5091
whel	-5092
▁Mon	-5093
▁Tur	-5094
▁dip	-5095
allel	-5096
▁inev	-5097
▁kick	-5098
▁pair	-5099
▁sulf	-5100
forest	-5101
ounced	-5102
▁Union	-5103
▁chart	-5104
▁dolph	-5105
▁falls	-5106
▁thick	-5107
▁whale	-5108
▁wheel	-5109
ptember	-5110
▁Ethiop	-5111
▁George	-5112
▁Nobody	-5113
▁Street	-5114
▁Valley	-5115
▁explos	-5116
▁geomet	-5117
▁illust	-5118
▁linked	-5119
▁reform	-5120
▁string	-5121
▁diction	-5122
▁synthes	-5123
▁dramatic	-5124
▁Something	-5125
▁computing	-5126
▁convinced	-5127
▁establish	-5128
▁transplant	-5129
20	-5130
AR	-5131
ams	-5132
asm	-5133
car	-5134
har	-5135
▁Gh	-5136
frie	-5137
gent	-5138
semb	-5139
▁mos	-5140
andem	-5141
aters	-5142
▁Thom	-5143
▁busy	-5144
▁ends	-5145
▁flex	-5146
▁hurt	-5147
▁rein	-5148
arrass	-5149
▁Frank	-5150
▁Inter	-5151
▁Mount	-5152
▁Steve	-5153
▁aging	-5154
▁antib	-5155
▁cards	-5156
▁dress	-5157
▁films	-5158
▁grant	-5159
▁initi	-5160
unclear	-5161
▁analog	-5162
▁clever	-5163
▁former	-5164
▁liquid	-5165
▁burning	-5166
▁falling	-5167
▁Africans	-5168
▁collapse	-5169
▁generate	-5170
▁overwhel	-5171
▁relevant	-5172
▁requires	-5173
▁trillion	-5174
▁September	-5175
▁disappear	-5176
▁traveling	-5177
▁management	-5178
▁productive	-5179
▁situations	-5180
▁increasingly	-5181
▁mathematical	-5182
3.	-5183
8.	-5184
log	-5185
osh	-5186
rat	-5187
rog	-5188
xim	-5189
▁Rw	-5190
bble	-5191
ifth	-5192
inal	-5193
oons	-5194
tech	-5195
uros	-5196
zing	-5197
▁adj	-5198
▁ate	-5199
▁dio	-5200
retch	-5201
rooms	-5202
▁2000	-5203
▁Gore	-5204
▁cast	-5205
▁flew	-5206
▁hunt	-5207
▁lift	-5208
orders	-5209
rosoft	-5210
▁admit	-5211
▁cents	-5212
▁fewer	-5213
▁keeps	-5214
▁pyram	-5215
▁seats	-5216
▁church	-5217
▁garden	-5218
▁studio	-5219
ollywood	-5220
▁applied	-5221
▁breathe	-5222
▁consist	-5223
▁reverse	-5224
▁feedback	-5225
▁struggle	-5226
▁valuable	-5227
▁wireless	-5228
▁Microsoft	-5229
▁embarrass	-5230
▁conclusion	-5231
▁meaningful	-5232
▁entertainment	-5233
itz	-5234
orb	-5235
pox	-5236
▁Fe	-5237
▁KB	-5238
▁ru	-5239
road	-5240
uses	-5241
▁Vir	-5242
▁due	-5243
▁pip	-5244
▁tab	-5245
▁van	-5246
chest	-5247
eline	-5248
igate	-5249
ounce	-5250
▁Stan	-5251
▁bees	-5252
▁cosm	-5253
▁nose	-5254
▁runs	-5255
▁zone	-5256
isters	-5257
▁added	-5258
▁eleph	-5259
▁false	-5260
▁grade	-5261
▁recon	-5262
▁ridic	-5263
▁staff	-5264
▁whist	-5265
▁acting	-5266
▁boring	-5267
▁commod	-5268
▁credit	-5269
▁monkey	-5270
▁poetry	-5271
▁pulled	-5272
ographer	-5273
▁encoura	-5274
▁engaged	-5275
▁protein	-5276
▁vaccine	-5277
▁apparent	-5278
▁graduate	-5279
▁particle	-5280
▁behaviors	-5281
▁continued	-5282
▁professor	-5283
▁perception	-5284
▁exploration	-5285
ls	-5286
lly	-5287
▁Ah	-5288
▁Ug	-5289
aurs	-5290
down	-5291
well	-5292
▁bee	-5293
force	-5294
gence	-5295
▁ethn	-5296
▁hide	-5297
▁hung	-5298
▁item	-5299
▁neut	-5300
▁zoom	-5301
▁3,000	-5302
▁Found	-5303
▁breed	-5304
▁dense	-5305
▁pitch	-5306
▁France	-5307
▁Russia	-5308
▁blocks	-5309
▁divide	-5310
▁pandem	-5311
▁severe	-5312
aneously	-5313
▁Germany	-5314
▁capture	-5315
▁dioxide	-5316
▁mistake	-5317
▁origami	-5318
▁marriage	-5319
▁measured	-5320
▁whenever	-5321
▁Australia	-5322
▁explained	-5323
▁typically	-5324
▁appreciate	-5325
▁healthcare	-5326
▁mathematic	-5327
▁automatically	-5328
My	-5329
oca	-5330
▁2.	-5331
▁27	-5332
▁75	-5333
▁II	-5334
aled	-5335
atin	-5336
lymp	-5337
▁Jew	-5338
▁sen	-5339
alled	-5340
iques	-5341
ucing	-5342
uting	-5343
▁Mart	-5344
▁chap	-5345
▁eggs	-5346
▁icon	-5347
▁isol	-5348
▁maps	-5349
▁milk	-5350
▁thin	-5351
making	-5352
▁Obama	-5353
▁Olymp	-5354
▁Since	-5355
▁polic	-5356
▁pregn	-5357
▁refer	-5358
▁satis	-5359
▁users	-5360
entally	-5361
ription	-5362
▁Number	-5363
▁joined	-5364
▁myster	-5365
▁stress	-5366
▁thanks	-5367
inations	-5368
lication	-5369
▁accompl	-5370
▁amounts	-5371
▁decline	-5372
▁lessons	-5373
▁library	-5374
▁sending	-5375
▁astronom	-5376
▁floating	-5377
▁messages	-5378
▁romantic	-5379
▁breathing	-5380
▁reference	-5381
▁selection	-5382
▁corruption	-5383
▁expression	-5384
▁properties	-5385
▁entrepreneur	-5386
▁circumstances	-5387
ta	-5388
ata	-5389
bre	-5390
uff	-5391
aint	-5392
hold	-5393
▁Los	-5394
▁lin	-5395
ework	-5396
▁Ange	-5397
▁Face	-5398
▁bicy	-5399
▁club	-5400
▁ears	-5401
▁hook	-5402
▁nets	-5403
▁tent	-5404
▁vert	-5405
rating	-5406
▁Gener	-5407
▁Woman	-5408
▁frank	-5409
▁liver	-5410
▁memor	-5411
▁recom	-5412
astroph	-5413
▁Sweden	-5414
▁Thomas	-5415
▁volume	-5416
etically	-5417
▁autonom	-5418
▁chimpan	-5419
▁parking	-5420
▁release	-5421
▁remains	-5422
▁vessels	-5423
▁viruses	-5424
▁visible	-5425
▁witness	-5426
▁affected	-5427
▁election	-5428
▁features	-5429
▁infected	-5430
▁organism	-5431
▁received	-5432
ologically	-5433
▁authority	-5434
▁consumers	-5435
▁dinosaurs	-5436
▁framework	-5437
▁sensitive	-5438
▁underwater	-5439
▁challenging	-5440
▁fundamentally	-5441
▁sophisticated	-5442
/1	-5443
RI	-5444
cel	-5445
aser	-5446
▁10,	-5447
▁Sec	-5448
▁Yet	-5449
▁bio	-5450
▁nav	-5451
▁pin	-5452
▁rat	-5453
▁Comm	-5454
▁bull	-5455
▁decl	-5456
▁diag	-5457
▁elev	-5458
▁plug	-5459
▁pros	-5460
▁sets	-5461
▁trig	-5462
▁tube	-5463
believ	-5464
▁doubt	-5465
▁hotel	-5466
▁logic	-5467
▁neuro	-5468
▁prove	-5469
▁roads	-5470
▁tests	-5471
▁toile	-5472
anthrop	-5473
arrator	-5474
▁Before	-5475
▁fright	-5476
▁inject	-5477
▁lifest	-5478
▁puzzle	-5479
▁senses	-5480
▁slides	-5481
▁traged	-5482
▁Project	-5483
▁Science	-5484
▁authent	-5485
▁figures	-5486
▁poorest	-5487
▁quantum	-5488
▁regions	-5489
▁concepts	-5490
▁existing	-5491
▁mistakes	-5492
▁presence	-5493
▁Christmas	-5494
▁celebrate	-5495
▁worldwide	-5496
▁incentives	-5497
▁innovative	-5498
▁vulnerable	-5499
▁instruments	-5500
der	-5501
tes	-5502
asks	-5503
doll	-5504
mber	-5505
▁Get	-5506
▁Ice	-5507
▁Mac	-5508
▁cha	-5509
▁fan	-5510
erved	-5511
iance	-5512
iogen	-5513
▁Jeff	-5514
▁dign	-5515
▁gain	-5516
▁plus	-5517
herent	-5518
▁About	-5519
▁Antar	-5520
▁Could	-5521
▁Haiti	-5522
▁Women	-5523
▁domin	-5524
▁drill	-5525
▁estim	-5526
▁expon	-5527
▁piano	-5528
▁polar	-5529
▁prize	-5530
▁toler	-5531
ternoon	-5532
▁Uganda	-5533
▁critic	-5534
▁extent	-5535
▁member	-5536
▁poison	-5537
▁sample	-5538
▁Finally	-5539
▁closely	-5540
▁collaps	-5541
▁designs	-5542
▁extinct	-5543
▁include	-5544
▁Narrator	-5545
▁dynamics	-5546
▁infinite	-5547
▁internal	-5548
▁penguins	-5549
▁smallpox	-5550
▁Basically	-5551
▁footprint	-5552
▁furniture	-5553
▁Foundation	-5554
▁activities	-5555
▁afterwards	-5556
▁architects	-5557
▁catastroph	-5558
▁depression	-5559
▁literature	-5560
▁philosophy	-5561
▁appropriate	-5562
▁manufacturing	-5563
▁sustainability	-5564
In	-5565
ao	-5566
But	-5567
emb	-5568
obs	-5569
▁US	-5570
▁Del	-5571
▁Hom	-5572
▁Unf	-5573
▁beg	-5574
▁pun	-5575
▁tri	-5576
iters	-5577
usual	-5578
▁Pole	-5579
▁bare	-5580
▁grab	-5581
▁limb	-5582
▁root	-5583
▁user	-5584
apping	-5585
▁Other	-5586
▁Paris	-5587
▁sides	-5588
▁sight	-5589
▁Please	-5590
▁deaths	-5591
▁remain	-5592
▁scared	-5593
▁command	-5594
▁factors	-5595
▁frankly	-5596
▁regener	-5597
▁solving	-5598
▁somewhat	-5599
▁afternoon	-5600
▁implement	-5601
▁exhibition	-5602
▁passionate	-5603
▁profession	-5604
la	-5605
alt	-5606
bes	-5607
bur	-5608
▁Ke	-5609
▁La	-5610
▁Ox	-5611
Yeah	-5612
adic	-5613
cons	-5614
gers	-5615
iled	-5616
rase	-5617
wich	-5618
▁250	-5619
▁Art	-5620
▁Cap	-5621
▁Jul	-5622
▁bes	-5623
▁bow	-5624
▁gig	-5625
▁lie	-5626
▁toy	-5627
obile	-5628
▁Coll	-5629
▁acqu	-5630
▁bill	-5631
▁lies	-5632
▁neat	-5633
▁prem	-5634
dollar	-5635
ietnam	-5636
stream	-5637
▁colum	-5638
▁datab	-5639
▁error	-5640
▁knock	-5641
▁perce	-5642
▁sales	-5643
▁smile	-5644
▁stunt	-5645
▁vital	-5646
inction	-5647
▁Virgin	-5648
▁advice	-5649
▁assist	-5650
▁conver	-5651
▁drives	-5652
▁handle	-5653
▁perman	-5654
▁pollen	-5655
▁refuge	-5656
▁relate	-5657
▁rocket	-5658
▁volcan	-5659
▁feeding	-5660
▁testing	-5661
▁unknown	-5662
▁unusual	-5663
▁younger	-5664
▁distinct	-5665
▁parallel	-5666
▁required	-5667
▁unbeliev	-5668
▁awareness	-5669
▁functions	-5670
▁movements	-5671
▁operation	-5672
▁recommend	-5673
▁telephone	-5674
▁connecting	-5675
▁processing	-5676
▁comfortable	-5677
▁probability	-5678
▁Unfortunately	-5679
▁architectural	-5680
DP	-5681
ala	-5682
fin	-5683
han	-5684
ses	-5685
cean	-5686
eers	-5687
ello	-5688
half	-5689
hour	-5690
▁Gra	-5691
▁asp	-5692
▁gar	-5693
▁raw	-5694
eness	-5695
iform	-5696
▁flag	-5697
▁grid	-5698
▁lets	-5699
▁House	-5700
▁accum	-5701
▁aston	-5702
▁bones	-5703
▁conce	-5704
▁dirty	-5705
▁exped	-5706
▁facts	-5707
▁insur	-5708
▁notes	-5709
▁phant	-5710
▁renew	-5711
▁smoke	-5712
▁sympt	-5713
▁Robert	-5714
▁deploy	-5715
▁lovely	-5716
▁sharks	-5717
▁smooth	-5718
▁voices	-5719
▁Eastern	-5720
▁circuit	-5721
▁clothes	-5722
▁funding	-5723
▁largely	-5724
▁pyramid	-5725
▁records	-5726
▁birthday	-5727
▁official	-5728
▁properly	-5729
▁released	-5730
▁glamorous	-5731
▁increased	-5732
▁standards	-5733
▁virtually	-5734
▁economists	-5735
▁disappeared	-5736
bi	-5737
ek	-5738
aws	-5739
iat	-5740
sec	-5741
▁RB	-5742
otes	-5743
tery	-5744
zero	-5745
▁Air	-5746
▁Boy	-5747
▁ens	-5748
▁gap	-5749
▁hip	-5750
archy	-5751
▁Jack	-5752
▁Stud	-5753
▁brib	-5754
▁mush	-5755
▁pill	-5756
▁till	-5757
▁vacu	-5758
friend	-5759
▁Apple	-5760
▁angle	-5761
▁clust	-5762
▁hemis	-5763
▁links	-5764
▁plans	-5765
▁realm	-5766
▁resil	-5767
▁scary	-5768
▁seeds	-5769
▁songs	-5770
▁stere	-5771
▁Rwanda	-5772
▁colony	-5773
▁filter	-5774
▁heroes	-5775
▁improv	-5776
▁interf	-5777
▁limits	-5778
▁trends	-5779
▁writer	-5780
▁Vietnam	-5781
▁advance	-5782
▁appears	-5783
▁comment	-5784
▁dancing	-5785
▁density	-5786
▁nowhere	-5787
▁opposed	-5788
▁Ethiopia	-5789
▁Everyone	-5790
▁combined	-5791
▁estimate	-5792
▁meetings	-5793
▁occasion	-5794
▁stronger	-5795
▁wherever	-5796
▁mechanism	-5797
▁presented	-5798
▁confidence	-5799
▁greenhouse	-5800
▁techniques	-5801
▁advertising	-5802
▁inspiration	-5803
▁participate	-5804
▁conservation	-5805
▁implications	-5806
OK	-5807
nda	-5808
opy	-5809
uts	-5810
▁AB	-5811
appy	-5812
erer	-5813
ests	-5814
oran	-5815
rete	-5816
ront	-5817
▁Bon	-5818
▁Dem	-5819
▁NGO	-5820
▁Pol	-5821
▁adm	-5822
▁hol	-5823
▁uns	-5824
itors	-5825
nding	-5826
stand	-5827
▁Cons	-5828
▁Girl	-5829
▁Part	-5830
▁biod	-5831
▁loop	-5832
▁mere	-5833
struct	-5834
▁White	-5835
▁bucks	-5836
▁coord	-5837
▁decre	-5838
▁explo	-5839
▁flash	-5840
▁genoc	-5841
▁rocks	-5842
▁skull	-5843
▁stack	-5844
▁style	-5845
▁title	-5846
through	-5847
▁advent	-5848
▁assume	-5849
▁astero	-5850
▁diplom	-5851
▁encoun	-5852
▁fisher	-5853
▁frozen	-5854
▁repair	-5855
▁stayed	-5856
▁tribes	-5857
▁channel	-5858
▁circles	-5859
▁clients	-5860
▁convert	-5861
▁forests	-5862
▁outcome	-5863
▁tonight	-5864
abilities	-5865
▁brothers	-5866
▁pandemic	-5867
▁recorded	-5868
▁animation	-5869
▁dimension	-5870
▁exploring	-5871
▁interactive	-5872
▁psychological	-5873
dr	-5874
za	-5875
arp	-5876
ras	-5877
ups	-5878
war	-5879
ifer	-5880
lies	-5881
osal	-5882
▁Eve	-5883
▁GDP	-5884
▁Pre	-5885
▁aes	-5886
▁bom	-5887
▁rig	-5888
▁shr	-5889
▁tea	-5890
enced	-5891
while	-5892
▁1960	-5893
▁Step	-5894
▁cash	-5895
▁emph	-5896
▁ours	-5897
▁pile	-5898
▁pupp	-5899
▁vibr	-5900
encies	-5901
iosity	-5902
▁Titan	-5903
▁flour	-5904
▁grows	-5905
▁guide	-5906
▁plate	-5907
▁recyc	-5908
▁tries	-5909
▁unexp	-5910
▁upset	-5911
▁Oxford	-5912
▁Saturn	-5913
▁agreed	-5914
▁embedd	-5915
▁linear	-5916
▁narrow	-5917
▁neuros	-5918
▁profit	-5919
▁spoken	-5920
▁storyt	-5921
▁triang	-5922
▁Nothing	-5923
▁chicken	-5924
▁classic	-5925
▁defined	-5926
▁empathy	-5927
▁phantom	-5928
▁Republic	-5929
▁confront	-5930
▁director	-5931
▁horrible	-5932
▁shoulder	-5933
▁transfer	-5934
▁Hollywood	-5935
▁depending	-5936
▁increases	-5937
▁measuring	-5938
▁sculpture	-5939
▁uncertain	-5940
▁unexpected	-5941
4.	-5942
aci	-5943
val	-5944
▁IM	-5945
berg	-5946
etch	-5947
uits	-5948
▁195	-5949
▁Day	-5950
▁Dis	-5951
▁Jes	-5952
▁Moo	-5953
▁aim	-5954
▁ben	-5955
▁cru	-5956
▁mir	-5957
▁san	-5958
▁wel	-5959
acles	-5960
earch	-5961
third	-5962
tical	-5963
using	-5964
▁army	-5965
▁axis	-5966
▁bike	-5967
▁boom	-5968
▁caps	-5969
▁cock	-5970
▁exec	-5971
▁fake	-5972
▁firm	-5973
▁pour	-5974
▁Korea	-5975
▁Space	-5976
▁shrim	-5977
▁uncom	-5978
▁Nature	-5979
▁button	-5980
▁latest	-5981
▁output	-5982
▁proced	-5983
▁reject	-5984
▁rising	-5985
▁shadow	-5986
▁vacuum	-5987
▁Redwood	-5988
▁dignity	-5989
▁disturb	-5990
▁flowers	-5991
▁herself	-5992
▁housing	-5993
▁orchest	-5994
▁stretch	-5995
▁Remember	-5996
▁speakers	-5997
▁corporate	-5998
▁telescope	-5999
▁apparently	-6000
▁directions	-6001
▁electronic	-6002
▁observation	-6003
7.	-6004
70	-6005
9.	-6006
ua	-6007
▁♪	-6008
bul	-6009
hen	-6010
ita	-6011
▁32	-6012
grad	-6013
illy	-6014
izon	-6015
look	-6016
mble	-6017
nded	-6018
ogue	-6019
osis	-6020
pass	-6021
quar	-6022
ubes	-6023
uous	-6024
▁Sov	-6025
▁der	-6026
▁dot	-6027
▁eld	-6028
▁wip	-6029
esity	-6030
▁beer	-6031
▁cere	-6032
▁cott	-6033
▁dive	-6034
▁mall	-6035
▁nurt	-6036
▁obst	-6037
▁stro	-6038
▁tuna	-6039
called	-6040
othing	-6041
▁State	-6042
▁angry	-6043
▁boxes	-6044
▁craft	-6045
▁dozen	-6046
▁label	-6047
▁manif	-6048
▁phase	-6049
▁purch	-6050
▁rooms	-6051
▁topic	-6052
▁Howard	-6053
▁Island	-6054
▁bubble	-6055
▁driver	-6056
▁fabric	-6057
▁hearts	-6058
▁nurses	-6059
▁portra	-6060
▁remove	-6061
▁Muslims	-6062
▁carried	-6063
▁combine	-6064
▁conserv	-6065
▁consume	-6066
▁discipl	-6067
▁distant	-6068
▁divided	-6069
▁empower	-6070
▁operate	-6071
▁passing	-6072
▁slavery	-6073
▁wanting	-6074
▁domestic	-6075
▁embedded	-6076
▁imagined	-6077
▁magnetic	-6078
▁organize	-6079
▁subjects	-6080
▁surfaces	-6081
▁wondered	-6082
▁backwards	-6083
▁economies	-6084
▁surrounded	-6085
mm	-6086
yr	-6087
100	-6088
ari	-6089
cal	-6090
gly	-6091
nov	-6092
▁Op	-6093
aret	-6094
erry	-6095
esis	-6096
iens	-6097
ille	-6098
ints	-6099
keep	-6100
osen	-6101
ulse	-6102
▁'60	-6103
▁Jan	-6104
▁Mad	-6105
▁Wal	-6106
▁mad	-6107
abled	-6108
cking	-6109
class	-6110
icide	-6111
itual	-6112
under	-6113
▁cave	-6114
▁pace	-6115
▁unit	-6116
father	-6117
ifting	-6118
imeter	-6119
orking	-6120
▁Grand	-6121
▁Human	-6122
▁Johns	-6123
▁Never	-6124
▁River	-6125
▁Third	-6126
▁drove	-6127
▁fluid	-6128
▁roots	-6129
▁walks	-6130
angible	-6131
▁Amazon	-6132
▁Really	-6133
▁correl	-6134
▁cortex	-6135
▁desper	-6136
▁halluc	-6137
▁owners	-6138
▁stands	-6139
▁briefly	-6140
▁concert	-6141
▁embrace	-6142
▁equally	-6143
▁existed	-6144
▁inspire	-6145
▁offered	-6146
▁rebuild	-6147
▁removed	-6148
▁suspect	-6149
connected	-6150
▁lighting	-6151
▁maintain	-6152
▁proteins	-6153
▁sandwich	-6154
▁vehicles	-6155
▁component	-6156
▁dedicated	-6157
▁spreading	-6158
▁technique	-6159
▁controlled	-6160
▁engagement	-6161
▁hemisphere	-6162
▁percentage	-6163
▁educational	-6164
▁populations	-6165
▁agricultural	-6166
Is	-6167
St	-6168
Let	-6169
asy	-6170
ban	-6171
ena	-6172
son	-6173
usi	-6174
▁26	-6175
▁SW	-6176
Okay	-6177
anny	-6178
cont	-6179
fall	-6180
iday	-6181
onna	-6182
ropy	-6183
west	-6184
▁CEO	-6185
▁Ser	-6186
▁Sil	-6187
▁Ten	-6188
▁hey	-6189
▁hur	-6190
▁meg	-6191
▁ped	-6192
arant	-6193
esign	-6194
itals	-6195
itory	-6196
▁Only	-6197
▁Port	-6198
▁bubb	-6199
▁jail	-6200
▁leap	-6201
▁murd	-6202
▁rent	-6203
▁rush	-6204
profit	-6205
ptions	-6206
▁Latin	-6207
▁While	-6208
▁alien	-6209
▁blogs	-6210
▁chief	-6211
▁cliff	-6212
▁enemy	-6213
▁globe	-6214
▁goals	-6215
▁gradu	-6216
▁units	-6217
ocolate	-6218
uration	-6219
▁adjust	-6220
▁agenda	-6221
▁behave	-6222
▁clinic	-6223
▁emerge	-6224
▁facial	-6225
▁heaven	-6226
▁negoti	-6227
▁oldest	-6228
▁shrimp	-6229
▁stages	-6230
▁Angeles	-6231
▁causing	-6232
▁habitat	-6233
▁musical	-6234
▁obesity	-6235
▁session	-6236
▁therapy	-6237
▁tragedy	-6238
▁Facebook	-6239
▁Minister	-6240
▁achieved	-6241
▁allowing	-6242
▁constant	-6243
▁contrast	-6244
▁darkness	-6245
▁drinking	-6246
▁provided	-6247
▁treating	-6248
▁vertical	-6249
▁villages	-6250
▁announced	-6251
▁determine	-6252
▁inspiring	-6253
▁providing	-6254
▁synthetic	-6255
▁terrorism	-6256
▁algorithms	-6257
▁laboratory	-6258
▁physically	-6259
▁distributed	-6260
▁partnership	-6261
▁philanthrop	-6262
▁recognition	-6263
▁productivity	-6264
▁compassionate	-6265
aby	-6266
ati	-6267
box	-6268
och	-6269
oir	-6270
amin	-6271
eart	-6272
fram	-6273
hatt	-6274
icop	-6275
obal	-6276
oned	-6277
▁9/1	-6278
▁Jim	-6279
▁Med	-6280
▁Ray	-6281
▁Sea	-6282
▁obl	-6283
▁spr	-6284
▁tap	-6285
There	-6286
eller	-6287
ingly	-6288
level	-6289
ogram	-6290
think	-6291
usive	-6292
▁Hill	-6293
▁acid	-6294
▁dust	-6295
▁east	-6296
▁rice	-6297
abetes	-6298
acular	-6299
hattan	-6300
▁Black	-6301
▁Brown	-6302
▁Italy	-6303
▁Jesus	-6304
▁Scott	-6305
▁chose	-6306
▁maxim	-6307
▁metab	-6308
▁spots	-6309
▁tears	-6310
▁yield	-6311
▁20,000	-6312
▁Design	-6313
▁conven	-6314
▁gender	-6315
▁legacy	-6316
▁orange	-6317
▁placed	-6318
▁scales	-6319
▁shaped	-6320
▁attacks	-6321
▁hanging	-6322
▁pushing	-6323
▁touched	-6324
▁appeared	-6325
▁clinical	-6326
▁graphics	-6327
▁illusion	-6328
▁instinct	-6329
▁obsessed	-6330
▁overcome	-6331
▁sleeping	-6332
▁tracking	-6333
▁Manhattan	-6334
▁identical	-6335
▁lifestyle	-6336
▁commitment	-6337
▁controvers	-6338
▁governance	-6339
▁researchers	-6340
And	-6341
rey	-6342
rol	-6343
uba	-6344
▁65	-6345
▁Bu	-6346
▁ju	-6347
agon	-6348
ahar	-6349
apor	-6350
rary	-6351
utch	-6352
walk	-6353
▁Sud	-6354
▁ham	-6355
▁sed	-6356
ctica	-6357
ended	-6358
icted	-6359
inger	-6360
ribly	-6361
▁Coke	-6362
▁Long	-6363
▁Mark	-6364
▁Time	-6365
▁bath	-6366
▁butt	-6367
▁chip	-6368
▁eleg	-6369
▁elim	-6370
▁enth	-6371
▁fulf	-6372
▁scar	-6373
▁susp	-6374
▁ugly	-6375
Americ	-6376
mental	-6377
usions	-6378
▁abund	-6379
▁aside	-6380
▁crick	-6381
▁femin	-6382
▁fixed	-6383
▁laser	-6384
▁multi	-6385
▁paras	-6386
▁pharm	-6387
▁wound	-6388
▁Arctic	-6389
▁arrest	-6390
▁branch	-6391
▁escape	-6392
▁inches	-6393
▁landed	-6394
▁layers	-6395
▁mainly	-6396
▁neuron	-6397
▁phrase	-6398
▁ritual	-6399
▁scenar	-6400
▁scream	-6401
▁thrown	-6402
▁anticip	-6403
▁aspects	-6404
▁bicycle	-6405
▁classes	-6406
▁earthqu	-6407
▁entered	-6408
▁entropy	-6409
▁glamour	-6410
▁hitting	-6411
▁initial	-6412
▁liberal	-6413
▁license	-6414
▁neither	-6415
▁painful	-6416
▁raising	-6417
▁silence	-6418
▁violent	-6419
evolution	-6420
▁Atlantic	-6421
▁Northern	-6422
▁Stanford	-6423
▁accurate	-6424
▁climbing	-6425
▁facility	-6426
▁genocide	-6427
▁geometry	-6428
▁involves	-6429
▁manifest	-6430
▁northern	-6431
▁elsewhere	-6432
▁emergency	-6433
▁gentlemen	-6434
▁hospitals	-6435
▁narrative	-6436
▁reduction	-6437
▁transcend	-6438
▁Antarctica	-6439
▁assumption	-6440
▁boundaries	-6441
▁capability	-6442
▁recognized	-6443
▁simulation	-6444
▁strategies	-6445
▁consequence	-6446
▁personality	-6447
▁photography	-6448
▁applications	-6449
▁transportation	-6450
6.	-6451
Be	-6452
].	-6453
agh	-6454
bra	-6455
low	-6456
nel	-6457
▁23	-6458
▁Ma	-6459
agos	-6460
arre	-6461
erey	-6462
hone	-6463
lock	-6464
pond	-6465
ulum	-6466
▁700	-6467
▁Cra	-6468
▁Gen	-6469
▁Hey	-6470
▁Leg	-6471
▁Mor	-6472
▁Pat	-6473
▁Put	-6474
▁Sar	-6475
▁Spe	-6476
▁bon	-6477
▁cas	-6478
▁enh	-6479
▁gro	-6480
▁gut	-6481
▁ooh	-6482
amine	-6483
ensus	-6484
oston	-6485
owing	-6486
▁Next	-6487
▁dear	-6488
▁excl	-6489
▁fool	-6490
▁fung	-6491
▁hire	-6492
▁pink	-6493
▁pool	-6494
▁subs	-6495
▁toss	-6496
▁wash	-6497
athers	-6498
▁Cambr	-6499
▁Ghana	-6500
▁Moore	-6501
▁crops	-6502
▁jelly	-6503
▁persu	-6504
▁tired	-6505
▁wired	-6506
▁Boston	-6507
▁actors	-6508
▁attrib	-6509
▁chosen	-6510
▁crying	-6511
▁degrad	-6512
▁emphas	-6513
▁evolve	-6514
▁immune	-6515
▁pocket	-6516
▁signed	-6517
▁Perhaps	-6518
▁courage	-6519
▁diagram	-6520
▁immense	-6521
▁overall	-6522
▁picking	-6523
▁windows	-6524
▁Monterey	-6525
▁aircraft	-6526
▁contains	-6527
▁download	-6528
▁instruct	-6529
▁provides	-6530
▁airplanes	-6531
▁chocolate	-6532
▁encounter	-6533
▁intuitive	-6534
▁prototype	-6535
▁statement	-6536
▁capitalism	-6537
▁dictionary	-6538
▁integrated	-6539
▁computation	-6540
▁interacting	-6541
▁transformed	-6542
▁breakthrough	-6543
▁conventional	-6544
▁expectations	-6545
▁photographer	-6546
DA	-6547
ET	-6548
MS	-6549
ali	-6550
azz	-6551
equ	-6552
ixt	-6553
rem	-6554
rit	-6555
▁2,	-6556
▁CD	-6557
▁JH	-6558
kins	-6559
sing	-6560
▁Bob	-6561
▁Cor	-6562
▁Him	-6563
▁Lab	-6564
▁ack	-6565
▁ath	-6566
▁hat	-6567
agger	-6568
alian	-6569
anzan	-6570
gener	-6571
iment	-6572
orter	-6573
▁Arch	-6574
▁Blue	-6575
▁Camp	-6576
▁Mand	-6577
▁Rock	-6578
▁acts	-6579
▁barr	-6580
▁gray	-6581
▁laid	-6582
▁meal	-6583
▁plot	-6584
▁wise	-6585
izarre	-6586
lation	-6587
▁Congo	-6588
▁Ocean	-6589
▁Stage	-6590
▁delic	-6591
▁fifth	-6592
▁flood	-6593
▁frame	-6594
▁gonna	-6595
▁imper	-6596
▁miser	-6597
▁plays	-6598
▁relax	-6599
▁strip	-6600
▁teams	-6601
▁tribe	-6602
▁weigh	-6603
cellent	-6604
iveness	-6605
▁Health	-6606
▁Museum	-6607
▁Newton	-6608
▁Tanzan	-6609
▁borrow	-6610
▁canopy	-6611
▁curric	-6612
▁enable	-6613
▁fertil	-6614
▁funded	-6615
▁served	-6616
▁skelet	-6617
▁survey	-6618
▁theore	-6619
▁vagina	-6620
▁General	-6621
▁Islands	-6622
▁actions	-6623
▁anthrop	-6624
▁careful	-6625
▁concern	-6626
▁exposed	-6627
▁lecture	-6628
▁revenue	-6629
▁surgeon	-6630
▁victims	-6631
▁diabetes	-6632
▁incident	-6633
▁policies	-6634
▁produces	-6635
▁textbook	-6636
▁Christian	-6637
▁accidents	-6638
▁calculate	-6639
▁depressed	-6640
▁precisely	-6641
▁privilege	-6642
▁chromosome	-6643
▁industries	-6644
▁microscope	-6645
▁optimistic	-6646
▁performing	-6647
▁astonishing	-6648
▁demonstrate	-6649
▁ingredients	-6650
▁spectacular	-6651
▁underground	-6652
▁unbelievable	-6653
▁representation	-6654
wr	-6655
ads	-6656
auc	-6657
cto	-6658
ida	-6659
▁22	-6660
▁3.	-6661
▁Ok	-6662
▁RS	-6663
▁Up	-6664
ails	-6665
aren	-6666
ifts	-6667
ilem	-6668
itro	-6669
▁Isn	-6670
▁Tal	-6671
▁jun	-6672
capes	-6673
flies	-6674
going	-6675
▁Octo	-6676
▁dies	-6677
▁dism	-6678
▁grat	-6679
▁leaf	-6680
▁stri	-6681
▁suck	-6682
▁west	-6683
▁whis	-6684
▁Hawai	-6685
▁banks	-6686
▁bears	-6687
▁blame	-6688
▁dilem	-6689
▁faced	-6690
▁judge	-6691
▁likes	-6692
▁memes	-6693
▁prost	-6694
▁reson	-6695
▁trash	-6696
▁Soviet	-6697
▁aggreg	-6698
▁candid	-6699
▁expans	-6700
▁formal	-6701
▁hardly	-6702
▁recess	-6703
▁struck	-6704
▁tested	-6705
▁toilet	-6706
▁Nations	-6707
▁October	-6708
▁William	-6709
▁bizarre	-6710
▁constit	-6711
▁cricket	-6712
▁fragile	-6713
▁impacts	-6714
▁magical	-6715
▁mammals	-6716
▁pretend	-6717
▁pulling	-6718
▁writers	-6719
▁Congress	-6720
▁Research	-6721
▁Somebody	-6722
▁conclude	-6723
▁engaging	-6724
▁pregnant	-6725
▁symptoms	-6726
▁theories	-6727
▁centuries	-6728
▁copyright	-6729
▁curiosity	-6730
▁destroyed	-6731
▁exception	-6732
▁explosion	-6733
▁forgotten	-6734
▁intention	-6735
▁recording	-6736
▁separated	-6737
▁accessible	-6738
▁contribute	-6739
▁democratic	-6740
▁disappoint	-6741
▁fascinated	-6742
▁permission	-6743
▁traditions	-6744
▁application	-6745
▁controlling	-6746
▁represented	-6747
▁biodiversity	-6748
▁contemporary	-6749
▁dramatically	-6750
▁photographed	-6751
▁collaboration	-6752
▁conversations	-6753
bal	-6754
enh	-6755
eps	-6756
iel	-6757
sey	-6758
vas	-6759
▁LG	-6760
When	-6761
conf	-6762
free	-6763
grow	-6764
oded	-6765
zees	-6766
▁120	-6767
▁Bro	-6768
▁bat	-6769
▁nom	-6770
▁ski	-6771
inder	-6772
▁Comp	-6773
▁Febr	-6774
▁June	-6775
▁Same	-6776
▁Talk	-6777
▁cure	-6778
▁dish	-6779
▁lake	-6780
▁mate	-6781
▁melt	-6782
▁rail	-6783
▁tack	-6784
▁tone	-6785
▁tort	-6786
▁Carol	-6787
▁Delhi	-6788
▁Peace	-6789
▁adopt	-6790
▁crack	-6791
▁fiber	-6792
▁finds	-6793
▁fuels	-6794
▁glaci	-6795
▁holds	-6796
▁illeg	-6797
▁opens	-6798
▁secre	-6799
▁spont	-6800
▁storm	-6801
▁tasks	-6802
▁tight	-6803
▁utter	-6804
▁wings	-6805
viously	-6806
▁30,000	-6807
▁Indeed	-6808
▁Martin	-6809
▁cycles	-6810
▁eradic	-6811
▁ethnic	-6812
▁export	-6813
▁farmer	-6814
▁golden	-6815
▁iPhone	-6816
▁jumped	-6817
▁ladies	-6818
▁needle	-6819
▁option	-6820
▁plenty	-6821
▁poster	-6822
▁rhythm	-6823
▁senior	-6824
▁airport	-6825
▁borders	-6826
▁charity	-6827
▁closing	-6828
▁fiction	-6829
▁guarant	-6830
▁imagery	-6831
▁instant	-6832
▁methane	-6833
▁mystery	-6834
▁recover	-6835
▁reduced	-6836
▁sensors	-6837
▁speaker	-6838
▁washing	-6839
▁February	-6840
▁distingu	-6841
▁distract	-6842
▁printing	-6843
▁conflicts	-6844
▁detection	-6845
▁gentleman	-6846
▁intuition	-6847
▁physicist	-6848
▁correspond	-6849
▁originally	-6850
▁resolution	-6851
▁potentially	-6852
Can	-6853
iac	-6854
imp	-6855
lar	-6856
▁AI	-6857
▁Hi	-6858
▁Jo	-6859
▁PM	-6860
ault	-6861
prod	-6862
▁Lou	-6863
▁Que	-6864
▁Tib	-6865
▁anx	-6866
▁cab	-6867
▁inh	-6868
▁lun	-6869
ckets	-6870
lades	-6871
▁1950	-6872
▁Gene	-6873
▁bars	-6874
▁craw	-6875
▁cute	-6876
▁dump	-6877
▁hier	-6878
▁pigs	-6879
▁publ	-6880
▁sacr	-6881
▁salt	-6882
▁stom	-6883
engine	-6884
erving	-6885
market	-6886
mented	-6887
phones	-6888
▁apple	-6889
▁camps	-6890
▁chest	-6891
▁cryst	-6892
▁dough	-6893
▁kills	-6894
▁naked	-6895
▁pilot	-6896
▁reefs	-6897
▁sauce	-6898
▁shake	-6899
▁sharp	-6900
▁tiles	-6901
▁unpre	-6902
▁usual	-6903
▁yours	-6904
erences	-6905
forward	-6906
ishment	-6907
▁50,000	-6908
▁hungry	-6909
▁repeat	-6910
▁stable	-6911
▁ticket	-6912
American	-6913
▁Johnson	-6914
▁beneath	-6915
▁ceiling	-6916
▁consult	-6917
▁enthusi	-6918
▁farming	-6919
▁helicop	-6920
▁letting	-6921
▁reports	-6922
▁samples	-6923
▁scratch	-6924
▁artistic	-6925
▁concrete	-6926
▁reaching	-6927
▁Banglades	-6928
▁Greenland	-6929
▁permanent	-6930
▁qualities	-6931
▁religions	-6932
▁behavioral	-6933
▁biologists	-6934
▁department	-6935
▁expedition	-6936
▁demographic	-6937
▁improvement	-6938
▁manufacture	-6939
▁International	-6940
▁characteristics	-6941
He	-6942
hh	-6943
mi	-6944
bar	-6945
den	-6946
elf	-6947
leg	-6948
mal	-6949
ris	-6950
sun	-6951
▁SS	-6952
▁id	-6953
ardo	-6954
arsh	-6955
ewel	-6956
onic	-6957
ords	-6958
oust	-6959
rant	-6960
udes	-6961
▁'70	-6962
▁Bay	-6963
▁Mag	-6964
▁Roy	-6965
▁ain	-6966
▁tro	-6967
▁unh	-6968
▁wet	-6969
acing	-6970
front	-6971
itous	-6972
raham	-6973
▁Bron	-6974
▁Turn	-6975
▁Zero	-6976
▁flip	-6977
▁lung	-6978
▁tear	-6979
▁ther	-6980
▁toys	-6981
▁tsun	-6982
aharan	-6983
▁Buddh	-6984
▁Gates	-6985
▁anger	-6986
▁brown	-6987
▁flies	-6988
▁flows	-6989
▁foods	-6990
▁humor	-6991
▁mosqu	-6992
▁proof	-6993
▁schem	-6994
▁skept	-6995
▁spark	-6996
▁tooth	-6997
reement	-6998
▁barely	-6999
▁flower	-7000
▁gravit	-7001
▁invite	-7002
▁powers	-7003
▁sacred	-7004
▁sports	-7005
▁tracks	-7006
children	-7007
▁Abraham	-7008
▁bubbles	-7009
▁ecology	-7010
▁efforts	-7011
▁emerged	-7012
▁finance	-7013
▁glasses	-7014
▁parties	-7015
▁section	-7016
▁shelter	-7017
▁wealthy	-7018
▁accepted	-7019
▁clothing	-7020
▁dominant	-7021
▁fabulous	-7022
▁focusing	-7023
▁friendly	-7024
▁shopping	-7025
▁tendency	-7026
▁Obviously	-7027
▁collected	-7028
▁continues	-7029
▁Department	-7030
▁Revolution	-7031
▁curriculum	-7032
▁ridiculous	-7033
▁assumptions	-7034
▁genetically	-7035
▁innovations	-7036
▁restaurants	-7037
PA	-7038
So	-7039
ye	-7040
hol	-7041
▁95	-7042
▁ub	-7043
agen	-7044
heim	-7045
imic	-7046
lete	-7047
omin	-7048
onym	-7049
umin	-7050
▁800	-7051
▁Aug	-7052
▁Far	-7053
▁Jud	-7054
▁Pan	-7055
▁Six	-7056
▁Way	-7057
▁ads	-7058
akers	-7059
anges	-7060
aving	-7061
istot	-7062
▁Coun	-7063
▁Fore	-7064
▁Homo	-7065
▁Sing	-7066
▁Sund	-7067
▁athe	-7068
▁cham	-7069
▁cous	-7070
▁hors	-7071
▁loan	-7072
▁nuts	-7073
▁pion	-7074
▁rats	-7075
▁rely	-7076
▁toes	-7077
▁trag	-7078
mingly	-7079
olving	-7080
▁Force	-7081
▁Nobel	-7082
▁Prize	-7083
▁Super	-7084
▁bombs	-7085
▁disag	-7086
▁drawn	-7087
▁gases	-7088
▁immun	-7089
▁intim	-7090
▁legis	-7091
▁lying	-7092
▁outer	-7093
▁queen	-7094
▁sheet	-7095
▁spell	-7096
▁suspe	-7097
Saharan	-7098
▁Should	-7099
▁absorb	-7100
▁acknow	-7101
▁atomic	-7102
▁carpet	-7103
▁corals	-7104
▁cotton	-7105
▁ignore	-7106
▁margin	-7107
▁observ	-7108
▁occurs	-7109
▁perpet	-7110
▁rescue	-7111
▁strike	-7112
▁suffer	-7113
▁Aristot	-7114
▁Russian	-7115
▁contrad	-7116
▁granted	-7117
▁reminds	-7118
▁uniform	-7119
▁academic	-7120
▁angiogen	-7121
▁attached	-7122
▁database	-7123
▁elephant	-7124
▁external	-7125
▁football	-7126
▁fraction	-7127
▁hardware	-7128
▁includes	-7129
▁inherent	-7130
▁southern	-7131
▁transist	-7132
▁traveled	-7133
▁frequency	-7134
▁translate	-7135
▁assignment	-7136
▁collection	-7137
▁functional	-7138
▁constructed	-7139
▁globalization	-7140
▁communications	-7141
ka	-7142
Who	-7143
ias	-7144
ura	-7145
▁Bo	-7146
eday	-7147
iety	-7148
izer	-7149
oler	-7150
raph	-7151
rich	-7152
rons	-7153
rous	-7154
ship	-7155
umes	-7156
▁10-	-7157
▁Lad	-7158
▁Mod	-7159
▁Net	-7160
▁Wow	-7161
▁bug	-7162
▁cub	-7163
▁gor	-7164
▁lap	-7165
asses	-7166
atrix	-7167
break	-7168
ormal	-7169
osure	-7170
▁Math	-7171
▁carr	-7172
▁damn	-7173
▁hill	-7174
▁iPod	-7175
aching	-7176
ashing	-7177
▁Count	-7178
▁Koran	-7179
▁aband	-7180
▁edges	-7181
▁indig	-7182
▁prime	-7183
▁shame	-7184
▁sheep	-7185
century	-7186
ughters	-7187
▁August	-7188
▁breaks	-7189
▁buried	-7190
▁cheese	-7191
▁clouds	-7192
▁cosmic	-7193
▁decent	-7194
▁dragon	-7195
▁hunger	-7196
▁satisf	-7197
▁sticks	-7198
▁trucks	-7199
▁weapon	-7200
interest	-7201
▁Central	-7202
▁January	-7203
▁bottles	-7204
▁chapter	-7205
▁charges	-7206
▁failing	-7207
▁founded	-7208
▁gesture	-7209
▁involve	-7210
▁laptops	-7211
▁monitor	-7212
▁pointed	-7213
▁receive	-7214
▁serving	-7215
▁suicide	-7216
▁visited	-7217
▁whereas	-7218
▁winning	-7219
▁Tanzania	-7220
▁catching	-7221
▁crossing	-7222
▁drawings	-7223
▁extended	-7224
▁suggests	-7225
▁Cambridge	-7226
▁performed	-7227
▁planetary	-7228
▁realizing	-7229
▁Bangladesh	-7230
▁affordable	-7231
▁earthquake	-7232
▁motivation	-7233
▁newspapers	-7234
▁operations	-7235
▁prevention	-7236
▁proportion	-7237
▁volunteers	-7238
▁chimpanzees	-7239
▁exponential	-7240
▁grandfather	-7241
▁predictions	-7242
▁experimental	-7243
▁administration	-7244
EC	-7245
fe	-7246
che	-7247
cip	-7248
cut	-7249
dig	-7250
ela	-7251
ini	-7252
lyn	-7253
mod	-7254
yal	-7255
▁GP	-7256
▁JA	-7257
▁gh	-7258
▁je	-7259
ague	-7260
ares	-7261
enth	-7262
fast	-7263
fold	-7264
ourt	-7265
wing	-7266
▁Bur	-7267
▁Ext	-7268
▁Mom	-7269
▁Sus	-7270
▁aer	-7271
▁cup	-7272
▁egg	-7273
▁ger	-7274
▁rul	-7275
athan	-7276
eters	-7277
inery	-7278
leton	-7279
oples	-7280
ostic	-7281
riger	-7282
▁bind	-7283
▁dumb	-7284
▁glad	-7285
▁mesh	-7286
▁odds	-7287
▁radi	-7288
▁sett	-7289
▁sits	-7290
illing	-7291
▁Bronx	-7292
▁Greek	-7293
▁McDon	-7294
▁Santa	-7295
▁actor	-7296
▁begun	-7297
▁blank	-7298
▁elite	-7299
▁honey	-7300
▁jewel	-7301
▁mycel	-7302
▁owned	-7303
▁threw	-7304
▁views	-7305
▁weeke	-7306
▁wheat	-7307
▁youth	-7308
▁Palest	-7309
▁assemb	-7310
▁attend	-7311
▁client	-7312
▁injury	-7313
▁intrig	-7314
▁locked	-7315
▁robust	-7316
▁secure	-7317
▁simult	-7318
▁stones	-7319
▁surely	-7320
▁Iceland	-7321
▁Whereas	-7322
▁arrange	-7323
▁cheaper	-7324
▁delight	-7325
▁despair	-7326
▁diverse	-7327
▁illegal	-7328
▁methods	-7329
▁peoples	-7330
▁portion	-7331
▁articles	-7332
▁confused	-7333
▁controls	-7334
▁failures	-7335
▁figuring	-7336
▁genetics	-7337
▁minister	-7338
▁refriger	-7339
▁vaccines	-7340
▁abilities	-7341
▁authentic	-7342
▁expanding	-7343
▁gathering	-7344
▁generated	-7345
▁gradually	-7346
▁mechanics	-7347
▁uncomfort	-7348
▁Geographic	-7349
▁extinction	-7350
▁historical	-7351
▁underlying	-7352
▁universities	-7353
da	-7354
ki	-7355
Wow	-7356
cro	-7357
imb	-7358
▁Bi	-7359
abil	-7360
ding	-7361
quis	-7362
urse	-7363
vity	-7364
▁191	-7365
▁202	-7366
▁350	-7367
▁Ham	-7368
▁Hum	-7369
▁Mer	-7370
▁Sam	-7371
▁Tel	-7372
▁Tes	-7373
▁dow	-7374
▁lob	-7375
▁oct	-7376
▁tip	-7377
ested	-7378
ician	-7379
irect	-7380
oning	-7381
pring	-7382
quare	-7383
rance	-7384
ville	-7385
▁1990	-7386
▁Cont	-7387
▁Flor	-7388
▁Ford	-7389
▁Hall	-7390
▁ages	-7391
▁bask	-7392
▁boss	-7393
▁drum	-7394
▁mail	-7395
▁mice	-7396
▁shit	-7397
▁tech	-7398
arbage	-7399
esthes	-7400
mitted	-7401
semble	-7402
utical	-7403
▁Smith	-7404
▁Tibet	-7405
▁audio	-7406
▁comic	-7407
▁meter	-7408
▁owner	-7409
▁reput	-7410
▁scaff	-7411
▁tends	-7412
▁ubiqu	-7413
▁wider	-7414
related	-7415
▁adding	-7416
▁barrel	-7417
▁curves	-7418
▁errors	-7419
▁preval	-7420
▁pushed	-7421
▁regime	-7422
▁silent	-7423
▁stroke	-7424
▁tempor	-7425
▁unable	-7426
▁waters	-7427
cedented	-7428
▁beliefs	-7429
▁fortune	-7430
▁lawyers	-7431
▁persist	-7432
▁prosper	-7433
▁sisters	-7434
▁spreads	-7435
▁traject	-7436
▁tsunami	-7437
▁warning	-7438
▁Children	-7439
▁answered	-7440
▁asteroid	-7441
▁branches	-7442
▁category	-7443
▁globally	-7444
▁morality	-7445
▁recovery	-7446
▁smallest	-7447
▁terribly	-7448
▁aesthetic	-7449
▁colleague	-7450
▁insurance	-7451
▁paintings	-7452
▁predicted	-7453
▁primitive	-7454
▁signature	-7455
otechnology	-7456
▁continents	-7457
▁determined	-7458
▁ecological	-7459
▁elementary	-7460
▁physicists	-7461
▁protecting	-7462
▁rainforest	-7463
▁description	-7464
▁discoveries	-7465
▁discovering	-7466
▁transparent	-7467
▁angiogenesis	-7468
▁institutional	-7469
▁interestingly	-7470
▁uncomfortable	-7471
▁mathematicians	-7472
sp	-7473
eds	-7474
oln	-7475
pha	-7476
pos	-7477
rof	-7478
see	-7479
▁28	-7480
▁Ap	-7481
ason	-7482
atom	-7483
atts	-7484
cers	-7485
cher	-7486
lend	-7487
onds	-7488
osov	-7489
▁'80	-7490
▁20,	-7491
▁Bet	-7492
▁Nam	-7493
▁Sur	-7494
▁ink	-7495
▁jug	-7496
bably	-7497
cence	-7498
copes	-7499
esome	-7500
rence	-7501
venth	-7502
▁Gand	-7503
▁High	-7504
▁Mike	-7505
▁NGOs	-7506
▁Rand	-7507
▁Walk	-7508
▁bell	-7509
▁cats	-7510
▁foie	-7511
▁gaps	-7512
▁mold	-7513
▁prol	-7514
▁sink	-7515
icious	-7516
incoln	-7517
ivered	-7518
lessly	-7519
soever	-7520
▁Craig	-7521
▁Democ	-7522
▁Dutch	-7523
▁Power	-7524
▁agent	-7525
▁balls	-7526
▁chaos	-7527
▁mixed	-7528
▁nucle	-7529
▁presc	-7530
▁schol	-7531
▁surve	-7532
▁tempt	-7533
▁trail	-7534
▁viral	-7535
▁winds	-7536
▁Jewish	-7537
▁Within	-7538
▁arrive	-7539
▁chairs	-7540
▁comics	-7541
▁diving	-7542
▁garage	-7543
▁manual	-7544
▁marvel	-7545
▁worker	-7546
▁Anybody	-7547
▁Whether	-7548
▁chances	-7549
▁enables	-7550
▁enterpr	-7551
▁forming	-7552
▁hunting	-7553
▁mindset	-7554
▁selfish	-7555
▁soldier	-7556
aceutical	-7557
▁captured	-7558
▁explains	-7559
▁homework	-7560
▁neurolog	-7561
▁reserves	-7562
▁scenario	-7563
▁skeletal	-7564
▁unlikely	-7565
▁wildlife	-7566
▁committed	-7567
▁daughters	-7568
▁miserable	-7569
▁recession	-7570
▁replicate	-7571
▁supported	-7572
▁collecting	-7573
▁facilities	-7574
▁mysterious	-7575
▁resilience	-7576
▁resistance	-7577
▁symmetries	-7578
▁translated	-7579
▁vegetables	-7580
▁whatsoever	-7581
▁electronics	-7582
▁uncertainty	-7583
▁interactions	-7584
▁temperatures	-7585
▁collaborative	-7586
▁unprecedented	-7587
All	-7588
ETI	-7589
kin	-7590
via	-7591
▁DV	-7592
▁PC	-7593
▁na	-7594
▁rh	-7595
Talk	-7596
bits	-7597
cycl	-7598
exas	-7599
eyed	-7600
olas	-7601
onge	-7602
▁'90	-7603
▁30-	-7604
▁Bel	-7605
▁Hel	-7606
▁Tim	-7607
▁cig	-7608
▁tut	-7609
▁wra	-7610
anned	-7611
arest	-7612
digit	-7613
itate	-7614
maker	-7615
omics	-7616
umble	-7617
▁Back	-7618
▁ange	-7619
▁bags	-7620
▁bulb	-7621
▁cake	-7622
▁choo	-7623
▁disg	-7624
▁earn	-7625
▁fits	-7626
▁genu	-7627
▁guns	-7628
▁inch	-7629
▁kiss	-7630
▁lock	-7631
▁seek	-7632
▁tied	-7633
angers	-7634
ateful	-7635
iences	-7636
iverse	-7637
umines	-7638
▁Court	-7639
▁Kosov	-7640
▁burst	-7641
▁camel	-7642
▁champ	-7643
▁drown	-7644
▁eaten	-7645
▁fluct	-7646
▁hired	-7647
▁males	-7648
▁opera	-7649
▁patch	-7650
▁proph	-7651
▁shirt	-7652
▁shore	-7653
▁spons	-7654
▁wires	-7655
embered	-7656
▁Global	-7657
▁autism	-7658
▁column	-7659
▁inevit	-7660
▁killer	-7661
▁makers	-7662
▁parach	-7663
▁rubber	-7664
▁talent	-7665
▁thresh	-7666
quarters	-7667
▁Council	-7668
▁Florida	-7669
▁Italian	-7670
▁Lincoln	-7671
▁adapted	-7672
▁affects	-7673
▁besides	-7674
▁defense	-7675
▁educate	-7676
▁elected	-7677
▁ethical	-7678
▁fastest	-7679
▁flowing	-7680
▁millenn	-7681
▁muscles	-7682
▁offices	-7683
▁ongoing	-7684
▁pursuit	-7685
▁robotic	-7686
▁smarter	-7687
▁Carolina	-7688
▁Probably	-7689
▁Secondly	-7690
▁breaking	-7691
▁cartoons	-7692
▁investig	-7693
▁magnific	-7694
▁mycelium	-7695
▁precious	-7696
▁reliable	-7697
▁reminded	-7698
▁repeated	-7699
▁reported	-7700
▁shooting	-7701
▁customers	-7702
▁delivered	-7703
▁dependent	-7704
▁expansion	-7705
▁expertise	-7706
▁fortunate	-7707
▁improving	-7708
▁initially	-7709
▁machinery	-7710
▁primarily	-7711
▁remaining	-7712
▁suspended	-7713
▁automobile	-7714
▁conceptual	-7715
▁ecosystems	-7716
▁explaining	-7717
▁impression	-7718
▁initiative	-7719
▁landscapes	-7720
▁beautifully	-7721
▁marketplace	-7722
▁predictable	-7723
-1	-7724
],	-7725
God	-7726
aud	-7727
erd	-7728
nat	-7729
yon	-7730
▁ID	-7731
▁Po	-7732
..."	-7733
aded	-7734
case	-7735
enly	-7736
ghai	-7737
inth	-7738
made	-7739
sour	-7740
uces	-7741
wind	-7742
yard	-7743
▁Def	-7744
▁Out	-7745
▁Vol	-7746
▁Wol	-7747
▁ash	-7748
▁dim	-7749
▁gee	-7750
▁rip	-7751
▁sav	-7752
▁upd	-7753
human	-7754
icked	-7755
inter	-7756
lfare	-7757
ocent	-7758
opard	-7759
opher	-7760
▁Adam	-7761
▁Brad	-7762
▁Give	-7763
▁Hong	-7764
▁Mill	-7765
▁Tell	-7766
▁bang	-7767
▁bend	-7768
▁brut	-7769
▁coca	-7770
▁crim	-7771
▁dict	-7772
▁enzy	-7773
▁gods	-7774
▁junk	-7775
▁logo	-7776
▁mode	-7777
aneous	-7778
atever	-7779
cyclop	-7780
rained	-7781
▁Charl	-7782
▁Coast	-7783
▁Hello	-7784
▁Larry	-7785
▁Sorry	-7786
▁Spain	-7787
▁Texas	-7788
▁abuse	-7789
▁chips	-7790
▁fancy	-7791
▁fires	-7792
▁grabb	-7793
▁incom	-7794
▁maker	-7795
▁monit	-7796
▁nurse	-7797
▁screw	-7798
▁ships	-7799
▁sixth	-7800
▁slums	-7801
▁thumb	-7802
▁tubes	-7803
▁zones	-7804
angered	-7805
looking	-7806
ogether	-7807
powered	-7808
vention	-7809
▁System	-7810
▁Turkey	-7811
▁acoust	-7812
▁annual	-7813
▁appeal	-7814
▁burned	-7815
▁caring	-7816
▁curren	-7817
▁estate	-7818
▁insist	-7819
▁intent	-7820
▁namely	-7821
▁partly	-7822
▁recipe	-7823
▁rotate	-7824
▁summit	-7825
▁themes	-7826
esthesia	-7827
fficient	-7828
▁Indians	-7829
▁TEDTalk	-7830
▁analyze	-7831
▁closest	-7832
▁compete	-7833
▁deserve	-7834
▁dilemma	-7835
▁dolphin	-7836
▁enlight	-7837
▁federal	-7838
▁garbage	-7839
▁genuine	-7840
▁graphic	-7841
▁ignored	-7842
▁islands	-7843
▁painted	-7844
▁promote	-7845
▁refugee	-7846
▁someday	-7847
▁sulfide	-7848
▁trigger	-7849
▁welcome	-7850
mentation	-7851
▁McDonald	-7852
▁altitude	-7853
▁attitude	-7854
▁channels	-7855
▁colonies	-7856
▁entering	-7857
▁generous	-7858
▁hypothes	-7859
▁isolated	-7860
▁scaffold	-7861
▁substant	-7862
▁batteries	-7863
▁breakfast	-7864
▁collapsed	-7865
▁distances	-7866
▁investors	-7867
▁magnitude	-7868
▁musicians	-7869
▁phenomena	-7870
▁continuous	-7871
▁difficulty	-7872
▁engineered	-7873
▁remembered	-7874
▁suggesting	-7875
▁foundations	-7876
▁interviewed	-7877
▁programming	-7878
▁translation	-7879
▁measurements	-7880
▁concentration	-7881
CA	-7882
IS	-7883
uk	-7884
va	-7885
aze	-7886
bed	-7887
gie	-7888
oen	-7889
uan	-7890
▁36	-7891
▁AM	-7892
▁ah	-7893
▁oy	-7894
acts	-7895
aust	-7896
beat	-7897
char	-7898
cost	-7899
ieve	-7900
illa	-7901
mass	-7902
onia	-7903
plus	-7904
pril	-7905
sell	-7906
uity	-7907
utan	-7908
▁Det	-7909
▁Hol	-7910
▁Sir	-7911
▁Syl	-7912
▁aqu	-7913
▁jet	-7914
ading	-7915
ambod	-7916
aning	-7917
chool	-7918
chron	-7919
enter	-7920
ifice	-7921
ihood	-7922
licit	-7923
oline	-7924
stage	-7925
▁1970	-7926
▁Cath	-7927
▁Dece	-7928
▁Kong	-7929
▁Milo	-7930
▁Miss	-7931
▁Pitt	-7932
▁SETI	-7933
▁Shan	-7934
▁Span	-7935
▁Wind	-7936
▁dawn	-7937
▁debt	-7938
▁fuck	-7939
▁orph	-7940
▁urge	-7941
▁wing	-7942
enance	-7943
urable	-7944
▁April	-7945
▁Clint	-7946
▁amate	-7947
▁cabin	-7948
▁downt	-7949
▁fault	-7950
▁march	-7951
▁minor	-7952
▁nitro	-7953
▁plank	-7954
▁redef	-7955
▁rings	-7956
▁silly	-7957
▁spill	-7958
▁stops	-7959
▁trace	-7960
▁uncle	-7961
▁yeast	-7962
inarily	-7963
keepers	-7964
ressing	-7965
ustrial	-7966
▁Cambod	-7967
▁Disney	-7968
▁Hawaii	-7969
▁agency	-7970
▁binary	-7971
▁border	-7972
▁devast	-7973
▁fusion	-7974
▁lowest	-7975
▁missed	-7976
▁rarely	-7977
▁recept	-7978
▁silver	-7979
▁subsid	-7980
▁trials	-7981
▁troops	-7982
▁tumors	-7983
▁valley	-7984
▁widely	-7985
▁worthy	-7986
changing	-7987
▁amongst	-7988
▁crucial	-7989
▁deliber	-7990
▁demands	-7991
▁package	-7992
▁paradox	-7993
▁shocked	-7994
▁staying	-7995
▁welfare	-7996
▁December	-7997
▁accounts	-7998
▁attacked	-7999
▁connects	-8000
▁covering	-8001
▁decrease	-8002
▁disorder	-8003
▁dolphins	-8004
▁educated	-8005
▁grateful	-8006
▁invested	-8007
▁kindness	-8008
▁memories	-8009
▁microbes	-8010
▁navigate	-8011
▁nitrogen	-8012
▁pleasant	-8013
▁pointing	-8014
▁purposes	-8015
▁reducing	-8016
▁stations	-8017
▁strongly	-8018
▁Alexander	-8019
▁Aristotle	-8020
▁apartment	-8021
▁commodity	-8022
▁elections	-8023
▁immediate	-8024
▁nutrients	-8025
▁positions	-8026
▁searching	-8027
▁variation	-8028
▁appearance	-8029
▁approaches	-8030
▁categories	-8031
▁comparison	-8032
▁endangered	-8033
▁generating	-8034
▁journalist	-8035
▁mechanisms	-8036
▁struggling	-8037
▁trajectory	-8038
▁ubiquitous	-8039
▁concentrate	-8040
▁collectively	-8041
▁experiencing	-8042
▁significantly	-8043
▁interpretation	-8044
▁pharmaceutical	-8045
▁simultaneously	-8046
▁]	-8047
.'"	-8048
200	-8049
Are	-8050
aus	-8051
ava	-8052
edy	-8053
ria	-8054
rid	-8055
uke	-8056
▁85	-8057
▁DR	-8058
▁Es	-8059
▁Ty	-8060
▁Wi	-8061
anol	-8062
aped	-8063
asha	-8064
away	-8065
chem	-8066
etti	-8067
expl	-8068
gled	-8069
iban	-8070
outs	-8071
zone	-8072
▁Kev	-8073
▁Lin	-8074
▁Met	-8075
▁Sky	-8076
▁Tar	-8077
▁Try	-8078
▁dop	-8079
▁lit	-8080
aches	-8081
allow	-8082
ashed	-8083
essor	-8084
iders	-8085
ighth	-8086
isons	-8087
isten	-8088
ivial	-8089
lings	-8090
odied	-8091
oenix	-8092
puter	-8093
stone	-8094
▁None	-8095
▁Rick	-8096
▁Wall	-8097
▁cong	-8098
▁crew	-8099
▁epis	-8100
▁hybr	-8101
▁impl	-8102
▁mand	-8103
▁neoc	-8104
▁palm	-8105
▁peer	-8106
▁sons	-8107
▁spat	-8108
iotics	-8109
itated	-8110
▁Peter	-8111
▁Queen	-8112
▁cheat	-8113
▁crows	-8114
▁cruel	-8115
▁freak	-8116
▁funds	-8117
▁grasp	-8118
▁incor	-8119
▁legit	-8120
▁loose	-8121
▁octop	-8122
▁shelf	-8123
▁twist	-8124
▁worms	-8125
working	-8126
▁Berlin	-8127
▁Church	-8128
▁Except	-8129
▁Mother	-8130
▁Sunday	-8131
▁aliens	-8132
▁athlet	-8133
▁builds	-8134
▁compos	-8135
▁editor	-8136
▁horses	-8137
▁lawyer	-8138
▁merely	-8139
▁neural	-8140
▁paraly	-8141
▁relief	-8142
▁shrink	-8143
▁sketch	-8144
▁stores	-8145
▁tackle	-8146
▁tragic	-8147
▁tunnel	-8148
▁upside	-8149
▁200,000	-8150
▁Everest	-8151
▁Taliban	-8152
▁broader	-8153
▁harness	-8154
▁healing	-8155
▁illness	-8156
▁located	-8157
▁mosquit	-8158
▁savings	-8159
▁scanner	-8160
▁smoking	-8161
▁venture	-8162
▁Shanghai	-8163
▁calories	-8164
▁diameter	-8165
▁dopamine	-8166
▁leverage	-8167
▁listened	-8168
▁outbreak	-8169
▁proposed	-8170
▁prostate	-8171
▁spinning	-8172
▁believing	-8173
▁biosphere	-8174
▁documents	-8175
▁jellyfish	-8176
▁nutrition	-8177
▁ownership	-8178
▁predators	-8179
▁expectancy	-8180
▁identified	-8181
▁inevitable	-8182
▁mechanical	-8183
▁reputation	-8184
▁achievement	-8185
▁antibiotics	-8186
▁contributed	-8187
▁frightening	-8188
▁limitations	-8189
▁technically	-8190
▁capabilities	-8191
▁concentrated	-8192
▁philanthropy	-8193
▁surprisingly	-8194
▁demonstration	-8195
▁grandchildren	-8196
▁gravitational	-8197
Ah	-8198
jo	-8199
cap	-8200
ili	-8201
law	-8202
mes	-8203
nik	-8204
ois	-8205
oto	-8206
raw	-8207
▁0.	-8208
▁AK	-8209
▁BJ	-8210
▁WK	-8211
▁ho	-8212
addy	-8213
ador	-8214
asty	-8215
aves	-8216
icks	-8217
iful	-8218
leep	-8219
mill	-8220
take	-8221
▁20-	-8222
▁Aut	-8223
▁DVD	-8224
▁Den	-8225
▁Its	-8226
▁Ron	-8227
▁Sal	-8228
▁Sen	-8229
▁Sou	-8230
▁gam	-8231
▁lam	-8232
▁ton	-8233
ached	-8234
atoes	-8235
bling	-8236
enous	-8237
field	-8238
grade	-8239
inson	-8240
world	-8241
▁..."	-8242
▁Both	-8243
▁Lake	-8244
▁News	-8245
▁Rome	-8246
▁alco	-8247
▁coat	-8248
▁crap	-8249
▁mant	-8250
▁meme	-8251
▁quit	-8252
heimer	-8253
iented	-8254
romagn	-8255
rupted	-8256
unning	-8257
vation	-8258
▁4,000	-8259
▁Brian	-8260
▁Voice	-8261
▁Watch	-8262
▁award	-8263
▁caves	-8264
▁court	-8265
▁gotta	-8266
▁lungs	-8267
▁membr	-8268
▁minus	-8269
▁plain	-8270
▁route	-8271
▁score	-8272
▁seals	-8273
▁traum	-8274
itating	-8275
rations	-8276
section	-8277
▁Albert	-8278
▁During	-8279
▁Sylvia	-8280
▁Wright	-8281
▁basket	-8282
▁defend	-8283
▁ending	-8284
▁flavor	-8285
▁fluctu	-8286
▁infant	-8287
▁motors	-8288
▁nearby	-8289
▁pursue	-8290
▁subtle	-8291
▁subway	-8292
▁trains	-8293
▁Clinton	-8294
▁Silicon	-8295
▁anxiety	-8296
▁awesome	-8297
▁cocaine	-8298
▁destiny	-8299
▁hardest	-8300
▁logical	-8301
▁metabol	-8302
▁printed	-8303
▁readers	-8304
▁retreat	-8305
▁rolling	-8306
▁staring	-8307
▁stepped	-8308
▁Virginia	-8309
▁contempl	-8310
▁coverage	-8311
▁detailed	-8312
▁dialogue	-8313
▁downtown	-8314
▁flexible	-8315
▁innocent	-8316
▁interior	-8317
▁internet	-8318
▁judgment	-8319
▁prisoner	-8320
▁simulate	-8321
▁adventure	-8322
▁agreement	-8323
▁broadcast	-8324
▁confident	-8325
▁describes	-8326
▁empowered	-8327
▁incentive	-8328
▁infection	-8329
▁prisoners	-8330
▁procedure	-8331
▁recycling	-8332
▁suggested	-8333
▁aggressive	-8334
▁attractive	-8335
▁helicopter	-8336
▁irrational	-8337
▁profoundly	-8338
▁regardless	-8339
▁structural	-8340
▁telescopes	-8341
▁yourselves	-8342
▁cooperation	-8343
▁distinguish	-8344
▁electromagn	-8345
▁magnificent	-8346
▁maintenance	-8347
▁theoretical	-8348
ga	-8349
hop	-8350
pie	-8351
▁42	-8352
▁Ky	-8353
▁Ur	-8354
▁od	-8355
ache	-8356
eady	-8357
edge	-8358
idth	-8359
ilty	-8360
kind	-8361
list	-8362
ocal	-8363
pers	-8364
soon	-8365
zler	-8366
▁10.	-8367
▁Inc	-8368
▁Ire	-8369
▁Kir	-8370
▁Rad	-8371
▁lux	-8372
▁mat	-8373
▁sew	-8374
Where	-8375
ansas	-8376
apped	-8377
elled	-8378
elson	-8379
ivery	-8380
izoph	-8381
oding	-8382
peare	-8383
shore	-8384
▁1980	-8385
▁Fort	-8386
▁Lego	-8387
▁Leon	-8388
▁Mond	-8389
▁Prof	-8390
▁Supp	-8391
▁Zeal	-8392
▁asks	-8393
▁clue	-8394
▁cows	-8395
▁drew	-8396
▁ende	-8397
▁gate	-8398
▁gath	-8399
▁gear	-8400
▁knee	-8401
▁lone	-8402
▁nerd	-8403
▁pref	-8404
▁seal	-8405
▁shoe	-8406
▁wrap	-8407
apagos	-8408
arency	-8409
edding	-8410
minute	-8411
▁6,000	-8412
▁Media	-8413
▁Namib	-8414
▁Under	-8415
▁algae	-8416
▁array	-8417
▁artif	-8418
▁blown	-8419
▁bored	-8420
▁chron	-8421
▁coinc	-8422
▁cream	-8423
▁deals	-8424
▁erect	-8425
▁fatal	-8426
▁fence	-8427
▁items	-8428
▁loves	-8429
▁marry	-8430
▁overl	-8431
▁probe	-8432
▁relat	-8433
▁spray	-8434
▁stake	-8435
▁titan	-8436
▁Columb	-8437
▁anonym	-8438
▁assess	-8439
▁domain	-8440
▁grocer	-8441
▁harbor	-8442
▁immers	-8443
▁loving	-8444
▁magnet	-8445
▁pencil	-8446
▁recall	-8447
▁reveal	-8448
▁richer	-8449
▁rivers	-8450
▁static	-8451
▁tables	-8452
▁traits	-8453
standing	-8454
▁Develop	-8455
▁Someone	-8456
▁Teszler	-8457
▁adopted	-8458
▁analogy	-8459
▁beating	-8460
▁bedroom	-8461
▁cigaret	-8462
▁elegant	-8463
▁highway	-8464
▁locally	-8465
▁melting	-8466
▁minimum	-8467
▁neutral	-8468
▁pockets	-8469
▁powered	-8470
▁printer	-8471
▁reaches	-8472
▁routine	-8473
▁secrets	-8474
▁simpler	-8475
▁statist	-8476
▁stomach	-8477
▁strings	-8478
▁symbols	-8479
▁texture	-8480
▁unhappy	-8481
akespeare	-8482
▁Catholic	-8483
▁Whatever	-8484
▁accompan	-8485
▁expanded	-8486
▁gasoline	-8487
▁improved	-8488
▁musician	-8489
▁simplest	-8490
▁synchron	-8491
▁throwing	-8492
cyclopedia	-8493
▁Galapagos	-8494
▁audiences	-8495
▁biologist	-8496
▁classical	-8497
▁equations	-8498
▁favorites	-8499
▁headlines	-8500
▁highlight	-8501
▁obstacles	-8502
▁practices	-8503
▁reproduce	-8504
▁teenagers	-8505
▁tolerance	-8506
▁indigenous	-8507
▁inevitably	-8508
▁interviews	-8509
▁prediction	-8510
▁prosperity	-8511
▁encouraging	-8512
▁established	-8513
▁expressions	-8514
▁symmetrical	-8515
▁accelerating	-8516
▁accomplished	-8517
▁calculations	-8518
▁conservative	-8519
▁independence	-8520
▁installation	-8521
▁instructions	-8522
▁neuroscience	-8523
▁occasionally	-8524
▁vulnerability	-8525
tz	-8526
▁:	-8527
▁x	-8528
aks	-8529
ani	-8530
ano	-8531
bow	-8532
kyo	-8533
lad	-8534
lor	-8535
▁29	-8536
▁55	-8537
▁Si	-8538
agan	-8539
city	-8540
irms	-8541
neys	-8542
ocks	-8543
oots	-8544
uded	-8545
unes	-8546
unks	-8547
zens	-8548
▁'50	-8549
▁Acc	-8550
▁Age	-8551
▁Alz	-8552
▁Fre	-8553
▁Hen	-8554
▁Jer	-8555
▁MRI	-8556
▁Moz	-8557
▁Tor	-8558
▁alb	-8559
▁hug	-8560
▁jan	-8561
▁ven	-8562
adays	-8563
adder	-8564
clock	-8565
ellig	-8566
holds	-8567
jamin	-8568
orage	-8569
owder	-8570
ponds	-8571
power	-8572
reens	-8573
viron	-8574
▁2050	-8575
▁Bert	-8576
▁Hans	-8577
▁Jill	-8578
▁Josh	-8579
▁Libr	-8580
▁Mary	-8581
▁Move	-8582
▁Open	-8583
▁beef	-8584
▁biol	-8585
▁blah	-8586
▁bush	-8587
▁chop	-8588
▁clar	-8589
▁cord	-8590
▁crop	-8591
▁defe	-8592
▁dent	-8593
▁forb	-8594
▁infl	-8595
▁jack	-8596
▁outc	-8597
▁pale	-8598
▁pean	-8599
▁sexy	-8600
▁tong	-8601
▁turt	-8602
▁wand	-8603
culiar	-8604
iberia	-8605
iously	-8606
ulsion	-8607
▁2000,	-8608
▁Kevin	-8609
▁Organ	-8610
▁Swiss	-8611
▁Tokyo	-8612
▁civic	-8613
▁conqu	-8614
▁crude	-8615
▁drift	-8616
▁elder	-8617
▁joint	-8618
▁obese	-8619
▁picks	-8620
▁polio	-8621
▁pride	-8622
▁voted	-8623
enhagen	-8624
usiness	-8625
▁60,000	-8626
▁Almost	-8627
▁Govern	-8628
▁Kosovo	-8629
▁Things	-8630
▁burden	-8631
▁capita	-8632
▁crimes	-8633
▁divers	-8634
▁equals	-8635
▁evapor	-8636
▁extrem	-8637
▁helium	-8638
▁insane	-8639
▁panels	-8640
▁planes	-8641
▁propag	-8642
▁retail	-8643
▁spider	-8644
▁stimul	-8645
▁thread	-8646
▁Ireland	-8647
▁Mandela	-8648
▁Natasha	-8649
▁Spanish	-8650
▁Zealand	-8651
▁biomass	-8652
▁chamber	-8653
▁ethanol	-8654
▁exhaust	-8655
▁halfway	-8656
▁leopard	-8657
▁mapping	-8658
▁maximum	-8659
▁miracle	-8660
▁nearest	-8661
▁octopus	-8662
▁penguin	-8663
▁restore	-8664
▁rethink	-8665
▁rewards	-8666
▁teaches	-8667
▁western	-8668
efficient	-8669
▁Although	-8670
▁Benjamin	-8671
▁Palestin	-8672
▁Southern	-8673
▁Whenever	-8674
▁backyard	-8675
▁choosing	-8676
▁delivery	-8677
▁earliest	-8678
▁peculiar	-8679
▁proposal	-8680
▁remained	-8681
▁replaced	-8682
▁returned	-8683
▁schizoph	-8684
▁skeleton	-8685
▁suffered	-8686
▁Alzheimer	-8687
▁bacterial	-8688
▁excellent	-8689
▁expecting	-8690
▁guarantee	-8691
▁hierarchy	-8692
▁locations	-8693
▁orchestra	-8694
▁territory	-8695
▁threshold	-8696
▁Copenhagen	-8697
▁biolumines	-8698
▁connectome	-8699
▁convenient	-8700
▁determines	-8701
▁enormously	-8702
▁frustrated	-8703
▁households	-8704
▁impressive	-8705
▁mainstream	-8706
▁reasonable	-8707
▁spacecraft	-8708
▁supporting	-8709
▁Shakespeare	-8710
▁authorities	-8711
▁corresponds	-8712
▁dragonflies	-8713
▁progression	-8714
▁proposition	-8715
▁surrounding	-8716
▁storytelling	-8717
▁communicating	-8718
▁hallucinations	-8719
"?	-8720
MA	-8721
Sh	-8722
Now	-8723
hea	-8724
mun	-8725
net	-8726
▁2:	-8727
▁BG	-8728
▁BM	-8729
▁Bh	-8730
▁DM	-8731
AIDS	-8732
Here	-8733
alay	-8734
anna	-8735
ette	-8736
ewis	-8737
icit	-8738
iots	-8739
irts	-8740
liam	-8741
seen	-8742
ucks	-8743
udge	-8744
▁192	-8745
▁193	-8746
▁Ann	-8747
▁Bol	-8748
▁Cur	-8749
▁Dou	-8750
▁Had	-8751
▁LED	-8752
▁Nic	-8753
▁Sah	-8754
▁Unt	-8755
▁Val	-8756
▁Ven	-8757
▁dut	-8758
▁obt	-8759
▁shy	-8760
▁sin	-8761
▁voy	-8762
Would	-8763
abeth	-8764
copic	-8765
erals	-8766
icial	-8767
inity	-8768
itzer	-8769
izont	-8770
otion	-8771
pound	-8772
▁Hind	-8773
▁Make	-8774
▁bold	-8775
▁cuts	-8776
▁glue	-8777
▁gram	-8778
▁jazz	-8779
▁lamp	-8780
▁laug	-8781
▁lion	-8782
▁mask	-8783
▁neck	-8784
▁numb	-8785
▁oven	-8786
▁peel	-8787
▁sake	-8788
▁trop	-8789
▁verb	-8790
▁voca	-8791
alysis	-8792
escope	-8793
itudes	-8794
ounded	-8795
ureauc	-8796
▁Alask	-8797
▁Being	-8798
▁Brook	-8799
▁Build	-8800
▁Louis	-8801
▁Milky	-8802
▁Water	-8803
▁ambig	-8804
▁anten	-8805
▁blast	-8806
▁bribe	-8807
▁decor	-8808
▁deter	-8809
▁entry	-8810
▁feeds	-8811
▁gross	-8812
▁lions	-8813
▁lobby	-8814
▁penet	-8815
▁physi	-8816
▁raped	-8817
▁reper	-8818
▁sched	-8819
▁shine	-8820
▁sizes	-8821
▁squee	-8822
▁stays	-8823
▁straw	-8824
aghetti	-8825
liament	-8826
▁County	-8827
▁Friday	-8828
▁Nelson	-8829
▁Secret	-8830
▁alumin	-8831
▁behalf	-8832
▁behold	-8833
▁casual	-8834
▁config	-8835
▁dozens	-8836
▁ensure	-8837
▁excess	-8838
▁excuse	-8839
▁luxury	-8840
▁mentor	-8841
▁nights	-8842
▁rating	-8843
▁scores	-8844
▁stored	-8845
▁submar	-8846
▁surviv	-8847
▁tongue	-8848
▁upload	-8849
▁virgin	-8850
▁voting	-8851
ependent	-8852
▁Atlanta	-8853
▁Himalay	-8854
▁Library	-8855
▁Montana	-8856
▁Olympic	-8857
▁Phoenix	-8858
▁airline	-8859
▁banking	-8860
▁cancers	-8861
▁carries	-8862
▁climbed	-8863
▁colored	-8864
▁comprom	-8865
▁damaged	-8866
▁dressed	-8867
▁formula	-8868
▁harmony	-8869
▁origins	-8870
▁segment	-8871
▁storage	-8872
▁streams	-8873
▁trivial	-8874
▁upright	-8875
▁Security	-8876
▁announce	-8877
▁boundary	-8878
▁contrary	-8879
▁counting	-8880
▁detector	-8881
▁homeless	-8882
▁honestly	-8883
▁inventor	-8884
▁laughing	-8885
▁managers	-8886
▁portrait	-8887
▁preserve	-8888
▁selected	-8889
▁shifting	-8890
▁correctly	-8891
▁dominated	-8892
▁expressed	-8893
▁extension	-8894
▁healthier	-8895
▁investing	-8896
▁parachute	-8897
▁radically	-8898
▁seemingly	-8899
▁sentences	-8900
▁substance	-8901
▁additional	-8902
▁commission	-8903
▁compelling	-8904
▁continuing	-8905
▁manipulate	-8906
▁monitoring	-8907
▁phenomenal	-8908
▁prevalence	-8909
▁publishing	-8910
▁reflection	-8911
▁satellites	-8912
▁acknowledge	-8913
▁competitive	-8914
▁investments	-8915
▁supermarket	-8916
▁connectivity	-8917
▁contributing	-8918
▁humanitarian	-8919
▁significance	-8920
▁civilizations	-8921
▁neighborhoods	-8922
▁professionals	-8923
▁extraordinarily	-8924
LA	-8925
tw	-8926
col	-8927
dis	-8928
hal	-8929
ima	-8930
iva	-8931
jan	-8932
mat	-8933
odd	-8934
▁Kh	-8935
▁SP	-8936
aman	-8937
ause	-8938
bled	-8939
enez	-8940
gram	-8941
oral	-8942
rian	-8943
▁Ear	-8944
▁Jay	-8945
▁Kle	-8946
▁Luc	-8947
▁Mur	-8948
▁Ros	-8949
▁Tam	-8950
▁eru	-8951
▁heh	-8952
▁nap	-8953
▁tie	-8954
actic	-8955
erent	-8956
gines	-8957
izers	-8958
minal	-8959
osity	-8960
▁Barb	-8961
▁Cape	-8962
▁Half	-8963
▁Love	-8964
▁Luck	-8965
▁Play	-8966
▁Star	-8967
▁Sudd	-8968
▁Turk	-8969
▁Vict	-8970
▁ampl	-8971
▁batt	-8972
▁bump	-8973
▁carp	-8974
▁cert	-8975
▁clay	-8976
▁heal	-8977
▁labs	-8978
▁pole	-8979
▁rape	-8980
▁reck	-8981
▁sail	-8982
▁stew	-8983
▁vary	-8984
ancers	-8985
estone	-8986
gments	-8987
irling	-8988
istory	-8989
thirds	-8990
weight	-8991
▁1,500	-8992
▁Asian	-8993
▁March	-8994
▁Rover	-8995
▁Sudan	-8996
▁Until	-8997
▁artic	-8998
▁aspir	-8999
▁boats	-9000
▁consp	-9001
▁doors	-9002
▁drunk	-9003
▁ignor	-9004
▁jeans	-9005
▁lists	-9006
▁meals	-9007
▁mines	-9008
▁petro	-9009
▁pills	-9010
▁pulls	-9011
▁punch	-9012
▁remix	-9013
▁ridge	-9014
▁steal	-9015
▁steam	-9016
▁sweat	-9017
▁ultra	-9018
faction	-9019
itative	-9020
unction	-9021
▁Gandhi	-9022
▁Joshua	-9023
▁Pretty	-9024
▁Square	-9025
▁approx	-9026
▁beaten	-9027
▁butter	-9028
▁convey	-9029
▁copied	-9030
▁freely	-9031
▁guilty	-9032
▁headed	-9033
▁masses	-9034
▁mating	-9035
▁matrix	-9036
▁retire	-9037
▁scenes	-9038
▁tomato	-9039
▁topics	-9040
▁tricks	-9041
▁wishes	-9042
▁wooden	-9043
etheless	-9044
ortunate	-9045
▁Stephen	-9046
▁Through	-9047
▁Without	-9048
▁absence	-9049
▁alcohol	-9050
▁creator	-9051
▁descend	-9052
▁enemies	-9053
▁engines	-9054
▁enhance	-9055
▁envelop	-9056
▁essence	-9057
▁happier	-9058
▁landing	-9059
▁linking	-9060
▁lottery	-9061
▁markers	-9062
▁monsoon	-9063
▁periods	-9064
▁playful	-9065
▁premise	-9066
▁prepare	-9067
▁sectors	-9068
▁silicon	-9069
▁targets	-9070
▁terrain	-9071
▁threats	-9072
▁Suddenly	-9073
▁applying	-9074
▁arrested	-9075
▁assemble	-9076
▁breeding	-9077
▁cheating	-9078
▁consumed	-9079
▁customer	-9080
▁deciding	-9081
▁enjoying	-9082
▁included	-9083
▁offshore	-9084
▁peaceful	-9085
▁predator	-9086
▁scholars	-9087
▁stereoty	-9088
▁stranger	-9089
▁supplies	-9090
▁tangible	-9091
▁transmit	-9092
▁versions	-9093
▁Telescope	-9094
▁arguments	-9095
▁collision	-9096
▁electrons	-9097
▁household	-9098
▁producers	-9099
▁realistic	-9100
▁responses	-9101
▁spaghetti	-9102
▁stability	-9103
▁strategic	-9104
▁succeeded	-9105
▁therapies	-9106
▁undergrad	-9107
▁volunteer	-9108
▁workforce	-9109
▁Christians	-9110
▁autonomous	-9111
▁consistent	-9112
▁destroying	-9113
▁separation	-9114
▁threatened	-9115
▁variations	-9116
▁calculating	-9117
▁consciously	-9118
▁cooperative	-9119
▁fortunately	-9120
▁journalists	-9121
▁overwhelmed	-9122
▁schizophren	-9123
▁successfully	-9124
▁transmission	-9125
▁transparency	-9126
▁visualization	-9127
ege	-9128
err	-9129
gia	-9130
ndr	-9131
oma	-9132
ora	-9133
org	-9134
reh	-9135
▁'8	-9136
▁72	-9137
▁Ra	-9138
▁eB	-9139
▁ol	-9140
amie	-9141
aste	-9142
ican	-9143
imag	-9144
mate	-9145
nedy	-9146
part	-9147
plic	-9148
rics	-9149
rity	-9150
thur	-9151
▁Dal	-9152
▁Lak	-9153
▁Som	-9154
▁USA	-9155
▁blu	-9156
▁dil	-9157
▁hub	-9158
▁pra	-9159
▁sne	-9160
▁vel	-9161
adian	-9162
ching	-9163
eries	-9164
geous	-9165
heads	-9166
keley	-9167
pless	-9168
press	-9169
restr	-9170
ushed	-9171
▁Educ	-9172
▁Fund	-9173
▁Hope	-9174
▁Hung	-9175
▁Jose	-9176
▁July	-9177
▁Nove	-9178
▁Prot	-9179
▁Tony	-9180
▁calm	-9181
▁cree	-9182
▁cube	-9183
▁epip	-9184
▁file	-9185
▁frog	-9186
▁glor	-9187
▁mini	-9188
▁pays	-9189
▁piss	-9190
▁rect	-9191
▁unle	-9192
▁woke	-9193
▁yard	-9194
Please	-9195
active	-9196
arents	-9197
arrhea	-9198
awater	-9199
inging	-9200
source	-9201
▁Creat	-9202
▁Seven	-9203
▁Trade	-9204
▁Venez	-9205
▁Young	-9206
▁align	-9207
▁blink	-9208
▁cable	-9209
▁digit	-9210
▁drops	-9211
▁energ	-9212
▁farms	-9213
▁float	-9214
▁guard	-9215
▁hairs	-9216
▁hopes	-9217
▁inhib	-9218
▁knife	-9219
▁mayor	-9220
▁messy	-9221
▁nerve	-9222
▁numer	-9223
▁panel	-9224
▁paste	-9225
▁safer	-9226
▁shots	-9227
▁steep	-9228
▁tower	-9229
▁valid	-9230
▁wrist	-9231
itution	-9232
izabeth	-9233
natural	-9234
▁40,000	-9235
▁Anyone	-9236
▁Golden	-9237
▁Scient	-9238
▁Steven	-9239
▁campus	-9240
▁digest	-9241
▁eighth	-9242
▁elabor	-9243
▁fought	-9244
▁habits	-9245
▁intact	-9246
▁kidney	-9247
▁mining	-9248
▁orders	-9249
▁orphan	-9250
▁passes	-9251
▁patent	-9252
▁priest	-9253
▁proven	-9254
▁revers	-9255
▁sensor	-9256
▁settle	-9257
▁slower	-9258
▁strict	-9259
▁warmer	-9260
restrial	-9261
riptions	-9262
▁Environ	-9263
▁Kennedy	-9264
▁Switzer	-9265
▁blowing	-9266
▁citizen	-9267
▁constra	-9268
▁corners	-9269
▁counted	-9270
▁deepest	-9271
▁desktop	-9272
▁dispers	-9273
▁electro	-9274
▁enjoyed	-9275
▁gallery	-9276
▁grocery	-9277
▁heavily	-9278
▁helpful	-9279
▁honored	-9280
▁leather	-9281
▁outrage	-9282
▁pricing	-9283
▁reserve	-9284
▁sensory	-9285
▁tension	-9286
▁trading	-9287
▁whisper	-9288
conscious	-9289
▁Berkeley	-9290
▁Cambodia	-9291
▁Interest	-9292
▁Nigerian	-9293
▁November	-9294
▁Venezuel	-9295
▁adoption	-9296
▁aluminum	-9297
▁calculus	-9298
▁climbers	-9299
▁comments	-9300
▁criminal	-9301
▁dinosaur	-9302
▁entrance	-9303
▁gathered	-9304
▁horizont	-9305
▁intimacy	-9306
▁measures	-9307
▁offering	-9308
▁openness	-9309
▁outcomes	-9310
▁parasite	-9311
▁sciences	-9312
▁terrific	-9313
▁triangle	-9314
▁abundance	-9315
▁administr	-9316
▁economist	-9317
▁estimated	-9318
▁intensity	-9319
▁mysteries	-9320
▁objective	-9321
▁perceived	-9322
▁renewable	-9323
▁sacrifice	-9324
▁encouraged	-9325
▁ingredient	-9326
▁privileged	-9327
▁regenerate	-9328
▁relativity	-9329
▁Switzerland	-9330
▁approaching	-9331
▁implemented	-9332
▁reconstruct	-9333
▁historically	-9334
▁transformative	-9335
,'	-9336
.7	-9337
BC	-9338
OL	-9339
ape	-9340
eda	-9341
ete	-9342
hot	-9343
isc	-9344
nut	-9345
vis	-9346
zes	-9347
▁33	-9348
▁37	-9349
▁FG	-9350
▁gy	-9351
▁nu	-9352
,500	-9353
alog	-9354
bird	-9355
hips	-9356
pack	-9357
ptic	-9358
rint	-9359
size	-9360
urop	-9361
word	-9362
▁190	-9363
▁Fal	-9364
▁Jup	-9365
▁Len	-9366
▁Mah	-9367
▁Mat	-9368
▁Van	-9369
▁boo	-9370
▁ech	-9371
▁hob	-9372
▁vib	-9373
▁yog	-9374
acher	-9375
arten	-9376
brush	-9377
enses	-9378
gical	-9379
impse	-9380
olves	-9381
otted	-9382
plete	-9383
rates	-9384
width	-9385
▁9/11	-9386
▁Beck	-9387
▁Brun	-9388
▁Mass	-9389
▁Mean	-9390
▁Norm	-9391
▁Soci	-9392
▁Sput	-9393
▁belt	-9394
▁bust	-9395
▁cath	-9396
▁chef	-9397
▁cups	-9398
▁debr	-9399
▁depr	-9400
▁eBay	-9401
▁goat	-9402
▁irre	-9403
▁obsc	-9404
▁rabb	-9405
▁soap	-9406
▁soup	-9407
▁tune	-9408
arians	-9409
bulary	-9410
driven	-9411
encing	-9412
ithium	-9413
normal	-9414
ograms	-9415
olitan	-9416
ournal	-9417
school	-9418
▁2004,	-9419
▁Guard	-9420
▁Henry	-9421
▁Jones	-9422
▁Lewis	-9423
▁Light	-9424
▁Start	-9425
▁Stone	-9426
▁acres	-9427
▁advoc	-9428
▁altru	-9429
▁arrow	-9430
▁delay	-9431
▁depos	-9432
▁donor	-9433
▁dread	-9434
▁fungi	-9435
▁pause	-9436
▁perip	-9437
▁recre	-9438
▁scans	-9439
▁shout	-9440
▁surre	-9441
essions	-9442
ometown	-9443
onsense	-9444
theless	-9445
▁Alaska	-9446
▁Arabic	-9447
▁Buddha	-9448
▁Canyon	-9449
▁Copern	-9450
▁Econom	-9451
▁Monday	-9452
▁addict	-9453
▁brands	-9454
▁cataly	-9455
▁covers	-9456
▁donors	-9457
▁iconic	-9458
▁native	-9459
▁packed	-9460
▁plates	-9461
▁strain	-9462
▁sulfur	-9463
ergarten	-9464
ongevity	-9465
onscious	-9466
oriented	-9467
▁College	-9468
▁Jupiter	-9469
▁Namibia	-9470
▁authors	-9471
▁condoms	-9472
▁crashes	-9473
▁digging	-9474
▁disrupt	-9475
▁distort	-9476
▁eternal	-9477
▁fantasy	-9478
▁females	-9479
▁follows	-9480
▁glimpse	-9481
▁manager	-9482
▁notions	-9483
▁passive	-9484
▁request	-9485
▁rescued	-9486
▁rituals	-9487
▁shining	-9488
▁strands	-9489
▁thereby	-9490
▁useless	-9491
▁whistle	-9492
▁Olympics	-9493
▁advances	-9494
▁annivers	-9495
▁clusters	-9496
▁currency	-9497
▁deployed	-9498
▁diamonds	-9499
▁disagree	-9500
▁gestures	-9501
▁historic	-9502
▁informed	-9503
▁keyboard	-9504
▁mushroom	-9505
▁opinions	-9506
▁perceive	-9507
▁redesign	-9508
▁switched	-9509
▁temporal	-9510
▁visually	-9511
▁volcanic	-9512
ustainable	-9513
▁Jefferson	-9514
▁Therefore	-9515
▁affecting	-9516
▁astronomy	-9517
▁cardboard	-9518
▁comparing	-9519
▁completed	-9520
▁compounds	-9521
▁consensus	-9522
▁emergence	-9523
▁mythology	-9524
▁paralyzed	-9525
▁reactions	-9526
▁discipline	-9527
▁hypothesis	-9528
▁infections	-9529
▁profitable	-9530
▁vocabulary	-9531
▁celebration	-9532
▁composition	-9533
▁frustration	-9534
▁legislation	-9535
▁unfortunate	-9536
▁contribution	-9537
▁transforming	-9538
▁mathematician	-9539
40	-9540
Ch	-9541
fu	-9542
py	-9543
ado	-9544
alu	-9545
cod	-9546
fly	-9547
fur	-9548
gal	-9549
ker	-9550
ugu	-9551
upp	-9552
vir	-9553
vol	-9554
yan	-9555
▁46	-9556
▁KA	-9557
▁PR	-9558
▁UC	-9559
They	-9560
airo	-9561
hors	-9562
itar	-9563
lean	-9564
lets	-9565
mind	-9566
pres	-9567
roup	-9568
uper	-9569
▁Bab	-9570
▁Civ	-9571
▁Fif	-9572
▁Jac	-9573
▁Mas	-9574
▁Pop	-9575
▁Ver	-9576
▁ape	-9577
▁awk	-9578
▁geo	-9579
▁mud	-9580
▁orb	-9581
▁pit	-9582
▁tin	-9583
▁tox	-9584
▁tur	-9585
▁via	-9586
▁wid	-9587
anged	-9588
apore	-9589
grand	-9590
iated	-9591
idges	-9592
ierra	-9593
phony	-9594
sized	-9595
▁$100	-9596
▁AIMS	-9597
▁Expl	-9598
▁Lord	-9599
▁Moon	-9600
▁Penn	-9601
▁Phot	-9602
▁Tues	-9603
▁coin	-9604
▁cope	-9605
▁kidn	-9606
▁lawn	-9607
▁mixt	-9608
▁moth	-9609
▁quar	-9610
▁rope	-9611
▁sale	-9612
▁sere	-9613
▁subt	-9614
▁symp	-9615
▁ties	-9616
▁turb	-9617
icient	-9618
imicry	-9619
ndrome	-9620
obiles	-9621
viewer	-9622
weeney	-9623
▁Alpha	-9624
▁Chile	-9625
▁Turns	-9626
▁belly	-9627
▁bench	-9628
▁clubs	-9629
▁crank	-9630
▁fruit	-9631
▁ingen	-9632
▁inher	-9633
▁irony	-9634
▁lasts	-9635
▁laund	-9636
▁loses	-9637
▁mater	-9638
▁obser	-9639
▁pound	-9640
▁pulse	-9641
▁recru	-9642
▁risky	-9643
▁sends	-9644
▁vivid	-9645
▁wiped	-9646
▁woods	-9647
attered	-9648
million	-9649
ndering	-9650
▁Academ	-9651
▁Argent	-9652
▁Daniel	-9653
▁Darfur	-9654
▁Native	-9655
▁adoles	-9656
▁amazed	-9657
▁apples	-9658
▁bullet	-9659
▁candle	-9660
▁claims	-9661
▁copies	-9662
▁cosmos	-9663
▁counts	-9664
▁divine	-9665
▁empath	-9666
▁exquis	-9667
▁fallen	-9668
▁folded	-9669
▁kicked	-9670
▁potato	-9671
▁puppet	-9672
▁radius	-9673
▁resemb	-9674
▁scheme	-9675
▁sheets	-9676
▁smells	-9677
▁snakes	-9678
▁sooner	-9679
▁summar	-9680
▁temple	-9681
▁unseen	-9682
▁virtue	-9683
ventions	-9684
▁Alright	-9685
▁Society	-9686
▁Sputnik	-9687
▁Tuesday	-9688
▁Wolfram	-9689
▁arguing	-9690
▁awkward	-9691
▁barrier	-9692
▁bluefin	-9693
▁cooling	-9694
▁courses	-9695
▁default	-9696
▁devoted	-9697
▁grabbed	-9698
▁heading	-9699
▁hopeful	-9700
▁horizon	-9701
▁hostile	-9702
▁intrins	-9703
▁praying	-9704
▁proceed	-9705
▁propose	-9706
▁richest	-9707
▁scaling	-9708
▁spheres	-9709
▁transit	-9710
▁travels	-9711
▁visions	-9712
▁worship	-9713
▁Buddhist	-9714
▁Universe	-9715
▁approved	-9716
▁believes	-9717
▁diarrhea	-9718
▁feminist	-9719
▁forecast	-9720
▁gorgeous	-9721
▁incorpor	-9722
▁insights	-9723
▁intended	-9724
▁randomly	-9725
▁regional	-9726
▁relation	-9727
▁revenues	-9728
▁sidewalk	-9729
▁survived	-9730
▁symbolic	-9731
▁Meanwhile	-9732
▁Singapore	-9733
▁algorithm	-9734
▁amazingly	-9735
▁competing	-9736
▁diagnosed	-9737
▁elephants	-9738
▁illusions	-9739
▁involving	-9740
▁magazines	-9741
▁motivated	-9742
▁nonprofit	-9743
▁shoulders	-9744
▁statistic	-9745
▁surgeries	-9746
▁textbooks	-9747
▁Compassion	-9748
▁Technology	-9749
▁accumulate	-9750
▁addressing	-9751
▁enterprise	-9752
▁influenced	-9753
▁organizing	-9754
▁recognizes	-9755
▁terrifying	-9756
▁Interviewer	-9757
▁anniversary	-9758
▁catastrophe	-9759
▁mammography	-9760
▁replacement	-9761
▁biologically	-9762
▁catastrophic	-9763
▁corporations	-9764
▁encyclopedia	-9765
▁kindergarten	-9766
▁overwhelming	-9767
▁approximately	-9768
▁computational	-9769
▁spontaneously	-9770
▁interconnected	-9771
▁electromagnetic	-9772
▁entrepreneurial	-9773
▁straightforward	-9774
?'	-9775
IN	-9776
ja	-9777
osn	-9778
pal	-9779
psy	-9780
sea	-9781
zee	-9782
▁4.	-9783
▁Er	-9784
▁du	-9785
Cola	-9786
bean	-9787
ccer	-9788
food	-9789
inos	-9790
lers	-9791
offs	-9792
oops	-9793
roat	-9794
uber	-9795
xual	-9796
yles	-9797
▁30,	-9798
▁Abs	-9799
▁Arm	-9800
▁Bor	-9801
▁DAR	-9802
▁Mos	-9803
▁Sub	-9804
▁aug	-9805
▁cul	-9806
▁cyl	-9807
▁ego	-9808
▁fib	-9809
▁gel	-9810
▁les	-9811
▁pir	-9812
▁sir	-9813
▁tid	-9814
achel	-9815
aired	-9816
angle	-9817
burgh	-9818
ennis	-9819
ibati	-9820
ibles	-9821
raine	-9822
speed	-9823
umbai	-9824
▁1900	-9825
▁Bern	-9826
▁Carl	-9827
▁Coca	-9828
▁Jane	-9829
▁Main	-9830
▁Rule	-9831
▁Sure	-9832
▁bite	-9833
▁blew	-9834
▁blur	-9835
▁chew	-9836
▁crab	-9837
▁mood	-9838
▁nano	-9839
▁outs	-9840
▁perf	-9841
▁quad	-9842
▁rays	-9843
▁recl	-9844
▁sole	-9845
▁ster	-9846
▁tect	-9847
▁tilt	-9848
▁wore	-9849
ailand	-9850
ieties	-9851
income	-9852
mining	-9853
person	-9854
second	-9855
shaped	-9856
umbled	-9857
unting	-9858
▁2007,	-9859
▁Agnes	-9860
▁Bonob	-9861
▁Civil	-9862
▁Danny	-9863
▁Harry	-9864
▁Pitts	-9865
▁Still	-9866
▁Trans	-9867
▁annoy	-9868
▁bills	-9869
▁bless	-9870
▁brave	-9871
▁choir	-9872
▁deple	-9873
▁ethic	-9874
▁excit	-9875
▁fails	-9876
▁firms	-9877
▁gains	-9878
▁immig	-9879
▁inhab	-9880
▁insec	-9881
▁loads	-9882
▁pairs	-9883
▁parks	-9884
▁poems	-9885
▁rains	-9886
▁resur	-9887
▁slope	-9888
▁suppl	-9889
▁trips	-9890
▁tuned	-9891
massive	-9892
ouncing	-9893
ructive	-9894
umbling	-9895
▁Little	-9896
▁Mathem	-9897
▁Mumbai	-9898
▁Twenty	-9899
▁Victor	-9900
▁abroad	-9901
▁absurd	-9902
▁agents	-9903
▁anatom	-9904
▁boards	-9905
▁bother	-9906
▁calend	-9907
▁canvas	-9908
▁cattle	-9909
▁chains	-9910
▁copper	-9911
▁cracks	-9912
▁debris	-9913
▁emails	-9914
▁famine	-9915
▁gained	-9916
▁grains	-9917
▁hatred	-9918
▁hybrid	-9919
▁modest	-9920
▁orgasm	-9921
▁pestic	-9922
▁sensit	-9923
▁soccer	-9924
▁speaks	-9925
▁spiral	-9926
▁strand	-9927
▁stunts	-9928
▁unfold	-9929
▁wheels	-9930
conflict	-9931
▁Denmark	-9932
▁Seattle	-9933
▁antenna	-9934
▁aquatic	-9935
▁budgets	-9936
▁bureauc	-9937
▁dancers	-9938
▁doubled	-9939
▁enabled	-9940
▁exhibit	-9941
▁filling	-9942
▁gallons	-9943
▁imaging	-9944
▁implant	-9945
▁impress	-9946
▁jewelry	-9947
▁kidding	-9948
▁laughed	-9949
▁matched	-9950
▁minimal	-9951
▁officer	-9952
▁pleased	-9953
▁protest	-9954
▁puzzles	-9955
▁smiling	-9956
▁spatial	-9957
▁Brooklyn	-9958
▁Brothers	-9959
▁Columbia	-9960
▁Kiribati	-9961
▁TEDsters	-9962
▁Thailand	-9963
▁ambition	-9964
▁district	-9965
▁dropping	-9966
▁entities	-9967
▁equality	-9968
▁exposure	-9969
▁freezing	-9970
▁lectures	-9971
▁modeling	-9972
▁plankton	-9973
▁purchase	-9974
▁shipping	-9975
▁striking	-9976
▁surgical	-9977
▁thrilled	-9978
▁variable	-9979
▁worrying	-9980
▁Architect	-9981
▁Professor	-9982
▁Venezuela	-9983
▁aggregate	-9984
▁artifacts	-9985
▁certainty	-9986
▁conductor	-9987
▁diagnosis	-9988
▁emphasize	-9989
▁factories	-9990
▁graduated	-9991
▁indicates	-9992
▁instantly	-9993
▁limestone	-9994
▁migration	-9995
▁millennia	-9996
▁mushrooms	-9997
▁neocortex	-9998
▁paralysis	-9999
▁parenting	-10000
▁pressures	-10001
▁processor	-10002
▁projected	-10003
▁regularly	-10004
▁residents	-10005
▁sequences	-10006
▁skeptical	-10007
▁witnessed	-10008
▁worldview	-10009
engineering	-10010
▁Republican	-10011
▁accomplish	-10012
▁disturbing	-10013
▁excitement	-10014
▁girlfriend	-10015
▁illustrate	-10016
▁legitimate	-10017
▁narratives	-10018
▁predicting	-10019
▁chromosomes	-10020
▁embarrassed	-10021
▁nonetheless	-10022
▁philosopher	-10023
▁practically	-10024
▁unconscious	-10025
▁continuously	-10026
▁economically	-10027
▁embarrassing	-10028
▁psychologist	-10029
▁satisfaction	-10030
▁contradiction	-10031
▁controversial	-10032
▁interventions	-10033
▁participation	-10034
▁photographers	-10035
▁psychologists	-10036
.]	-10037
BM	-10038
Ex	-10039
Fi	-10040
aa	-10041
vy	-10042
wa	-10043
afe	-10044
dam	-10045
eff	-10046
izz	-10047
pay	-10048
▁Ev	-10049
▁Gr	-10050
▁MB	-10051
▁MS	-10052
▁Ol	-10053
▁SB	-10054
▁SJ	-10055
▁Vi	-10056
▁Wo	-10057
▁ic	-10058
Come	-10059
aver	-10060
born	-10061
burg	-10062
cium	-10063
gles	-10064
maid	-10065
oric	-10066
pace	-10067
ribe	-10068
▁130	-10069
▁185	-10070
▁Bot	-10071
▁GPS	-10072
▁Hig	-10073
▁Kar	-10074
▁Lee	-10075
▁Lev	-10076
▁Men	-10077
▁Nep	-10078
▁Rio	-10079
▁Zip	-10080
▁bay	-10081
▁fog	-10082
▁gad	-10083
▁mas	-10084
▁rap	-10085
backs	-10086
eping	-10087
frame	-10088
ifies	-10089
illes	-10090
oured	-10091
thood	-10092
vable	-10093
▁2005	-10094
▁Band	-10095
▁Eric	-10096
▁Fred	-10097
▁Kids	-10098
▁Lama	-10099
▁Mald	-10100
▁Mama	-10101
▁Peps	-10102
▁Ross	-10103
▁Vill	-10104
▁buff	-10105
▁bugs	-10106
▁dare	-10107
▁dodo	-10108
▁geck	-10109
▁heck	-10110
▁holy	-10111
▁odor	-10112
▁prey	-10113
▁shed	-10114
▁slum	-10115
▁span	-10116
▁tact	-10117
▁wins	-10118
assemb	-10119
atical	-10120
inable	-10121
phabet	-10122
tering	-10123
verted	-10124
▁2009,	-10125
▁Heart	-10126
▁Large	-10127
▁Medic	-10128
▁Sarah	-10129
▁arbit	-10130
▁badly	-10131
▁brick	-10132
▁brush	-10133
▁codes	-10134
▁couch	-10135
▁folds	-10136
▁grace	-10137
▁jumps	-10138
▁lifes	-10139
▁morph	-10140
▁mutil	-10141
▁neutr	-10142
▁param	-10143
▁ratio	-10144
▁revol	-10145
▁sheer	-10146
▁stare	-10147
▁taboo	-10148
▁tanks	-10149
▁taxes	-10150
▁twins	-10151
▁veloc	-10152
ascular	-10153
imeters	-10154
ounding	-10155
vestock	-10156
▁Arthur	-10157
▁Bhutan	-10158
▁Norway	-10159
▁Notice	-10160
▁Rather	-10161
▁Sahara	-10162
▁Sierra	-10163
▁angles	-10164
▁balcon	-10165
▁condom	-10166
▁deadly	-10167
▁gallon	-10168
▁lifted	-10169
▁lonely	-10170
▁manner	-10171
▁nightm	-10172
▁proved	-10173
▁script	-10174
▁stabil	-10175
▁traces	-10176
▁tricky	-10177
▁Academy	-10178
▁Defense	-10179
▁Indones	-10180
▁Luckily	-10181
▁applies	-10182
▁belongs	-10183
▁calcium	-10184
▁cluster	-10185
▁columns	-10186
▁compreh	-10187
▁corrupt	-10188
▁cousins	-10189
▁crossed	-10190
▁dismiss	-10191
▁exploit	-10192
▁farther	-10193
▁flights	-10194
▁fossils	-10195
▁glacier	-10196
▁heating	-10197
▁hunters	-10198
▁kingdom	-10199
▁lighter	-10200
▁longest	-10201
▁optical	-10202
▁planned	-10203
▁pouring	-10204
▁profits	-10205
▁rhythms	-10206
▁shallow	-10207
▁tissues	-10208
▁utterly	-10209
▁wedding	-10210
expensive	-10211
▁Canadian	-10212
▁Leonardo	-10213
▁Russians	-10214
▁advertis	-10215
▁agencies	-10216
▁ancestor	-10217
▁blogging	-10218
▁chickens	-10219
▁cocktail	-10220
▁degraded	-10221
▁endeavor	-10222
▁explicit	-10223
▁exploded	-10224
▁explored	-10225
▁frontier	-10226
▁indicate	-10227
▁injuries	-10228
▁innovate	-10229
▁minerals	-10230
▁multiply	-10231
▁potatoes	-10232
▁recycled	-10233
▁refugees	-10234
▁reinvent	-10235
▁robotics	-10236
▁scanning	-10237
▁seawater	-10238
▁sometime	-10239
▁sticking	-10240
▁surgeons	-10241
▁syndrome	-10242
▁teenager	-10243
▁thinkers	-10244
organizing	-10245
▁Elizabeth	-10246
▁Secretary	-10247
▁affection	-10248
▁bacterium	-10249
▁bandwidth	-10250
▁cellphone	-10251
▁contained	-10252
▁converted	-10253
▁delicious	-10254
▁formation	-10255
▁impressed	-10256
▁instances	-10257
▁institute	-10258
▁livestock	-10259
▁marvelous	-10260
▁negotiate	-10261
▁nurturing	-10262
▁occurring	-10263
▁preparing	-10264
▁resistant	-10265
▁sensation	-10266
▁temporary	-10267
▁workplace	-10268
forestation	-10269
▁anticipate	-10270
▁attraction	-10271
▁challenged	-10272
▁chimpanzee	-10273
▁classrooms	-10274
▁discussing	-10275
▁empowering	-10276
▁frightened	-10277
▁generosity	-10278
▁influences	-10279
▁intangible	-10280
▁microphone	-10281
▁physicians	-10282
▁professors	-10283
▁punishment	-10284
▁researcher	-10285
▁specialist	-10286
▁treatments	-10287
▁commodities	-10288
▁constraints	-10289
▁politically	-10290
▁regulations	-10291
▁appreciation	-10292
▁introduction	-10293
▁reproduction	-10294
▁accountability	-10295
▁systematically	-10296
99	-10297
Af	-10298
IA	-10299
eu	-10300
mo	-10301
▁.	-10302
ARS	-10303
Did	-10304
bye	-10305
eem	-10306
occ	-10307
oor	-10308
pat	-10309
sur	-10310
uch	-10311
zer	-10312
▁48	-10313
▁AT	-10314
▁Ec	-10315
▁Id	-10316
▁Mi	-10317
▁PH	-10318
anch	-10319
bial	-10320
coal	-10321
copy	-10322
fare	-10323
fire	-10324
inch	-10325
long	-10326
ogan	-10327
oked	-10328
olen	-10329
omed	-10330
orse	-10331
oton	-10332
rior	-10333
umen	-10334
▁Bre	-10335
▁Dub	-10336
▁Emp	-10337
▁FDA	-10338
▁Joe	-10339
▁McC	-10340
▁Pot	-10341
▁Rom	-10342
▁Sad	-10343
▁Str	-10344
▁bin	-10345
▁bip	-10346
▁nic	-10347
adows	-10348
amboo	-10349
ament	-10350
arden	-10351
athon	-10352
berry	-10353
ellow	-10354
ibera	-10355
ittee	-10356
metic	-10357
olera	-10358
oters	-10359
proof	-10360
▁1930	-10361
▁Data	-10362
▁Jobs	-10363
▁Know	-10364
▁Mach	-10365
▁Nick	-10366
▁Nike	-10367
▁Serv	-10368
▁Wars	-10369
▁Work	-10370
▁cass	-10371
▁chat	-10372
▁deck	-10373
▁demo	-10374
▁lobe	-10375
▁lump	-10376
▁porn	-10377
▁slip	-10378
▁tale	-10379
ankind	-10380
ending	-10381
iatric	-10382
ocaust	-10383
ometer	-10384
stairs	-10385
▁Dalai	-10386
▁Elect	-10387
▁Higgs	-10388
▁Jerry	-10389
▁Julia	-10390
▁Keith	-10391
▁Small	-10392
▁absor	-10393
▁advis	-10394
▁alloc	-10395
▁candy	-10396
▁chalk	-10397
▁cloth	-10398
▁embry	-10399
▁entit	-10400
▁frogs	-10401
▁hills	-10402
▁incub	-10403
▁jokes	-10404
▁lingu	-10405
▁loyal	-10406
▁marsh	-10407
▁pione	-10408
▁reass	-10409
▁rehab	-10410
▁roofs	-10411
▁shops	-10412
▁spare	-10413
▁spite	-10414
▁squid	-10415
▁suits	-10416
▁tunas	-10417
illance	-10418
issance	-10419
olutely	-10420
perform	-10421
thetics	-10422
▁12,000	-10423
▁15,000	-10424
▁Around	-10425
▁Compan	-10426
▁Falcon	-10427
▁Marcus	-10428
▁Philip	-10429
▁accent	-10430
▁assets	-10431
▁bamboo	-10432
▁cockro	-10433
▁combat	-10434
▁cookie	-10435
▁criter	-10436
▁cultiv	-10437
▁dispar	-10438
▁enrich	-10439
▁floors	-10440
▁format	-10441
▁helmet	-10442
▁hooked	-10443
▁horror	-10444
▁hotels	-10445
▁immort	-10446
▁labels	-10447
▁mapped	-10448
▁marrow	-10449
▁misery	-10450
▁mixing	-10451
▁mutual	-10452
▁nicely	-10453
▁oyster	-10454
▁prayer	-10455
▁purple	-10456
▁serves	-10457
▁slowed	-10458
▁tagged	-10459
▁tribal	-10460
▁upward	-10461
▁winner	-10462
positive	-10463
velength	-10464
▁Caltech	-10465
▁Charlie	-10466
▁Connect	-10467
▁History	-10468
▁artwork	-10469
▁blessed	-10470
▁charter	-10471
▁clinics	-10472
▁disgust	-10473
▁eastern	-10474
▁erectus	-10475
▁exagger	-10476
▁fractal	-10477
▁fulfill	-10478
▁impulse	-10479
▁labeled	-10480
▁literal	-10481
▁lithium	-10482
▁luckily	-10483
▁mixture	-10484
▁nurture	-10485
▁profile	-10486
▁screens	-10487
▁seventh	-10488
▁shorter	-10489
▁submers	-10490
▁teenage	-10491
▁trailer	-10492
▁trusted	-10493
▁warrior	-10494
▁weekend	-10495
▁wrapped	-10496
▁Mountain	-10497
▁alphabet	-10498
▁analyzed	-10499
▁attempts	-10500
▁autonomy	-10501
▁balloons	-10502
▁cellular	-10503
▁circular	-10504
▁concerns	-10505
▁confined	-10506
▁drowning	-10507
▁famously	-10508
▁flourish	-10509
▁hometown	-10510
▁mobility	-10511
▁publicly	-10512
▁railroad	-10513
▁revealed	-10514
▁secondly	-10515
▁stopping	-10516
▁touching	-10517
▁underest	-10518
▁youngest	-10519
▁Parkinson	-10520
▁activists	-10521
▁anonymous	-10522
▁attitudes	-10523
▁candidate	-10524
▁convicted	-10525
▁elaborate	-10526
▁eliminate	-10527
▁geography	-10528
▁imagining	-10529
▁integrity	-10530
▁judgments	-10531
▁libraries	-10532
▁longevity	-10533
▁portraits	-10534
▁promoting	-10535
▁reflected	-10536
▁screaming	-10537
▁surviving	-10538
▁varieties	-10539
▁vegetable	-10540
▁visualize	-10541
▁whistling	-10542
▁Pittsburgh	-10543
▁assistance	-10544
▁dependence	-10545
▁describing	-10546
▁disappears	-10547
▁enthusiasm	-10548
▁fertilizer	-10549
▁metabolism	-10550
▁presenting	-10551
▁previously	-10552
▁remarkably	-10553
▁translator	-10554
▁Fortunately	-10555
▁Palestinian	-10556
▁destructive	-10557
▁documentary	-10558
▁expectation	-10559
▁inexpensive	-10560
▁microscopic	-10561
▁realization	-10562
▁substantial	-10563
▁transistors	-10564
▁alternatives	-10565
▁authenticity	-10566
▁dictionaries	-10567
▁headquarters	-10568
As	-10569
ES	-10570
Go	-10571
Me	-10572
yg	-10573
zo	-10574
aza	-10575
bag	-10576
cav	-10577
idi	-10578
iki	-10579
oli	-10580
orr	-10581
tra	-10582
ugs	-10583
zzy	-10584
▁43	-10585
▁AV	-10586
▁BP	-10587
▁IP	-10588
▁IQ	-10589
▁Ku	-10590
▁Sn	-10591
▁Us	-10592
Mart	-10593
alia	-10594
alin	-10595
atar	-10596
cuse	-10597
eton	-10598
hear	-10599
hill	-10600
icus	-10601
igma	-10602
ileo	-10603
inci	-10604
isha	-10605
itra	-10606
mony	-10607
olar	-10608
onal	-10609
page	-10610
pled	-10611
▁12,	-10612
▁15-	-10613
▁450	-10614
▁Ark	-10615
▁Dad	-10616
▁Fem	-10617
▁Jon	-10618
▁Lib	-10619
▁Off	-10620
▁Say	-10621
▁Sum	-10622
▁Toy	-10623
▁Tre	-10624
▁arc	-10625
▁gay	-10626
▁hij	-10627
▁hut	-10628
▁jam	-10629
▁jar	-10630
▁rac	-10631
▁sib	-10632
▁twe	-10633
▁wre	-10634
Thank	-10635
cycle	-10636
enger	-10637
inent	-10638
ladus	-10639
ourse	-10640
storm	-10641
tends	-10642
ubble	-10643
uropa	-10644
uther	-10645
vania	-10646
▁100,	-10647
▁2007	-10648
▁Alan	-10649
▁Bond	-10650
▁Cass	-10651
▁Cost	-10652
▁Dean	-10653
▁Down	-10654
▁Ence	-10655
▁Food	-10656
▁Ivan	-10657
▁Lear	-10658
▁Matt	-10659
▁Pier	-10660
▁Post	-10661
▁Rose	-10662
▁Scot	-10663
▁Sony	-10664
▁adds	-10665
▁buck	-10666
▁dens	-10667
▁disk	-10668
▁duty	-10669
▁enab	-10670
▁extr	-10671
▁hack	-10672
▁horm	-10673
▁hump	-10674
▁mang	-10675
▁nail	-10676
▁prec	-10677
▁rose	-10678
▁rust	-10679
▁seam	-10680
▁solo	-10681
▁swap	-10682
▁tags	-10683
▁thus	-10684
▁unac	-10685
▁util	-10686
action	-10687
atrina	-10688
coming	-10689
design	-10690
ection	-10691
employ	-10692
energy	-10693
enment	-10694
growth	-10695
ibbean	-10696
inding	-10697
istine	-10698
lihood	-10699
ogenic	-10700
orters	-10701
ulator	-10702
▁2006,	-10703
▁2008,	-10704
▁Apoll	-10705
▁Eight	-10706
▁Event	-10707
▁Fried	-10708
▁Kyoto	-10709
▁Pepsi	-10710
▁Prime	-10711
▁Princ	-10712
▁Psych	-10713
▁Solar	-10714
▁acute	-10715
▁alarm	-10716
▁alert	-10717
▁ambit	-10718
▁blade	-10719
▁blows	-10720
▁bluep	-10721
▁bonds	-10722
▁cared	-10723
▁clips	-10724
▁fears	-10725
▁fever	-10726
▁geese	-10727
▁germs	-10728
▁ghost	-10729
▁greed	-10730
▁greet	-10731
▁hatch	-10732
▁inequ	-10733
▁irres	-10734
▁lined	-10735
▁midst	-10736
▁mobil	-10737
▁moist	-10738
▁ozone	-10739
▁peaks	-10740
▁peers	-10741
▁relie	-10742
▁stamp	-10743
▁subsc	-10744
▁sucks	-10745
▁telec	-10746
▁towns	-10747
▁usage	-10748
▁valve	-10749
▁veter	-10750
▁votes	-10751
alities	-10752
atories	-10753
inative	-10754
osexual	-10755
parents	-10756
product	-10757
quality	-10758
rection	-10759
▁Europa	-10760
▁Kibera	-10761
▁Lakota	-10762
▁Social	-10763
▁angels	-10764
▁asleep	-10765
▁bookst	-10766
▁checks	-10767
▁comedy	-10768
▁crocod	-10769
▁depths	-10770
▁dishes	-10771
▁equity	-10772
▁execut	-10773
▁exotic	-10774
▁interd	-10775
▁jungle	-10776
▁marker	-10777
▁occupy	-10778
▁pedest	-10779
▁pilots	-10780
▁powder	-10781
▁precip	-10782
▁prepar	-10783
▁psycho	-10784
▁riding	-10785
▁rolled	-10786
▁safely	-10787
▁salmon	-10788
▁shells	-10789
▁shifts	-10790
▁sovere	-10791
▁stereo	-10792
▁stolen	-10793
▁timing	-10794
▁unimag	-10795
▁voyage	-10796
▁waited	-10797
computer	-10798
ifferent	-10799
lessness	-10800
▁300,000	-10801
▁Cassini	-10802
▁Galileo	-10803
▁Islamic	-10804
▁Natural	-10805
▁Sweeney	-10806
▁Village	-10807
▁acquire	-10808
▁amateur	-10809
▁ashamed	-10810
▁bridges	-10811
▁buttons	-10812
▁chaotic	-10813
▁chasing	-10814
▁cholera	-10815
▁coastal	-10816
▁counsel	-10817
▁footage	-10818
▁generic	-10819
▁happily	-10820
▁janitor	-10821
▁laundry	-10822
▁mankind	-10823
▁mirrors	-10824
▁mustard	-10825
▁observe	-10826
▁passage	-10827
▁reperto	-10828
▁returns	-10829
▁shifted	-10830
▁squares	-10831
▁Business	-10832
▁Egyptian	-10833
▁Maldives	-10834
▁Together	-10835
▁balanced	-10836
▁barriers	-10837
▁baseline	-10838
▁basement	-10839
▁bathroom	-10840
▁charcoal	-10841
▁composed	-10842
▁crystall	-10843
▁deserves	-10844
▁elevator	-10845
▁embodied	-10846
▁envision	-10847
▁glaciers	-10848
▁headline	-10849
▁helpless	-10850
▁interven	-10851
▁magician	-10852
▁migraine	-10853
▁minority	-10854
▁nonsense	-10855
▁nowadays	-10856
▁observer	-10857
▁optimism	-10858
▁prolifer	-10859
▁restrict	-10860
▁sections	-10861
▁shocking	-10862
▁websites	-10863
ographical	-10864
▁According	-10865
▁Caribbean	-10866
▁Enceladus	-10867
▁Princeton	-10868
▁abandoned	-10869
▁addressed	-10870
▁answering	-10871
▁breakdown	-10872
▁champions	-10873
▁conducted	-10874
▁consuming	-10875
▁desperate	-10876
▁diplomacy	-10877
▁fragments	-10878
▁humankind	-10879
▁intensive	-10880
▁packaging	-10881
▁reasoning	-10882
▁terrorist	-10883
▁Eventually	-10884
▁apartments	-10885
▁approached	-10886
▁attachment	-10887
▁candidates	-10888
▁critically	-10889
▁horizontal	-10890
▁intentions	-10891
▁likelihood	-10892
▁medication	-10893
▁parliament	-10894
▁politician	-10895
▁priorities	-10896
▁projection	-10897
▁randomness	-10898
▁reasonably	-10899
▁standpoint	-10900
▁statements	-10901
▁sufficient	-10902
▁wavelength	-10903
▁biomaterial	-10904
▁considering	-10905
▁correlation	-10906
▁frequencies	-10907
▁investigate	-10908
▁operational	-10909
▁recognizing	-10910
▁sensitivity	-10911
▁specialized	-10912
▁Organization	-10913
▁improvements	-10914
▁participants	-10915
▁personalized	-10916
▁surveillance	-10917
▁tremendously	-10918
▁revolutionary	-10919
▁environmentally	-10920
10	-10921
FO	-10922
SE	-10923
bu	-10924
hr	-10925
ih	-10926
no	-10927
300	-10928
Mom	-10929
One	-10930
awa	-10931
flu	-10932
fts	-10933
hma	-10934
jud	-10935
ods	-10936
oxy	-10937
rer	-10938
syl	-10939
wan	-10940
▁52	-10941
▁CN	-10942
▁CP	-10943
▁Hu	-10944
▁LI	-10945
▁RG	-10946
▁Ta	-10947
▁dy	-10948
▁ow	-10949
▁vo	-10950
▁ze	-10951
abad	-10952
aire	-10953
aque	-10954
audi	-10955
bone	-10956
chet	-10957
core	-10958
emen	-10959
eros	-10960
gage	-10961
iana	-10962
know	-10963
mile	-10964
ocke	-10965
omic	-10966
ousy	-10967
oves	-10968
pons	-10969
redd	-10970
roid	-10971
roit	-10972
rove	-10973
rypt	-10974
stan	-10975
▁1.3	-10976
▁11,	-10977
▁Add	-10978
▁Ang	-10979
▁Dig	-10980
▁Fly	-10981
▁Has	-10982
▁IBM	-10983
▁Mel	-10984
▁Old	-10985
▁Pet	-10986
▁RNA	-10987
▁RSW	-10988
▁Sup	-10989
▁Tro	-10990
▁awe	-10991
▁jaw	-10992
▁rib	-10993
▁unw	-10994
▁wow	-10995
Every	-10996
adium	-10997
agina	-10998
alore	-10999
aming	-11000
appro	-11001
asive	-11002
avors	-11003
great	-11004
heart	-11005
heric	-11006
ijing	-11007
onaut	-11008
piece	-11009
urday	-11010
worth	-11011
▁2001	-11012
▁Book	-11013
▁Cars	-11014
▁Cold	-11015
▁Didn	-11016
▁Emma	-11017
▁Evan	-11018
▁Hard	-11019
▁Lang	-11020
▁Pent	-11021
▁Plan	-11022
▁Sher	-11023
▁Stop	-11024
▁Wait	-11025
▁Year	-11026
▁Zimb	-11027
▁apes	-11028
▁aunt	-11029
▁beam	-11030
▁dece	-11031
▁dirt	-11032
▁inqu	-11033
▁lean	-11034
▁lips	-11035
▁mast	-11036
▁offs	-11037
▁pond	-11038
▁ramp	-11039
▁rank	-11040
▁sadd	-11041
▁sang	-11042
▁scal	-11043
▁scra	-11044
▁summ	-11045
▁twin	-11046
▁unre	-11047
▁unst	-11048
▁vice	-11049
▁whip	-11050
carbon	-11051
ements	-11052
handed	-11053
health	-11054
iments	-11055
makers	-11056
placed	-11057
▁2001,	-11058
▁2003,	-11059
▁2005,	-11060
▁Carne	-11061
▁Color	-11062
▁Matth	-11063
▁Roman	-11064
▁buses	-11065
▁chase	-11066
▁claws	-11067
▁crust	-11068
▁divid	-11069
▁dunes	-11070
▁dwell	-11071
▁epile	-11072
▁facil	-11073
▁fuzzy	-11074
▁gecko	-11075
▁grabs	-11076
▁grief	-11077
▁harsh	-11078
▁infra	-11079
▁loans	-11080
▁macro	-11081
▁maneu	-11082
▁marks	-11083
▁myths	-11084
▁naive	-11085
▁norms	-11086
▁pumps	-11087
▁recur	-11088
▁revel	-11089
▁salad	-11090
▁watts	-11091
banisha	-11092
develop	-11093
iscover	-11094
version	-11095
▁25,000	-11096
▁Having	-11097
▁Joseph	-11098
▁beside	-11099
▁crafts	-11100
▁denial	-11101
▁elders	-11102
▁expose	-11103
▁finite	-11104
▁fixing	-11105
▁freeze	-11106
▁grades	-11107
▁hammer	-11108
▁hotter	-11109
▁hunter	-11110
▁lately	-11111
▁lenses	-11112
▁mantis	-11113
▁orient	-11114
▁refuse	-11115
▁reserv	-11116
▁scarce	-11117
▁spills	-11118
▁stairs	-11119
▁titles	-11120
▁viable	-11121
▁violin	-11122
othermal	-11123
sylvania	-11124
▁150,000	-11125
▁Beijing	-11126
▁Certain	-11127
▁Detroit	-11128
▁Francis	-11129
▁Journal	-11130
▁Looking	-11131
▁Philipp	-11132
▁catalog	-11133
▁confirm	-11134
▁conspir	-11135
▁cracked	-11136
▁crochet	-11137
▁diamond	-11138
▁dreamed	-11139
▁drivers	-11140
▁elderly	-11141
▁emerges	-11142
▁episode	-11143
▁equator	-11144
▁expense	-11145
▁frontal	-11146
▁gardens	-11147
▁handful	-11148
▁neglect	-11149
▁ordered	-11150
▁refused	-11151
▁seeking	-11152
▁sensing	-11153
▁shortly	-11154
▁squared	-11155
▁surplus	-11156
▁talents	-11157
▁textile	-11158
▁tipping	-11159
▁touches	-11160
ropolitan	-11161
▁Saturday	-11162
▁abundant	-11163
▁adaptive	-11164
▁athletes	-11165
▁baseball	-11166
▁checking	-11167
▁circuits	-11168
▁colorful	-11169
▁complain	-11170
▁envelope	-11171
▁evolving	-11172
▁founding	-11173
▁hopeless	-11174
▁humility	-11175
▁indirect	-11176
▁juggling	-11177
▁membrane	-11178
▁mentally	-11179
▁motivate	-11180
▁obstacle	-11181
▁operates	-11182
▁operator	-11183
▁photosyn	-11184
▁pipeline	-11185
▁planting	-11186
▁presents	-11187
▁pristine	-11188
▁promised	-11189
▁promises	-11190
▁sexually	-11191
▁socially	-11192
▁suburban	-11193
▁velocity	-11194
▁Bangalore	-11195
▁Education	-11196
▁Hopefully	-11197
▁Indonesia	-11198
▁activated	-11199
▁ambitious	-11200
▁associate	-11201
▁attacking	-11202
▁celebrity	-11203
▁demograph	-11204
▁estimates	-11205
▁extensive	-11206
▁generates	-11207
▁improvise	-11208
▁kilograms	-11209
▁launching	-11210
▁mammogram	-11211
▁medicines	-11212
▁metaphors	-11213
▁overnight	-11214
▁platforms	-11215
▁preserved	-11216
▁processed	-11217
▁realities	-11218
▁screening	-11219
▁secondary	-11220
▁terrified	-11221
▁triangles	-11222
▁vibrating	-11223
▁Panbanisha	-11224
▁accelerate	-11225
▁accounting	-11226
▁convincing	-11227
▁culturally	-11228
▁disconnect	-11229
▁intriguing	-11230
▁irrigation	-11231
▁networking	-11232
▁practicing	-11233
▁preventing	-11234
▁procedures	-11235
▁prototypes	-11236
▁repertoire	-11237
▁sculptures	-11238
▁suggestion	-11239
▁synthesize	-11240
▁transistor	-11241
▁worthwhile	-11242
▁continually	-11243
▁destination	-11244
▁enlightened	-11245
▁frustrating	-11246
▁instruction	-11247
▁integration	-11248
▁preparation	-11249
▁prototyping	-11250
▁statistical	-11251
▁transported	-11252
▁wonderfully	-11253
▁Pennsylvania	-11254
▁coordination	-11255
▁disappearing	-11256
▁disappointed	-11257
▁explanations	-11258
▁fluctuations	-11259
▁manipulation	-11260
▁representing	-11261
▁personalities	-11262
HC	-11263
IP	-11264
gr	-11265
mn	-11266
tr	-11267
tt	-11268
yd	-11269
400	-11270
For	-11271
ISD	-11272
aga	-11273
aph	-11274
but	-11275
dad	-11276
iju	-11277
rah	-11278
roc	-11279
xon	-11280
▁38	-11281
▁98	-11282
▁DD	-11283
▁Gi	-11284
▁IR	-11285
▁KT	-11286
▁ST	-11287
Sook	-11288
Star	-11289
abwe	-11290
acks	-11291
acre	-11292
arat	-11293
bing	-11294
egas	-11295
eram	-11296
etts	-11297
five	-11298
four	-11299
ickr	-11300
ieth	-11301
iflu	-11302
iner	-11303
izza	-11304
neum	-11305
nutr	-11306
otal	-11307
oter	-11308
ovir	-11309
rays	-11310
rish	-11311
rose	-11312
teen	-11313
type	-11314
ugal	-11315
ummy	-11316
▁1.5	-11317
▁12.	-11318
▁125	-11319
▁40-	-11320
▁50,	-11321
▁900	-11322
▁BMW	-11323
▁Bad	-11324
▁Dev	-11325
▁IDE	-11326
▁McL	-11327
▁Nav	-11328
▁Nin	-11329
▁Ooh	-11330
▁Rog	-11331
▁Sel	-11332
▁Ted	-11333
▁Too	-11334
▁cum	-11335
▁los	-11336
▁pix	-11337
▁unp	-11338
Great	-11339
achus	-11340
alone	-11341
eding	-11342
epher	-11343
erers	-11344
gebra	-11345
iumph	-11346
mates	-11347
ritic	-11348
rolab	-11349
stick	-11350
ulses	-11351
venue	-11352
▁Army	-11353
▁Bell	-11354
▁Bosn	-11355
▁CEOs	-11356
▁Full	-11357
▁Gall	-11358
▁Hyun	-11359
▁Keep	-11360
▁Nich	-11361
▁Oper	-11362
▁RISD	-11363
▁SARS	-11364
▁Slow	-11365
▁Whit	-11366
▁axes	-11367
▁deaf	-11368
▁dose	-11369
▁dune	-11370
▁edit	-11371
▁envy	-11372
▁fier	-11373
▁grim	-11374
▁herd	-11375
▁hint	-11376
▁keys	-11377
▁menu	-11378
▁mild	-11379
▁perm	-11380
▁pipe	-11381
▁rage	-11382
▁rupe	-11383
▁sket	-11384
▁skip	-11385
▁skyd	-11386
achers	-11387
airobi	-11388
alized	-11389
asters	-11390
astics	-11391
ertips	-11392
estion	-11393
formed	-11394
govern	-11395
iances	-11396
iately	-11397
ijuana	-11398
lights	-11399
minded	-11400
ologic	-11401
ounder	-11402
screen	-11403
strong	-11404
▁1,100	-11405
▁Barry	-11406
▁Exxon	-11407
▁Inuit	-11408
▁Kelly	-11409
▁Moses	-11410
▁Music	-11411
▁Nepal	-11412
▁Saudi	-11413
▁acids	-11414
▁ambul	-11415
▁arise	-11416
▁bumps	-11417
▁burns	-11418
▁chore	-11419
▁flesh	-11420
▁flown	-11421
▁glory	-11422
▁hobby	-11423
▁homin	-11424
▁hoped	-11425
▁hunch	-11426
▁infer	-11427
▁juice	-11428
▁lanes	-11429
▁limbs	-11430
▁merch	-11431
▁merit	-11432
▁moder	-11433
▁nasty	-11434
▁oblig	-11435
▁panic	-11436
▁patri	-11437
▁rides	-11438
▁sells	-11439
▁steak	-11440
▁swear	-11441
▁templ	-11442
▁trunk	-11443
▁wells	-11444
▁wrink	-11445
▁yards	-11446
assador	-11447
ictions	-11448
iogenic	-11449
iterate	-11450
itorium	-11451
ospital	-11452
sterdam	-11453
umental	-11454
umented	-11455
▁Acumen	-11456
▁Barack	-11457
▁Bertie	-11458
▁Flickr	-11459
▁Forest	-11460
▁Galois	-11461
▁Ground	-11462
▁Hadron	-11463
▁Incred	-11464
▁Korean	-11465
▁Nether	-11466
▁Nicole	-11467
▁Reagan	-11468
▁Simple	-11469
▁Warren	-11470
▁apolog	-11471
▁argued	-11472
▁assure	-11473
▁benign	-11474
▁bypass	-11475
▁camels	-11476
▁cathed	-11477
▁cliffs	-11478
▁cousin	-11479
▁dating	-11480
▁expend	-11481
▁fruits	-11482
▁hiding	-11483
▁hollow	-11484
▁insert	-11485
▁lethal	-11486
▁mammal	-11487
▁mature	-11488
▁mosque	-11489
▁murder	-11490
▁offers	-11491
▁pirate	-11492
▁poorer	-11493
▁posted	-11494
▁preced	-11495
▁prosth	-11496
▁reader	-11497
▁regist	-11498
▁shield	-11499
▁shower	-11500
▁slaves	-11501
▁spades	-11502
▁sticky	-11503
▁stockp	-11504
▁submit	-11505
▁suburb	-11506
▁syring	-11507
▁tennis	-11508
▁trauma	-11509
▁wasted	-11510
▁weighs	-11511
controll	-11512
elligent	-11513
ithmetic	-11514
▁Georgia	-11515
▁Katrina	-11516
▁Nairobi	-11517
▁Supreme	-11518
▁Tamiflu	-11519
▁Windows	-11520
▁abalone	-11521
▁affairs	-11522
▁altered	-11523
▁bankers	-11524
▁beaches	-11525
▁cardiac	-11526
▁compact	-11527
▁compute	-11528
▁deficit	-11529
▁drought	-11530
▁folding	-11531
▁greatly	-11532
▁heights	-11533
▁injured	-11534
▁jumping	-11535
▁logging	-11536
▁magnets	-11537
▁mineral	-11538
▁planted	-11539
▁polymer	-11540
▁posture	-11541
▁recipes	-11542
▁refined	-11543
▁relates	-11544
▁shaking	-11545
▁spirits	-11546
▁swallow	-11547
▁thermal	-11548
▁torture	-11549
▁trapped	-11550
▁warfare	-11551
▁whoever	-11552
▁wonders	-11553
achusetts	-11554
ependence	-11555
▁Carnegie	-11556
▁Collider	-11557
▁Stirling	-11558
▁TEDTalks	-11559
▁Williams	-11560
▁Zimbabwe	-11561
▁actively	-11562
▁activist	-11563
▁altruism	-11564
▁assembly	-11565
▁atheists	-11566
▁autistic	-11567
▁civilian	-11568
▁cleaning	-11569
▁compound	-11570
▁constitu	-11571
▁crawling	-11572
▁criteria	-11573
▁cylinder	-11574
▁defining	-11575
▁disabled	-11576
▁division	-11577
▁happiest	-11578
▁improvis	-11579
▁intimate	-11580
▁misunder	-11581
▁overhead	-11582
▁passions	-11583
▁patience	-11584
▁persuade	-11585
▁portable	-11586
▁producer	-11587
▁protocol	-11588
▁pursuing	-11589
▁rotating	-11590
▁sketches	-11591
▁stewards	-11592
▁supernov	-11593
▁supports	-11594
▁tropical	-11595
▁unemploy	-11596
▁uniquely	-11597
▁vacation	-11598
▁visiting	-11599
angiogenic	-11600
ifications	-11601
▁Amsterdam	-11602
▁Darwinian	-11603
▁appearing	-11604
▁decentral	-11605
▁detectors	-11606
▁disorders	-11607
▁finishing	-11608
▁gratitude	-11609
▁immensely	-11610
▁interfere	-11611
▁kilometer	-11612
▁marijuana	-11613
▁observing	-11614
▁officials	-11615
▁principal	-11616
▁recovered	-11617
▁relevance	-11618
▁reporting	-11619
▁resilient	-11620
▁returning	-11621
▁satisfied	-11622
▁sequenced	-11623
▁strangers	-11624
▁submarine	-11625
▁synthesis	-11626
▁voluntary	-11627
▁wandering	-11628
▁Absolutely	-11629
▁Especially	-11630
▁Industrial	-11631
▁centimeter	-11632
▁delivering	-11633
▁footprints	-11634
▁frequently	-11635
▁friendship	-11636
▁indication	-11637
▁inherently	-11638
▁inventions	-11639
▁invitation	-11640
▁playground	-11641
▁regulation	-11642
▁responding	-11643
▁systematic	-11644
▁terrorists	-11645
▁Netherlands	-11646
▁automobiles	-11647
▁controversy	-11648
▁countryside	-11649
▁devastating	-11650
▁distinction	-11651
▁flexibility	-11652
▁meaningless	-11653
▁negotiating	-11654
▁negotiation	-11655
▁perceptions	-11656
▁problematic	-11657
▁rainforests	-11658
▁spontaneous	-11659
▁storyteller	-11660
▁synesthesia	-11661
▁understands	-11662
▁grandparents	-11663
▁intersection	-11664
▁intervention	-11665
▁nevertheless	-11666
▁prescription	-11667
▁Interestingly	-11668
▁authoritarian	-11669
▁biotechnology	-11670
▁configuration	-11671
▁corresponding	-11672
▁exponentially	-11673
▁investigation	-11674
▁participating	-11675
▁industrialized	-11676
▁bioluminescence	-11677
Ar	-11678
HO	-11679
Hi	-11680
ju	-11681
600	-11682
800	-11683
Day	-11684
adp	-11685
aid	-11686
arn	-11687
eyn	-11688
isy	-11689
non	-11690
ols	-11691
omy	-11692
oof	-11693
oux	-11694
pen	-11695
run	-11696
you	-11697
▁34	-11698
▁47	-11699
▁Ba	-11700
▁DG	-11701
▁DP	-11702
▁Ju	-11703
▁MA	-11704
▁NM	-11705
▁Sk	-11706
▁TS	-11707
▁VC	-11708
▁Wr	-11709
Good	-11710
amen	-11711
arks	-11712
bles	-11713
brow	-11714
bule	-11715
ched	-11716
flow	-11717
ften	-11718
hall	-11719
hany	-11720
igan	-11721
iper	-11722
leum	-11723
lied	-11724
mine	-11725
nest	-11726
onto	-11727
race	-11728
rane	-11729
text	-11730
thal	-11731
uled	-11732
▁140	-11733
▁160	-11734
▁50-	-11735
▁Ach	-11736
▁Cat	-11737
▁Hot	-11738
▁Ill	-11739
▁Imp	-11740
▁Isa	-11741
▁LHC	-11742
▁Las	-11743
▁Map	-11744
▁Mot	-11745
▁Rel	-11746
▁Ric	-11747
▁Rou	-11748
▁Sty	-11749
▁Wil	-11750
▁agn	-11751
▁blo	-11752
▁dys	-11753
▁owe	-11754
▁zoo	-11755
Point	-11756
abyte	-11757
acent	-11758
arded	-11759
aware	-11760
eenth	-11761
elect	-11762
ensed	-11763
ergio	-11764
essim	-11765
icell	-11766
ilibr	-11767
ilson	-11768
izona	-11769
lical	-11770
olith	-11771
oping	-11772
ordon	-11773
oster	-11774
ouses	-11775
ravel	-11776
roots	-11777
uster	-11778
▁Dick	-11779
▁Jews	-11780
▁Marg	-11781
▁Marx	-11782
▁Mola	-11783
▁Pass	-11784
▁Real	-11785
▁Sadd	-11786
▁Side	-11787
▁Such	-11788
▁Sudh	-11789
▁alar	-11790
▁bass	-11791
▁bats	-11792
▁bias	-11793
▁boot	-11794
▁bowl	-11795
▁bron	-11796
▁budd	-11797
▁cage	-11798
▁conj	-11799
▁esca	-11800
▁fate	-11801
▁feas	-11802
▁flap	-11803
▁gaze	-11804
▁lege	-11805
▁lure	-11806
▁mama	-11807
▁padd	-11808
▁pron	-11809
▁semi	-11810
▁suey	-11811
▁tadp	-11812
▁thor	-11813
▁tips	-11814
▁ware	-11815
▁worm	-11816
boards	-11817
charge	-11818
ouched	-11819
rocess	-11820
social	-11821
ulates	-11822
▁2020.	-11823
▁8,000	-11824
▁Benki	-11825
▁DARPA	-11826
▁Emily	-11827
▁Exact	-11828
▁Freud	-11829
▁Intel	-11830
▁Leban	-11831
▁Often	-11832
▁Roots	-11833
▁Royal	-11834
▁Short	-11835
▁Sioux	-11836
▁Techn	-11837
▁Treat	-11838
▁Vegas	-11839
▁armed	-11840
▁asset	-11841
▁awake	-11842
▁backs	-11843
▁baker	-11844
▁beans	-11845
▁bonus	-11846
▁booms	-11847
▁boots	-11848
▁brows	-11849
▁cares	-11850
▁chord	-11851
▁dealt	-11852
▁dimin	-11853
▁doses	-11854
▁eager	-11855
▁escal	-11856
▁faint	-11857
▁gifts	-11858
▁halls	-11859
▁icons	-11860
▁lakes	-11861
▁lever	-11862
▁parag	-11863
▁piles	-11864
▁pneum	-11865
▁rigid	-11866
▁riots	-11867
▁slave	-11868
▁slept	-11869
▁slice	-11870
▁snake	-11871
▁sober	-11872
▁spine	-11873
▁stair	-11874
▁swing	-11875
▁tread	-11876
▁twent	-11877
▁unity	-11878
▁vocal	-11879
▁withd	-11880
frontal	-11881
growing	-11882
ocratic	-11883
raining	-11884
▁Commun	-11885
▁Easter	-11886
▁Energy	-11887
▁Engine	-11888
▁Gordon	-11889
▁Greece	-11890
▁Jersey	-11891
▁Ladies	-11892
▁Marine	-11893
▁Mozart	-11894
▁Nathan	-11895
▁Public	-11896
▁Sergio	-11897
▁Shoots	-11898
▁Sobule	-11899
▁Venter	-11900
▁Wilson	-11901
▁Zipcar	-11902
▁admire	-11903
▁aerial	-11904
▁banned	-11905
▁biases	-11906
▁bounce	-11907
▁cellul	-11908
▁cement	-11909
▁coined	-11910
▁contam	-11911
▁county	-11912
▁depart	-11913
▁digits	-11914
▁enters	-11915
▁enzyme	-11916
▁filmed	-11917
▁fungus	-11918
▁guitar	-11919
▁handed	-11920
▁insign	-11921
▁intest	-11922
▁intric	-11923
▁loaded	-11924
▁losses	-11925
▁louder	-11926
▁malign	-11927
▁pessim	-11928
▁purely	-11929
▁ration	-11930
▁salary	-11931
▁singer	-11932
▁speeds	-11933
▁underp	-11934
▁undert	-11935
▁unlock	-11936
▁viewed	-11937
▁viewer	-11938
attering	-11939
culation	-11940
ilibrium	-11941
▁Arizona	-11942
▁Command	-11943
▁Similar	-11944
▁Stories	-11945
▁Suppose	-11946
▁Swedish	-11947
▁TEDster	-11948
▁Toronto	-11949
▁Turkish	-11950
▁algebra	-11951
▁anytime	-11952
▁appoint	-11953
▁chronic	-11954
▁clarity	-11955
▁commons	-11956
▁copying	-11957
▁desires	-11958
▁enzymes	-11959
▁forgive	-11960
▁genomes	-11961
▁holiday	-11962
▁matches	-11963
▁morally	-11964
▁peanuts	-11965
▁prevail	-11966
▁prisons	-11967
▁recycle	-11968
▁rockets	-11969
▁romance	-11970
▁sadness	-11971
▁seasons	-11972
▁shelves	-11973
▁skilled	-11974
▁stadium	-11975
▁stagger	-11976
▁strikes	-11977
▁tagging	-11978
▁thirdly	-11979
▁thunder	-11980
▁triumph	-11981
▁volumes	-11982
▁wounded	-11983
condition	-11984
▁Moreover	-11985
▁abnormal	-11986
▁accuracy	-11987
▁calendar	-11988
▁contents	-11989
▁democrat	-11990
▁displays	-11991
▁duration	-11992
▁employee	-11993
▁habitats	-11994
▁immortal	-11995
▁impaired	-11996
▁informal	-11997
▁inviting	-11998
▁literary	-11999
▁managing	-12000
▁maneuver	-12001
▁memorial	-12002
▁modified	-12003
▁mutation	-12004
▁observed	-12005
▁optimize	-12006
▁periodic	-12007
▁priority	-12008
▁reflects	-12009
▁rejected	-12010
▁resident	-12011
▁roommate	-12012
▁stunning	-12013
▁sympathy	-12014
▁talented	-12015
▁weekends	-12016
▁Argentina	-12017
▁Armstrong	-12018
▁Brazilian	-12019
▁Himalayas	-12020
▁achieving	-12021
▁addiction	-12022
▁afterward	-12023
▁asteroids	-12024
▁attracted	-12025
▁billboard	-12026
▁blindness	-12027
▁carbonate	-12028
▁distorted	-12029
▁educating	-12030
▁fertility	-12031
▁fisheries	-12032
▁heartbeat	-12033
▁ignorance	-12034
▁integrate	-12035
▁metabolic	-12036
▁petroleum	-12037
▁promising	-12038
▁replacing	-12039
▁simulated	-12040
▁stretched	-12041
▁struggled	-12042
▁Mathematic	-12043
▁Vietnamese	-12044
▁attributes	-12045
▁beneficial	-12046
▁calculated	-12047
▁capacities	-12048
▁celebrated	-12049
▁comparable	-12050
▁compressed	-12051
▁diagnostic	-12052
▁disruptive	-12053
▁distribute	-12054
▁exceptions	-12055
▁incomplete	-12056
▁infectious	-12057
▁infinitely	-12058
▁innovators	-12059
▁interfaces	-12060
▁propaganda	-12061
▁prosthetic	-12062
▁quantities	-12063
▁Development	-12064
▁accompanied	-12065
▁collaborate	-12066
▁commercials	-12067
▁convergence	-12068
▁desperately	-12069
▁discussions	-12070
▁emotionally	-12071
▁equilibrium	-12072
▁preventable	-12073
▁programmers	-12074
▁remembering	-12075
▁suggestions	-12076
▁transmitted	-12077
▁availability	-12078
▁demonstrated	-12079
▁disconnected	-12080
▁incidentally	-12081
▁interviewing	-12082
▁observations	-12083
▁supermassive	-12084
▁Massachusetts	-12085
▁comprehensive	-12086
▁philosophical	-12087
▁antiangiogenic	-12088
▁characteristic	-12089
▁scientifically	-12090
.5	-12091
To	-12092
ba	-12093
ji	-12094
ni	-12095
HIN	-12096
abs	-12097
bie	-12098
ctr	-12099
ecd	-12100
ira	-12101
las	-12102
lav	-12103
mia	-12104
oqu	-12105
urp	-12106
vae	-12107
vin	-12108
whe	-12109
▁DJ	-12110
▁UN	-12111
adel	-12112
anzi	-12113
apot	-12114
arse	-12115
aven	-12116
carb	-12117
cils	-12118
cult	-12119
enza	-12120
eron	-12121
hops	-12122
ippi	-12123
isen	-12124
mann	-12125
olia	-12126
opes	-12127
opsy	-12128
phia	-12129
phor	-12130
rats	-12131
star	-12132
tion	-12133
ucky	-12134
urdy	-12135
wart	-12136
warz	-12137
yrus	-12138
▁14-	-12139
▁180	-12140
▁186	-12141
▁187	-12142
▁189	-12143
▁24-	-12144
▁Ask	-12145
▁Bat	-12146
▁Est	-12147
▁Fed	-12148
▁Han	-12149
▁Hem	-12150
▁IMF	-12151
▁Lyn	-12152
▁Mid	-12153
▁Pen	-12154
▁Pra	-12155
▁Sin	-12156
▁Ult	-12157
▁caf	-12158
▁cod	-12159
▁fer	-12160
▁fra	-12161
▁gur	-12162
▁gym	-12163
▁hal	-12164
▁kit	-12165
▁mim	-12166
▁obe	-12167
▁ray	-12168
▁sap	-12169
▁vit	-12170
▁woo	-12171
ancer	-12172
ccoli	-12173
eches	-12174
ettes	-12175
ieval	-12176
iraff	-12177
occup	-12178
ripts	-12179
rovir	-12180
ucked	-12181
ymmet	-12182
▁Bird	-12183
▁Conf	-12184
▁Desp	-12185
▁Fall	-12186
▁IDEO	-12187
▁Mall	-12188
▁Mind	-12189
▁Peru	-12190
▁Pink	-12191
▁Show	-12192
▁Snow	-12193
▁Sold	-12194
▁Stat	-12195
▁Stay	-12196
▁Type	-12197
▁Virt	-12198
▁apoc	-12199
▁appe	-12200
▁beet	-12201
▁bent	-12202
▁bulk	-12203
▁buzz	-12204
▁dome	-12205
▁eats	-12206
▁godd	-12207
▁hamb	-12208
▁heel	-12209
▁jury	-12210
▁keen	-12211
▁lava	-12212
▁mash	-12213
▁narc	-12214
▁outl	-12215
▁owns	-12216
▁rear	-12217
▁reun	-12218
▁rode	-12219
▁seiz	-12220
▁swam	-12221
▁toll	-12222
▁trap	-12223
▁unin	-12224
abytes	-12225
consum	-12226
epherd	-12227
inates	-12228
istant	-12229
master	-12230
resses	-12231
rogram	-12232
rowing	-12233
uclear	-12234
uctive	-12235
▁1990,	-12236
▁2000.	-12237
▁Beach	-12238
▁Going	-12239
▁Grace	-12240
▁Leone	-12241
▁Molas	-12242
▁Nolly	-12243
▁Paulo	-12244
▁Point	-12245
▁Radio	-12246
▁Roger	-12247
▁Rouge	-12248
▁Saint	-12249
▁Tower	-12250
▁Truth	-12251
▁Whole	-12252
▁album	-12253
▁anecd	-12254
▁ceram	-12255
▁deleg	-12256
▁draws	-12257
▁fleet	-12258
▁flock	-12259
▁hears	-12260
▁illum	-12261
▁impat	-12262
▁index	-12263
▁inert	-12264
▁knees	-12265
▁mimic	-12266
▁newly	-12267
▁nodes	-12268
▁pizza	-12269
▁poets	-12270
▁repet	-12271
▁royal	-12272
▁ruins	-12273
▁scope	-12274
▁scuba	-12275
▁snaps	-12276
▁strat	-12277
▁traff	-12278
▁unint	-12279
▁wages	-12280
▁wrest	-12281
Because	-12282
agement	-12283
ception	-12284
istance	-12285
lements	-12286
ometers	-12287
ortical	-12288
quarium	-12289
sharing	-12290
ulative	-12291
▁Andrew	-12292
▁Cancer	-12293
▁Desert	-12294
▁Empire	-12295
▁Kansas	-12296
▁Luther	-12297
▁Maslow	-12298
▁Murray	-12299
▁Norman	-12300
▁Office	-12301
▁Sudhir	-12302
▁Yellow	-12303
▁asthma	-12304
▁bloody	-12305
▁cables	-12306
▁chimps	-12307
▁contag	-12308
▁cooler	-12309
▁crowds	-12310
▁entity	-12311
▁ethics	-12312
▁exceed	-12313
▁frames	-12314
▁inputs	-12315
▁larvae	-12316
▁laying	-12317
▁libert	-12318
▁melted	-12319
▁microp	-12320
▁mouths	-12321
▁potent	-12322
▁presum	-12323
▁prosec	-12324
▁queens	-12325
▁respir	-12326
▁rupees	-12327
▁slogan	-12328
▁steady	-12329
▁towers	-12330
▁unexpl	-12331
▁voters	-12332
adelphia	-12333
chemical	-12334
ountered	-12335
pectives	-12336
▁Exactly	-12337
▁Kingdom	-12338
▁Langley	-12339
▁Schwarz	-12340
▁Service	-12341
▁apprent	-12342
▁auction	-12343
▁blocked	-12344
▁cabinet	-12345
▁capsule	-12346
▁categor	-12347
▁complim	-12348
▁cookies	-12349
▁crushed	-12350
▁denomin	-12351
▁dragged	-12352
▁earning	-12353
▁editing	-12354
▁fathers	-12355
▁filters	-12356
▁invaded	-12357
▁mentors	-12358
▁migrate	-12359
▁modeled	-12360
▁needles	-12361
▁nucleus	-12362
▁partial	-12363
▁priorit	-12364
▁proport	-12365
▁reduces	-12366
▁regimes	-12367
▁restric	-12368
▁seafood	-12369
▁settled	-12370
▁tightly	-12371
▁tourist	-12372
▁viewing	-12373
istically	-12374
▁Anything	-12375
▁Consider	-12376
▁Hospital	-12377
▁Lawrence	-12378
▁Margaret	-12379
▁Marshall	-12380
▁Pentagon	-12381
▁Scottish	-12382
▁acoustic	-12383
▁ancestry	-12384
▁assigned	-12385
▁astrolab	-12386
▁colonial	-12387
▁conceive	-12388
▁consists	-12389
▁contacts	-12390
▁delicate	-12391
▁depended	-12392
▁employed	-12393
▁gigantic	-12394
▁glorious	-12395
▁infinity	-12396
▁infrared	-12397
▁kilogram	-12398
▁marathon	-12399
▁noticing	-12400
▁paradise	-12401
▁rainfall	-12402
▁redefine	-12403
▁referred	-12404
▁releases	-12405
▁sacrific	-12406
▁schedule	-12407
▁searches	-12408
▁sessions	-12409
▁squatter	-12410
▁starving	-12411
▁Biosphere	-12412
▁Certainly	-12413
▁Mountains	-12414
▁Nollywood	-12415
▁academics	-12416
▁cigarette	-12417
▁committee	-12418
▁container	-12419
▁criticism	-12420
▁declining	-12421
▁diffusion	-12422
▁directors	-12423
▁displaced	-12424
▁elevation	-12425
▁eradicate	-12426
▁execution	-12427
▁exquisite	-12428
▁extending	-12429
▁fishermen	-12430
▁galleries	-12431
▁imitation	-12432
▁injection	-12433
▁installed	-12434
▁interrupt	-12435
▁intersect	-12436
▁inventors	-12437
▁isolation	-12438
▁lightning	-12439
▁microbial	-12440
▁mutations	-12441
▁nightmare	-12442
▁obsession	-12443
▁similarly	-12444
▁strengths	-12445
▁submitted	-12446
▁successes	-12447
▁survivors	-12448
▁volcanoes	-12449
▁Copernicus	-12450
▁PowerPoint	-12451
▁accurately	-12452
▁appliances	-12453
▁arithmetic	-12454
▁assessment	-12455
▁auditorium	-12456
▁basketball	-12457
▁beekeepers	-12458
▁casualties	-12459
▁compromise	-12460
▁conspiracy	-12461
▁documented	-12462
▁grassroots	-12463
▁guidelines	-12464
▁harvesting	-12465
▁journalism	-12466
▁millimeter	-12467
▁reflective	-12468
▁replicator	-12469
▁sanitation	-12470
▁staggering	-12471
▁supportive	-12472
▁Information	-12473
▁appreciated	-12474
▁aspirations	-12475
▁conclusions	-12476
▁disciplines	-12477
▁distinctive	-12478
▁encountered	-12479
▁financially	-12480
▁maintaining	-12481
▁projections	-12482
▁scaffolding	-12483
▁willingness	-12484
▁Philadelphia	-12485
▁partnerships	-12486
▁subconscious	-12487
▁surroundings	-12488
▁appropriately	-12489
▁breakthroughs	-12490
▁conservatives	-12491
▁consideration	-12492
▁decentralized	-12493
▁deforestation	-12494
▁manifestation	-12495
▁presentations	-12496
▁schizophrenia	-12497
▁nanotechnology	-12498
▁representative	-12499
":	-12500
SP	-12501
gu	-12502
ECD	-12503
Not	-12504
aka	-12505
any	-12506
apy	-12507
boy	-12508
cia	-12509
gue	-12510
hib	-12511
isa	-12512
kel	-12513
lla	-12514
mor	-12515
obe	-12516
ogs	-12517
ona	-12518
two	-12519
umm	-12520
▁44	-12521
▁57	-12522
▁97	-12523
▁Av	-12524
▁KS	-12525
▁MP	-12526
▁Sl	-12527
▁TD	-12528
▁ZK	-12529
ahum	-12530
aken	-12531
amas	-12532
avil	-12533
bury	-12534
eman	-12535
iatr	-12536
imee	-12537
imit	-12538
inas	-12539
inea	-12540
izzy	-12541
ndip	-12542
rame	-12543
rock	-12544
rosh	-12545
rust	-12546
shah	-12547
shot	-12548
spec	-12549
step	-12550
them	-12551
wall	-12552
week	-12553
with	-12554
▁15,	-12555
▁80-	-12556
▁Abu	-12557
▁Alh	-12558
▁Ast	-12559
▁CNN	-12560
▁Cou	-12561
▁Cut	-12562
▁Dra	-12563
▁Hus	-12564
▁Les	-12565
▁Naz	-12566
▁Nev	-12567
▁Oil	-12568
▁Top	-12569
▁WHO	-12570
▁cyn	-12571
▁fee	-12572
▁hoo	-12573
▁piv	-12574
▁ply	-12575
▁quo	-12576
▁spa	-12577
▁ups	-12578
▁zip	-12579
These	-12580
adequ	-12581
akery	-12582
ambia	-12583
amous	-12584
anium	-12585
artes	-12586
ashes	-12587
bolic	-12588
brain	-12589
edron	-12590
ennes	-12591
fight	-12592
gered	-12593
green	-12594
icism	-12595
icken	-12596
idity	-12597
iolet	-12598
itage	-12599
opath	-12600
opoly	-12601
osion	-12602
rator	-12603
rison	-12604
sight	-12605
uated	-12606
umann	-12607
write	-12608
▁1800	-12609
▁2008	-12610
▁Ages	-12611
▁Andy	-12612
▁Avel	-12613
▁Bono	-12614
▁Bret	-12615
▁Chap	-12616
▁Dave	-12617
▁Khan	-12618
▁LIGO	-12619
▁Left	-12620
▁Lind	-12621
▁Lots	-12622
▁Mong	-12623
▁OECD	-12624
▁Poll	-12625
▁Rift	-12626
▁USDA	-12627
▁Wild	-12628
▁Word	-12629
▁aura	-12630
▁bond	-12631
▁curt	-12632
▁deny	-12633
▁ecst	-12634
▁encl	-12635
▁exit	-12636
▁fees	-12637
▁fidd	-12638
▁ghar	-12639
▁glow	-12640
▁gosh	-12641
▁haul	-12642
▁hike	-12643
▁hipp	-12644
▁lamb	-12645
▁leak	-12646
▁magg	-12647
▁muff	-12648
▁node	-12649
▁obso	-12650
▁pies	-12651
▁rept	-12652
▁rhin	-12653
▁swar	-12654
▁sync	-12655
▁taxi	-12656
▁tofu	-12657
▁torn	-12658
▁unve	-12659
▁utop	-12660
▁wage	-12661
change	-12662
haired	-12663
icular	-12664
igator	-12665
igrade	-12666
incere	-12667
intend	-12668
irable	-12669
levant	-12670
ndered	-12671
oulder	-12672
puters	-12673
replic	-12674
ricane	-12675
thesis	-12676
urance	-12677
vasive	-12678
▁9/11,	-12679
▁Allen	-12680
▁Beaut	-12681
▁Bruce	-12682
▁Bruno	-12683
▁Cheet	-12684
▁Chief	-12685
▁Costa	-12686
▁Doesn	-12687
▁Dubai	-12688
▁Eames	-12689
▁Happy	-12690
▁Jacqu	-12691
▁Linux	-12692
▁Magaz	-12693
▁Satan	-12694
▁Skype	-12695
▁Stand	-12696
▁Ushah	-12697
▁alike	-12698
▁appet	-12699
▁arena	-12700
▁arose	-12701
▁arter	-12702
▁bands	-12703
▁beast	-12704
▁blobs	-12705
▁carbs	-12706
▁cobra	-12707
▁divor	-12708
▁drama	-12709
▁erupt	-12710
▁flags	-12711
▁fount	-12712
▁goats	-12713
▁grave	-12714
▁gyrus	-12715
▁hurry	-12716
▁masks	-12717
▁meets	-12718
▁moons	-12719
▁noble	-12720
▁occas	-12721
▁orang	-12722
▁parab	-12723
▁races	-12724
▁recip	-12725
▁roles	-12726
▁sanct	-12727
▁slate	-12728
▁souls	-12729
▁steer	-12730
▁tails	-12731
▁tense	-12732
▁tenth	-12733
▁tiger	-12734
▁towel	-12735
▁wives	-12736
ahumara	-12737
centric	-12738
fulness	-12739
healthy	-12740
issippi	-12741
ivation	-12742
ularity	-12743
▁Apollo	-12744
▁Arabia	-12745
▁Bonobo	-12746
▁Garden	-12747
▁Greeks	-12748
▁Hubble	-12749
▁Humans	-12750
▁Listen	-12751
▁Rachel	-12752
▁Recent	-12753
▁Spring	-12754
▁Tennes	-12755
▁Toyota	-12756
▁Walter	-12757
▁Wonder	-12758
▁Yorker	-12759
▁allies	-12760
▁bronze	-12761
▁brutal	-12762
▁carrot	-12763
▁compat	-12764
▁cooked	-12765
▁corrid	-12766
▁courts	-12767
▁curved	-12768
▁dancer	-12769
▁fibers	-12770
▁firmly	-12771
▁giraff	-12772
▁guards	-12773
▁heroic	-12774
▁invade	-12775
▁issued	-12776
▁legisl	-12777
▁lining	-12778
▁meadow	-12779
▁payoff	-12780
▁pollut	-12781
▁poured	-12782
▁prejud	-12783
▁prints	-12784
▁rebell	-12785
▁redund	-12786
▁refers	-12787
▁regret	-12788
▁rented	-12789
▁retros	-12790
▁rooted	-12791
▁scaled	-12792
▁spines	-12793
▁starch	-12794
▁theirs	-12795
▁throws	-12796
▁timber	-12797
▁treaty	-12798
▁truths	-12799
▁twenty	-12800
▁update	-12801
▁varied	-12802
▁ventil	-12803
▁writes	-12804
ceptable	-12805
ceptible	-12806
novation	-12807
otherapy	-12808
specific	-12809
▁250,000	-12810
▁Amazing	-12811
▁Climate	-12812
▁Company	-12813
▁Digital	-12814
▁Hawking	-12815
▁Israeli	-12816
▁Liberia	-12817
▁Perfect	-12818
▁Working	-12819
▁abandon	-12820
▁anatomy	-12821
▁breasts	-12822
▁broadly	-12823
▁captain	-12824
▁cleaner	-12825
▁contest	-12826
▁defines	-12827
▁deserts	-12828
▁discrim	-12829
▁easiest	-12830
▁evident	-12831
▁examine	-12832
▁explode	-12833
▁extends	-12834
▁flatten	-12835
▁gharial	-12836
▁grasses	-12837
▁inadequ	-12838
▁marries	-12839
▁onstage	-12840
▁patents	-12841
▁pathway	-12842
▁payment	-12843
▁relaxed	-12844
▁resolve	-12845
▁secular	-12846
▁singers	-12847
▁slowing	-12848
▁sponsor	-12849
▁strains	-12850
▁summary	-12851
▁tickets	-12852
▁toilets	-12853
▁tracked	-12854
▁unified	-12855
▁violate	-12856
▁volcano	-12857
effective	-12858
generated	-12859
nutrition	-12860
roportion	-12861
▁Building	-12862
▁Guardian	-12863
▁Medicine	-12864
▁Movement	-12865
▁Portugal	-12866
▁absorbed	-12867
▁accommod	-12868
▁acquired	-12869
▁backpack	-12870
▁daylight	-12871
▁develops	-12872
▁dominate	-12873
▁donation	-12874
▁doubling	-12875
▁dreaming	-12876
▁drilling	-12877
▁embraced	-12878
▁entitled	-12879
▁epiphany	-12880
▁fairness	-12881
▁forehead	-12882
▁highways	-12883
▁holistic	-12884
▁insecure	-12885
▁literacy	-12886
▁murdered	-12887
▁obtained	-12888
▁peripher	-12889
▁prospect	-12890
▁regulate	-12891
▁resolved	-12892
▁sediment	-12893
▁siblings	-12894
▁stealing	-12895
industrial	-12896
resolution	-12897
▁Excellent	-12898
▁Holocaust	-12899
▁Tennessee	-12900
▁ambulance	-12901
▁arbitrary	-12902
▁blueprint	-12903
▁bookstore	-12904
▁collapses	-12905
▁contribut	-12906
▁disasters	-12907
▁embracing	-12908
▁explorers	-12909
▁offspring	-12910
▁penetrate	-12911
▁physician	-12912
▁pneumonia	-12913
▁precision	-12914
▁psychiatr	-12915
▁qualified	-12916
▁relatives	-12917
▁southwest	-12918
▁stimulate	-12919
▁supernova	-12920
▁sustained	-12921
▁universes	-12922
▁Tarahumara	-12923
▁acceptable	-12924
▁accidental	-12925
▁adaptation	-12926
▁adolescent	-12927
▁aesthetics	-12928
▁antibodies	-12929
▁biomimicry	-12930
▁conducting	-12931
▁developers	-12932
▁imperative	-12933
▁insignific	-12934
▁meditation	-12935
▁occupation	-12936
▁orchestras	-12937
▁outrageous	-12938
▁perceptual	-12939
▁physiology	-12940
▁sequencing	-12941
▁suspicious	-12942
▁Independent	-12943
▁Mississippi	-12944
▁accountable	-12945
▁association	-12946
▁coincidence	-12947
▁extinctions	-12948
▁functioning	-12949
▁imaginative	-12950
▁implication	-12951
▁incremental	-12952
▁permanently	-12953
▁publication	-12954
▁respiratory	-12955
▁technicians	-12956
▁announcement	-12957
▁arrangements	-12958
▁astronomical	-12959
▁collaborator	-12960
▁differential	-12961
▁illustration	-12962
▁individually	-12963
▁laboratories	-12964
▁metaphorical	-12965
▁negotiations	-12966
▁philosophers	-12967
▁pigmentation	-12968
▁presidential	-12969
▁regenerative	-12970
▁unimaginable	-12971
▁collaborators	-12972
47	-12973
ER	-12974
Mr	-12975
OD	-12976
Of	-12977
uf	-12978
vo	-12979
▁&	-12980
Get	-12981
aic	-12982
api	-12983
asa	-12984
bee	-12985
bot	-12986
chw	-12987
cir	-12988
eid	-12989
eur	-12990
fat	-12991
gel	-12992
ila	-12993
lan	-12994
sis	-12995
vao	-12996
▁1:	-12997
▁31	-12998
▁CB	-12999
▁CT	-13000
▁Cr	-13001
▁HA	-13002
▁UV	-13003
▁Ze	-13004
▁uh	-13005
arin	-13006
arts	-13007
asis	-13008
asso	-13009
bell	-13010
emon	-13011
enet	-13012
home	-13013
iche	-13014
icut	-13015
iler	-13016
itty	-13017
lder	-13018
mart	-13019
math	-13020
onte	-13021
oris	-13022
oved	-13023
pora	-13024
prot	-13025
rise	-13026
urbs	-13027
velt	-13028
▁1.2	-13029
▁110	-13030
▁16-	-13031
▁18,	-13032
▁188	-13033
▁Bed	-13034
▁Bil	-13035
▁Bow	-13036
▁Bud	-13037
▁CDs	-13038
▁CIA	-13039
▁Cir	-13040
▁Cub	-13041
▁Dip	-13042
▁End	-13043
▁Gap	-13044
▁Hud	-13045
▁Ide	-13046
▁Mem	-13047
▁Muh	-13048
▁Ram	-13049
▁Rec	-13050
▁Viv	-13051
▁Von	-13052
▁abd	-13053
▁avo	-13054
▁bot	-13055
▁dug	-13056
▁dye	-13057
▁haz	-13058
▁mit	-13059
▁mun	-13060
▁nun	-13061
▁pad	-13062
▁sel	-13063
▁wax	-13064
Hello	-13065
annel	-13066
asant	-13067
atson	-13068
built	-13069
catch	-13070
cular	-13071
eling	-13072
ester	-13073
fting	-13074
graph	-13075
idesp	-13076
month	-13077
ogens	-13078
ordan	-13079
oshop	-13080
osoph	-13081
rable	-13082
regon	-13083
shirt	-13084
uates	-13085
uguay	-13086
ulent	-13087
▁2006	-13088
▁Ball	-13089
▁Best	-13090
▁Brig	-13091
▁Case	-13092
▁Club	-13093
▁Cond	-13094
▁Core	-13095
▁Cuba	-13096
▁Deep	-13097
▁Diam	-13098
▁Eden	-13099
▁Fast	-13100
▁Feyn	-13101
▁Grey	-13102
▁Hero	-13103
▁Jean	-13104
▁Land	-13105
▁Lead	-13106
▁Less	-13107
▁Palm	-13108
▁Rena	-13109
▁Rush	-13110
▁Sand	-13111
▁Sift	-13112
▁True	-13113
▁adul	-13114
▁aged	-13115
▁asph	-13116
▁bail	-13117
▁buys	-13118
▁cane	-13119
▁carc	-13120
▁cher	-13121
▁eman	-13122
▁fame	-13123
▁filt	-13124
▁folk	-13125
▁glut	-13126
▁gour	-13127
▁guid	-13128
▁hydr	-13129
▁iter	-13130
▁moms	-13131
▁moss	-13132
▁pear	-13133
▁pest	-13134
▁pets	-13135
▁pose	-13136
▁slam	-13137
▁smug	-13138
▁sush	-13139
▁tops	-13140
▁traw	-13141
▁veil	-13142
▁wipe	-13143
Listen	-13144
engers	-13145
giving	-13146
idding	-13147
imated	-13148
imitri	-13149
ivores	-13150
legged	-13151
matics	-13152
nesota	-13153
racies	-13154
ranean	-13155
ueling	-13156
unteer	-13157
urated	-13158
▁1960,	-13159
▁1994,	-13160
▁1995,	-13161
▁2,500	-13162
▁Clear	-13163
▁Diana	-13164
▁Domin	-13165
▁Dougl	-13166
▁Early	-13167
▁Fifty	-13168
▁GPHIN	-13169
▁Hindu	-13170
▁Iraqi	-13171
▁Isaac	-13172
▁Kanzi	-13173
▁Khmer	-13174
▁Laure	-13175
▁Oprah	-13176
▁Roose	-13177
▁Serge	-13178
▁Susan	-13179
▁Susie	-13180
▁Trust	-13181
▁Wired	-13182
▁angel	-13183
▁banjo	-13184
▁bikes	-13185
▁carve	-13186
▁centr	-13187
▁cheer	-13188
▁coach	-13189
▁discl	-13190
▁exerc	-13191
▁fatty	-13192
▁flame	-13193
▁handy	-13194
▁landf	-13195
▁lifel	-13196
▁livel	-13197
▁lobes	-13198
▁lover	-13199
▁mites	-13200
▁olive	-13201
▁overf	-13202
▁paths	-13203
▁poles	-13204
▁rever	-13205
▁rolls	-13206
▁ruled	-13207
▁scand	-13208
▁spear	-13209
▁stink	-13210
▁tales	-13211
▁trait	-13212
▁tuber	-13213
▁vents	-13214
▁volat	-13215
▁volts	-13216
▁zeros	-13217
appropr	-13218
artheid	-13219
carbons	-13220
culosis	-13221
rasound	-13222
▁Barbie	-13223
▁Better	-13224
▁Colomb	-13225
▁Excuse	-13226
▁Galvao	-13227
▁Jordan	-13228
▁Miller	-13229
▁Ninety	-13230
▁Oregon	-13231
▁Ronald	-13232
▁Saddam	-13233
▁Unlike	-13234
▁Viking	-13235
▁Watson	-13236
▁Wouldn	-13237
▁artery	-13238
▁brakes	-13239
▁carved	-13240
▁dispos	-13241
▁dumped	-13242
▁elites	-13243
▁empire	-13244
▁fishes	-13245
▁gently	-13246
▁graphs	-13247
▁hijack	-13248
▁hugely	-13249
▁humble	-13250
▁intend	-13251
▁joyful	-13252
▁manure	-13253
▁marshm	-13254
▁melody	-13255
▁messed	-13256
▁metric	-13257
▁microw	-13258
▁optics	-13259
▁parked	-13260
▁petals	-13261
▁pissed	-13262
▁plural	-13263
▁polite	-13264
▁primal	-13265
▁prizes	-13266
▁prompt	-13267
▁quotes	-13268
▁racing	-13269
▁refine	-13270
▁reflex	-13271
▁render	-13272
▁resort	-13273
▁retrof	-13274
▁snails	-13275
▁spinal	-13276
▁stated	-13277
▁statue	-13278
▁stigma	-13279
▁taller	-13280
▁tastes	-13281
▁testim	-13282
▁thrust	-13283
▁triple	-13284
▁turtle	-13285
▁unfair	-13286
▁vastly	-13287
▁wallet	-13288
▁washed	-13289
▁widesp	-13290
▁wiring	-13291
ospheric	-13292
▁Already	-13293
▁Chicken	-13294
▁Despite	-13295
▁Dimitri	-13296
▁Feynman	-13297
▁Justice	-13298
▁Lebanon	-13299
▁Mermaid	-13300
▁Neither	-13301
▁Siberia	-13302
▁Stewart	-13303
▁Uruguay	-13304
▁Virtual	-13305
▁apparat	-13306
▁assumed	-13307
▁atheist	-13308
▁bladder	-13309
▁careers	-13310
▁charged	-13311
▁chemist	-13312
▁compost	-13313
▁crowded	-13314
▁derived	-13315
▁donated	-13316
▁enforce	-13317
▁escaped	-13318
▁expands	-13319
▁focuses	-13320
▁forcing	-13321
▁founder	-13322
▁humming	-13323
▁inspect	-13324
▁maggots	-13325
▁masters	-13326
▁missile	-13327
▁monster	-13328
▁novelty	-13329
▁oneself	-13330
▁overlap	-13331
▁plywood	-13332
▁popping	-13333
▁posters	-13334
▁prayers	-13335
▁quietly	-13336
▁reclaim	-13337
▁reinfor	-13338
▁ringing	-13339
▁sapiens	-13340
▁scanned	-13341
▁seminal	-13342
▁sensual	-13343
▁shadows	-13344
▁shipped	-13345
▁sterile	-13346
▁subsequ	-13347
▁surveys	-13348
▁ticking	-13349
ographing	-13350
organized	-13351
▁Achilles	-13352
▁Arkansas	-13353
▁Magazine	-13354
▁Scotland	-13355
▁Superman	-13356
▁Ushahidi	-13357
▁addicted	-13358
▁agnostic	-13359
▁bloggers	-13360
▁bothered	-13361
▁broccoli	-13362
▁captures	-13363
▁chapters	-13364
▁contexts	-13365
▁creators	-13366
▁credible	-13367
▁declared	-13368
▁delusion	-13369
▁detected	-13370
▁diagnose	-13371
▁discount	-13372
▁emergent	-13373
▁emission	-13374
▁enabling	-13375
▁energies	-13376
▁feminine	-13377
▁friction	-13378
▁geniuses	-13379
▁goodness	-13380
▁guidance	-13381
▁headache	-13382
▁horrific	-13383
▁idealism	-13384
▁lifespan	-13385
▁matching	-13386
▁maternal	-13387
▁midnight	-13388
▁moisture	-13389
▁momentum	-13390
▁monsters	-13391
▁notebook	-13392
▁numerous	-13393
▁obsolete	-13394
▁orbiting	-13395
▁passport	-13396
▁plastics	-13397
▁policing	-13398
▁preoccup	-13399
▁pressing	-13400
▁province	-13401
▁quantity	-13402
▁realizes	-13403
▁relieved	-13404
▁remotely	-13405
▁reporter	-13406
▁resonate	-13407
▁richness	-13408
▁sensible	-13409
▁serendip	-13410
▁strictly	-13411
▁stripped	-13412
▁stumbled	-13413
▁switches	-13414
▁symphony	-13415
▁tectonic	-13416
▁tortured	-13417
▁troubled	-13418
▁unstable	-13419
▁weakness	-13420
generation	-13421
▁Minnesota	-13422
▁Pakistani	-13423
▁Roosevelt	-13424
▁Similarly	-13425
▁alongside	-13426
▁analyzing	-13427
▁apologize	-13428
▁assistant	-13429
▁attempted	-13430
▁automatic	-13431
▁belonging	-13432
▁continuum	-13433
▁cosmology	-13434
▁countless	-13435
▁cultivate	-13436
▁databases	-13437
▁demanding	-13438
▁evaporate	-13439
▁followers	-13440
▁geometric	-13441
▁hostility	-13442
▁imaginary	-13443
▁instincts	-13444
▁ministers	-13445
▁northeast	-13446
▁orphanage	-13447
▁pigmented	-13448
▁preferred	-13449
▁pregnancy	-13450
▁publisher	-13451
▁receiving	-13452
▁respected	-13453
▁responded	-13454
▁roughness	-13455
▁selective	-13456
▁slaughter	-13457
▁stabilize	-13458
▁strangely	-13459
▁subsidies	-13460
▁summarize	-13461
▁unhealthy	-13462
▁variables	-13463
▁waterfall	-13464
▁workshops	-13465
▁Incredible	-13466
▁acceptance	-13467
▁advantages	-13468
▁announcing	-13469
▁beginnings	-13470
▁brilliance	-13471
▁capitalist	-13472
▁cartoonist	-13473
▁cigarettes	-13474
▁conception	-13475
▁confronted	-13476
▁coordinate	-13477
▁depressing	-13478
▁downstairs	-13479
▁employment	-13480
▁expressive	-13481
▁foreground	-13482
▁fulfilling	-13483
▁geographic	-13484
▁geological	-13485
▁homosexual	-13486
▁intuitions	-13487
▁liberation	-13488
▁measurable	-13489
▁motorcycle	-13490
▁obligation	-13491
▁pesticides	-13492
▁programmed	-13493
▁registered	-13494
▁repeatedly	-13495
▁revelation	-13496
▁specialize	-13497
▁stimulated	-13498
▁subjective	-13499
▁supposedly	-13500
▁temptation	-13501
▁widespread	-13502
▁Connecticut	-13503
▁abstraction	-13504
▁astronomers	-13505
▁blogosphere	-13506
▁calculation	-13507
▁calculators	-13508
▁circulation	-13509
▁citizenship	-13510
▁contemplate	-13511
▁denominator	-13512
▁documenting	-13513
▁expeditions	-13514
▁flourishing	-13515
▁inefficient	-13516
▁intentional	-13517
▁introducing	-13518
▁involvement	-13519
▁lightweight	-13520
▁researching	-13521
▁revolutions	-13522
▁Commandments	-13523
▁accumulation	-13524
▁anthropology	-13525
▁constitution	-13526
▁deliberately	-13527
▁hydrocarbons	-13528
▁malnutrition	-13529
▁unacceptable	-13530
▁Environmental	-13531
▁characterized	-13532
▁disproportion	-13533
▁intrinsically	-13534
▁manufacturers	-13535
▁proliferation	-13536
▁unsustainable	-13537
▁concentrations	-13538
▁mathematically	-13539
AC	-13540
Bs	-13541
PL	-13542
sa	-13543
?'"	-13544
May	-13545
alo	-13546
bad	-13547
bet	-13548
bly	-13549
ean	-13550
fig	-13551
ieu	-13552
igs	-13553
ika	-13554
imi	-13555
inf	-13556
inn	-13557
lem	-13558
mah	-13559
ogy	-13560
oug	-13561
pit	-13562
ppy	-13563
sen	-13564
sim	-13565
tic	-13566
ulu	-13567
una	-13568
urf	-13569
▁3,	-13570
▁49	-13571
▁AG	-13572
▁Ax	-13573
▁BC	-13574
▁CL	-13575
▁Da	-13576
▁ED	-13577
▁IT	-13578
▁MM	-13579
▁RH	-13580
▁Uh	-13581
▁Wy	-13582
▁eu	-13583
▁zo	-13584
Stop	-13585
Your	-13586
airy	-13587
aism	-13588
atan	-13589
atis	-13590
axis	-13591
bery	-13592
bral	-13593
cats	-13594
coll	-13595
door	-13596
flix	-13597
gath	-13598
geon	-13599
gill	-13600
held	-13601
kill	-13602
lene	-13603
peer	-13604
prof	-13605
pson	-13606
real	-13607
requ	-13608
reya	-13609
scen	-13610
sein	-13611
sens	-13612
ssip	-13613
tese	-13614
that	-13615
then	-13616
ulin	-13617
unky	-13618
viol	-13619
▁'30	-13620
▁12-	-13621
▁16,	-13622
▁170	-13623
▁203	-13624
▁99.	-13625
▁Att	-13626
▁Beh	-13627
▁Buy	-13628
▁Cre	-13629
▁Dec	-13630
▁Dur	-13631
▁Fil	-13632
▁Fur	-13633
▁Leo	-13634
▁MBI	-13635
▁Max	-13636
▁Mut	-13637
▁Sol	-13638
▁Sri	-13639
▁Tai	-13640
▁Ter	-13641
▁Tso	-13642
▁Wis	-13643
▁cav	-13644
▁chk	-13645
▁fis	-13646
▁lex	-13647
▁luc	-13648
▁mol	-13649
▁ove	-13650
▁rab	-13651
▁umb	-13652
▁unb	-13653
,000.	-13654
Afric	-13655
antor	-13656
arith	-13657
awatt	-13658
belts	-13659
cerpt	-13660
count	-13661
erget	-13662
ffiti	-13663
group	-13664
iages	-13665
icion	-13666
igers	-13667
ipper	-13668
irrel	-13669
isure	-13670
matic	-13671
munic	-13672
named	-13673
onics	-13674
onomy	-13675
orial	-13676
rodes	-13677
swana	-13678
unter	-13679
watch	-13680
wheel	-13681
years	-13682
ysics	-13683
▁"...	-13684
▁Astr	-13685
▁Call	-13686
▁Dead	-13687
▁Harr	-13688
▁Joey	-13689
▁LEDs	-13690
▁Lapt	-13691
▁Maur	-13692
▁Near	-13693
▁Path	-13694
▁Read	-13695
▁Terr	-13696
▁Troy	-13697
▁UCLA	-13698
▁Whoa	-13699
▁Wood	-13700
▁alle	-13701
▁auto	-13702
▁beds	-13703
▁blob	-13704
▁brow	-13705
▁cafe	-13706
▁cens	-13707
▁clog	-13708
▁cram	-13709
▁drip	-13710
▁duck	-13711
▁ease	-13712
▁fins	-13713
▁gait	-13714
▁germ	-13715
▁hind	-13716
▁inex	-13717
▁jets	-13718
▁kite	-13719
▁mega	-13720
▁orth	-13721
▁puff	-13722
▁retr	-13723
▁silk	-13724
▁skys	-13725
▁sque	-13726
▁stir	-13727
▁watt	-13728
acious	-13729
aluate	-13730
angled	-13731
iathan	-13732
ilbert	-13733
luence	-13734
manuel	-13735
orable	-13736
schild	-13737
ustice	-13738
violet	-13739
▁1998,	-13740
▁2008.	-13741
▁7,000	-13742
▁Ahmed	-13743
▁Aimee	-13744
▁Allah	-13745
▁Femin	-13746
▁Galax	-13747
▁Hyper	-13748
▁Labor	-13749
▁Lagos	-13750
▁Quite	-13751
▁Ready	-13752
▁Robot	-13753
▁Sadly	-13754
▁Starb	-13755
▁Thula	-13756
▁Using	-13757
▁adequ	-13758
▁adhes	-13759
▁beats	-13760
▁blend	-13761
▁boost	-13762
▁booth	-13763
▁chess	-13764
▁crawl	-13765
▁crown	-13766
▁cyber	-13767
▁deriv	-13768
▁disse	-13769
▁doctr	-13770
▁downs	-13771
▁draft	-13772
▁drank	-13773
▁empir	-13774
▁erase	-13775
▁essay	-13776
▁fired	-13777
▁focal	-13778
▁gears	-13779
▁goose	-13780
▁grape	-13781
▁helix	-13782
▁hyena	-13783
▁lifts	-13784
▁loops	-13785
▁lousy	-13786
▁modes	-13787
▁nests	-13788
▁pants	-13789
▁posed	-13790
▁preca	-13791
▁proto	-13792
▁puppy	-13793
▁reuse	-13794
▁rises	-13795
▁scare	-13796
▁skies	-13797
▁skins	-13798
▁sneak	-13799
▁soils	-13800
▁spike	-13801
▁stagn	-13802
▁stole	-13803
▁sunny	-13804
▁sushi	-13805
▁swamp	-13806
▁therm	-13807
▁token	-13808
▁treas	-13809
▁unlim	-13810
▁vapor	-13811
▁verge	-13812
▁wield	-13813
▁wreck	-13814
aitreya	-13815
amation	-13816
ameless	-13817
avilion	-13818
chester	-13819
ererana	-13820
irlwind	-13821
lection	-13822
ocation	-13823
ologues	-13824
orative	-13825
uctions	-13826
▁35,000	-13827
▁Agency	-13828
▁Associ	-13829
▁Browne	-13830
▁Danish	-13831
▁Diplom	-13832
▁Doctor	-13833
▁Either	-13834
▁Harlem	-13835
▁Herbie	-13836
▁Hillis	-13837
▁Hudson	-13838
▁Invest	-13839
▁Johnny	-13840
▁Julian	-13841
▁Kenyan	-13842
▁League	-13843
▁Market	-13844
▁Nevada	-13845
▁Oliver	-13846
▁Senate	-13847
▁Taiwan	-13848
▁WorldW	-13849
▁abused	-13850
▁aiming	-13851
▁archae	-13852
▁banker	-13853
▁bitter	-13854
▁bumble	-13855
▁cleans	-13856
▁cloned	-13857
▁defect	-13858
▁drinks	-13859
▁drople	-13860
▁edited	-13861
▁embark	-13862
▁fierce	-13863
▁flames	-13864
▁flutes	-13865
▁folder	-13866
▁fooled	-13867
▁foster	-13868
▁gossip	-13869
▁hambur	-13870
▁heated	-13871
▁improb	-13872
▁indoor	-13873
▁inward	-13874
▁jacket	-13875
▁lasted	-13876
▁lastly	-13877
▁learns	-13878
▁makeup	-13879
▁metals	-13880
▁nuclei	-13881
▁obsess	-13882
▁pixels	-13883
▁poorly	-13884
▁prohib	-13885
▁pushes	-13886
▁quarks	-13887
▁raises	-13888
▁ranges	-13889
▁recurs	-13890
▁rushed	-13891
▁selves	-13892
▁sequel	-13893
▁serial	-13894
▁spores	-13895
▁spouse	-13896
▁stocks	-13897
▁strips	-13898
▁strive	-13899
▁sweats	-13900
▁taxpay	-13901
▁teapot	-13902
▁termin	-13903
▁throat	-13904
▁trunks	-13905
▁viscer	-13906
arithmic	-13907
breaking	-13908
function	-13909
ictional	-13910
iscovery	-13911
▁Between	-13912
▁Clearly	-13913
▁Enlight	-13914
▁Getting	-13915
▁Hundred	-13916
▁Hussein	-13917
▁Judaism	-13918
▁Maltese	-13919
▁Mediter	-13920
▁Neander	-13921
▁Netflix	-13922
▁Neumann	-13923
▁accused	-13924
▁apocaly	-13925
▁athlete	-13926
▁charism	-13927
▁collide	-13928
▁conform	-13929
▁council	-13930
▁diffuse	-13931
▁dispute	-13932
▁editors	-13933
▁energet	-13934
▁epidemi	-13935
▁erosion	-13936
▁exports	-13937
▁eyebrow	-13938
▁fellows	-13939
▁fireman	-13940
▁hallway	-13941
▁heavens	-13942
▁honesty	-13943
▁iceberg	-13944
▁imposed	-13945
▁intimid	-13946
▁joining	-13947
▁justify	-13948
▁lasting	-13949
▁leisure	-13950
▁liberty	-13951
▁mocking	-13952
▁obscure	-13953
▁optimal	-13954
▁packing	-13955
▁portray	-13956
▁reactor	-13957
▁recipro	-13958
▁rehabil	-13959
▁sailing	-13960
▁sincere	-13961
▁strokes	-13962
▁suburbs	-13963
▁surfing	-13964
▁threads	-13965
▁unravel	-13966
▁uranium	-13967
▁urgency	-13968
▁victory	-13969
▁visuals	-13970
▁volunte	-13971
▁wasting	-13972
▁worries	-13973
astically	-13974
icultural	-13975
▁Botswana	-13976
▁Brigades	-13977
▁Ministry	-13978
▁Recently	-13979
▁adjacent	-13980
▁advocate	-13981
▁amateurs	-13982
▁annoying	-13983
▁applause	-13984
▁assuming	-13985
▁balances	-13986
▁believer	-13987
▁centered	-13988
▁cerebral	-13989
▁ceremony	-13990
▁clapping	-13991
▁currents	-13992
▁cymatics	-13993
▁deconstr	-13994
▁diplomat	-13995
▁disposal	-13996
▁dividing	-13997
▁dreadful	-13998
▁episodes	-13999
▁findings	-14000
▁flooding	-14001
▁frequent	-14002
▁handsome	-14003
▁ideology	-14004
▁immunity	-14005
▁imprison	-14006
▁laughter	-14007
▁liberals	-14008
▁mosquito	-14009
▁mutually	-14010
▁occupied	-14011
▁pathways	-14012
▁primates	-14013
▁reconcil	-14014
▁rhinovir	-14015
▁shepherd	-14016
▁shouting	-14017
▁sideways	-14018
▁speeches	-14019
▁suburbia	-14020
▁suitcase	-14021
▁thorough	-14022
▁tolerant	-14023
▁vascular	-14024
technology	-14025
▁Hungarian	-14026
▁Riverside	-14027
▁Starbucks	-14028
▁Volunteer	-14029
▁apparatus	-14030
▁assembled	-14031
▁attribute	-14032
▁boyfriend	-14033
▁byproduct	-14034
▁campaigns	-14035
▁cathedral	-14036
▁certified	-14037
▁cockroach	-14038
▁cooperate	-14039
▁crocodile	-14040
▁delighted	-14041
▁dictators	-14042
▁discussed	-14043
▁exclusive	-14044
▁executive	-14045
▁exhausted	-14046
▁generator	-14047
▁headaches	-14048
▁historian	-14049
▁imperfect	-14050
▁inclusive	-14051
▁inherited	-14052
▁intensely	-14053
▁intervene	-14054
▁mainframe	-14055
▁marriages	-14056
▁memorable	-14057
▁motivates	-14058
▁pervasive	-14059
▁pleasures	-14060
▁poisoning	-14061
▁populated	-14062
▁predatory	-14063
▁reconnect	-14064
▁schooling	-14065
▁twentieth	-14066
▁unlimited	-14067
▁unrelated	-14068
▁viewpoint	-14069
▁villagers	-14070
▁warehouse	-14071
▁Depression	-14072
▁adventures	-14073
▁articulate	-14074
▁calculator	-14075
▁clinically	-14076
▁containers	-14077
▁customized	-14078
▁disgusting	-14079
▁electrodes	-14080
▁explosions	-14081
▁inadequate	-14082
▁irrelevant	-14083
▁limitation	-14084
▁livelihood	-14085
▁pedestrian	-14086
▁pioneering	-14087
▁positively	-14088
▁practition	-14089
▁rediscover	-14090
▁references	-14091
▁relational	-14092
▁settlement	-14093
▁starvation	-14094
governmental	-14095
organization	-14096
▁Mathematica	-14097
▁Philippines	-14098
▁arrangement	-14099
▁competitors	-14100
▁complaining	-14101
▁degradation	-14102
▁deprivation	-14103
▁desperation	-14104
▁interrupted	-14105
▁logarithmic	-14106
▁preferences	-14107
▁progressive	-14108
▁reinventing	-14109
▁stimulation	-14110
▁susceptible	-14111
▁ultraviolet	-14112
▁Conservation	-14113
▁acceleration	-14114
▁achievements	-14115
▁combinations	-14116
▁demographics	-14117
▁difficulties	-14118
▁entertaining	-14119
▁enthusiastic	-14120
▁exploitation	-14121
▁interconnect	-14122
▁interference	-14123
▁microprocess	-14124
▁perspectives	-14125
▁prostitution	-14126
▁quantitative	-14127
▁tuberculosis	-14128
▁Mediterranean	-14129
▁Schwarzschild	-14130
▁establishment	-14131
▁functionality	-14132
▁improvisation	-14133
▁instinctively	-14134
▁traditionally	-14135
▁undergraduate	-14136
▁administrators	-14137
▁anthropologist	-14138
▁identification	-14139
▁specialization	-14140
-3	-14141
AA	-14142
An	-14143
Bl	-14144
EG	-14145
Ma	-14146
Ms	-14147
ZE	-14148
▁#	-14149
Aid	-14150
Man	-14151
adv	-14152
ahs	-14153
ais	-14154
alm	-14155
aug	-14156
bao	-14157
chi	-14158
cre	-14159
enz	-14160
gbo	-14161
hry	-14162
ige	-14163
iro	-14164
iry	-14165
ito	-14166
lit	-14167
los	-14168
oam	-14169
pol	-14170
rot	-14171
ths	-14172
ulg	-14173
uri	-14174
utu	-14175
▁73	-14176
▁8.	-14177
▁96	-14178
▁AL	-14179
▁AR	-14180
▁Aw	-14181
▁BL	-14182
▁Di	-14183
▁EC	-14184
▁Ep	-14185
▁JC	-14186
▁Mt	-14187
▁Mu	-14188
▁Ny	-14189
▁TB	-14190
▁ov	-14191
Give	-14192
Have	-14193
Just	-14194
Life	-14195
RIZE	-14196
Wait	-14197
aeda	-14198
anas	-14199
aron	-14200
ashy	-14201
assy	-14202
athe	-14203
atre	-14204
aved	-14205
boat	-14206
code	-14207
eera	-14208
eren	-14209
fers	-14210
fran	-14211
fund	-14212
high	-14213
hire	-14214
igin	-14215
igms	-14216
ihil	-14217
iked	-14218
imal	-14219
insp	-14220
itha	-14221
kers	-14222
mala	-14223
mics	-14224
nell	-14225
nels	-14226
obic	-14227
rist	-14228
rost	-14229
stop	-14230
town	-14231
ugos	-14232
umbs	-14233
unal	-14234
wear	-14235
ylan	-14236
▁14,	-14237
▁ABC	-14238
▁Ash	-14239
▁Aus	-14240
▁BBC	-14241
▁Bah	-14242
▁Cru	-14243
▁DDT	-14244
▁Der	-14245
▁Dod	-14246
▁Edu	-14247
▁Fox	-14248
▁Gar	-14249
▁Hop	-14250
▁Neg	-14251
▁Pic	-14252
▁Ple	-14253
▁Rag	-14254
▁Rod	-14255
▁Rus	-14256
▁Sao	-14257
▁Sit	-14258
▁Spl	-14259
▁UFO	-14260
▁Wed	-14261
▁aph	-14262
▁bib	-14263
▁bol	-14264
▁kin	-14265
▁lag	-14266
▁nug	-14267
▁pee	-14268
▁por	-14269
▁rum	-14270
▁sof	-14271
▁vig	-14272
5,000	-14273
Maybe	-14274
World	-14275
abama	-14276
acity	-14277
ambra	-14278
ammad	-14279
apses	-14280
ardon	-14281
avage	-14282
creat	-14283
etary	-14284
first	-14285
iatur	-14286
ilage	-14287
integ	-14288
ishes	-14289
lance	-14290
marin	-14291
mines	-14292
ocene	-14293
ockef	-14294
opran	-14295
ottom	-14296
pical	-14297
stood	-14298
story	-14299
tenth	-14300
uffle	-14301
unned	-14302
unted	-14303
wired	-14304
▁...]	-14305
▁1940	-14306
▁2002	-14307
▁2020	-14308
▁Arts	-14309
▁Bali	-14310
▁Balk	-14311
▁Beat	-14312
▁Buck	-14313
▁Cook	-14314
▁Corn	-14315
▁Furb	-14316
▁Hold	-14317
▁Holy	-14318
▁Home	-14319
▁Huge	-14320
▁Jama	-14321
▁Jenn	-14322
▁Lank	-14323
▁Lock	-14324
▁Nash	-14325
▁Navy	-14326
▁Need	-14327
▁Nine	-14328
▁Noah	-14329
▁Pear	-14330
▁Pope	-14331
▁RHex	-14332
▁Reed	-14333
▁Road	-14334
▁Sach	-14335
▁Sort	-14336
▁TEDx	-14337
▁Wide	-14338
▁abys	-14339
▁adap	-14340
▁arth	-14341
▁awak	-14342
▁bunk	-14343
▁calf	-14344
▁clap	-14345
▁cone	-14346
▁cray	-14347
▁cues	-14348
▁dung	-14349
▁dwar	-14350
▁fest	-14351
▁fond	-14352
▁fuse	-14353
▁grip	-14354
▁hect	-14355
▁herb	-14356
▁hood	-14357
▁hull	-14358
▁jeal	-14359
▁medi	-14360
▁obey	-14361
▁peek	-14362
▁pine	-14363
▁pore	-14364
▁preh	-14365
▁quiz	-14366
▁quot	-14367
▁rows	-14368
▁sabb	-14369
▁stap	-14370
▁sums	-14371
▁syll	-14372
▁trek	-14373
▁warn	-14374
aments	-14375
ancies	-14376
anting	-14377
astery	-14378
awning	-14379
azeera	-14380
belief	-14381
ellers	-14382
ennett	-14383
ennium	-14384
issors	-14385
istrib	-14386
itious	-14387
nesday	-14388
odynam	-14389
omatic	-14390
oscope	-14391
ougher	-14392
reedom	-14393
terior	-14394
uitive	-14395
ulence	-14396
ulsive	-14397
utches	-14398
verbal	-14399
yrinth	-14400
ysical	-14401
▁1997,	-14402
▁2002,	-14403
▁2010,	-14404
▁2015,	-14405
▁2050,	-14406
▁2050.	-14407
▁Actor	-14408
▁Among	-14409
▁Bever	-14410
▁Blair	-14411
▁Board	-14412
▁Brand	-14413
▁Choir	-14414
▁Clark	-14415
▁Corex	-14416
▁Cuban	-14417
▁Dylan	-14418
▁Exper	-14419
▁Gehry	-14420
▁Girls	-14421
▁Hands	-14422
▁Jamie	-14423
▁Magic	-14424
▁Miami	-14425
▁Natal	-14426
▁Norse	-14427
▁Vinci	-14428
▁Yugos	-14429
▁alpha	-14430
▁alter	-14431
▁astro	-14432
▁atroc	-14433
▁avian	-14434
▁binds	-14435
▁brink	-14436
▁briqu	-14437
▁clash	-14438
▁clues	-14439
▁coins	-14440
▁comed	-14441
▁comet	-14442
▁conve	-14443
▁cords	-14444
▁crabs	-14445
▁daddy	-14446
▁dates	-14447
▁drain	-14448
▁dried	-14449
▁etern	-14450
▁exams	-14451
▁excav	-14452
▁fring	-14453
▁gangs	-14454
▁gloom	-14455
▁grapp	-14456
▁hated	-14457
▁heels	-14458
▁hitch	-14459
▁incon	-14460
▁indul	-14461
▁juven	-14462
▁lawns	-14463
▁monks	-14464
▁noisy	-14465
▁notor	-14466
▁overd	-14467
▁palms	-14468
▁paran	-14469
▁perme	-14470
▁pipes	-14471
▁plumb	-14472
▁pools	-14473
▁poses	-14474
▁radar	-14475
▁rebel	-14476
▁regul	-14477
▁resid	-14478
▁seize	-14479
▁semen	-14480
▁swine	-14481
▁sword	-14482
▁synag	-14483
▁vague	-14484
▁verte	-14485
▁wears	-14486
centure	-14487
comfort	-14488
discipl	-14489
eastern	-14490
entions	-14491
ifiable	-14492
retches	-14493
species	-14494
ulously	-14495
walking	-14496
▁70,000	-14497
▁Avenue	-14498
▁Batman	-14499
▁Bilbao	-14500
▁Bonnet	-14501
▁Bosnia	-14502
▁Cooper	-14503
▁Father	-14504
▁Graham	-14505
▁Laptop	-14506
▁Nation	-14507
▁Rights	-14508
▁Rockef	-14509
▁Studio	-14510
▁Though	-14511
▁Zambia	-14512
▁acquis	-14513
▁agrees	-14514
▁backed	-14515
▁bakery	-14516
▁banana	-14517
▁basics	-14518
▁brainw	-14519
▁chunks	-14520
▁closes	-14521
▁closet	-14522
▁consol	-14523
▁contra	-14524
▁costly	-14525
▁dances	-14526
▁defeat	-14527
▁dining	-14528
▁disson	-14529
▁facult	-14530
▁fluids	-14531
▁forbid	-14532
▁galvan	-14533
▁gloves	-14534
▁guests	-14535
▁insult	-14536
▁judges	-14537
▁knives	-14538
▁legend	-14539
▁locals	-14540
▁marked	-14541
▁metast	-14542
▁nerves	-14543
▁newest	-14544
▁novels	-14545
▁peanut	-14546
▁phases	-14547
▁praise	-14548
▁propos	-14549
▁provin	-14550
▁racism	-14551
▁reluct	-14552
▁retain	-14553
▁retina	-14554
▁ripped	-14555
▁roller	-14556
▁ruined	-14557
▁server	-14558
▁sevent	-14559
▁shores	-14560
▁skiing	-14561
▁sorrow	-14562
▁splend	-14563
▁starve	-14564
▁sugars	-14565
▁tasted	-14566
▁tender	-14567
▁thesis	-14568
▁titled	-14569
▁trance	-14570
▁transc	-14571
▁transm	-14572
▁uncles	-14573
▁vector	-14574
▁wished	-14575
appiness	-14576
▁500,000	-14577
▁Alabama	-14578
▁Alexand	-14579
▁Balkans	-14580
▁Believe	-14581
▁Cameron	-14582
▁Chariot	-14583
▁Douglas	-14584
▁Eduardo	-14585
▁Extreme	-14586
▁Medical	-14587
▁Orchest	-14588
▁Program	-14589
▁Reserve	-14590
▁Russell	-14591
▁advised	-14592
▁archive	-14593
▁assured	-14594
▁ballast	-14595
▁boiling	-14596
▁cafeter	-14597
▁calving	-14598
▁cheated	-14599
▁checked	-14600
▁chewing	-14601
▁cleaned	-14602
▁combust	-14603
▁commute	-14604
▁compose	-14605
▁conceiv	-14606
▁congest	-14607
▁congreg	-14608
▁critics	-14609
▁crystal	-14610
▁evolves	-14611
▁excerpt	-14612
▁exhilar	-14613
▁fitness	-14614
▁framing	-14615
▁genital	-14616
▁goodbye	-14617
▁grounds	-14618
▁hacking	-14619
▁harmful	-14620
▁inflate	-14621
▁inhabit	-14622
▁insulin	-14623
▁intoler	-14624
▁judging	-14625
▁knocked	-14626
▁lacking	-14627
▁lifting	-14628
▁loyalty	-14629
▁mandate	-14630
▁modular	-14631
▁mounted	-14632
▁municip	-14633
▁museums	-14634
▁oysters	-14635
▁pasting	-14636
▁pioneer	-14637
▁placebo	-14638
▁prophet	-14639
▁readily	-14640
▁retired	-14641
▁reveals	-14642
▁shaping	-14643
▁squeeze	-14644
▁stunned	-14645
▁superst	-14646
▁synapse	-14647
▁syringe	-14648
▁telecom	-14649
▁turtles	-14650
▁unthink	-14651
▁vibrant	-14652
▁vividly	-14653
▁winners	-14654
izational	-14655
protected	-14656
resistant	-14657
struction	-14658
▁Alhambra	-14659
▁Americas	-14660
▁Colorado	-14661
▁Computer	-14662
▁Diplomat	-14663
▁Emmanuel	-14664
▁Maitreya	-14665
▁Michigan	-14666
▁Mongolia	-14667
▁Muhammad	-14668
▁Redwoods	-14669
▁Students	-14670
▁Yugoslav	-14671
▁alarming	-14672
▁backward	-14673
▁bicycles	-14674
▁bleeding	-14675
▁blocking	-14676
▁coherent	-14677
▁colleges	-14678
▁commerce	-14679
▁composer	-14680
▁coumarin	-14681
▁dedicate	-14682
▁displace	-14683
▁dividend	-14684
▁downhill	-14685
▁dressing	-14686
▁emphasis	-14687
[...]
